{"<pad>":0,"<unk>":1,"<s>":2,"<\\s>":3,"!":4,"\"":5,"#":6,"$":7,"%":8,"&":9,"'":10,"(":11,")":12,"*":13,"+":14,",":15,"-":16,".":17,"/":18,"0":19,"1":20,"2":21,"3":22,"4":23,"5":24,"6":25,"7":26,"8":27,"9":28,":":29,";":30,"<":31,"=":32,">":33,"?":34,"@":35,"A":36,"B":37,"C":38,"D":39,"E":40,"F":41,"G":42,"H":43,"I":44,"J":45,"K":46,"L":47,"M":48,"N":49,"O":50,"P":51,"Q":52,"R":53,"S":54,"T":55,"U":56,"V":57,"W":58,"X":59,"Y":60,"Z":61,"[":62,"\\":63,"]":64,"^":65,"_":66,"`":67,"a":68,"b":69,"c":70,"d":71,"e":72,"f":73,"g":74,"h":75,"i":76,"j":77,"k":78,"l":79,"m":80,"n":81,"o":82,"p":83,"q":84,"r":85,"s":86,"t":87,"u":88,"v":89,"w":90,"x":91,"y":92,"z":93,"{":94,"|":95,"}":96,"~":97,"¡":98,"¢":99,"£":100,"¤":101,"¥":102,"¦":103,"§":104,"¨":105,"©":106,"ª":107,"«":108,"¬":109,"®":110,"¯":111,"°":112,"±":113,"²":114,"³":115,"´":116,"µ":117,"¶":118,"·":119,"¸":120,"¹":121,"º":122,"»":123,"¼":124,"½":125,"¾":126,"¿":127,"Â":128,"Ã":129,"Ä":130,"Å":131,"Æ":132,"Ç":133,"È":134,"É":135,"Ê":136,"Ë":137,"Í":138,"Î":139,"Ï":140,"Ð":141,"Ñ":142,"Ò":143,"Ó":144,"Ô":145,"Õ":146,"Ö":147,"×":148,"Ø":149,"Ù":150,"Ú":151,"Û":152,"Ü":153,"Ý":154,"Þ":155,"ß":156,"à":157,"á":158,"â":159,"ã":160,"ä":161,"å":162,"æ":163,"ç":164,"è":165,"é":166,"ê":167,"í":168,"î":169,"ï":170,"ð":171,"ñ":172,"ò":173,"ó":174,"ô":175,"ā":176,"Ă":177,"ă":178,"Ą":179,"ą":180,"Ć":181,"ć":182,"Ĉ":183,"ĉ":184,"Ċ":185,"Ď":186,"ď":187,"Đ":188,"đ":189,"Ē":190,"ē":191,"Ĕ":192,"ĕ":193,"Ė":194,"ė":195,"Ę":196,"ę":197,"Ě":198,"ě":199,"Ġ":200,"ġ":201,"Ģ":202,"ģ":203,"Ĥ":204,"ĥ":205,"Ħ":206,"ħ":207,"Ĩ":208,"ĩ":209,"Ī":210,"ī":211,"Ĭ":212,"ĭ":213,"Į":214,"į":215,"İ":216,"ı":217,"Ĳ":218,"ĳ":219,"Ĵ":220,"ĵ":221,"Ķ":222,"ķ":223,"ĸ":224,"Ĺ":225,"ĺ":226,"Ļ":227,"ļ":228,"Ľ":229,"ľ":230,"Ŀ":231,"ŀ":232,"Ł":233,"ł":234,"Ń":235,"Ġe":236,"Ġt":237,"Ġo":238,"Ġa":239,"Ġi":240,"Ġn":241,"Ġs":242,"Ġï":243,"Ġï¿":244,"Ġï¿½":245,"Ġr":246,"Ġh":247,"Ġl":248,"Ġd":249,"Ġu":250,"Ġc":251,"Ġm":252,"Ġy":253,"Ġg":254,"Ġw":255,"Ġf":256,"Ġp":257,"Ġb":258,"Ġk":259,"Ġv":260,"Ġ.":261,"ĠI":262,"Ġ'":263,"ĠĊ":264,"Ġ,":265,"ĠE":266,"ĠT":267,"ĠA":268,"ĠS":269,"ĠO":270,"ĠN":271,"ĠR":272,"ĠH":273,"ĠL":274,"ĠC":275,"ĠD":276,"Ġ0":277,"Ġx":278,"Ġj":279,"ĠM":280,"Ġ-":281,"ĠW":282,"ĠU":283,"ĠP":284,"ĠB":285,"ĠY":286,"ĠG":287,"Ġ>":288,"ĠF":289,"Ġ1":290,"Ġq":291,"Ġ2":292,"Ġz":293,"Ġ?":294,"ĠK":295,"Ġ5":296,"ĠV":297,"Ġ3":298,"ĠJ":299,"Ġ4":300,"Ġ(":301,"Ġ6":302,"Ġ:":303,"Ġ9":304,"Ġ)":305,"Ġ[":306,"Ġ8":307,"Ġ]":308,"Ġ7":309,"Ġ;":310,"Ġ\"":311,"Ġ$":312,"Ġġ":313,"Ġâ":314,"ĠĔ":315,"ĠQ":316,"ĠX":317,"Ġā":318,"Ġ@":319,"Ġ/":320,"Ġ_":321,"ĠĂ":322,"Ġ|":323,"Ġ%":324,"Ġ~":325,"ĠZ":326,"Ġą":327,"Ġ^":328,"Ġ!":329,"Ġ*":330,"Ġ=":331,"Ġď":332,"Ġć":333,"Ġă":334,"Ġ&":335,"ĠÂ":336,"Ġ#":337,"Ġ{":338,"Ġ}":339,"ĠĎ":340,"ĠĄ":341,"Ġě":342,"ĠĆ":343,"Ġ\\":344,"ĠĚ":345,"Ġ+":346,"ĠâĢ":347,"ĠĒ":348,"ĠĈ":349,"Ġē":350,"Ġ<":351,"ĠĘ":352,"Ġđ":353,"Ġę":354,"Ġĕ":355,"Ġ`":356,"ĠĐ":357,"ĠĖ":358,"Ġė":359,"ĠÂł":360,"ĠÎ":361,"ĠÏ":362,"ĠâĢĻ":363,"ĠÐ":364,"ĠÑ":365,"ĠÊ":366,"ĠÔ":367,"Ġ×":368,"ĠÚ":369,"ĠÆ":370,"Ġß":371,"ĠÕ":372,"ĠË":373,"ĠÉ":374,"ĠÝ":375,"ĠÒ":376,"Ġá":377,"ĠâĢĶ":378,"ĠÞ":379,"ĠÜ":380,"ĠÛ":381,"ĠâĻ":382,"ĠØ":383,"ĠâĻª":384,"ĠÙ":385,"ĠáĦ":386,"áħ":387,"ĠÓ":388,"áĨ":389,"ĠâĢľ":390,"ĠâĢĿ":391,"Ġà":392,"ĠÇ":393,"ĠÎ±":394,"ĠÎ¹":395,"Ġà¤":396,"ĠÎ¿":397,"ĠÈ":398,"ĠÃ":399,"ĠÎµ":400,"ĠÖ":401,"Ġä":402,"Ġã":403,"Ġæ":404,"Ġî":405,"Ġé":406,"Ġç":407,"Ġè":408,"Ġå":409,"ĠÎ½":410,"ĠÍ":411,"ĠÏĦ":412,"ĠÏħ":413,"Ġê":414,"ĠÅ":415,"ĠÄ":416,"ĠâĢĵ":417,"ĠÎ·":418,"ĠÏī":419,"ĠÏĤ":420,"ĠÏģ":421,"ĠÎº":422,"ĠÎ»":423,"ĠÎ¼":424,"ĠÏĥ":425,"ĠÏĢ":426,"ĠâĢĺ":427,"ĠÐ¸":428,"ĠÑĥ":429,"ĠâĢ¢":430,"ĠÐ£":431,"ĠÂ«":432,"ĠÐĺ":433,"ĠÐ¾":434,"ĠÐµ":435,"ĠÎ´":436,"áĩ":437,"ĠØ§":438,"ĠÂ»":439,"ĠÎ³":440,"Ġò":441,"Ġñ":442,"ĠâĢ¦":443,"ĠÐ°":444,"ĠÂ°":445,"Ġó":446,"ĠÐķ":447,"ĠÂ£":448,"Ġâĸ":449,"ĠÏĩ":450,"Ġð":451,"ĠÎĻ":452,"ĠÎ¥":453,"ĠÏĴ":454,"ĠÎŁ":455,"Ġâĸł":456,"ĠÐ¶":457,"ĠÐĲ":458,"ĠÂ¬":459,"ĠÃ¦":460,"ĠÃĨ":461,"ĠÐĸ":462,"ĠÐ·":463,"ĠáĦĨ":464,"ĠáĦĨáħ":465,"ĠÎ¸":466,"Ġà¤ķ":467,"ĠÃ¸":468,"ĠáĦĬ":469,"ĠáĦĬáħ":470,"ĠÏĨ":471,"ĠáĦħ":472,"ĠáĦħáħ":473,"ĠáĦģ":474,"ĠáĦģáħ":475,"ĠÎ©":476,"ĠÓ¨":477,"ĠÂ§":478,"ĠáĦĭ":479,"ĠáĦĭáħ":480,"ĠáĦĮ":481,"ĠáĦĮáħ":482,"ĠáĦĥ":483,"ĠáĦĥáħ":484,"ĠáĦĢ":485,"ĠáĦĢáħ":486,"ĠÃĺ":487,"ĠÑĩ":488,"ĠáĦį":489,"ĠáĦįáħ":490,"ĠáĦĳ":491,"ĠáĦĳáħ":492,"ĠÐº":493,"ĠáĦĩ":494,"ĠÎĳ":495,"ĠáĦĩáħ":496,"ĠÂĢ":497,"ĠáĦİ":498,"ĠáĦİáħ":499,"ĠáĦĴ":500,"ĠáĦĴáħ":501,"ĠáĦī":502,"ĠÎĹ":503,"ĠáĦīáħ":504,"ĠÂ·":505,"ĠÐŀ":506,"ĠÙĬ":507,"ĠÐ§":508,"ĠáĦĪ":509,"ĠáĦĪáħ":510,"ĠÑµ":511,"ĠÓ©":512,"Ġà¤°":513,"Ġ×º":514,"ĠÑĭ":515,"ĠÊĴ":516,"ĠÙĪ":517,"Ġ×²":518,"ĠáĦı":519,"ĠáĦıáħ":520,"ĠÐ«":521,"ĠÑ´":522,"ĠÛĴ":523,"ĠáĦĦ":524,"ĠáĦĦáħ":525,"ĠÂ©":526,"Ġ×·":527,"ĠÎķ":528,"ĠÛģ":529,"Ġ×¿":530,"ĠÑį":531,"ĠÛķ":532,"ĠÓ¡":533,"ĠÐĹ":534,"ĠáĦĲ":535,"ĠáĦĲáħ":536,"ĠÆ·":537,"ĠÐŃ":538,"ĠÓĺ":539,"ĠÐ³":540,"ĠÒ¿":541,"ĠÎ²":542,"ĠáĦĤ":543,"ĠáĦĤáħ":544,"ĠÊ¹":545,"ĠÇĩ":546,"ĠÓĻ":547,"ĠÐĵ":548,"¨áĨ":549,"ĠÓ·":550,"«áĨ":551,"ĠÂ¨":552,"³áĨ":553,"ĠÐļ":554,"ŃáĨ":555,"²áĨ":556,"©áĨ":557,"ĠÏĳ":558,"£áĨ":559,"Ġ×Ł":560,"¢áĨ":561,"¡áĨ":562,"ªáĨ":563,"§áĨ":564,"¯áĨ":565,"´áĨ":566,"Ġ×ı":567,"¦áĨ":568,"ĠÑĸ":569,"¬áĨ":570,"±áĨ":571,"¤áĨ":572,"¥áĨ":573,"µáĨ":574,"ĠÎ¾":575,"°áĨ":576,"ĠÐĨ":577,"ĠÑĤ":578,"®áĨ":579,"ĠÐ½":580,"ĠÏ´":581,"ĠÛ·":582,"Ġßı":583,"ĠÒĢ":584,"ĠÓ¿":585,"ĠÇ·":586,"ĠÏı":587,"ĠÑģ":588,"ĠÏŁ":589,"áĩĤ":590,"ĠÅ¿":591,"Ġà¤¨":592,"ĠÓı":593,"ĠÝ»":594,"ĠÝ¿":595,"ĠÃ·":596,"ĠÂ®":597,"ĠÆŁ":598,"ĠÝ§":599,"ĠÓº":600,"ĠÑĢ":601,"ĠÎĿ":602,"áĩģ":603,"ĠßĬ":604,"ĠÛ¯":605,"áĩĢ":606,"ĠÝ¯":607,"ĠÆ¿":608,"ĠÎ£":609,"ĠÂ¢":610,"ĠÛ»":611,"ĠÛı":612,"ĠÏĹ":613,"Ġß¿":614,"ĠßĤ":615,"ĠÜŁ":616,"ĠÐ¼":617,"ĠÐ»":618,"ĠÛ¿":619,"ĠÖĢ":620,"ĠÐ²":621,"ĠßŁ":622,"ĠÏ·":623,"ĠÎ§":624,"ĠÊĢ":625,"ĠÃŁ":626,"Ġßħ":627,"ĠÏ¾":628,"Ġ×Ķ":629,"ĠÜ¤":630,"ĠÚĢ":631,"ĠÛ´":632,"Ġà¤¸":633,"ĠÆĥ":634,"ĠÐ¨":635,"ĠÐ´":636,"ĠÏ¿":637,"ĠÚ¸":638,"ĠÛ¸":639,"ĠÒģ":640,"ĠÝº":641,"ĠÞĺ":642,"ĠÜľ":643,"ĠÝł":644,"Ġß§":645,"ĠÇ²":646,"ĠÝ·":647,"ĠÔ¤":648,"Ġ×İ":649,"ĠÎ¶":650,"ĠÞŁ":651,"ĠÐ¿":652,"ĠÙĦ":653,"ĠÚħ":654,"Ġßĩ":655,"ĠÝ©":656,"ĠÜĴ":657,"ĠÞĿ":658,"ĠÛ©":659,"ĠÜĿ":660,"Ġß»":661,"ĠÞĢ":662,"ĠÂ±":663,"ĠÙ³":664,"ĠÄ±":665,"ĠÏ§":666,"ĠÛİ":667,"ĠÞĽ":668,"ĠÔķ":669,"ĠÑ¯":670,"ĠÔŁ":671,"ĠÑ§":672,"Ġß·":673,"ĠÓİ":674,"Ġ×ķ":675,"ĠÇĤ":676,"ĠÝ¢":677,"ĠÏĪ":678,"ĠÛ¶":679,"ĠÎľ":680,"ĠÇĬ":681,"ĠÞĻ":682,"ĠÂŃ":683,"ĠÎŀ":684,"Ġ×ŀ":685,"ĠÜĵ":686,"ĠÝ¼":687,"Ġß½":688,"ĠÚĿ":689,"ĠÞ¤":690,"ĠÞľ":691,"ĠÑı":692,"ĠËı":693,"Ġßĳ":694,"ĠÞł":695,"ĠÉ·":696,"ĠÚ¤":697,"ĠÔ©":698,"ĠÔŃ":699,"Ġ×¯":700,"ĠÝª":701,"ĠÒĺ":702,"ĠÑ°":703,"ĠÖģ":704,"ĠÎĴ":705,"ĠÊĲ":706,"ĠÜ§":707,"ĠÜĽ":708,"ĠÑ¿":709,"ĠßĢ":710,"ĠÜĲ":711,"ĠÔĵ":712,"ĠÔ¨":713,"ĠÊĭ":714,"ĠØ±":715,"ĠÊĵ":716,"ĠÛµ":717,"ĠßĮ":718,"ĠÈ¤":719,"ĠÊģ":720,"ĠÚŁ":721,"ĠÝ´":722,"ĠÞ£":723,"Ġßī":724,"ĠË·":725,"ĠÔŀ":726,"ĠÞŀ":727,"ĠÊ·":728,"ĠÓĶ":729,"ĠÚĺ":730,"ĠÝı":731,"ĠÛ¹":732,"ĠÎł":733,"ĠÜŀ":734,"ĠÓĦ":735,"ĠÞ½":736,"ĠÂı":737,"ĠÜı":738,"ĠÜ¢":739,"ĠÓ¼":740,"Ġßģ":741,"ĠÞĲ":742,"ĠÎ¡":743,"ĠÔı":744,"ĠÈł":745,"ĠÈ·":746,"ĠÞģ":747,"ĠÔĿ":748,"ĠÏ¯":749,"ĠÆĿ":750,"ĠÆħ":751,"ĠÞ¢":752,"ĠÂµ":753,"ĠÔ§":754,"ĠÜł":755,"ĠÚģ":756,"ĠÑº":757,"ĠÒĲ":758,"ĠÝ¸":759,"ĠÓł":760,"ĠâĤ":761,"ĠÜ¦":762,"ĠÝ¡":763,"ĠÝİ":764,"ĠÛº":765,"ĠÂģ":766,"ĠÆ§":767,"Ġß¢":768,"ĠÕ¿":769,"ĠÑ»":770,"ĠÙ¯":771,"ĠÜĤ":772,"ĠÔ´":773,"ĠÝ£":774,"ĠÏļ":775,"Ġ×ļ":776,"ĠÛŀ":777,"ĠÆ©":778,"ĠÊĥ":779,"ĠÞĳ":780,"ĠØŁ":781,"Ġß´":782,"ĠÝ½":783,"ĠÆī":784,"ĠÜĺ":785,"ĠÒĴ":786,"ĠßĴ":787,"ĠÃ¾":788,"ĠÔ¦":789,"ĠÎļ":790,"ĠÏ¥":791,"Ġß¼":792,"ĠÔĴ":793,"ĠÆĩ":794,"ĠËŁ":795,"ĠÛĮ":796,"ĠØ¨":797,"ĠÙł":798,"Ġ×´":799,"ĠßĶ":800,"ĠÊĮ":801,"ĠÜĻ":802,"ĠÓ»":803,"ĠÏµ":804,"ĠÊĳ":805,"ĠÆ½":806,"Ġßķ":807,"ĠÂĲ":808,"ĠÔ¬":809,"Ġß¾":810,"ĠÂ¥":811,"Ġ×®":812,"ĠßĨ":813,"ĠØª":814,"ĠÑĮ":815,"ĠÜ£":816,"ĠÆª":817,"ĠÝ¨":818,"ĠÅĤ":819,"ĠÕµ":820,"ĠÝ¾":821,"Ġ×¾":822,"ĠÆŀ":823,"Ġß©":824,"ĠÔ®":825,"ĠÝ¤":826,"ĠÐĴ":827,"ĠÇ¶":828,"ĠÏ»":829,"ĠÆĢ":830,"ĠÔİ":831,"ĠÆļ":832,"ĠÚŀ":833,"ĠÚĽ":834,"ĠßĦ":835,"ĠÑ£":836,"ĠÚµ":837,"ĠÍº":838,"ĠÂĵ":839,"ĠÐ±":840,"ĠÚį":841,"ĠÖĲ":842,"ĠÆ¾":843,"ĠÎ¤":844,"Ġ×µ":845,"ĠÆ£":846,"ĠË´":847,"ĠÜĮ":848,"ĠÕ¼":849,"ĠÙħ":850,"Ġßª":851,"Ġßº":852,"ĠÜģ":853,"ĠÜļ":854,"ĠÐĿ":855,"ĠÂĥ":856,"ĠÔĢ":857,"ĠÎĥ":858,"ĠÉł":859,"Ġßİ":860,"ĠÓķ":861,"Ġ×§":862,"ĠÆľ":863,"ĠÒ´":864,"ĠÛ²":865,"ĠÞ¡":866,"ĠÏŃ":867,"Ġ×¶":868,"Ġ×¹":869,"ĠßĹ":870,"ĠÆº":871,"Ġß¹":872,"ĠË»":873,"ĠÍ¿":874,"ĠÔļ":875,"ĠßĽ":876,"ĠÙ§":877,"Ġßĵ":878,"ĠÃŀ":879,"ĠÜ¥":880,"ĠÑ¨":881,"ĠÜĢ":882,"ĠØ©":883,"ĠÐŁ":884,"ĠÝĮ":885,"ĠÛ½":886,"ĠÙ»":887,"ĠÛ³":888,"ĠÖį":889,"ĠÕ´":890,"ĠÊĽ":891,"ĠÜİ":892,"ĠÆĳ":893,"ĠÙ·":894,"ĠÞ¥":895,"Ġßµ":896,"ĠÆģ":897,"ĠÊ²":898,"ĠÔ«":899,"ĠÄĳ":900,"ĠÕ§":901,"Ġ×±":902,"ĠÕ«":903,"ĠÒµ":904,"ĠÏŀ":905,"ĠÉı":906,"ĠÔµ":907,"ĠÚ¦":908,"ĠÑł":909,"ĠÞĶ":910,"ĠÏ©":911,"ĠÚı":912,"ĠÙ©":913,"ĠÑ¸":914,"Ġ×ĳ":915,"ĠØĽ":916,"Ġà¤¤":917,"ĠÜª":918,"ĠË²":919,"Ġà¤¹":920,"Ġßļ":921,"ĠÑİ":922,"ĠÚĶ":923,"ĠÐ¤":924,"ĠÑ¢":925,"ĠÚ½":926,"ĠÜ¨":927,"ĠÆį":928,"ĠÑ¼":929,"ĠØ¹":930,"Ġßł":931,"ĠÒ¤":932,"ĠËº":933,"ĠÔ¶":934,"Ġ×¸":935,"ĠÓ¾":936,"ĠÚľ":937,"ĠÝ¹":938,"ĠÇ¥":939,"ĠÊ¬":940,"ĠÊī":941,"ĠÔģ":942,"ĠÕº":943,"ĠÎĵ":944,"ĠÔ¢":945,"ĠØĿ":946,"ĠÏº":947,"Ġß¥":948,"ĠÏ¹":949,"ĠÚ¬":950,"ĠÍ»":951,"ĠÚ£":952,"ĠÚ»":953,"ĠÙĨ":954,"ĠÞļ":955,"ĠÑ³":956,"ĠÝ³":957,"ĠÕ®":958,"ĠÔĶ":959,"ĠÝŁ":960,"ĠÑ¬":961,"ĠË¿":962,"ĠÓĬ":963,"ĠÒ¥":964,"ĠÇĦ":965,"ĠÝĵ":966,"ĠÜħ":967,"ĠË¸":968,"ĠÒŃ":969,"ĠÞ¹":970,"ĠÐı":971,"ĠÕ»":972,"ĠÑ©":973,"ĠÆ¼":974,"Ġ×ĵ":975,"ĠÜĨ":976,"ĠÜķ":977,"Ġß¸":978,"ĠÏ½":979,"ĠÔł":980,"Ġ×¼":981,"ĠÚĴ":982,"ĠÆĬ":983,"ĠÞ»":984,"ĠÚ§":985,"ĠÎ¨":986,"ĠÊķ":987,"ĠÓ¶":988,"ĠÕĽ":989,"ĠÊ¤":990,"ĠÊ«":991,"ĠÝµ":992,"ĠØŀ":993,"ĠÒ¼":994,"ĠÏ¨":995,"ĠÊį":996,"ĠËİ":997,"ĠÜ©":998,"ĠÏ¸":999,"ĠÊı":1000,"Ġ×Ĭ":1001,"ĠßĿ":1002,"ĠÜĬ":1003,"ĠÞĴ":1004,"ĠÑħ":1005,"ĠÛĿ":1006,"ĠÑª":1007,"ĠÊ±":1008,"ĠÞ¼":1009,"ĠÞĵ":1010,"ĠÂİ":1011,"ĠÊª":1012,"ĠÆ±":1013,"ĠÚł":1014,"Ġßŀ":1015,"ĠÝ®":1016,"ĠÒĿ":1017,"ĠÊ³":1018,"ĠÂĭ":1019,"ĠÝ¦":1020,"ĠßĲ":1021,"ĠÓĮ":1022,"ĠÆĵ":1023,"ĠÞķ":1024,"ĠÜį":1025,"ĠÄĲ":1026,"ĠÆ³":1027,"ĠÕı":1028,"ĠÒŁ":1029,"ĠÚĲ":1030,"ĠÛį":1031,"ĠÙ¿":1032,"ĠÛ±":1033,"ĠÛĭ":1034,"ĠÛĶ":1035,"ĠÔ¡":1036,"ĠÊŃ":1037,"ĠÓħ":1038,"ĠÕŃ":1039,"ĠÛĬ":1040,"ĠÖ¾":1041,"ĠÚĻ":1042,"ĠÇ±":1043,"ĠÝĽ":1044,"ĠÆ¥":1045,"ĠÊĿ":1046,"ĠÛĳ":1047,"ĠÚİ":1048,"ĠØĮ":1049,"ĠËľ":1050,"ĠÂĽ":1051,"ĠÊ£":1052,"ĠÏ²":1053,"ĠÓĥ":1054,"ĠÕ¾":1055,"ĠÝ¬":1056,"ĠÚ´":1057,"ĠÚļ":1058,"ĠÇĮ":1059,"ĠÙ¸":1060,"ĠÎĽ":1061,"Ġß¨":1062,"ĠÛ¦":1063,"ĠÊĪ":1064,"ĠÔ·":1065,"ĠÔĥ":1066,"ĠÔĽ":1067,"ĠËĮ":1068,"ĠÜ«":1069,"ĠÚķ":1070,"ĠÉİ":1071,"ĠÜ¬":1072,"ĠÛ¾":1073,"ĠÑ¡":1074,"ĠØ¯":1075,"Ġß¤":1076,"Ġ×į":1077,"ĠÞ¿":1078,"ĠÊ§":1079,"Ġ×©":1080,"ĠÛĥ":1081,"ĠÇģ":1082,"ĠÔ±":1083,"ĠÙ®":1084,"Ġ×°":1085,"Ġ×Ń":1086,"ĠÝĲ":1087,"ĠÝĿ":1088,"ĠÖı":1089,"ĠÊŀ":1090,"ĠÚ©":1091,"ĠÊľ":1092,"ĠÝĴ":1093,"ĠÛĨ":1094,"ĠÉ§":1095,"ĠÏ«":1096,"ĠØ³":1097,"ĠÏ¦":1098,"ĠÒº":1099,"ĠÜĸ":1100,"ĠËŀ":1101,"ĠÔ£":1102,"ĠÆ«":1103,"ĠÊ»":1104,"ĠÖĨ":1105,"ĠÚ¢":1106,"ĠÍµ":1107,"ĠÓ½":1108,"ĠÊİ":1109,"ĠÝį":1110,"ĠÕ¯":1111,"ĠËµ":1112,"ĠÜĥ":1113,"ĠÕ·":1114,"ĠË§":1115,"ĠÒ¬":1116,"ĠÞĩ":1117,"Ġ×»":1118,"ĠÕ¤":1119,"ĠÔª":1120,"ĠÉ°":1121,"ĠÈ¥":1122,"ĠÕ³":1123,"ĠÍ·":1124,"Ġ×½":1125,"ĠÚĦ":1126,"ĠÛ°":1127,"ĠÕª":1128,"ĠÂĳ":1129,"ĠÑĨ":1130,"ĠØİ":1131,"ĠÇĨ":1132,"ĠÊħ":1133,"Ġ×Ŀ":1134,"ĠÚŃ":1135,"ĠÜĭ":1136,"ĠØı":1137,"ĠØŃ":1138,"ĠÐł":1139,"ĠÉĵ":1140,"ĠÞĸ":1141,"ĠÛ¼":1142,"ĠÂĴ":1143,"ĠÊ¶":1144,"ĠÊĺ":1145,"ĠÞĹ":1146,"ĠÎĶ":1147,"Ġß£":1148,"ĠÑ¤":1149,"ĠÚ¥":1150,"ĠÊ¯":1151,"ĠËĸ":1152,"ĠÈĿ":1153,"ĠÝľ":1154,"ĠÚ¹":1155,"ĠÝļ":1156,"ĠÜĶ":1157,"ĠÔĳ":1158,"ĠÉŀ":1159,"ĠÝķ":1160,"Ġ×Ĵ":1161,"ĠÚ·":1162,"ĠÙĥ":1163,"ĠÛĦ":1164,"ĠÂĸ":1165,"ĠÚĵ":1166,"ĠÏ®":1167,"ĠÆĪ":1168,"ĠÜ¡":1169,"ĠÑ±":1170,"Ġßį":1171,"ĠÕŁ":1172,"ĠÜ®":1173,"ĠÊº":1174,"ĠÔĲ":1175,"ĠÔ¾":1176,"ĠÊ¥":1177,"ĠÕ½":1178,"ĠÞı":1179,"ĠÙ¢":1180,"ĠÎģ":1181,"ĠÚĳ":1182,"ĠÆ¹":1183,"ĠÍ½":1184,"ĠÏ¼":1185,"ĠÉ¹":1186,"ĠÒ£":1187,"ĠÙģ":1188,"Ġ×Ģ":1189,"ĠÚ¿":1190,"ĠßĪ":1191,"ĠÔĺ":1192,"ĠÒĶ":1193,"ĠÄ§":1194,"ĠÆ²":1195,"ĠÕ¬":1196,"Ġá¾":1197,"ĠÞ´":1198,"ĠÙ¡":1199,"ĠÊ®":1200,"ĠÔĨ":1201,"ĠÊŁ":1202,"ĠËĹ":1203,"ĠÒį":1204,"ĠÜĪ":1205,"ĠÔ¿":1206,"Ġ×ĥ":1207,"ĠÉĴ":1208,"ĠÔľ":1209,"ĠÕ¶":1210,"ĠÑŁ":1211,"ĠÛ¥":1212,"ĠØł":1213,"Ġ×¦":1214,"ĠÔ¥":1215,"Ġßĭ":1216,"ĠÏ¶":1217,"ĠÝ±":1218,"ĠâĢŀ":1219,"ĠÕĿ":1220,"ĠÊ½":1221,"ĠË¹":1222,"ĠÆ¤":1223,"ĠÇĢ":1224,"ĠÔ¯":1225,"ĠÑ¹":1226,"ĠÑŃ":1227,"ĠÍ¼":1228,"Ġßĥ":1229,"ĠÊ¾":1230,"ĠÆĸ":1231,"ĠË¶":1232,"ĠÝĶ":1233,"ĠØ«":1234,"ĠÙ¤":1235,"ĠÊĸ":1236,"ĠÜĦ":1237,"ĠÏ°":1238,"ĠÞĭ":1239,"ĠÔº":1240,"ĠÝŃ":1241,"ĠÒĻ":1242,"ĠÜŃ":1243,"ĠÛĲ":1244,"ĠÃĲ":1245,"ĠÐ©":1246,"ĠÛħ":1247,"ĠØ®":1248,"ĠÙ¨":1249,"ĠÏ³":1250,"ĠÉŁ":1251,"ĠÇĪ":1252,"ĠÕķ":1253,"ĠËĴ":1254,"ĠÎĢ":1255,"ĠÇī":1256,"ĠÔį":1257,"ĠÛĩ":1258,"ĠÖĩ":1259,"ĠÝĳ":1260,"ĠÞĪ":1261,"ĠÙª":1262,"ĠÏĸ":1263,"ĠÑ«":1264,"ĠÒĸ":1265,"ĠÊł":1266,"Ġ×Į":1267,"ĠÞµ":1268,"ĠÕĨ":1269,"ĠÝ°":1270,"ĠÕį":1271,"ĠÕ¦":1272,"ĠÑ®":1273,"ĠÙµ":1274,"Ġ×Ĳ":1275,"Ġ×ł":1276,"ĠÕİ":1277,"ĠÞĦ":1278,"ĠÑ²":1279,"ĠÍ¹":1280,"ĠÛ®":1281,"ĠÒ®":1282,"ĠÓį":1283,"ĠÔĸ":1284,"ĠÚĭ":1285,"ĠÕĸ":1286,"ĠÞį":1287,"ĠÈ£":1288,"ĠÇĥ":1289,"ĠÂĺ":1290,"ĠÆı":1291,"ĠÒ¢":1292,"ĠÃĹ":1293,"ĠØĢ":1294,"ĠÂĮ":1295,"ĠÚ®":1296,"ĠËļ":1297,"ĠÙ½":1298,"ĠÝ¶":1299,"ĠÜĩ":1300,"ĠÊĬ":1301,"ĠÔĮ":1302,"ĠÉį":1303,"ĠÝŀ":1304,"ĠÞħ":1305,"ĠÚ«":1306,"ĠË«":1307,"ĠÆĲ":1308,"Ġ×ī":1309,"ĠÑ¾":1310,"ĠÆĹ":1311,"ĠÓĨ":1312,"Ġô":1313,"ĠÚ¨":1314,"ĠÚĸ":1315,"ĠÕ¥":1316,"ĠÚ¶":1317,"ĠÊ¿":1318,"ĠÕ£":1319,"ĠÕļ":1320,"ĠÊļ":1321,"ĠÆ¨":1322,"ĠÐľ":1323,"ĠÚ¯":1324,"ĠÎĦ":1325,"ĠÙ£":1326,"ĠÉµ":1327,"ĠÆĽ":1328,"ĠÞ¸":1329,"ĠÛī":1330,"ĠÐ¦":1331,"ĠÚĤ":1332,"ĠÕĩ":1333,"ĠÂ¯":1334,"ĠËį":1335,"ĠÉ¦":1336,"ĠÍ¸":1337,"ĠÔ¼":1338,"ĠÇĭ":1339,"ĠÃ°":1340,"ĠÒ¸":1341,"ĠÑī":1342,"ĠÙ¬":1343,"ĠÇĿ":1344,"ĠÒ¾":1345,"ĠÒł":1346,"ĠËĿ":1347,"Ġ×¥":1348,"Ġß¡":1349,"ĠÊ°":1350,"ĠØģ":1351,"ĠÊ©":1352,"ĠÂº":1353,"ĠØ¬":1354,"Ġ×¨":1355,"ĠË¨":1356,"ĠÇħ":1357,"ĠÊĦ":1358,"ĠÙ´":1359,"ĠÔĬ":1360,"ĠÔĻ":1361,"ĠÉ¿":1362,"ĠÏ¬":1363,"ĠÚª":1364,"ĠÒ·":1365,"ĠÐ¡":1366,"ĠÐ®":1367,"ĠÕĻ":1368,"ĠÜĹ":1369,"ĠÎį":1370,"Ġ×³":1371,"ĠÜ¯":1372,"ĠÈ¡":1373,"ĠÔĦ":1374,"ĠËĨ":1375,"ĠÐĬ":1376,"ĠÐ¢":1377,"ĠÙ±":1378,"ĠÖİ":1379,"ĠÖĭ":1380,"Ġßĸ":1381,"ĠØį":1382,"ĠÊ¦":1383,"Ġ×ľ":1384,"ĠÙ¹":1385,"ĠÉª":1386,"ĠÒ½":1387,"ĠÒŀ":1388,"ĠÊµ":1389,"ĠÉ¤":1390,"ĠÉ©":1391,"ĠÝĭ":1392,"ĠÕ¢":1393,"ĠØĥ":1394,"ĠÈ¸":1395,"ĠÞĥ":1396,"ĠØ¡":1397,"ĠØ²":1398,"ĠÚĨ":1399,"Ġßľ":1400,"ĠÊĨ":1401,"ĠÕĺ":1402,"ĠË¾":1403,"ĠÉ¥":1404,"ĠÉĢ":1405,"ĠÊ¸":1406,"ĠÒı":1407,"ĠÙĩ":1408,"ĠÆĨ":1409,"ĠÔĤ":1410,"ĠÚĪ":1411,"ĠÔ½":1412,"ĠÒ°":1413,"ĠÂ¿":1414,"ĠÕĴ":1415,"ĠÂ¶":1416,"ĠÊĻ":1417,"Ġ×Ļ":1418,"ĠÆŃ":1419,"ĠÉĿ":1420,"ĠØ¸":1421,"ĠÞ¾":1422,"ĠÂŀ":1423,"ĠÊ¡":1424,"ĠÔ³":1425,"ĠÕ©":1426,"ĠÒľ":1427,"ĠÇ³":1428,"Ġß¦":1429,"ĠÞĬ":1430,"ĠØ´":1431,"ĠÐ¬":1432,"ĠÉ»":1433,"ĠÞī":1434,"ĠÄ²":1435,"ĠÉ²":1436,"ĠÞĨ":1437,"ĠØ»":1438,"ĠÂĤ":1439,"ĠÒļ":1440,"ĠÛĪ":1441,"Ġßĺ":1442,"ĠÕĬ":1443,"ĠØĤ":1444,"ĠÝ«":1445,"ĠÉĥ":1446,"ĠÑ¦":1447,"Ġ×Ĺ":1448,"ĠÚĬ":1449,"ĠÚĹ":1450,"ĠÆ»":1451,"ĠÎ¦":1452,"ĠÒ²":1453,"ĠÜī":1454,"ĠËĲ":1455,"ĠÅĭ":1456,"ĠÏł":1457,"ĠËĥ":1458,"ĠÂ²":1459,"ĠÔ»":1460,"ĠÈ¹":1461,"ĠÐĳ":1462,"ĠÔħ":1463,"ĠÕ¡":1464,"ĠÒĳ":1465,"ĠØľ":1466,"ĠÊ¨":1467,"ĠÒª":1468,"Ġ×ĺ":1469,"ĠËĶ":1470,"ĠÂī":1471,"ĠÐħ":1472,"ĠÕ¸":1473,"ĠÚĥ":1474,"ĠË½":1475,"ĠÉ¸":1476,"ĠÙ¶":1477,"ĠÄ¦":1478,"ĠÔĭ":1479,"ĠÕł":1480,"ĠÝĸ":1481,"Ġ×¡":1482,"ĠÅĢ":1483,"ĠÉ¯":1484,"ĠÞĤ":1485,"ĠÏ±":1486,"ĠË¼":1487,"ĠÉ£":1488,"ĠÒĭ":1489,"ĠÉ´":1490,"ĠÕ²":1491,"ĠÑķ":1492,"ĠÕŀ":1493,"ĠËĭ":1494,"ĠÊ¼":1495,"ĠÊ¢":1496,"ĠÊ´":1497,"ĠÙī":1498,"ĠÉ¶":1499,"ĠÐª":1500,"ĠÑĪ":1501,"ĠËª":1502,"ĠÚĮ":1503,"ĠÕĭ":1504,"ĠÚº":1505,"ĠÚ¼":1506,"ĠË©":1507,"ĠËĦ":1508,"ĠÓĩ":1509,"ĠÚĩ":1510,"ĠÞĮ":1511,"ĠÚī":1512,"ĠË¯":1513,"ĠÉŃ":1514,"ĠÉľ":1515,"ĠÚ¾":1516,"ĠÍ¶":1517,"Ġ×ĸ":1518,"ĠÆ®":1519,"ĠÞ³":1520,"ĠÊĶ":1521,"ĠÓĢ":1522,"ĠÒ»":1523,"ĠÂĬ":1524,"ĠÕĵ":1525,"ĠÈ¿":1526,"ĠÕĳ":1527,"ĠÅģ":1528,"ĠÑ½":1529,"ĠÑĻ":1530,"ĠÕĹ":1531,"ĠÂ½":1532,"ĠË±":1533,"ĠÔĹ":1534,"ĠÆĴ":1535,"ĠÒĽ":1536,"ĠÒĵ":1537,"ĠÒķ":1538,"ĠÕ°":1539,"ĠÂŁ":1540,"ĠÏĻ":1541,"ĠÒ¦":1542,"ĠÙĤ":1543,"ĠËķ":1544,"ĠÊĤ":1545,"ĠÖĥ":1546,"ĠÊĩ":1547,"ĠËĵ":1548,"ĠÈ¢":1549,"ĠÄ¸":1550,"ĠÐĽ":1551,"ĠÊĹ":1552,"ĠÆ¦":1553,"ĠÂľ":1554,"ĠÏľ":1555,"ĠÔ²":1556,"Ġ×Ī":1557,"ĠÒ¯":1558,"ĠÂ¹":1559,"ĠÕ¨":1560,"ĠÕ±":1561,"ĠÉī":1562,"ĠÝĺ":1563,"ĠÉĳ":1564,"ĠÒ¹":1565,"Ġ×ĭ":1566,"ĠÒ¶":1567,"ĠËĳ":1568,"ĠÙ²":1569,"ĠßĻ":1570,"ĠÞº":1571,"ĠÏ¤":1572,"ĠÏķ":1573,"ĠÝĹ":1574,"ĠÐĶ":1575,"ĠÅ§":1576,"ĠÑĽ":1577,"ĠÂĪ":1578,"ĠÞ·":1579,"ĠÐ¯":1580,"ĠÆİ":1581,"ĠÙŃ":1582,"ĠÝ¥":1583,"ĠÈ´":1584,"ĠÚ³":1585,"ĠØ½":1586,"ĠË¥":1587,"ĠÒ§":1588,"ĠÔĪ":1589,"ĠÆĭ":1590,"ĠÉ¨":1591,"ĠÞ±":1592,"ĠÈ»":1593,"ĠÏª":1594,"ĠÕĮ":1595,"ĠÍ³":1596,"ĠÂĿ":1597,"ĠÉ½":1598,"ĠÝ²":1599,"ĠØµ":1600,"ĠÙ«":1601,"ĠÑĴ":1602,"ĠÉļ":1603,"ĠÏĺ":1604,"ĠËĩ":1605,"ĠË¦":1606,"ĠÙ¦":1607,"ĠØĭ":1608,"ĠÂļ":1609,"ĠÏ£":1610,"ĠÉ®":1611,"ĠÎĭ":1612,"ĠÔ°":1613,"ĠÉģ":1614,"ĠÕľ":1615,"ĠÉº":1616,"ĠÄ³":1617,"Ġß¶":1618,"ĠÈµ":1619,"ĠÉĲ":1620,"ĠÒ«":1621,"ĠÉ¾":1622,"ĠØ°":1623,"ĠÚ²":1624,"ĠÉ³":1625,"Ġ×¤":1626,"ĠØħ":1627,"ĠÉĪ":1628,"ĠÒİ":1629,"Ġ×Ĩ":1630,"ĠÂķ":1631,"Ġ×ª":1632,"ĠËĬ":1633,"ĠØ·":1634,"ĠÈ¼":1635,"ĠÄ¿":1636,"ĠÂį":1637,"ĠÐ¥":1638,"ĠÔ¸":1639,"ĠÕī":1640,"ĠË¢":1641,"ĠÚ¡":1642,"ĠÕĪ":1643,"ĠÉ¢":1644,"Ġ×¢":1645,"ĠÆ¶":1646,"Ġà¤ª":1647,"ĠØĬ":1648,"ĠÒ³":1649,"ĠÞ²":1650,"ĠÝĻ":1651,"ĠÖĤ":1652,"ĠÏ¡":1653,"ĠÐĤ":1654,"Ġ×Ľ":1655,"ĠÕĶ":1656,"ĠË£":1657,"ĠÔī":1658,"ĠËĽ":1659,"ĠÆķ":1660,"ĠÅ¦":1661,"ĠÔĩ":1662,"ĠÒĤ":1663,"ĠØ¼":1664,"ĠÂª":1665,"ĠÆĻ":1666,"ĠÓī":1667,"ĠÆ¢":1668,"ĠËĪ":1669,"ĠÈ¶":1670,"ĠÂ³":1671,"ĠÏĲ":1672,"ĠÉĶ":1673,"ĠÆĺ":1674,"Ġ×¬":1675,"ĠËĢ":1676,"ĠÉ±":1677,"ĠÒĮ":1678,"ĠÙ¼":1679,"ĠÒ¨":1680,"Ġà¤²":1681,"ĠËī":1682,"ĠË¤":1683,"ĠËģ":1684,"ĠÂĶ":1685,"ĠÒ©":1686,"ĠÒĬ":1687,"ĠËħ":1688,"ĠÙĢ":1689,"ĠÒĹ":1690,"ĠÈ½":1691,"ĠÎ¢":1692,"ĠÕ¹":1693,"ĠÉĦ":1694,"ĠÕĲ":1695,"ĠÖĪ":1696,"ĠÅī":1697,"ĠÕģ":1698,"ĠÂĨ":1699,"ĠÎĸ":1700,"ĠË°":1701,"ĠÚ±":1702,"ĠÐī":1703,"ĠØ¿":1704,"ĠÉ¡":1705,"ĠÞİ":1706,"ĠÑĦ":1707,"ĠØĨ":1708,"ĠÒ±":1709,"ĠÎĺ":1710,"ĠÂ¤":1711,"ĠÙº":1712,"ĠÅĬ":1713,"ĠÉħ":1714,"ĠØĦ":1715,"ĠÇ¤":1716,"ĠÔ¹":1717,"ĠØ¶":1718,"ĠÆ¸":1719,"ĠË³":1720,"ĠÕĥ":1721,"ĠÒ¡":1722,"ĠËĤ":1723,"ĠÓĪ":1724,"Ġ×£":1725,"ĠÉ«":1726,"ĠÑĶ":1727,"ĠËł":1728,"ĠÍ°":1729,"ĠÉĻ":1730,"ĠÂ¡":1731,"ĠÉķ":1732,"ĠÏ¢":1733,"ĠË¡":1734,"ĠÂĹ":1735,"ĠÂ¾":1736,"ĠÙ¾":1737,"ĠÑļ":1738,"ĠÞ¶":1739,"ĠÈľ":1740,"Ġà¤¯":1741,"ĠÑ¥":1742,"ĠÆ´":1743,"ĠÖħ":1744,"ĠÂ´":1745,"ĠÆĤ":1746,"ĠÏĽ":1747,"ĠËĺ":1748,"ĠÅĵ":1749,"ĠÉ¬":1750,"ĠËĻ":1751,"ĠÉĮ":1752,"ĠÐĪ":1753,"ĠÆ¬":1754,"ĠÓĭ":1755,"ĠÆµ":1756,"ĠÆĮ":1757,"ĠÙ¥":1758,"ĠÖĬ":1759,"ĠÏĿ":1760,"ĠË¬":1761,"ĠÉĺ":1762,"ĠÉĬ":1763,"ĠÍ²":1764,"ĠØº":1765,"ĠÖī":1766,"ĠÍ±":1767,"Ġ×«":1768,"ĠØĪ":1769,"ĠÆĦ":1770,"ĠÉ¼":1771,"ĠÑĬ":1772,"ĠÕĢ":1773,"ĠÖĮ":1774,"ĠÂ¦":1775,"ĠÂĩ":1776,"ĠËŃ":1777,"ĠÑĺ":1778,"ĠÕħ":1779,"ĠØī":1780,"ĠÂĻ":1781,"ĠÕĦ":1782,"ĠØ¾":1783,"ĠÂ¼":1784,"ĠÉĩ":1785,"ĠÂ¸":1786,"ĠÈ¾":1787,"ĠÈº":1788,"ĠÖĦ":1789,"ĠÉĤ":1790,"ĠÉĭ":1791,"ĠÐĭ":1792,"ĠØĩ":1793,"ĠË®":1794,"ĠÎĤ":1795,"ĠÉĨ":1796,"ĠÅĴ":1797,"ĠÐĦ":1798,"ĠÉĸ":1799,"ĠÉĽ":1800,"Ġà¤®":1801,"ĠÂĦ":1802,"ĠÚ°":1803,"ĠÉĹ":1804,"ĠÕĤ":1805,"ĠâĤ¬":1806,"ĠÆĶ":1807,"ĠâĪ":1808,"Ġà¤µ":1809,"Ġá¾½":1810,"ĠâĢĭ":1811,"Ġà¤Ł":1812,"ĠâĦ":1813,"Ġí":1814,"Ġà¤¬":1815,"Ġà¤ľ":1816,"Ġéĵ":1817,"ĠâĴ":1818,"ĠâŁ":1819,"Ġâĺ":1820,"Ġà¤¦":1821,"Ġà¤Ĺ":1822,"Ġâģ":1823,"Ġãı":1824,"Ġçı":1825,"ĠâĿ":1826,"ĠãŁ":1827,"Ġïİ":1828,"Ġâľ":1829,"Ġá¾¿":1830,"ĠçŁ":1831,"Ġïı":1832,"Ġâ¥":1833,"ĠäĴ":1834,"Ġæĺ":1835,"ĠäĶ":1836,"Ġã§":1837,"Ġã¢":1838,"ĠæĿ":1839,"Ġäĵ":1840,"Ġæģ":1841,"Ġã·":1842,"ĠâĨ":1843,"Ġã²":1844,"Ġîı":1845,"Ġâį":1846,"Ġãª":1847,"Ġéŀ":1848,"ĠîĴ":1849,"Ġà¤ı":1850,"ĠíŁ":1851,"Ġç·":1852,"ĠäĿ":1853,"Ġçİ":1854,"Ġäľ":1855,"ĠæĴ":1856,"Ġã¿":1857,"Ġã¯":1858,"ĠîŁ":1859,"Ġà¤ħ":1860,"ĠäŁ":1861,"Ġæį":1862,"ĠîĿ":1863,"Ġæľ":1864,"Ġãŀ":1865,"Ġãº":1866,"Ġéİ":1867,"Ġãģ":1868,"Ġçº":1869,"ĠéŁ":1870,"ĠèĴ":1871,"Ġïŀ":1872,"Ġäı":1873,"ĠâĬ":1874,"Ġæĵ":1875,"ĠêĴ":1876,"ĠæĹ":1877,"Ġäĳ":1878,"Ġâķ":1879,"Ġäį":1880,"ĠâĹ":1881,"Ġå¾":1882,"Ġá¢":1883,"Ġâĵ":1884,"ĠçĦ":1885,"ĠçĶ":1886,"Ġæĸ":1887,"Ġá§":1888,"Ġéº":1889,"Ġçŀ":1890,"Ġé¾":1891,"Ġãİ":1892,"Ġîĵ":1893,"Ġãĳ":1894,"Ġãĵ":1895,"Ġâ£":1896,"Ġéı":1897,"ĠêĿ":1898,"Ġá¦":1899,"Ġç²":1900,"Ġç¿":1901,"Ġãĥ":1902,"Ġï¢":1903,"Ġî´":1904,"ĠîĻ":1905,"Ġè£":1906,"Ġâŀ":1907,"ĠîŃ":1908,"Ġéļ":1909,"Ġâı":1910,"Ġäİ":1911,"Ġæķ":1912,"Ġç¾":1913,"Ġäĥ":1914,"Ġîľ":1915,"ĠäĬ":1916,"Ġå±":1917,"Ġä¸":1918,"ĠäĤ":1919,"Ġäº":1920,"Ġî£":1921,"Ġé´":1922,"Ġç¯":1923,"ĠêŃ":1924,"Ġà¤ī":1925,"ĠäĮ":1926,"Ġï»":1927,"Ġâī":1928,"Ġäģ":1929,"Ġîį":1930,"Ġé»":1931,"ĠãĦ":1932,"Ġâ«":1933,"Ġïį":1934,"Ġî§":1935,"Ġé·":1936,"Ġèĺ":1937,"Ġæº":1938,"ĠãĶ":1939,"Ġâħ":1940,"Ġï¯":1941,"ĠèĿ":1942,"Ġç§":1943,"ĠèŁ":1944,"Ġè«":1945,"Ġé¸":1946,"Ġâļ":1947,"Ġäķ":1948,"ĠçĮ":1949,"Ġé®":1950,"Ġé¶":1951,"ĠïŁ":1952,"Ġã®":1953,"Ġà¤¡":1954,"Ġäŀ":1955,"ĠäĲ":1956,"Ġæħ":1957,"Ġã»":1958,"Ġâ¶":1959,"Ġâĩ":1960,"Ġî¥":1961,"Ġêį":1962,"ĠæĢ":1963,"ĠéĻ":1964,"Ġæ·":1965,"Ġé¢":1966,"Ġã¸":1967,"Ġã¦":1968,"Ġå»":1969,"Ġæĳ":1970,"ĠïĬ":1971,"Ġï½":1972,"Ġé§":1973,"ĠïĴ":1974,"Ġîŀ":1975,"Ġã¶":1976,"Ġîķ":1977,"Ġè¢":1978,"Ġã¾":1979,"ĠæŁ":1980,"Ġî¯":1981,"Ġâ»":1982,"ĠïĤ":1983,"ĠâĶ":1984,"Ġéµ":1985,"ĠéĮ":1986,"ĠçĽ":1987,"Ġåº":1988,"Ġæ¸":1989,"Ġâĭ":1990,"ĠæĻ":1991,"ĠïĨ":1992,"Ġæ´":1993,"ĠæĲ":1994,"Ġå¶":1995,"Ġêľ":1996,"Ġæ¾":1997,"Ġî«":1998,"Ġåµ":1999,"Ġêĵ":2000,"Ġâİ":2001,"Ġæļ":2002,"ĠäĻ":2003,"Ġåķ":2004,"Ġâ¹":2005,"Ġäĺ":2006,"Ġæŀ":2007,"Ġåħ":2008,"Ġä¨":2009,"Ġæµ":2010,"Ġæ¹":2011,"Ġæ»":2012,"Ġâº":2013,"Ġîİ":2014,"Ġéĥ":2015,"Ġâ§":2016,"Ġïģ":2017,"Ġä¢":2018,"Ġèº":2019,"ĠâĲ":2020,"Ġè§":2021,"Ġçĳ":2022,"Ġçľ":2023,"Ġè´":2024,"Ġêĸ":2025,"Ġáª":2026,"Ġî®":2027,"Ġå§":2028,"Ġêļ":2029,"ĠéĿ":2030,"Ġâ¾":2031,"Ġæ£":2032,"Ġèı":2033,"Ġâµ":2034,"Ġî½":2035,"Ġåı":2036,"Ġä±":2037,"Ġê®":2038,"Ġâ´":2039,"Ġî¡":2040,"Ġêŀ":2041,"ĠðĿ":2042,"Ġêķ":2043,"Ġè®":2044,"ĠèĶ":2045,"Ġá²":2046,"ĠãĮ":2047,"Ġî¿":2048,"Ġè¶":2049,"Ġæı":2050,"Ġéģ":2051,"Ġç´":2052,"Ġæ³":2053,"Ġéª":2054,"Ġçĵ":2055,"Ġçļ":2056,"Ġèį":2057,"Ġá¯":2058,"Ġçħ":2059,"Ġå¯":2060,"Ġá±":2061,"Ġæ±":2062,"Ġç¢":2063,"Ġæ¶":2064,"ĠîĬ":2065,"ĠêŁ":2066,"Ġïī":2067,"Ġáı":2068,"Ġäª":2069,"ĠèĤ":2070,"Ġî¤":2071,"Ġèª":2072,"Ġâ¤":2073,"Ġä¤":2074,"Ġîĳ":2075,"ĠîĶ":2076,"Ġè¥":2077,"Ġèł":2078,"Ġê§":2079,"Ġïĩ":2080,"Ġä»":2081,"Ġç¹":2082,"Ġå¿":2083,"Ġåį":2084,"ĠæĤ":2085,"ĠîĦ":2086,"Ġç¶":2087,"Ġâĳ":2088,"Ġâ²":2089,"ĠîĢ":2090,"ĠîĤ":2091,"Ġå¥":2092,"Ġå²":2093,"ĠäĦ":2094,"Ġï®":2095,"Ġâ¡":2096,"Ġäļ":2097,"Ġä£":2098,"Ġçĥ":2099,"Ġâ±":2100,"Ġä¥":2101,"Ġæİ":2102,"Ġîº":2103,"Ġæ§":2104,"Ġîģ":2105,"Ġè©":2106,"Ġèľ":2107,"ĠèĻ":2108,"Ġâª":2109,"Ġä¹":2110,"Ġé¯":2111,"Ġâ¬":2112,"Ġà¸":2113,"Ġè¯":2114,"ĠâĽ":2115,"Ġä¬":2116,"Ġé¦":2117,"Ġèħ":2118,"Ġå³":2119,"Ġïļ":2120,"Ġä§":2121,"ĠäĢ":2122,"Ġè¤":2123,"Ġêĺ":2124,"Ġè±":2125,"Ġéĳ":2126,"Ġä²":2127,"ĠåĶ":2128,"ĠêĬ":2129,"ĠãĽ":2130,"ĠèŃ":2131,"Ġçķ":2132,"Ġã¹":2133,"Ġà´":2134,"Ġîĺ":2135,"Ġèķ":2136,"Ġéł":2137,"Ġçµ":2138,"Ġâ°":2139,"Ġãµ":2140,"Ġàª":2141,"ĠäĽ":2142,"Ġé½":2143,"Ġè¾":2144,"Ġä·":2145,"Ġéĸ":2146,"Ġè·":2147,"Ġä°":2148,"ĠãĿ":2149,"ĠæĬ":2150,"Ġêİ":2151,"Ġé¤":2152,"Ġçª":2153,"Ġå½":2154,"Ġïµ":2155,"Ġêĳ":2156,"Ġä´":2157,"Ġè¨":2158,"Ġèİ":2159,"Ġæ¥":2160,"Ġî±":2161,"Ġé¹":2162,"Ġâ½":2163,"Ġæ¤":2164,"Ġèģ":2165,"Ġã±":2166,"Ġîł":2167,"Ġèĵ":2168,"Ġåĩ":2169,"Ġâ¼":2170,"Ġâ¿":2171,"Ġá¶":2172,"ĠãĤ":2173,"Ġèŀ":2174,"Ġå¤":2175,"ĠåĹ":2176,"Ġî¢":2177,"Ġçģ":2178,"Ġæĭ":2179,"ĠéŃ":2180,"ĠêĹ":2181,"ĠáĽ":2182,"Ġã´":2183,"Ġæ¦":2184,"ĠæĽ":2185,"Ġãħ":2186,"Ġãį":2187,"Ġæ²":2188,"ĠâĦ¢":2189,"Ġæ¡":2190,"Ġîħ":2191,"ĠèĬ":2192,"ĠåĿ":2193,"Ġïķ":2194,"Ġê¬":2195,"Ġáµ":2196,"Ġè¡":2197,"Ġêı":2198,"Ġïĸ":2199,"Ġé±":2200,"ĠèĦ":2201,"Ġâ³":2202,"Ġæ¨":2203,"Ġé°":2204,"Ġè¿":2205,"Ġåª":2206,"Ġï¾":2207,"Ġã©":2208,"Ġåĳ":2209,"Ġä¾":2210,"ĠåĬ":2211,"ĠêĮ":2212,"Ġå¸":2213,"Ġêħ":2214,"ĠïĿ":2215,"Ġäħ":2216,"Ġçį":2217,"ĠèĲ":2218,"Ġêĥ":2219,"ĠâĮ":2220,"Ġæ«":2221,"Ġé¿":2222,"Ġéį":2223,"ĠèĢ":2224,"Ġå©":2225,"Ġå®":2226,"Ġà¤¶":2227,"ĠæĨ":2228,"Ġéľ":2229,"Ġèļ":2230,"Ġê¡":2231,"Ġâ¯":2232,"Ġà¤Ń":2233,"ĠãĨ":2234,"Ġîļ":2235,"Ġà¨":2236,"Ġä«":2237,"Ġé¬":2238,"Ġè¬":2239,"Ġâ¦":2240,"Ġîĩ":2241,"Ġà¹":2242,"Ġî¬":2243,"Ġéĩ":2244,"Ġî©":2245,"Ġï·":2246,"Ġïĥ":2247,"Ġà¤ļ":2248,"Ġî¦":2249,"Ġåľ":2250,"Ġê¤":2251,"Ġï¼":2252,"ĠæŃ":2253,"Ġîī":2254,"ĠåĻ":2255,"Ġá¡":2256,"Ġáķ":2257,"Ġî¼":2258,"Ġá´":2259,"Ġå¹":2260,"ĠéĴ":2261,"Ġâ¸":2262,"ĠáĶ":2263,"Ġî»":2264,"Ġæ½":2265,"ĠêĶ":2266,"Ġä¶":2267,"Ġãļ":2268,"Ġè¦":2269,"Ġèī":2270,"Ġä³":2271,"Ġäµ":2272,"ĠèĹ":2273,"ĠäŃ":2274,"ĠæĮ":2275,"Ġå´":2276,"Ġå¼":2277,"ĠéĹ":2278,"ĠéĽ":2279,"ĠêĦ":2280,"Ġà¶":2281,"Ġãľ":2282,"Ġå¢":2283,"Ġäī":2284,"Ġäł":2285,"Ġæ¼":2286,"Ġå·":2287,"Ġïĳ":2288,"Ġæĩ":2289,"ĠèĮ":2290,"ĠåŁ":2291,"Ġîª":2292,"Ġèµ":2293,"Ġåĺ":2294,"Ġêª":2295,"ĠâŃ":2296,"Ġè½":2297,"Ġèĩ":2298,"Ġâ©":2299,"Ġæī":2300,"ĠîĮ":2301,"ĠæĦ":2302,"Ġç©":2303,"Ġåĭ":2304,"Ġãķ":2305,"Ġè°":2306,"ĠäĪ":2307,"Ġå¦":2308,"Ġî³":2309,"Ġîĥ":2310,"ĠîĲ":2311,"ĠåĽ":2312,"ĠêĽ":2313,"ĠïĹ":2314,"Ġáİ":2315,"Ġä¡":2316,"Ġä©":2317,"Ġæª":2318,"Ġæĥ":2319,"Ġç±":2320,"ĠïĮ":2321,"Ġç®":2322,"Ġà¡":2323,"Ġæ®":2324,"Ġéħ":2325,"Ġç°":2326,"ĠçĴ":2327,"Ġåī":2328,"Ġá®":2329,"Ġï£":2330,"Ġï²":2331,"Ġâ¨":2332,"Ġàº":2333,"ĠêĤ":2334,"Ġä¼":2335,"Ġèĸ":2336,"Ġã¼":2337,"Ġî¨":2338,"Ġî·":2339,"Ġç¡":2340,"Ġê«":2341,"Ġé£":2342,"Ġéĭ":2343,"Ġç»":2344,"Ġèĥ":2345,"Ġèĳ":2346,"ĠåĢ":2347,"Ġà¦":2348,"Ġä¯":2349,"ĠïĪ":2350,"ĠåĪ":2351,"Ġïł":2352,"Ġà²":2353,"ĠäĨ":2354,"ĠéĢ":2355,"Ġè¸":2356,"Ġè»":2357,"Ġä½":2358,"ĠãĲ":2359,"ĠçĿ":2360,"Ġèĭ":2361,"Ġï°":2362,"Ġã½":2363,"ĠçĹ":2364,"ĠêĲ":2365,"Ġä¿":2366,"Ġåĵ":2367,"Ġïħ":2368,"Ġîµ":2369,"Ġçī":2370,"Ġï¶":2371,"Ġé¥":2372,"Ġâ¢":2373,"Ġâ®":2374,"Ġæ¿":2375,"Ġî¹":2376,"ĠéĨ":2377,"ĠçĬ":2378,"Ġà»":2379,"Ġæ©":2380,"Ġç¸":2381,"Ġà¤§":2382,"Ġïº":2383,"Ġáĳ":2384,"Ġç¼":2385,"Ġêī":2386,"Ġáĺ":2387,"ĠîĽ":2388,"Ġé¨":2389,"Ġé©":2390,"Ġé²":2391,"Ġç¦":2392,"ĠçĲ":2393,"Ġï±":2394,"Ġï¹":2395,"Ġà¤Ķ":2396,"Ġî¶":2397,"ĠçĢ":2398,"Ġãĭ":2399,"ĠãĴ":2400,"Ġî¾":2401,"Ġïĵ":2402,"Ġã³":2403,"ĠîĹ":2404,"ĠçĪ":2405,"Ġê¥":2406,"Ġã°":2407,"Ġà«":2408,"Ġé«":2409,"ĠãĬ":2410,"Ġå¡":2411,"ĠéĬ":2412,"Ġê©":2413,"Ġå°":2414,"Ġåİ":2415,"Ġäĭ":2416,"Ġã¡":2417,"Ġçĭ":2418,"ĠåŃ":2419,"Ġá«":2420,"ĠáĲ":2421,"Ġç½":2422,"Ġæ¬":2423,"ĠæĶ":2424,"ĠçĨ":2425,"Ġå£":2426,"Ġçĩ":2427,"Ġï³":2428,"Ġà¬":2429,"ĠêĨ":2430,"ĠáĬ":2431,"Ġéĺ":2432,"ĠèĽ":2433,"ĠïĲ":2434,"Ġáĸ":2435,"Ġáĭ":2436,"Ġáĵ":2437,"Ġà¢":2438,"Ġãĸ":2439,"ĠîĪ":2440,"Ġäĸ":2441,"ĠêĪ":2442,"ĠäĹ":2443,"Ġã¤":2444,"Ġè³":2445,"Ġî¸":2446,"Ġç¥":2447,"ĠïĦ":2448,"Ġä¦":2449,"Ġäĩ":2450,"Ġæ°":2451,"Ġæł":2452,"Ġî°":2453,"Ġêģ":2454,"Ġáĩ":2455,"Ġà®":2456,"ĠãŃ":2457,"ĠåĤ":2458,"Ġé¡":2459,"ĠïĢ":2460,"ĠåĲ":2461,"Ġï´":2462,"Ġïĺ":2463,"Ġå¬":2464,"Ġáį":2465,"Ġã¬":2466,"Ġåĥ":2467,"Ġé³":2468,"Ġãī":2469,"Ġç¨":2470,"ĠåĴ":2471,"Ġá£":2472,"ĠéĲ":2473,"ĠåĨ":2474,"Ġã¨":2475,"Ġãĩ":2476,"ĠæĪ":2477,"ĠãĢ":2478,"Ġîĭ":2479,"ĠåĮ":2480,"Ġåĸ":2481,"Ġêĭ":2482,"Ġç³":2483,"ĠáĮ":2484,"Ġè¹":2485,"ĠãĹ":2486,"Ġîĸ":2487,"Ġïľ":2488,"ĠéĪ":2489,"Ġç£":2490,"Ġå«":2491,"ĠïĶ":2492,"Ġã£":2493,"Ġî²":2494,"Ġêł":2495,"Ġàµ":2496,"ĠèĨ":2497,"Ġä®":2498,"Ġéī":2499,"Ġè²":2500,"ĠâĪĴ":2501,"Ġæ¢":2502,"Ġè¼":2503,"ĠãĻ":2504,"Ġêĩ":2505,"Ġï¡":2506,"ĠãĪ":2507,"Ġåģ":2508,"Ġãĺ":2509,"Ġé¼":2510,"Ġåŀ":2511,"ĠáĻ":2512,"Ġà¿":2513,"Ġã«":2514,"ĠéĤ":2515,"ĠéĦ":2516,"Ġê¯":2517,"Ġáļ":2518,"Ġå¨":2519,"Ġáī":2520,"Ġã¥":2521,"ĠîĨ":2522,"Ġá¥":2523,"Ġç«":2524,"Ġâł":2525,"ĠåĦ":2526,"Ġá¨":2527,"ĠçĤ":2528,"ĠçĻ":2529,"ĠáĹ":2530,"ĠéĶ":2531,"Ġáł":2532,"Ġæ¯":2533,"Ġç¬":2534,"ĠáĿ":2535,"Ġçł":2536,"Ġïĭ":2537,"Ġáħ":2538,"ĠáĨ":2539,"Ġáľ":2540,"ĠêĢ":2541,"ĠêĻ":2542,"Ġç¤":2543,"ĠèĪ":2544,"Ġà¼":2545,"ĠïŃ":2546,"Ġãł":2547,"ĠïĽ":2548,"Ġà³":2549,"ĠâĻ«":2550,"Ġéķ":2551,"Ġçĸ":2552,"ĠïĻ":2553,"Ġçĺ":2554,"Ġåł":2555,"Ġåļ":2556,"Ġáĥ":2557,"Ġà§":2558,"Ġáŀ":2559,"Ġà°":2560,"Ġê¦":2561,"Ġê¢":2562,"ĠáĪ":2563,"ĠàŃ":2564,"Ġà©":2565,"Ġà¯":2566,"Ġà¤ĩ":2567,"ĠáĴ":2568,"ĠáŃ":2569,"Ġà·":2570,"Ġê£":2571,"Ġà¤·":2572,"Ġê¨":2573,"ĠçŃ":2574,"Ġï¬":2575,"Ġà¤¥":2576,"ĠðŁ":2577,"ĠáĦĨáħ¨áĨ":2578,"Ġà¥":2579,"Ġà±":2580,"ĠáĤ":2581,"Ġá¤":2582,"ĠáĦĨáħ³áĨ":2583,"Ġá¬":2584,"ĠáĦĨáħ¡áĨ":2585,"Ġà½":2586,"Ġéĵ¤":2587,"Ġï«":2588,"ĠáĦĨáħ©áĨ":2589,"ĠâĪ£":2590,"Ġá°":2591,"ĠáĦĬáħ¯áĨ":2592,"ĠáĦħáħªáĨ":2593,"ĠáĢ":2594,"Ġàł":2595,"Ġáģ":2596,"ĠáĦĥáħ¨áĨ":2597,"Ġà¤ĸ":2598,"Ġíŀ":2599,"ĠâĻ¦":2600,"ĠáĦĥáħ§áĨ":2601,"Ġá³":2602,"Ġâ·":2603,"ĠáŁ":2604,"ĠáĦĢáħ«áĨ":2605,"ĠáĦħáħ«áĨ":2606,"ĠáĦģáħ£áĨ":2607,"ĠáĦĭáħ´áĨ":2608,"ĠáĦĴáħµáĨ":2609,"ĠáĦĨáħ²áĨ":2610,"ĠáĦĳáħ¦áĨ":2611,"ĠâĻ©":2612,"ĠáĦħáħ¤áĨ":2613,"ĠáĦĭáħ³áĨ":2614,"ĠáĦģáħŃáĨ":2615,"ĠáĦĢáħ®áĨ":2616,"ĠáĦĮáħŃáĨ":2617,"ĠáĦĳáħ¨áĨ":2618,"ĠáĦĳáħ§áĨ":2619,"ĠâŁ©":2620,"ĠáĦĥáħ©áĨ":2621,"ĠáĦĥáħ¦áĨ":2622,"ĠáĦĴáħ´áĨ":2623,"ĠáĦĬáħ¨áĨ":2624,"ĠáĦįáħŃáĨ":2625,"ĠðĿķ":2626,"ĠáĦĬáħ¥áĨ":2627,"ĠáĦĬáħ²áĨ":2628,"ĠáĦĭáħ«áĨ":2629,"ĠáĦĮáħ®áĨ":2630,"ĠáĦĬáħ§áĨ":2631,"Ġï¸":2632,"ĠáĦģáħ¤áĨ":2633,"ĠáĦħáħµáĨ":2634,"ĠáĦĢáħ°áĨ":2635,"ĠáĦģáħ¦áĨ":2636,"ĠáĦĩáħ«áĨ":2637,"ĠáĦĪáħ¦áĨ":2638,"Ġà¤Ĩ":2639,"ĠáĦħáħ¡áĨ":2640,"ĠáĦģáħ«áĨ":2641,"ĠáĦĮáħµáĨ":2642,"ĠáĦįáħ¯áĨ":2643,"ĠáĦĨáħ±áĨ":2644,"ĠáĦĥáħªáĨ":2645,"ĠáĦĴáħ³áĨ":2646,"ĠáĦĮáħ¬áĨ":2647,"ĠáĦĢáħ¥áĨ":2648,"ĠáĦįáħ®áĨ":2649,"ĠáĦİáħ£áĨ":2650,"ĠáĦĮáħ¢áĨ":2651,"ĠáĦĬáħ¤áĨ":2652,"ĠáĦħáħ´áĨ":2653,"ĠáĦĭáħµáĨ":2654,"ĠáĦĨáħ§áĨ":2655,"ĠáĦĭáħ¨áĨ":2656,"ĠáĦĮáħ²áĨ":2657,"ĠáĦĢáħ¯áĨ":2658,"ĠáĦħáħ£áĨ":2659,"ĠáĦįáħ±áĨ":2660,"ĠáĦīáħ²áĨ":2661,"ĠáĦĬáħ³áĨ":2662,"ĠáĦĥáħ¢áĨ":2663,"ĠáĦĩáħ²áĨ":2664,"ĠáĦĦáħ°áĨ":2665,"ĠáĦĳáħŃáĨ":2666,"ĠáĦħáħ¢áĨ":2667,"ĠáĦĨáħ´áĨ":2668,"ĠáĦĩáħ±áĨ":2669,"ĠáĦģáħªáĨ":2670,"ĠáĦĭáħ®áĨ":2671,"ĠáĦħáħ¬áĨ":2672,"ĠáĦİáħ©áĨ":2673,"ĠòĴ":2674,"ĠáĦģáħ¥áĨ":2675,"ĠáĦİáħªáĨ":2676,"ĠáĦĨáħ«áĨ":2677,"ĠáĦĭáħ¢áĨ":2678,"ĠáĦīáħ¤áĨ":2679,"ĠáĦĪáħµáĨ":2680,"ĠáĦĬáħ«áĨ":2681,"ĠáĦıáħ¬áĨ":2682,"ĠáĦĨáħµáĨ":2683,"ĠáĦĬáħ®áĨ":2684,"ĠáĦĢáħµáĨ":2685,"ĠáĦĩáħ°áĨ":2686,"ĠáĦĢáħ²áĨ":2687,"ĠáĦįáħ²áĨ":2688,"ĠáĦİáħ¬áĨ":2689,"ĠáĦĴáħ¬áĨ":2690,"ĠáĦģáħ¢áĨ":2691,"ĠáĦĨáħŃáĨ":2692,"ĠáĦĥáħ¥áĨ":2693,"ĠáĦĳáħ¥áĨ":2694,"ĠáĦĩáħ´áĨ":2695,"ĠáĦĦáħ®áĨ":2696,"ĠáĦĬáħ¦áĨ":2697,"ĠáĦĮáħ¡áĨ":2698,"ĠáĦıáħ£áĨ":2699,"ĠðĴ":2700,"ĠáĦįáħ«áĨ":2701,"ĠáĦİáħ±áĨ":2702,"ĠáĦĨáħ¤áĨ":2703,"ĠáĦĨáħ°áĨ":2704,"ĠáĦģáħ¯áĨ":2705,"ĠáĦĬáħ°áĨ":2706,"Ġà¤£":2707,"ĠáĦĪáħ¬áĨ":2708,"ĠáĦģáħ§áĨ":2709,"ĠáĦĭáħ¦áĨ":2710,"ĠáĦĳáħ¤áĨ":2711,"ĠáĦĬáħ©áĨ":2712,"ĠáĦīáħ´áĨ":2713,"ĠáĦĪáħŃáĨ":2714,"ĠáĦĭáħ²áĨ":2715,"ĠáĦĭáħ£áĨ":2716,"ĠáĦĥáħ³áĨ":2717,"ĠáĦĪáħªáĨ":2718,"ĠáĦĮáħ³áĨ":2719,"ĠáĦĥáħ£áĨ":2720,"ĠáĦĩáħ©áĨ":2721,"ĠáĦıáħ©áĨ":2722,"ĠáĦģáħ³áĨ":2723,"ĠáĦĩáħ¯áĨ":2724,"ĠáĦĲáħ¢áĨ":2725,"ĠáĦĮáħ¥áĨ":2726,"ĠáĦģáħ¬áĨ":2727,"ĠáĦĩáħ¢áĨ":2728,"ĠáĦīáħ£áĨ":2729,"ĠáĦģáħ¡áĨ":2730,"ĠáĦĭáħ°áĨ":2731,"ĠáĦĴáħ±áĨ":2732,"ĠáĦįáħ¬áĨ":2733,"ĠáĦĳáħ¡áĨ":2734,"ĠáĦĢáħ©áĨ":2735,"ĠáĦİáħµáĨ":2736,"Ġâĥ":2737,"ĠáĦģáħ®áĨ":2738,"ĠáĦĮáħ£áĨ":2739,"ĠáĦħáħ¥áĨ":2740,"ĠáĦĭáħŃáĨ":2741,"ĠáĦĭáħ±áĨ":2742,"ĠáĦĩáħªáĨ":2743,"ĠáĦİáħ¡áĨ":2744,"ĠáĦĥáħ²áĨ":2745,"ĠáĦĳáħ±áĨ":2746,"Ġð¥":2747,"ĠáĦĮáħ§áĨ":2748,"ĠáĦįáħ°áĨ":2749,"ĠáĦıáħ¡áĨ":2750,"ĠáĦģáħ©áĨ":2751,"ĠáĦĪáħ´áĨ":2752,"ĠáĦĦáħ¯áĨ":2753,"ĠáĦĦáħ±áĨ":2754,"ĠáĦĳáħ©áĨ":2755,"ĠáĦĪáħ¢áĨ":2756,"ĠáĦĬáħ±áĨ":2757,"ĠáĦįáħ³áĨ":2758,"ĠáĦĤáħ¢áĨ":2759,"ĠáĦģáħ°áĨ":2760,"ĠáĦĳáħ³áĨ":2761,"ĠáĦĦáħŃáĨ":2762,"§áĩĤ":2763,"Ġá©":2764,"ĠáĦĮáħ¯áĨ":2765,"ĠáĦĳáħ£áĨ":2766,"ĠáĦīáħ±áĨ":2767,"ĠáĦĬáħŃáĨ":2768,"ĠáĦĥáħŃáĨ":2769,"ĠáĦİáħ§áĨ":2770,"ĠáĦİáħ¯áĨ":2771,"ĠáĦīáħ¢áĨ":2772,"Ġñ¯":2773,"ĠáĦĨáħ¯áĨ":2774,"ĠáĦĨáħ¥áĨ":2775,"ĠáĦĮáħ´áĨ":2776,"ĠáĦĢáħŃáĨ":2777,"ĠáĦİáħŃáĨ":2778,"ĠáĦīáħ§áĨ":2779,"ĠáĦıáħ¨áĨ":2780,"Ġà¤«":2781,"ĠáĦĬáħ¬áĨ":2782,"ĠáĦįáħ§áĨ":2783,"ĠáĦĨáħ¢áĨ":2784,"ĠáĦħáħ³áĨ":2785,"ĠáĦĮáħ©áĨ":2786,"ĠáĦĳáħ¬áĨ":2787,"ĠáĦĪáħ£áĨ":2788,"ĠáĦĢáħ¬áĨ":2789,"ĠáĦĢáħ±áĨ":2790,"ĠáĦĲáħ¬áĨ":2791,"ĠáĦĩáħ¤áĨ":2792,"ĠáĦİáħ¨áĨ":2793,"ĠáĦīáħ°áĨ":2794,"ĠáĦĲáħ£áĨ":2795,"ĠáĦĮáħ¨áĨ":2796,"ĠáĦĩáħ£áĨ":2797,"ĠáĦĨáħ¦áĨ":2798,"ĠáĦĢáħ³áĨ":2799,"ĠáĦįáħ¦áĨ":2800,"ĠáĦĴáħ¢áĨ":2801,"ĠáĦħáħ°áĨ":2802,"ĠáĦĢáħªáĨ":2803,"Ġà£":2804,"ĠáĦĮáħ±áĨ":2805,"ĠáĦĥáħ¡áĨ":2806,"ĠáĦĢáħ´áĨ":2807,"ĠáĦĳáħ²áĨ":2808,"ĠáĦĴáħŃáĨ":2809,"ĠáĦĪáħ²áĨ":2810,"ĠáĦĪáħ¯áĨ":2811,"ĠáĦıáħ²áĨ":2812,"ĠáĦĨáħ®áĨ":2813,"ĠáĦĴáħ°áĨ":2814,"ĠáĦĲáħ±áĨ":2815,"ĠáĦĬáħ¡áĨ":2816,"ĠáĦĭáħ¡áĨ":2817,"ĠáĦīáħ©áĨ":2818,"ĠáĦīáħªáĨ":2819,"ĠáĦīáħ¥áĨ":2820,"ĠáĦĪáħ¥áĨ":2821,"ĠáĦıáħŃáĨ":2822,"ĠáĦĭáħ©áĨ":2823,"ĠáĦĭáħ¯áĨ":2824,"ĠáĦįáħ¨áĨ":2825,"ĠáĦīáħ¬áĨ":2826,"ĠáĦĬáħ¢áĨ":2827,"ĠáĦĦáħ¨áĨ":2828,"ĠòŁ":2829,"ĠáĦįáħ¡áĨ":2830,"ĠáĦİáħ¢áĨ":2831,"ĠáĦĪáħ¡áĨ":2832,"ĠáĦĲáħ¡áĨ":2833,"ĠáĦĲáħªáĨ":2834,"ĠáĦĬáħ´áĨ":2835,"ĠáĦįáħ¤áĨ":2836,"ĠáĦĪáħ¨áĨ":2837,"ĠáĦıáħ«áĨ":2838,"ĠáĦįáħ´áĨ":2839,"ĠáĦĩáħŃáĨ":2840,"ĠáĦĨáħ£áĨ":2841,"ĠáĦħáħ¯áĨ":2842,"ĠáĦģáħ¨áĨ":2843,"ĠáĦĭáħ§áĨ":2844,"ĠáĦĭáħ¤áĨ":2845,"ĠáĦĳáħ¯áĨ":2846,"ĠáĦĤáħ´áĨ":2847,"Ġðķ":2848,"ĠáĦĳáħ«áĨ":2849,"ĠáĦİáħ«áĨ":2850,"ĠáĦĴáħ¥áĨ":2851,"°áĩģ":2852,"ĠáĦħáħ¦áĨ":2853,"ĠáĦĮáħªáĨ":2854,"ĠáĦĮáħ¦áĨ":2855,"ĠáĦĤáħ³áĨ":2856,"ĠáĦĥáħ«áĨ":2857,"ĠáĦĢáħ§áĨ":2858,"ĠáĦĩáħ¡áĨ":2859,"ĠáĦĴáħ¤áĨ":2860,"ĠáĦīáħ³áĨ":2861,"ĠáĦĴáħ¦áĨ":2862,"ĠáĦīáħ«áĨ":2863,"ĠáĦħáħ§áĨ":2864,"ĠáĦıáħ¢áĨ":2865,"ĠáĦıáħªáĨ":2866,"ĠáĦĲáħ¨áĨ":2867,"ĠáĦĥáħ¤áĨ":2868,"ĠáĦįáħ©áĨ":2869,"ĠáĦıáħ°áĨ":2870,"ĠáĦĲáħ¥áĨ":2871,"ĠáĦĤáħ¤áĨ":2872,"³áĩģ":2873,"ĠáĦĢáħ¢áĨ":2874,"ĠáĦĢáħ¤áĨ":2875,"ĠáĦĦáħ³áĨ":2876,"Ġà¤Ī":2877,"ĠáĦĨáħªáĨ":2878,"ĠáĦĬáħ£áĨ":2879,"ĠáĦĩáħ³áĨ":2880,"ĠáĦĩáħ®áĨ":2881,"ĠáĦĴáħªáĨ":2882,"ĠáĦīáħ¦áĨ":2883,"¡áĩĢ":2884,"ªáĩĤ":2885,"ĠáĦħáħ®áĨ":2886,"ĠáĦĭáħªáĨ":2887,"ĠáĦįáħ£áĨ":2888,"ĠáĦīáħ¨áĨ":2889,"ĠáĦīáħ¯áĨ":2890,"ĠáĦĪáħ«áĨ":2891,"ĠáĦĦáħ²áĨ":2892,"ĠáĦħáħ±áĨ":2893,"ĠáĦĢáħ¡áĨ":2894,"ĠáĦįáħ¥áĨ":2895,"ĠáĦĦáħ«áĨ":2896,"ĠáĦĦáħµáĨ":2897,"±áĩĢ":2898,"ĠáĦĢáħ¨áĨ":2899,"ĠáĦĳáħ¢áĨ":2900,"ĠáĦĩáħ¦áĨ":2901,"ĠáĦĥáħ®áĨ":2902,"ĠáĦįáħ¢áĨ":2903,"ĠáĦīáħ¡áĨ":2904,"ĠáĦĦáħ´áĨ":2905,"ĠáĦĤáħ²áĨ":2906,"ĠáĦĤáħ£áĨ":2907,"¢áĩĤ":2908,"«áĩĤ":2909,"Ġòı":2910,"ĠáĦĮáħ°áĨ":2911,"ĠáĦįáħµáĨ":2912,"ĠáĦĳáħ°áĨ":2913,"ĠáĦĪáħ©áĨ":2914,"ĠáĦĲáħ§áĨ":2915,"ĠáĦİáħ³áĨ":2916,"ĠáĦĪáħ®áĨ":2917,"ĠáĦħáħ©áĨ":2918,"ĠáĦĴáħ«áĨ":2919,"ĠáĦıáħ¦áĨ":2920,"³áĩĤ":2921,"ĠáĦĢáħ£áĨ":2922,"ĠáĦįáħªáĨ":2923,"ĠáĦĩáħ¬áĨ":2924,"ĠáĦĦáħ§áĨ":2925,"ĠáĦĤáħ¨áĨ":2926,"ĠáĦĨáħ¬áĨ":2927,"ĠáĦĴáħ¡áĨ":2928,"ĠáĦĲáħ²áĨ":2929,"ĠáĦĮáħ«áĨ":2930,"ĠáĦİáħ¥áĨ":2931,"ĠáĦĤáħ©áĨ":2932,"ĠáĦĭáħ¥áĨ":2933,"ĠáĦĮáħ¤áĨ":2934,"ĠáĦĴáħ²áĨ":2935,"ĠáĦīáħµáĨ":2936,"ĠáĦĲáħµáĨ":2937,"ĠáĦĤáħ¡áĨ":2938,"Ġðµ":2939,"ĠáĦĴáħ£áĨ":2940,"ĠáĦĦáħ©áĨ":2941,"ĠáĦĦáħ¢áĨ":2942,"ĠáĦĦáħ¥áĨ":2943,"Ġà¤ĺ":2944,"ĠñŁ":2945,"ĠáĦĢáħ¦áĨ":2946,"ĠáĦİáħ¦áĨ":2947,"ĠáĦĦáħ£áĨ":2948,"¦áĩĤ":2949,"Ġóı":2950,"ĠáĦĬáħªáĨ":2951,"ĠáĦĳáħªáĨ":2952,"ĠáĦĪáħ±áĨ":2953,"ĠáĦıáħ¥áĨ":2954,"Ġñŀ":2955,"Ġóİ":2956,"ĠáĦİáħ´áĨ":2957,"ĠáĦĪáħ§áĨ":2958,"ĠáĦĦáħ¦áĨ":2959,"ĠáĦĦáħ¤áĨ":2960,"ĠáĦĲáħ®áĨ":2961,"ĠáĦĩáħ¨áĨ":2962,"ĠáĦıáħµáĨ":2963,"ĠáĦĦáħªáĨ":2964,"ŃáĩĢ":2965,"Ġñ¦":2966,"Ġñı":2967,"ĠáĦģáħµáĨ":2968,"ĠáĦİáħ¤áĨ":2969,"ĠâĨĴ":2970,"¯áĩĢ":2971,"Ńáĩģ":2972,"ĠáĦĭáħ¬áĨ":2973,"ĠáĦİáħ²áĨ":2974,"ĠáĦıáħ§áĨ":2975,"ĠáĦĤáħ«áĨ":2976,"¯áĩĤ":2977,"µáĩĤ":2978,"Ġò§":2979,"Ġðŀ":2980,"ĠáĦĥáħ¬áĨ":2981,"ĠáĦĴáħ¯áĨ":2982,"ĠáĦıáħ³áĨ":2983,"ĠáĦĲáħ´áĨ":2984,"ĠáĦĲáħ¦áĨ":2985,"Ġôİ":2986,"Ġò¦":2987,"ĠáĦİáħ°áĨ":2988,"ĠáĦĦáħ¡áĨ":2989,"ĠáĦĪáħ¤áĨ":2990,"§áĩĢ":2991,"ĠáĦħáħŃáĨ":2992,"ĠáĦĥáħ°áĨ":2993,"ĠáĦĳáħ´áĨ":2994,"ĠáĦīáħŃáĨ":2995,"ĠáĦıáħ®áĨ":2996,"ĠáĦĲáħ¤áĨ":2997,"ĠáĦĤáħ±áĨ":2998,"¤áĩĤ":2999,"¯áĩģ":3000,"´áĩĢ":3001,"ĠðŃ":3002,"ĠáĦĥáħ±áĨ":3003,"ĠáĦĲáħ°áĨ":3004,"°áĩĤ":3005,"ĠáĦĥáħ¯áĨ":3006,"ĠáĦĴáħ©áĨ":3007,"²áĩĤ":3008,"ĠáĦĲáħŃáĨ":3009,"®áĩĢ":3010,"ŃáĩĤ":3011,"Ġð¾":3012,"ĠáĦģáħ´áĨ":3013,"ĠáĦĴáħ®áĨ":3014,"ĠáĦıáħ´áĨ":3015,"ĠòĶ":3016,"ĠáĦħáħ²áĨ":3017,"ĠáĦĴáħ§áĨ":3018,"ĠáĦĤáħ°áĨ":3019,"¢áĩģ":3020,"£áĩģ":3021,"ĠáĦħáħ¨áĨ":3022,"ĠáĦĳáħµáĨ":3023,"ĠáĦĲáħ©áĨ":3024,"ĠáĦĤáħŃáĨ":3025,"ĠáĦĤáħµáĨ":3026,"Ġòķ":3027,"²áĩģ":3028,"Ġñ·":3029,"ĠáĦıáħ±áĨ":3030,"ĠáĦĲáħ³áĨ":3031,"ĠáĦĥáħ´áĨ":3032,"¢áĩĢ":3033,"«áĩĢ":3034,"Ġó¯":3035,"ĠáĦĦáħ¬áĨ":3036,"ĠòĿ":3037,"ĠáĦĩáħ¥áĨ":3038,"¤áĩģ":3039,"Ġó§":3040,"ĠáĦģáħ±áĨ":3041,"ĠáĦĩáħ§áĨ":3042,"ĠáĦĲáħ«áĨ":3043,"ĠáĦĲáħ¯áĨ":3044,"ĠáĦĤáħªáĨ":3045,"¬áĩĤ":3046,"¬áĩģ":3047,"Ġò¨":3048,"ĠáĦıáħ¤áĨ":3049,"ĠáĦĬáħµáĨ":3050,"ĠáĦİáħ®áĨ":3051,"ĠáĦĴáħ¨áĨ":3052,"ĠáĦĤáħ®áĨ":3053,"©áĩĤ":3054,"ĠóŁ":3055,"ĠáĦģáħ²áĨ":3056,"ĠáĦıáħ¯áĨ":3057,"§áĩģ":3058,"Ġñ»":3059,"Ġñİ":3060,"ĠáĦĤáħ¥áĨ":3061,"±áĩģ":3062,"Ġòĺ":3063,"Ġð®":3064,"Ġò«":3065,"ĠáĦĩáħµáĨ":3066,"¡áĩģ":3067,"²áĩĢ":3068,"³áĩĢ":3069,"Ġòĵ":3070,"Ġôı":3071,"Ġóª":3072,"°áĩĢ":3073,"Ġò¤":3074,"Ġòľ":3075,"«áĩģ":3076,"ªáĩĢ":3077,"´áĩĤ":3078,"ĠòĬ":3079,"Ġð·":3080,"ĠáĦĪáħ³áĨ":3081,"¨áĩĤ":3082,"Ġò£":3083,"ĠáĦīáħ®áĨ":3084,"ĠáĦĤáħ¬áĨ":3085,"ĠòĮ":3086,"Ġñ®":3087,"ĠáĦĤáħ¯áĨ":3088,"ĠáĦĤáħ¦áĨ":3089,"Ġðĺ":3090,"Ġò©":3091,"¥áĩĢ":3092,"Ġòħ":3093,"¨áĩĢ":3094,"±áĩĤ":3095,"´áĩģ":3096,"Ġñ½":3097,"ĠñĿ":3098,"Ġó¢":3099,"ĠôĨ":3100,"¨áĩģ":3101,"µáĩģ":3102,"Ġñĳ":3103,"Ġó¿":3104,"£áĩĤ":3105,"Ġó³":3106,"ĠáĦĳáħ®áĨ":3107,"¦áĩģ":3108,"Ġò¢":3109,"Ġòª":3110,"ĠòŃ":3111,"Ġñ§":3112,"ĠðĶ":3113,"¤áĩĢ":3114,"¬áĩĢ":3115,"ĠóĶ":3116,"¥áĩģ":3117,"Ġð½":3118,"ªáĩģ":3119,"Ġñį":3120,"Ġð«":3121,"Ġð»":3122,"ĠáĦĥáħµáĨ":3123,"®áĩģ":3124,"Ġñħ":3125,"Ġó»":3126,"ĠðĽ":3127,"Ġñ¹":3128,"ĠñĶ":3129,"Ġð¶":3130,"©áĩģ":3131,"©áĩĢ":3132,"Ġñ¥":3133,"Ġó´":3134,"Ġóŀ":3135,"Ġðº":3136,"Ġñ³":3137,"Ġñ¾":3138,"ĠáĦĤáħ§áĨ":3139,"Ġôĩ":3140,"Ġôĭ":3141,"Ġò¾":3142,"Ġñķ":3143,"Ġð¤":3144,"¡áĩĤ":3145,"Ġñ²":3146,"Ġðĸ":3147,"ĠôĮ":3148,"Ġñ¢":3149,"Ġñ°":3150,"Ġð¯":3151,"Ġðľ":3152,"¥áĩĤ":3153,"®áĩĤ":3154,"Ġò»":3155,"Ġò½":3156,"Ġòİ":3157,"Ġóĳ":3158,"Ġð¦":3159,"Ġñ¿":3160,"Ġð¬":3161,"ĠôĤ":3162,"Ġò¡":3163,"Ġò´":3164,"Ġñĥ":3165,"Ġñª":3166,"Ġñ´":3167,"Ġó«":3168,"Ġòł":3169,"Ġó®":3170,"Ġò®":3171,"Ġòī":3172,"Ġñº":3173,"Ġó¸":3174,"Ġñĸ":3175,"Ġó¤":3176,"Ġóľ":3177,"Ġð£":3178,"ĠâŁ¨":3179,"ĠòĤ":3180,"ĠñĢ":3181,"ĠóĦ":3182,"ĠóĿ":3183,"Ġó¦":3184,"Ġð´":3185,"µáĩĢ":3186,"Ġò²":3187,"ĠáĦĪáħ°áĨ":3188,"¦áĩĢ":3189,"Ġò³":3190,"Ġóĵ":3191,"ĠóĻ":3192,"Ġó£":3193,"Ġó¼":3194,"ĠóĮ":3195,"Ġòº":3196,"Ġñĭ":3197,"Ġò¥":3198,"Ġòµ":3199,"Ġò¹":3200,"Ġó·":3201,"Ġóģ":3202,"Ġð¢":3203,"ĠòĽ":3204,"Ġóº":3205,"Ġð±":3206,"Ġòį":3207,"Ġñ¤":3208,"ĠñĹ":3209,"Ġó²":3210,"Ġóį":3211,"Ġð³":3212,"Ġð¸":3213,"Ġòĥ":3214,"Ġòŀ":3215,"ĠñĨ":3216,"Ġò¬":3217,"ĠòĦ":3218,"Ġð¡":3219,"ĠôĬ":3220,"Ġò¯":3221,"ĠñĻ":3222,"Ġôī":3223,"£áĩĢ":3224,"Ġò·":3225,"Ġñ¸":3226,"Ġó¬":3227,"Ġòĳ":3228,"Ġñī":3229,"ĠñĮ":3230,"ĠóĬ":3231,"Ġóĭ":3232,"Ġð¹":3233,"ĠòĲ":3234,"Ġñµ":3235,"ĠóĤ":3236,"ĠóĨ":3237,"ĠðĻ":3238,"Ġó¨":3239,"Ġóµ":3240,"ĠóĴ":3241,"Ġò¼":3242,"Ġòģ":3243,"ĠñĴ":3244,"Ġó½":3245,"Ġóĥ":3246,"Ġð¨":3247,"Ġðĵ":3248,"ĠòĹ":3249,"Ġñ¼":3250,"ĠñŃ":3251,"Ġñ£":3252,"Ġó¡":3253,"ĠñĲ":3254,"Ġòļ":3255,"ĠñĬ":3256,"ĠóĽ":3257,"Ġð¼":3258,"Ġôį":3259,"Ġñ±":3260,"Ġñĵ":3261,"ĠâĢ²":3262,"Ġñ«":3263,"ĠñĤ":3264,"ĠðĲ":3265,"ĠðĹ":3266,"Ġôģ":3267,"Ġñ¶":3268,"ĠóŃ":3269,"Ġñ©":3270,"Ġð¿":3271,"Ġðł":3272,"ĠòĻ":3273,"Ġñ¡":3274,"Ġñł":3275,"ĠóĹ":3276,"Ġá¿":3277,"Ġòĸ":3278,"Ġñľ":3279,"Ġóĸ":3280,"ĠôĦ":3281,"Ġà¤Ľ":3282,"Ġòĩ":3283,"Ġó¥":3284,"Ġóħ":3285,"Ġñģ":3286,"ĠñĦ":3287,"Ġð°":3288,"Ġôĥ":3289,"Ġò±":3290,"Ġñĩ":3291,"Ġñļ":3292,"Ġò°":3293,"Ġó¹":3294,"ĠóĲ":3295,"Ġðª":3296,"Ġðĳ":3297,"Ġó¶":3298,"ĠôĢ":3299,"Ġó¾":3300,"Ġôħ":3301,"Ġóķ":3302,"ĠôĪ":3303,"Ġóĺ":3304,"Ġó©":3305,"Ġð©":3306,"ĠòĢ":3307,"ĠâĸĪ":3308,"Ġñ¬":3309,"Ġół":3310,"Ġò¸":3311,"Ġò¿":3312,"Ġó°":3313,"Ġóī":3314,"Ġòĭ":3315,"Ġñĺ":3316,"Ġóļ":3317,"ĠòĪ":3318,"Ġó±":3319,"Ġðļ":3320,"ĠñĪ":3321,"Ġð§":3322,"Ġñ¨":3323,"Ġò¶":3324,"ĠòĨ":3325,"Ġð²":3326,"ĠóĪ":3327,"Ġá½":3328,"ĠðĿĺ":3329,"Ġóĩ":3330,"ĠâĨ©":3331,"ĠóĢ":3332,"Ġï¨":3333,"Ġâ¥Ĩ":3334,"Ġéĵ¦":3335,"Ġà¤ĵ":3336,"ĠñĽ":3337,"Ġè¢Ĭ":3338,"ĠâĢķ":3339,"ĠâĤ¹":3340,"Ġà¤Ĳ":3341,"Ġà¾":3342,"Ġï»¿":3343,"Ġá»":3344,"Ġà¤Ŀ":3345,"ĠâĴĸ":3346,"ĠâĤĤ":3347,"ĠâĢº":3348,"ĠáĦĢáħ«áĨ®":3349,"Ġâĸº":3350,"ı´":3351,"Ġá·":3352,"ĠâĢł":3353,"Ġà¤ł":3354,"Ġïİĩ":3355,"Ġçı»":3356,"Ġî´Ł":3357,"ĠâĢĳ":3358,"ĠâĴĹ":3359,"ĠâįĢ":3360,"Ġâıİ":3361,"ĠâľĤ":3362,"ĠâĬĹ":3363,"ĠçŁ»":3364,"ĠâĪĻ":3365,"ĠâĴĶ":3366,"Ġáº":3367,"ĠâĢ±":3368,"ĠâĪ¼":3369,"Ġà¤¢":3370,"ĠéĻļ":3371,"Ġä±ĳ":3372,"Ġâī¥":3373,"ĠáĦĦáħ°áĨ«":3374,"Ġä°ĳ":3375,"ĠæįĢ":3376,"ĠèĴĸ":3377,"Ġãĥı":3378,"Ġî¶Ĭ":3379,"Ġã§ĩ":3380,"ĠéĻĽ":3381,"ĠîĴĸ":3382,"Ġâĸ¡":3383,"ĠâĴĺ":3384,"Ġîı¹":3385,"ĠáĦħáħªáĩĤ":3386,"ĠçıŁ":3387,"ĠãŁĹ":3388,"ĠâĨĲ":3389,"Ġâİĩ":3390,"Ġâ¦»":3391,"ĠáĦĨáħ¡áĨ±":3392,"ĠéŀŁ":3393,"Ġã·ı":3394,"ĠâĢİ":3395,"ĠîĴĶ":3396,"ĠæĴĸ":3397,"ĠáĦĥáħ¨áĨ¾":3398,"Ġïıı":3399,"ĠçİĶ":3400,"ĠçŀĶ":3401,"Ġãĥİ":3402,"Ġâıı":3403,"ĠæĢ±":3404,"ĠâĢ¹":3405,"Ġãı¯":3406,"Ġá®Ł":3407,"ĠæŁł":3408,"Ġè§ĭ":3409,"ĠáĦĨáħ¡áĨ¹":3410,"Ġá¿¾":3411,"ĠâĴ©":3412,"Ġâľį":3413,"ĠáĦĨáħ³áĨ©":3414,"ĠâĻŃ":3415,"Ġá¦»":3416,"Ġè«¾":3417,"Ġé¢¥":3418,"ĠâĴĻ":3419,"Ġãı¿":3420,"ĠâĿº":3421,"Ġã¿ĩ":3422,"ĠãģŁ":3423,"ĠáĦĨáħ³áĨ¹":3424,"ĠáĦħáħµáĨ½":3425,"Ġâģł":3426,"Ġãı»":3427,"Ġçı¿":3428,"ĠâĿŃ":3429,"Ġïı¿":3430,"ĠæĴĶ":3431,"Ġé¾ľ":3432,"Ġá¯Ł":3433,"ĠèĢħ":3434,"Ġâĺħ":3435,"ĠãıĹ":3436,"Ġã§Ł":3437,"ĠîĴĹ":3438,"Ġçİĩ":3439,"Ġçŀ´":3440,"Ġãİ½":3441,"ĠãĥĴ":3442,"ĠãĥĽ":3443,"ĠæĢĴ":3444,"Ġâĭħ":3445,"Ġä¤¥":3446,"Ġãħ±":3447,"ĠâĻ®":3448,"Ġâĺº":3449,"Ġâĺī":3450,"Ġâĺį":3451,"ĠãŁ»":3452,"ĠçŁ¿":3453,"ĠäĴĶ":3454,"Ġîıł":3455,"Ġãŀ´":3456,"Ġæĸĩ":3457,"Ġé§Ł":3458,"Ġá¯Ĥ":3459,"ĠâĢĲ":3460,"ĠáĦĦáħ°áĩģ":3461,"ĠïİŁ":3462,"ĠæĹł":3463,"ĠáĦĨáħ¨áĨ®":3464,"ĠâĻ¬":3465,"Ġãı§":3466,"ĠçŁ¹":3467,"ĠäĴĹ":3468,"ĠíŁ»":3469,"Ġãģı":3470,"ĠâĹı":3471,"Ġá§Ĭ":3472,"Ġâī¤":3473,"Ġç§¿":3474,"ĠâĴŃ":3475,"ĠæĿ¬":3476,"ĠîĴĺ":3477,"Ġã¯Ĺ":3478,"ĠäŁ§":3479,"ĠâĹĭ":3480,"Ġä¸į":3481,"ĠãĽİ":3482,"ĠáĦĬáħ¯áĨ½":3483,"ĠáĦħáħ´áĨ¶":3484,"ĠáĦĨáħ§áĩĤ":3485,"Ġïıİ":3486,"Ġäĵİ":3487,"ĠæĴĹ":3488,"ĠèĴĻ":3489,"ĠêĴĶ":3490,"Ġâķ©":3491,"ĠâīĪ":3492,"ĠáĦĨáħ³áĨ±":3493,"ĠáĦĬáħ¯áĨ¿":3494,"ĠáĦĨáħµáĨ®":3495,"ĠâĢ¨":3496,"ĠâĴķ":3497,"ĠçŁ¯":3498,"ĠäĴĺ":3499,"Ġæģľ":3500,"Ġã¯ĩ":3501,"ĠêĴĸ":3502,"ĠçĦĶ":3503,"Ġç¿ı":3504,"Ġç¯Ģ":3505,"Ġá¯ı":3506,"Ġæĩ²":3507,"Ġï¶Ĭ":3508,"ĠçĪĽ":3509,"ĠáĦĨáħ¡áĨ¾":3510,"ĠáĦĬáħ¯áĨ»":3511,"ĠáĦħáħªáĨº":3512,"Ġá¼":3513,"Ġà¤ĳ":3514,"Ġâĺ¸":3515,"ĠâĺĪ":3516,"Ġâģĭ":3517,"Ġïı¾":3518,"Ġç·Ĥ":3519,"Ġãģį":3520,"ĠèĴĹ":3521,"Ġçŀ§":3522,"ĠäĬĸ":3523,"Ġç¶ª":3524,"ĠåĬī":3525,"ĠðŁİ":3526,"ĠáĦĨáħ³áĨ¶":3527,"ĠáĦĨáħ¡áĨ¶":3528,"¤¥":3529,"ĶĴ":3530,"Ġâģİ":3531,"ĠâĿ®":3532,"ĠçŁ§":3533,"ĠçŁŁ":3534,"Ġïı»":3535,"Ġïı½":3536,"Ġäĵľ":3537,"Ġéŀ¿":3538,"Ġç·´":3539,"Ġãģ²":3540,"ĠãģĿ":3541,"ĠéŁ¿":3542,"ĠêĴĹ":3543,"Ġá§ı":3544,"Ġç¿Ĥ":3545,"Ġá¯ĩ":3546,"Ġá¯Ĭ":3547,"ĠéĨĦ":3548,"ĠáĦĬáħ¯áĨ¾":3549,"Ġâģĳ":3550,"ĠâĿ¤":3551,"ĠãŁ¯":3552,"Ġïİ£":3553,"ĠäĴĸ":3554,"Ġã¢ĵ":3555,"Ġâį¥":3556,"Ġç·ı":3557,"ĠéŁ»":3558,"ĠéŁĽ":3559,"ĠèĴĺ":3560,"Ġïŀ¿":3561,"ĠêĴĺ":3562,"Ġäį£":3563,"ĠéıĽ":3564,"Ġé»¿":3565,"ĠçĮª":3566,"Ġî«½":3567,"ĠçļĦ":3568,"Ġèªª":3569,"Ġé¦Ł":3570,"Ġé½ĥ":3571,"Ġæ®º":3572,"ĠáĦĢáħ«áĨ´":3573,"ĠáĦĬáħ´áĨ¯":3574,"ĻĤ":3575,"Ġï¿Ĭ":3576,"ĠâĢ°":3577,"ĠâĴ´":3578,"ĠâŁł":3579,"Ġãı½":3580,"ĠïİĿ":3581,"Ġã§Ĭ":3582,"Ġç·ĩ":3583,"ĠäĿŃ":3584,"ĠãŀĻ":3585,"Ġãģµ":3586,"Ġãģ¸":3587,"ĠâĹł":3588,"Ġá§Ĺ":3589,"Ġã®Ł":3590,"ĠæĢ¹":3591,"Ġæı¹":3592,"Ġç´¿":3593,"Ġä¤¦":3594,"ĠïºĬ":3595,"ĠáĦĨáħ³áĨ¾":3596,"ĠáĦĥáħ©áĨº":3597,"ĠâĦı":3598,"ĠâĺĿ":3599,"ĠâģĴ":3600,"Ġçı§":3601,"Ġçı½":3602,"ĠâĿ¬":3603,"Ġïİ¿":3604,"ĠçŁĹ":3605,"ĠæĺĿ":3606,"Ġã§Ĺ":3607,"Ġã¯Ĥ":3608,"ĠäŁ¯":3609,"ĠêĴĻ":3610,"ĠæĹĲ":3611,"ĠãİŁ":3612,"Ġá¦Ł":3613,"Ġãĥķ":3614,"ĠèŁĤ":3615,"Ġâĩ§":3616,"Ġæ»Ń":3617,"Ġéł»":3618,"Ġéłĭ":3619,"ĠáĽ¾":3620,"ĠéĴĶ":3621,"ĠéĦĦ":3622,"Ġà¥·":3623,"ĠáĦĨáħ³áĨ®":3624,"Ġíŀ´":3625,"Ġð¢¡":3626,"§¢":3627,"ĠâĴµ":3628,"ĠâĺĻ":3629,"Ġçıı":3630,"ĠäĴĻ":3631,"Ġã·ĩ":3632,"ĠâįĨ":3633,"ĠíŁĬ":3634,"Ġç·§":3635,"ĠæįĨ":3636,"Ġãģĭ":3637,"ĠãģĽ":3638,"ĠâĬĸ":3639,"Ġá¢ĭ":3640,"ĠâĶĶ":3641,"ĠçĽŀ":3642,"Ġçħ®":3643,"Ġîĩĩ":3644,"ĠãĢĤ":3645,"Ġê¢©":3646,"ĠáĦĨáħ±áĨ¾":3647,"ĠáĦĨáħ´áĨª":3648,"ĠáĦĨáħ²áĩĤ":3649,"ĠãŁ§":3650,"Ġïİ´":3651,"Ġã§Ĥ":3652,"ĠíŁ½":3653,"ĠäĿ®":3654,"Ġãģģ":3655,"ĠâĬ¨":3656,"Ġá¢ĵ":3657,"ĠâĵĽ":3658,"Ġá§Ł":3659,"Ġã¦Ł":3660,"ĠèįĴ":3661,"Ġå¥ĳ":3662,"Ġçķ¥":3663,"Ġæ¨Ĥ":3664,"ĠæĨİ":3665,"Ġè¬¹":3666,"ĠáĦħáħªáĨ¿":3667,"ĠáĦĥáħ§áĨ¯":3668,"ĠáĦĴáħµáĨ¾":3669,"ĠáĦĳáħ¦áĨ®":3670,"ĠáĦĦáħ¯áĨ¬":3671,"ĠâĢį":3672,"ĠáĦĨáħ³áĩģ":3673,"Ġâģı":3674,"Ġçıļ":3675,"Ġã·Ł":3676,"ĠíŁ¼":3677,"ĠäĿ£":3678,"ĠäĿĲ":3679,"ĠæĴĺ":3680,"Ġã¿Ĥ":3681,"Ġéİ¿":3682,"ĠâĬĻ":3683,"ĠçĶĶ":3684,"Ġâ£»":3685,"ĠéıĹ":3686,"ĠéļĿ":3687,"Ġé»İ":3688,"Ġï¯ĩ":3689,"Ġæħ¨":3690,"Ġç¹ģ":3691,"Ġè±¡":3692,"ĠáĦĨáħ¨áĨ¬":3693,"ĠáĦĥáħ¨áĨ³":3694,"ĠáĦĥáħ§áĨ¾":3695,"ĠáĦħáħ«áĨ®":3696,"ĠáĦħáħ£":3697,"Ġâģľ":3698,"Ġçıĩ":3699,"ĠãŁĶ":3700,"Ġâľ·":3701,"ĠçŁ¥":3702,"Ġâ¥©":3703,"ĠäĶº":3704,"ĠäĵĮ":3705,"Ġã¿¥":3706,"Ġã¯Ł":3707,"Ġæįĥ":3708,"ĠâĹĲ":3709,"Ġè£ı":3710,"Ġæķ©":3711,"ĠäĬĺ":3712,"ĠäºĨ":3713,"Ġâ«µ":3714,"Ġâħĵ":3715,"Ġï¯Ĥ":3716,"ĠæĻ´":3717,"Ġèĵ¼":3718,"ĠáĦĨáħ¡áĨ©":3719,"ĠáĦĭáħ³áĨ²":3720,"ĠðĿķĴ":3721,"ĠáĦĪáħ¦áĨ¨":3722,"Ŀ§":3723,"Ġï¿§":3724,"ĠâĢĴ":3725,"ĠâĻ£":3726,"ĠáĦĭáħ±áĩĢ":3727,"ĠâĤĻ":3728,"ĠâĪŀ":3729,"Ġâĺ»":3730,"Ġçı¯":3731,"ĠâĿ§":3732,"ĠãŁı":3733,"Ġïı¯":3734,"Ġïıĩ":3735,"ĠïıĹ":3736,"ĠïıŁ":3737,"Ġæĺį":3738,"ĠæģĬ":3739,"Ġãªĵ":3740,"Ġéŀ´":3741,"ĠîĴ´":3742,"Ġç·Ĭ":3743,"ĠéİŁ":3744,"Ġãģ¦":3745,"ĠèĴĶ":3746,"ĠâĵĿ":3747,"Ġãİ¼":3748,"Ġä¸Ń":3749,"Ġç¯¿":3750,"Ġé¸ŀ":3751,"Ġé§Ĺ":3752,"Ġã¶¿":3753,"ĠâĶĬ":3754,"ĠçĽĽ":3755,"Ġå¯§":3756,"Ġâ³º":3757,"Ġãļİ":3758,"ĠæłĹ":3759,"ĠåĸĿ":3760,"Ġè²¡":3761,"ĠáĦĥáħ§áĨ³":3762,"ĠáĦĥáħ§áĨº":3763,"ĠáĦĨáħ°áĨ²":3764,"ĠáĦıáħ°áĨ¯":3765,"ĭ®":3766,"ĠáĦħáħ¢":3767,"ĠãıŃ":3768,"Ġæĺ·":3769,"Ġã¢ĥ":3770,"Ġéŀĩ":3771,"ĠéŀĿ":3772,"Ġæįħ":3773,"Ġãģ»":3774,"ĠæĹĺ":3775,"Ġãĥĺ":3776,"Ġéļµ":3777,"Ġîľ»":3778,"ĠäºĤ":3779,"Ġé·ª":3780,"Ġï¯Ł":3781,"Ġâļ¥":3782,"Ġæħł":3783,"Ġè¢Ģ":3784,"Ġéµ¿":3785,"ĠçĽĬ":3786,"Ġå§Ł":3787,"Ġá¯Ĺ":3788,"Ġï®Ł":3789,"Ġé¬Ĵ":3790,"Ġç°¾":3791,"Ġà³º":3792,"ĠáĦħáħªáĨ¸":3793,"ĠáĦħáħ¤áĨ²":3794,"ĠðĿķĸ":3795,"ŁĮ":3796,"ĠâĢ³":3797,"ĠâŁĦ":3798,"ĠãıŁ":3799,"ĠæĿ»":3800,"Ġã·Ħ":3801,"Ġîıı":3802,"ĠâįĦ":3803,"Ġéŀ£":3804,"ĠéŀĶ":3805,"Ġã¿Ĺ":3806,"ĠîŁ»":3807,"ĠæįĦ":3808,"Ġãģ¨":3809,"ĠâĬµ":3810,"Ġå¾Ń":3811,"ĠãĥĪ":3812,"Ġæķĸ":3813,"Ġé´ĵ":3814,"Ġâī²":3815,"ĠãĦĶ":3816,"Ġè«¸":3817,"Ġâĩł":3818,"ĠæŁĲ":3819,"ĠïĤ«":3820,"ĠäĺĿ":3821,"Ġæµģ":3822,"Ġéĥ½":3823,"Ġéĥŀ":3824,"Ġâ´º":3825,"Ġéģı":3826,"Ġï¾³":3827,"ĠâĮĬ":3828,"Ġè¦Ĩ":3829,"ĠèĹį":3830,"Ġç®Ľ":3831,"Ġçĩİ":3832,"ĠïĦ¼":3833,"Ġåĥ§":3834,"ĠáĦĥáħ¨áĨ·":3835,"Ġíŀ¿":3836,"ĠáĦĨáħ²áĨ¼":3837,"ĠáĦĬáħ¨áĨ¨":3838,"ĠáĦĦáħ®áĨ¹":3839,"®Ľ":3840,"ĩĬ":3841,"ĠâĸĬ":3842,"ĠáĦĨáħ²áĩĢ":3843,"Ġâĺ¶":3844,"Ġâĺĺ":3845,"Ġâģī":3846,"ĠâģĶ":3847,"ĠâģĻ":3848,"Ġçı¥":3849,"ĠâĿ¢":3850,"ĠãŁ½":3851,"ĠãŁ¿":3852,"ĠãŁĴ":3853,"Ġâľº":3854,"ĠäĴ´":3855,"ĠäĶ¢":3856,"ĠäĶ³":3857,"ĠäĶł":3858,"ĠæģĴ":3859,"Ġâį©":3860,"Ġâį¶":3861,"Ġçİ´":3862,"Ġã¯·":3863,"Ġã¯Ĭ":3864,"Ġã¯ı":3865,"Ġéİ£":3866,"Ġéİ§":3867,"Ġéİ´":3868,"Ġãģĵ":3869,"ĠéŁĹ":3870,"ĠïŀĻ":3871,"ĠâķĢ":3872,"ĠâĵĮ":3873,"Ġâĵİ":3874,"Ġçŀ¸":3875,"Ġãĳŀ":3876,"ĠäĤĻ":3877,"Ġâ«Ŀ":3878,"Ġïį¹":3879,"Ġé·ļ":3880,"Ġç§Ł":3881,"Ġè«¥":3882,"ĠéĻį":3883,"Ġã¦¿":3884,"Ġêľ¶":3885,"Ġéģŀ":3886,"ĠæĤĶ":3887,"Ġâ²º":3888,"Ġé¯Ł":3889,"Ġî±©":3890,"Ġçģľ":3891,"ĠïĿ¹":3892,"ĠãĨģ":3893,"Ġè°¡":3894,"Ġá®¿":3895,"ĠçĢŀ":3896,"ĠãĢĪ":3897,"ĠáĦĭáħ´áĨ²":3898,"ĠáĦħáħ¡áĨ¿":3899,"ĠáĦĨáħ§áĨ¿":3900,"ĠáĦĥáħ¢áĨ³":3901,"ĠáĦĬáħ°áĨ´":3902,"ĠáĦĥáħ£áĨª":3903,"Ġï¿¯":3904,"Ġà¤Ĭ":3905,"ĠáĦģáħ³áĩĤ":3906,"ĠâĤĸ":3907,"Ġâģĵ":3908,"Ġãı¥":3909,"Ġãıĩ":3910,"ĠâĿ¾":3911,"ĠâĿĢ":3912,"Ġïİ¸":3913,"Ġïİŀ":3914,"Ġâľ¶":3915,"ĠäĴµ":3916,"ĠäĶĶ":3917,"ĠæĿ®":3918,"ĠæĿ¾":3919,"Ġã··":3920,"Ġã·Ĭ":3921,"Ġã·İ":3922,"Ġâįħ":3923,"Ġéŀĥ":3924,"ĠäĿº":3925,"ĠæĴ©":3926,"ĠîŁ¥":3927,"ĠîŁĩ":3928,"ĠäŁĺ":3929,"ĠãŀŁ":3930,"ĠãģĹ":3931,"ĠâĬĨ":3932,"ĠêĴķ":3933,"ĠæĹħ":3934,"ĠçĦĬ":3935,"Ġá§Ĥ":3936,"Ġá§ĩ":3937,"Ġãİ¸":3938,"ĠãİĶ":3939,"Ġç¿Ĭ":3940,"Ġç¾½":3941,"Ġå±¥":3942,"Ġäķª":3943,"ĠïŁŁ":3944,"Ġã¶Ł":3945,"ĠæŁĺ":3946,"Ġæ¸ļ":3947,"ĠïĨ¿":3948,"ĠâİĤ":3949,"ĠåķĴ":3950,"Ġè´Ī":3951,"ĠîĦĶ":3952,"Ġâ²²":3953,"Ġé¦¿":3954,"Ġè¤Ĳ":3955,"Ġè¤Ĵ":3956,"Ġèķ©":3957,"Ġèģ¯":3958,"ĠåĬ£":3959,"ĠèĢ«":3960,"Ġà¨¸":3961,"Ġà¨Ĺ":3962,"Ġç¸·":3963,"Ġå¡ŀ":3964,"ĠåĮĹ":3965,"ĠðŁĩ":3966,"ĠáĦĨáħ¨áĨ«":3967,"ĠáĦĨáħ¨áĨ¶":3968,"Ġà¥»":3969,"ĠáĦħáħ«áĨ¬":3970,"ĠáĦĬáħ¥áĨ¼":3971,"ĠáĦĨáħ§áĨº":3972,"ĠáĦīáħ²áĨ¸":3973,"ĠáĦĦáħ©áĨ´":3974,"ĳī":3975,"ĶĶ":3976,"ļĢ":3977,"ĠâĻ¥":3978,"ĠâĻ§":3979,"ĠâĻİ":3980,"Ġâĺİ":3981,"ĠãıĶ":3982,"ĠâľĿ":3983,"ĠçŁ¼":3984,"Ġïı¹":3985,"Ġâ¥·":3986,"Ġæĺ¶":3987,"ĠæĿ§":3988,"Ġæģİ":3989,"Ġã²Ģ":3990,"Ġã²ĺ":3991,"ĠîĴĻ":3992,"ĠíŁ¿":3993,"Ġç·¿":3994,"ĠäĿ§":3995,"ĠæĴĻ":3996,"Ġã¿Ĭ":3997,"Ġã¯¿":3998,"ĠãŀĿ":3999,"Ġéİ¼":4000,"Ġãģ¯":4001,"Ġãģĳ":4002,"Ġïŀ¹":4003,"ĠïŀŁ":4004,"Ġäıº":4005,"ĠæĵĦ":4006,"ĠæĹ¨":4007,"Ġå¾©":4008,"ĠâĵĨ":4009,"Ġá§ģ":4010,"Ġãİ´":4011,"Ġãĳľ":4012,"Ġãĥģ":4013,"Ġè£¸":4014,"Ġïį¿":4015,"Ġèĺ¿":4016,"Ġé¸¦":4017,"ĠçĮŁ":4018,"Ġã®Ŀ":4019,"Ġäŀ§":4020,"ĠæĢ°":4021,"ĠæŁ¨":4022,"ĠæļĪ":4023,"Ġáªĭ":4024,"Ġç´Ĳ":4025,"ĠçĵĢ":4026,"ĠáıĪ":4027,"ĠîĶĤ":4028,"Ġæ§¨":4029,"ĠéĳĮ":4030,"ĠæĬĺ":4031,"Ġèĵ®":4032,"ĠãĤ¦":4033,"ĠãĤģ":4034,"Ġæ²Ŀ":4035,"Ġè¿´":4036,"ĠïĹĬ":4037,"Ġèĭ¥":4038,"Ġå°¿":4039,"Ġîĸį":4040,"ĠáĦĨáħ¨áĨ©":4041,"ĠáĦĳáħ¦áĨ¨":4042,"ĠðĿķ¥":4043,"ĠáĦħáħµáĨº":4044,"ĠáĦħáħ¥áĨ¶":4045,"Ġá··":4046,"©¯":4047,"»»":4048,"Ł§":4049,"ĠáĦĬáħ¯áĩĢ":4050,"ĠâĦĶ":4051,"Ġâĺ°":4052,"ĠâĺĢ":4053,"ĠâĺĨ":4054,"Ġâģį":4055,"Ġâģĸ":4056,"Ġçı¹":4057,"ĠâĿİ":4058,"ĠçŁĴ":4059,"Ġâ¥»":4060,"ĠäĴķ":4061,"ĠäĴŃ":4062,"ĠäĶ±":4063,"Ġã§§":4064,"ĠæĿŃ":4065,"Ġæģĭ":4066,"Ġæģį":4067,"Ġãªĥ":4068,"Ġã¿Ł":4069,"ĠîŁĬ":4070,"ĠîŁĴ":4071,"ĠîĿ£":4072,"Ġæľ´":4073,"ĠæľĹ":4074,"Ġãºĵ":4075,"Ġäıĩ":4076,"Ġäıĺ":4077,"ĠâĬĺ":4078,"ĠæĹ¥":4079,"ĠçĶľ":4080,"Ġãĥ¯":4081,"Ġãĥ²":4082,"Ġîľį":4083,"Ġâī¡":4084,"Ġâī¶":4085,"Ġâħł":4086,"Ġã®¿":4087,"Ġå»Ļ":4088,"ĠâĶĤ":4089,"Ġæ´º":4090,"Ġçľģ":4091,"Ġâµº":4092,"Ġçĵ§":4093,"ĠïĩĬ":4094,"ĠäĦĬ":4095,"Ġä£º":4096,"ĠèľĻ":4097,"Ġâª»":4098,"ĠåĩĮ":4099,"ĠãĤ¹":4100,"ĠéŃ¯":4101,"Ġï¼Į":4102,"ĠåĻ¨":4103,"Ġèī¹":4104,"Ġèĩ¨":4105,"ĠîĮ¶":4106,"Ġæĥ¡":4107,"ĠêĤĸ":4108,"ĠéĢ¸":4109,"Ġçĭ¼":4110,"Ġç«ĭ":4111,"ĠïŃ½":4112,"ĠçĺŁ":4113,"ĠðŁĺ":4114,"ĠðŁĻĤ":4115,"Ġá¬ī":4116,"ĠáĦĨáħ©áĨ¶":4117,"ĠáĦĬáħ¯áĨ¼":4118,"ĠáĦħáħªáĨ²":4119,"ĠáĦĨáħ²áĨŃ":4120,"ĠáĦħáħ¤áĨ®":4121,"ĠáĦĢáħ®áĨ¨":4122,"ĠáĦĥáħ©áĨ·":4123,"ĠáĦĥáħ¦áĨ¾":4124,"ĠáĦĬáħ¨áĨº":4125,"ĠðĿķļ":4126,"ĠáĦĭáħ«áĨ¸":4127,"ĠáĦĮáħ®áĨ½":4128,"ĠáĦģáħ¦áĨ½":4129,"ĠáĦĩáħ«áĨ¼":4130,"ĠáĦģáħ«áĨ°":4131,"ĠáĦĭáħµáĨŃ":4132,"ĠáĦĥáħ¥áĨº":4133,"Ġá»¼":4134,"¹³":4135,"¿ı":4136,"īĪ":4137,"ıı":4138,"ĵ²":4139,"ĵļ":4140,"ĹĬ":4141,"ŁĹ":4142,"ĠáĦĥáħ§áĩĤ":4143,"ĠáĦıáħ¤":4144,"Ġâģħ":4145,"Ġãıı":4146,"ĠçıĹ":4147,"ĠâĿ¦":4148,"ĠãŁĩ":4149,"Ġïİ§":4150,"Ġïİ«":4151,"ĠïİĶ":4152,"Ġâľħ":4153,"Ġæĺ¾":4154,"Ġã§Ĵ":4155,"Ġã¢İ":4156,"ĠæĿĤ":4157,"Ġæģĺ":4158,"Ġã·Ĺ":4159,"Ġã²µ":4160,"Ġã²ĭ":4161,"ĠéŀĻ":4162,"ĠîĴµ":4163,"ĠíŁĤ":4164,"ĠíŁĹ":4165,"ĠäĿ¤":4166,"Ġçİ¿":4167,"ĠäľĴ":4168,"ĠæĴ´":4169,"Ġã¿¯":4170,"ĠîŁ¡":4171,"ĠäŁŃ":4172,"Ġæį¶":4173,"Ġæľī":4174,"Ġãºı":4175,"Ġçº·":4176,"ĠèĴķ":4177,"Ġäı§":4178,"Ġäı¯":4179,"ĠäĳŁ":4180,"Ġâķĥ":4181,"Ġå¾§":4182,"Ġå¾Ł":4183,"ĠêĿ§":4184,"Ġá¦¿":4185,"Ġç²Ĵ":4186,"Ġç¿Ł":4187,"Ġéļ¦":4188,"Ġéļ·":4189,"ĠéļĨ":4190,"Ġæķı":4191,"ĠäĬĻ":4192,"ĠäĤŃ":4193,"Ġç¯¯":4194,"ĠêŃ¹":4195,"ĠäĮĤ":4196,"Ġâīĳ":4197,"ĠäģĮ":4198,"ĠèŁı":4199,"Ġäŀĥ":4200,"Ġâĩ°":4201,"ĠâĩĴ":4202,"ĠæĳĴ":4203,"Ġâ»į":4204,"Ġæ´Ľ":4205,"ĠäĻŃ":4206,"Ġåħħ":4207,"Ġéĥ·":4208,"ĠâĲĩ":4209,"Ġâµİ":4210,"Ġê®«":4211,"Ġêķ©":4212,"Ġç´¯":4213,"Ġïīµ":4214,"ĠæĤĻ":4215,"Ġç¶Ł":4216,"ĠîĤĶ":4217,"Ġä¥ı":4218,"Ġèľĺ":4219,"Ġå³ľ":4220,"Ġä¾ĭ":4221,"Ġå¹´":4222,"Ġä³º":4223,"Ġç±ł":4224,"Ġà²²":4225,"Ġà²º":4226,"Ġçī¢":4227,"Ġáĳĸ":4228,"ĠæĶĬ":4229,"Ġè¼¸":4230,"Ġçłł":4231,"ĠáĦĨáħ¨áĨ°":4232,"Ġà¥´":4233,"ĠáĦĨáħ¡áĨ®":4234,"ĠáĦĴáħµáĨ¼":4235,"ĠáĦĴáħ´áĨ¾":4236,"ĠðĿķŁ":4237,"ĠðĿķł":4238,"ĠáĦİáħªáĨ¾":4239,"ĠáĦĭáħ²áĨ½":4240,"ĠáĦĭáħ±áĨ°":4241,"ĠáĦĤáħ²áĨµ":4242,"ķĨ":4243,"Łĩ":4244,"ĠáĦĨáħ§áĩĢ":4245,"ĠáĦĮáħŃáĩĢ":4246,"ĠâĤĹ":4247,"ĠâĤŃ":4248,"Ġéĵ§":4249,"ĠâĴ¬":4250,"Ġâĺĳ":4251,"ĠâģĦ":4252,"ĠâĿ£":4253,"ĠãŁ¥":4254,"Ġïıº":4255,"ĠæĿ¤":4256,"Ġæģĸ":4257,"Ġîı¥":4258,"Ġãªĭ":4259,"ĠçİĻ":4260,"ĠîŁĹ":4261,"ĠîŁŁ":4262,"ĠäŁ¥":4263,"ĠäŁĩ":4264,"Ġæįĩ":4265,"ĠîĿ¤":4266,"ĠîĿŃ":4267,"ĠäıĶ":4268,"ĠäıĹ":4269,"ĠêĴŃ":4270,"ĠçĦµ":4271,"Ġá§Ĵ":4272,"Ġéº¦":4273,"Ġî´Ŀ":4274,"Ġç¾Ł":4275,"Ġå±©":4276,"Ġä¸²":4277,"Ġä¸¸":4278,"Ġç¯Ĺ":4279,"Ġâī·":4280,"Ġäģľ":4281,"Ġé»¯":4282,"Ġî§¸":4283,"Ġé·º":4284,"ĠèĺĴ":4285,"Ġæºİ":4286,"Ġç§·":4287,"ĠçĮİ":4288,"Ġé®¿":4289,"ĠäĲ¤":4290,"Ġî¥·":4291,"Ġé§±":4292,"Ġîķ©":4293,"Ġåº¦":4294,"Ġæ´ŀ":4295,"ĠæĲľ":4296,"Ġêľ¦":4297,"ĠåµĲ":4298,"Ġæ¹ı":4299,"Ġïģ¸":4300,"Ġä¢¥":4301,"ĠâĲİ":4302,"Ġå§ĩ":4303,"Ġâµ±":4304,"Ġê®®":4305,"ĠèĶĶ":4306,"Ġá±±":4307,"Ġïī½":4308,"Ġäļ°":4309,"ĠèľĬ":4310,"Ġè¤¤":4311,"Ġéĳļ":4312,"ĠéĳŁ":4313,"ĠçķĻ":4314,"Ġà´±":4315,"Ġé½ı":4316,"Ġéĸ·":4317,"Ġêİ®":4318,"Ġé¤¥":4319,"Ġèİ¬":4320,"Ġæ¥¶":4321,"Ġé¹¿":4322,"ĠåĹĢ":4323,"Ġæĭī":4324,"ĠáĽµ":4325,"Ġâ³²":4326,"Ġè¬ģ":4327,"Ġéĩĳ":4328,"Ġïĳ¸":4329,"Ġç±»":4330,"Ġç°ĳ":4331,"Ġà¦¯":4332,"Ġà¦»":4333,"ĠçĿĬ":4334,"Ġã½¥":4335,"Ġïºī":4336,"Ġç¼¾":4337,"Ġå¡ļ":4338,"Ġç¥ī":4339,"Ġäĩ½":4340,"ĠæĪ®":4341,"Ġç£»":4342,"Ġà¼ĥ":4343,"ĠáĦĨáħ©áĨ¬":4344,"ĠáĦħáħªáĨ¼":4345,"ĠáĦĴáħµáĨ»":4346,"ĠáĦĨáħ²áĨ»":4347,"ĠáĦĳáħ¦áĨ²":4348,"ĠáĦĳáħ§áĨ²":4349,"ĠáĦĮáħ®áĨ¹":4350,"ĠáĦĪáħ¦áĨ¬":4351,"ĠáĦĭáħµáĨ±":4352,"ĠáĦĩáħ²áĨ¶":4353,"ĠáĦĳáħ¥áĨ¿":4354,"ĤĤ":4355,"īī":4356,"ŁĬ":4357,"ĠâĻº":4358,"ĠâĻį":4359,"ĠâĻļ":4360,"ĠáĦħáħ«áĩĢ":4361,"ĠâĤĺ":4362,"Ġâĺ´":4363,"Ġâĺ·":4364,"ĠâĺĦ":4365,"ĠâĺĮ":4366,"Ġâģķ":4367,"Ġâģļ":4368,"Ġâģŀ":4369,"ĠçıĶ":4370,"Ġçıĺ":4371,"ĠâĿ¯":4372,"ĠãŁ©":4373,"Ġïİ½":4374,"ĠâľĢ":4375,"Ġâ¥¸":4376,"ĠäĶ¤":4377,"ĠäĶ¸":4378,"Ġã§·":4379,"Ġã§ı":4380,"Ġã¢Ĩ":4381,"ĠæĿĸ":4382,"ĠæģĮ":4383,"Ġéŀķ":4384,"ĠîĴ©":4385,"ĠíŁŃ":4386,"Ġç·Ł":4387,"Ġäľ»":4388,"Ġäľŀ":4389,"ĠæĴŃ":4390,"Ġã¯Ĵ":4391,"ĠîŁĤ":4392,"Ġæľį":4393,"ĠãŀĶ":4394,"Ġãºĥ":4395,"ĠãģĨ":4396,"ĠèĴ©":4397,"ĠèĴŃ":4398,"ĠâĬĳ":4399,"Ġæĵ¯":4400,"Ġäĳĺ":4401,"Ġâķ¥":4402,"Ġãİ¹":4403,"Ġîĵ´":4404,"Ġãĳģ":4405,"Ġâ£¸":4406,"Ġç²į":4407,"Ġç¿§":4408,"Ġç¿¯":4409,"Ġæķ¯":4410,"Ġäĥ¡":4411,"Ġäĥ§":4412,"Ġäĥİ":4413,"ĠäĤĸ":4414,"Ġî£·":4415,"ĠêŃİ":4416,"ĠäĮĮ":4417,"Ġï»ı":4418,"Ġâī¼":4419,"Ġäģĳ":4420,"Ġè«ĸ":4421,"Ġâ¶º":4422,"ĠâĩĲ":4423,"ĠæĢµ":4424,"Ġå»Ĵ":4425,"Ġé§ļ":4426,"Ġæ¸İ":4427,"Ġâĭģ":4428,"Ġåķķ":4429,"ĠäĺĪ":4430,"Ġæŀ¦":4431,"Ġæ»ĭ":4432,"Ġâºİ":4433,"ĠïģŁ":4434,"Ġáªĸ":4435,"Ġæ£¶":4436,"Ġêŀĭ":4437,"Ġçħī":4438,"ĠîĬĶ":4439,"Ġïī¿":4440,"Ġè¥ģ":4441,"Ġè¥ī":4442,"ĠïĩĹ":4443,"Ġç¶¿":4444,"ĠîĤ©":4445,"ĠäĦĶ":4446,"Ġé¦ĥ":4447,"ĠäĢ¹":4448,"Ġîĺº":4449,"Ġè¨½":4450,"Ġèĵ¢":4451,"Ġâ¿Ĩ":4452,"Ġâ¿ĩ":4453,"ĠèĬĹ":4454,"Ġéľŀ":4455,"Ġê¤¤":4456,"ĠéĴĻ":4457,"Ġæĩı":4458,"Ġç©Ģ":4459,"Ġåĭĩ":4460,"Ġåĭŀ":4461,"ĠïĹŁ":4462,"Ġä¼ĳ":4463,"Ġéĭ§":4464,"Ġî¶¸":4465,"Ġéĺ°":4466,"Ġæ¢ħ":4467,"Ġà¿ļ":4468,"ĠéĤı":4469,"Ġê¨¢":4470,"Ġà¥¸":4471,"Ġà½Ĥ":4472,"Ġï«Ľ":4473,"ĠáĦĨáħ©áĨ±":4474,"ĠáĦĥáħ¨áĨ¬":4475,"ĠáĦĴáħµáĨ¸":4476,"ĠáĦĥáħ©áĨ¾":4477,"ĠáĦĥáħ¦áĨº":4478,"ĠáĦĴáħ´áĨ¸":4479,"ĠáĦĴáħ´áĨº":4480,"ĠáĦĬáħ³áĨ«":4481,"ĠáĦħáħ¢áĨ®":4482,"ĠáĦĨáħ´áĨ´":4483,"ĠðĴĺ":4484,"ĠáĦĬáħ°áĨ¸":4485,"µµ":4486,"įį":4487,"Ġï¿·":4488,"ĠâĻ¢":4489,"ĠâĻ¯":4490,"Ġâĸ³":4491,"ĠáĦĭáħ®áĩĢ":4492,"ĠáĦĮáħŃáĩĤ":4493,"ĠáĦĳáħ§áĩĤ":4494,"ĠáĦĩáħ¯áĩĤ":4495,"ĠáĦīáħ¤áĩĤ":4496,"ĠâĦĬ":4497,"Ġéĵł":4498,"Ġâĺ¼":4499,"Ġãı¼":4500,"ĠãıĬ":4501,"ĠâĿĮ":4502,"ĠâĿį":4503,"ĠâĿĲ":4504,"ĠãŁĤ":4505,"ĠïİĻ":4506,"ĠâľĨ":4507,"ĠçŁı":4508,"Ġâ¥°":4509,"Ġâ¥¶":4510,"ĠæĺĪ":4511,"ĠäĶ¶":4512,"Ġã¢ı":4513,"Ġã¢Ĳ":4514,"Ġã¢Ľ":4515,"ĠæĿº":4516,"Ġäĵı":4517,"Ġã²ī":4518,"ĠîıĬ":4519,"Ġéŀ§":4520,"ĠîĴļ":4521,"ĠîĴŃ":4522,"ĠíŁ¥":4523,"Ġç·ļ":4524,"ĠäĿ¢":4525,"ĠäĿĩ":4526,"Ġçİ§":4527,"Ġäľ·":4528,"Ġäľį":4529,"Ġäľĵ":4530,"ĠäľĻ":4531,"ĠäŁ©":4532,"ĠæįĤ":4533,"ĠîĿ¿":4534,"Ġæľ¸":4535,"Ġãŀ½":4536,"Ġãŀĥ":4537,"ĠãºĤ":4538,"Ġãºī":4539,"Ġéİľ":4540,"Ġïŀ¸":4541,"ĠâĬ©":4542,"Ġá¢Ī":4543,"ĠçĶĤ":4544,"Ġé¾®":4545,"ĠîĵŁ":4546,"Ġãĵŀ":4547,"Ġç²±":4548,"ĠîĻº":4549,"ĠîĻĥ":4550,"Ġäİ§":4551,"ĠäĤĶ":4552,"ĠäĤķ":4553,"ĠäĤĺ":4554,"Ġç¯Ł":4555,"ĠêŃ¶":4556,"ĠäĮľ":4557,"Ġîįı":4558,"ĠîįĲ":4559,"ĠãĶĤ":4560,"ĠãĶī":4561,"ĠãĶĶ":4562,"ĠèĿ¹":4563,"Ġç§¥":4564,"Ġè«Ń":4565,"Ġäķ©":4566,"ĠçĮŀ":4567,"Ġé¶´":4568,"ĠïŁĬ":4569,"ĠïŁĹ":4570,"Ġã»¿":4571,"Ġâĩĩ":4572,"Ġæ·ķ":4573,"Ġã¶¼":4574,"Ġã¾Ł":4575,"Ġéµª":4576,"ĠéĮĦ":4577,"ĠçĽ®":4578,"ĠïĨŁ":4579,"Ġå¶º":4580,"Ġåħį":4581,"Ġæµª":4582,"Ġâ§»":4583,"ĠçľŁ":4584,"Ġâ´±":4585,"Ġá²ĺ":4586,"Ġæıĩ":4587,"Ġá¯ī":4588,"Ġå¯ı":4589,"Ġæ¶¾":4590,"Ġïĩ¾":4591,"Ġç¶¼":4592,"Ġæ§©":4593,"Ġè¯¤":4594,"ĠäĢĺ":4595,"Ġêĺ®":4596,"Ġè±Ī":4597,"ĠêĬŃ":4598,"Ġè¾°":4599,"Ġæ¤¥":4600,"ĠãĤ¿":4601,"Ġçģŀ":4602,"Ġå®Ł":4603,"ĠéľĴ":4604,"ĠèĹ´":4605,"ĠéĹª":4606,"Ġà¶¦":4607,"Ġå¢Ŀ":4608,"Ġå·Ł":4609,"Ġï²¨":4610,"Ġàºı":4611,"Ġç¦®":4612,"ĠçĨį":4613,"Ġéĺ²":4614,"ĠåĴ¢":4615,"Ġåĸĩ":4616,"ĠãĹ¹":4617,"Ġàµº":4618,"Ġï¬ģ":4619,"Ġà±º":4620,"ĠáĦħáħªáĨ½":4621,"Ġáģ¿":4622,"ĠáĦĥáħ§áĨ¸":4623,"Ġá³·":4624,"ĠáĦĭáħ´áĨµ":4625,"ĠáĦĭáħ´áĨ¼":4626,"ĠáĦĴáħ´áĨ¨":4627,"ĠáĦįáħŃáĨ²":4628,"ĠáĦĨáħ±áĨ¨":4629,"ĠáĦĴáħ³áĨ±":4630,"ĠáĦħáħ£áĨ«":4631,"ĠáĦħáħ£áĨ¬":4632,"ĠáĦīáħ²áĨ·":4633,"ĠáĦĢáħ²áĨ©":4634,"ĠáĦĴáħ¬áĨ¹":4635,"ĠáĦĬáħ°áĨ¿":4636,"ĠáĦĮáħ³áĨŃ":4637,"ĠáĦĥáħŃáĨ¿":4638,"ĠáĦĬáħ¡áĨ±":4639,"ĠáĦĨáħªáĨ·":4640,"ĠáĦĤáħ²áĨ¿":4641,"®Ŀ":4642,"³Ĳ":4643,"´»":4644,"º§":4645,"º®":4646,"½¼":4647,"¿ķ":4648,"ĥĵ":4649,"İª":4650,"ı»":4651,"ŀ§":4652,"ĠáĦħáħ«áĩĤ":4653,"ĠáĦħáħµáĩĤ":4654,"ĠáĦģáħ£áĩģ":4655,"ĠâĴĴ":4656,"ĠâŁĲ":4657,"ĠâģĬ":4658,"Ġãı¹":4659,"Ġçıŀ":4660,"ĠçıŃ":4661,"ĠâĿµ":4662,"ĠâĿħ":4663,"ĠãŁ¹":4664,"ĠâľĪ":4665,"ĠâľĲ":4666,"ĠçŁ¨":4667,"ĠçŁĩ":4668,"Ġïı¥":4669,"ĠïıĬ":4670,"ĠïıĴ":4671,"Ġâ¥´":4672,"Ġæĺº":4673,"Ġæĺ½":4674,"Ġæĺī":4675,"Ġæĺĳ":4676,"ĠæĺĻ":4677,"Ġã§¯":4678,"Ġã§¿":4679,"Ġã§ļ":4680,"Ġã¢®":4681,"Ġã¢ķ":4682,"Ġã¢ĺ":4683,"ĠæĿ¿":4684,"ĠæĿİ":4685,"ĠäĵĨ":4686,"Ġäĵŀ":4687,"ĠæģĻ":4688,"Ġã·Ĥ":4689,"Ġã·Ĵ":4690,"Ġã²ģ":4691,"Ġã²ĥ":4692,"Ġã²Ń":4693,"Ġîı¸":4694,"ĠîıĮ":4695,"Ġîıĸ":4696,"Ġâįµ":4697,"Ġâį·":4698,"Ġâįĩ":4699,"Ġâįķ":4700,"ĠãªĲ":4701,"Ġéŀ¹":4702,"Ġéŀ¾":4703,"ĠíŁ¹":4704,"ĠäĿ¾":4705,"Ġçİ£":4706,"Ġçİ¼":4707,"ĠçİĿ":4708,"ĠäľĢ":4709,"ĠæĴķ":4710,"ĠäŁ¿":4711,"Ġæį»":4712,"ĠæľĿ":4713,"Ġãŀ¿":4714,"Ġãŀľ":4715,"Ġãŀŀ":4716,"ĠâĬ´":4717,"ĠâĬĴ":4718,"ĠâĬĶ":4719,"ĠæĹ©":4720,"ĠæĹĹ":4721,"ĠâĹ§":4722,"ĠâĹĺ":4723,"Ġå¾£":4724,"Ġâĵ¬":4725,"ĠçŀĻ":4726,"Ġçŀľ":4727,"Ġé¾İ":4728,"Ġãİµ":4729,"Ġãĵ§":4730,"ĠãĵŁ":4731,"Ġâ£Ľ":4732,"Ġá¦¤":4733,"ĠãĥĮ":4734,"ĠäİĻ":4735,"Ġç¾ĵ":4736,"Ġäĥģ":4737,"ĠäĬ©":4738,"Ġå±Į":4739,"Ġä¸Ģ":4740,"Ġä¸ķ":4741,"Ġäº®":4742,"Ġé´Ľ":4743,"ĠêŃĽ":4744,"ĠäĮŀ":4745,"Ġâīħ":4746,"ĠãĦĬ":4747,"Ġïį¸":4748,"Ġé·Ĺ":4749,"ĠæºĽ":4750,"ĠèŁģ":4751,"Ġâļª":4752,"Ġâļ¿":4753,"Ġâļķ":4754,"Ġâļļ":4755,"Ġã®£":4756,"Ġã®ī":4757,"Ġæħ¦":4758,"Ġî¥İ":4759,"Ġã¸ł":4760,"Ġã¦©":4761,"Ġå»µ":4762,"Ġå»Ĭ":4763,"Ġæĳ¨":4764,"Ġé§ı":4765,"Ġîŀ£":4766,"ĠæĻ£":4767,"Ġæ¾·":4768,"ĠêĵĿ":4769,"Ġæ¹Ł":4770,"Ġâºı":4771,"ĠâĲĴ":4772,"Ġçĳ§":4773,"Ġè´Ł":4774,"Ġêĸĸ":4775,"Ġáª©":4776,"ĠáªĽ":4777,"Ġâ¾£":4778,"ĠèıŁ":4779,"Ġî½¿":4780,"Ġåı¥":4781,"Ġè®¬":4782,"Ġè®Ĭ":4783,"Ġè¶º":4784,"ĠçĵĮ":4785,"Ġå¯®":4786,"Ġå¯Ĺ":4787,"Ġç¢Į":4788,"Ġç¢ĳ":4789,"ĠîĬĨ":4790,"Ġïī±":4791,"ĠèĤĭ":4792,"Ġèª¦":4793,"Ġèª¿":4794,"Ġâ¤ł":4795,"ĠîĶĬ":4796,"Ġèłĵ":4797,"Ġê§¸":4798,"ĠïĩŁ":4799,"ĠæĤİ":4800,"Ġçĥĥ":4801,"Ġâ±²":4802,"Ġâ±´":4803,"Ġæİ¢":4804,"ĠèĻŃ":4805,"Ġé¯ı":4806,"Ġä¬Ĭ":4807,"Ġé¦Ĵ":4808,"Ġèħ»":4809,"ĠäĢ£":4810,"ĠêĬ©":4811,"ĠãĽĽ":4812,"ĠéłŃ":4813,"Ġâ°®":4814,"Ġâ°Ń":4815,"ĠæĬļ":4816,"Ġêİĵ":4817,"Ġçª±":4818,"Ġé¹¦":4819,"Ġâ¼Ĥ":4820,"ĠåĹ¢":4821,"Ġæ¡ļ":4822,"ĠåĿ¸":4823,"Ġáµ¢":4824,"Ġè¡»":4825,"ĠïĸĲ":4826,"Ġçį¯":4827,"ĠèĲı":4828,"ĠâĮĨ":4829,"Ġæ«º":4830,"Ġê¡£":4831,"Ġä«Į":4832,"Ġê¤ī":4833,"ĠæŃ¹":4834,"ĠåĻı":4835,"Ġïĳ§":4836,"Ġèĩĺ":4837,"ĠæĦĪ":4838,"Ġà¡¶":4839,"Ġàº¾":4840,"Ġç¡¡":4841,"Ġç¡«":4842,"Ġèĥ©":4843,"ĠïĪµ":4844,"Ġã¡į":4845,"ĠçĭĢ":4846,"ĠáĲ°":4847,"Ġè³ĵ":4848,"ĠåĴ½":4849,"Ġêłı":4850,"Ġå¨¶":4851,"Ġà·±":4852,"Ġà¥¾":4853,"ĠáĦĨáħ©áĨ¯":4854,"ĠáĦħáħªáĨ´":4855,"ĠáĦħáħªáĨ·":4856,"ĠáĦĥáħ¨áĨ¼":4857,"Ġá³İ":4858,"ĠáĦģáħ£áĨ±":4859,"ĠáĦĴáħµáĨ½":4860,"ĠáĦĳáħ§áĨ«":4861,"ĠáĦįáħŃáĨ©":4862,"ĠáĦĬáħ²áĨ®":4863,"ĠáĦħáħ¡áĨ¨":4864,"ĠáĦħáħ¡áĨ²":4865,"ĠáĦĢáħ¥áĨ¨":4866,"ĠáĦĮáħ²áĨ¶":4867,"ĠáĦħáħ£áĨ²":4868,"ĠáĦĩáħ²áĨŃ":4869,"ĠáĦħáħ¬áĨ¨":4870,"ĠáĦħáħ¬áĨ²":4871,"ĠòĴĺ":4872,"ĠáĦĳáħ¥áĨ¨":4873,"ĠáĦıáħ£áĨº":4874,"ĠáĦģáħ³áĨ½":4875,"ĠáĦĩáħ¢áĨ©":4876,"ĠáĦĩáħªáĨ³":4877,"ĠáĦĦáħ±áĨ²":4878,"ĠáĦĬáħ±áĨ½":4879,"Ġá©ı":4880,"ĠáĦīáħ¬áĨ½":4881,"ĠáĦĤáħŃáĨ±":4882,"¤Ĵ":4883,"¦Ľ":4884,"§ķ":4885,"©®":4886,"¼Ī":4887,"¿Ŀ":4888,"ĩı":4889,"İŁ":4890,"ıĬ":4891,"ıļ":4892,"Ķ¹":4893,"Ļ¤":4894,"ĿĿ":4895,"Ġï¿İ":4896,"ĠâĻ¾":4897,"ĠâĻĸ":4898,"Ġà¤ŀ":4899,"ĠáĦģáħ«áĩĤ":4900,"ĠáĦĭáħ¥":4901,"ĠáĦīáħ°áĩģ":4902,"ĠáĦıáħ¡áĩĢ":4903,"ĠâĦ·":4904,"ĠâĦĤ":4905,"ĠâĴ¨":4906,"ĠâĴ¸":4907,"ĠâĴĨ":4908,"ĠâĴĽ":4909,"ĠâĴŀ":4910,"ĠâŁĺ":4911,"ĠâģĿ":4912,"ĠãıĪ":4913,"ĠâĿ¿":4914,"ĠãŁ£":4915,"ĠãŁ¨":4916,"ĠãŁĽ":4917,"Ġïİ¯":4918,"Ġâľ¸":4919,"ĠâľĦ":4920,"ĠïıĶ":4921,"Ġâ¥¿":4922,"ĠäĴ£":4923,"ĠäĶĲ":4924,"Ġã¢¨":4925,"Ġã¢ĭ":4926,"Ġã¢ĸ":4927,"ĠæĿ¶":4928,"ĠæĿĦ":4929,"ĠäĵŁ":4930,"Ġæģħ":4931,"Ġæģĵ":4932,"Ġã·ļ":4933,"Ġã²ĳ":4934,"ĠîıĹ":4935,"ĠîıĻ":4936,"Ġéŀ½":4937,"ĠíŁ¢":4938,"ĠíŁķ":4939,"Ġç·Ĵ":4940,"Ġçİ¡":4941,"Ġçİ¾":4942,"ĠäľŁ":4943,"Ġã¿İ":4944,"Ġã¿ı":4945,"Ġã¯ļ":4946,"ĠäŁĶ":4947,"ĠîĿ§":4948,"ĠîĿº":4949,"Ġæľ¤":4950,"ĠæľĽ":4951,"ĠãŀĢ":4952,"Ġãºµ":4953,"Ġéİ¸":4954,"Ġéİ¹":4955,"ĠéİĶ":4956,"ĠéŁĺ":4957,"Ġïŀ¦":4958,"ĠïŀĿ":4959,"ĠâĬĤ":4960,"Ġæĵ§":4961,"ĠâķĨ":4962,"ĠäįĤ":4963,"ĠäįĴ":4964,"Ġâĵ½":4965,"Ġâĵı":4966,"ĠæĸĬ":4967,"ĠæĸĿ":4968,"Ġæĸŀ":4969,"ĠéºĨ":4970,"ĠéºĹ":4971,"Ġçŀ¤":4972,"Ġé¾¿":4973,"Ġãİ§":4974,"Ġîĵ¦":4975,"ĠîĵĿ":4976,"Ġá¦£":4977,"ĠãĥĦ":4978,"ĠãĥĬ":4979,"ĠîŃ·":4980,"Ġéļŀ":4981,"ĠâıĮ":4982,"Ġäİ¿":4983,"Ġäİĩ":4984,"ĠäĥĲ":4985,"Ġîľ·":4986,"ĠäĬĶ":4987,"Ġå±®":4988,"Ġî£»":4989,"Ġç¯ı":4990,"ĠêŃµ":4991,"ĠêŃ·":4992,"Ġï»·":4993,"Ġâīº":4994,"ĠïįŁ":4995,"Ġèĺ¶":4996,"Ġèĺĺ":4997,"ĠâħĶ":4998,"Ġï¯¯":4999,"ĠèĿ®":5000,"ĠèŁ»":5001,"Ġè«ĭ":5002,"Ġé¸İ":5003,"Ġã®ŀ":5004,"ĠäĲł":5005,"Ġâĩ¸":5006,"ĠâĩĶ":5007,"Ġã¦ģ":5008,"Ġæĳ©":5009,"ĠïĬĵ":5010,"Ġï½Ł":5011,"Ġé§Ĭ":5012,"Ġîķ«":5013,"Ġã¾¿":5014,"ĠïĤĭ":5015,"Ġéµı":5016,"ĠïĨ¦":5017,"Ġå¶ĸ":5018,"ĠêľĪ":5019,"Ġâ¹¹":5020,"Ġæ¹¤":5021,"ĠâºĽ":5022,"Ġîİ»":5023,"Ġéĥİ":5024,"Ġä¢®":5025,"Ġè´´":5026,"ĠáªĮ":5027,"Ġå§Ĺ":5028,"Ġî½»":5029,"Ġä±½":5030,"Ġâ´½":5031,"ĠãĮģ":5032,"ĠãĮİ":5033,"Ġî¿³":5034,"Ġéª·":5035,"Ġçĵİ":5036,"Ġå¯ļ":5037,"Ġä¤ł":5038,"Ġïĩĩ":5039,"Ġïĩı":5040,"ĠæĤĹ":5041,"Ġç¶¶":5042,"ĠîĤĹ":5043,"Ġå²°":5044,"ĠäĦĲ":5045,"ĠçĥĮ":5046,"Ġâ±º":5047,"Ġâ±¾":5048,"Ġä¥·":5049,"Ġä¥Ĭ":5050,"Ġîºī":5051,"Ġà¸İ":5052,"ĠâĽ¢":5053,"ĠäĢ§":5054,"ĠçµĽ":5055,"Ġâ°º":5056,"Ġè¾¶":5057,"Ġè·«":5058,"ĠæĬª":5059,"Ġîłº":5060,"ĠãĤ¢":5061,"Ġçģ§":5062,"Ġæĭħ":5063,"ĠéŃ©":5064,"ĠåĿı":5065,"Ġïķł":5066,"Ġè¡¶":5067,"Ġïĸł":5068,"Ġé±ķ":5069,"Ġæ¨ĵ":5070,"Ġã©¢":5071,"Ġä¾³":5072,"Ġêħ©":5073,"Ġêĥ¯":5074,"ĠâĮĲ":5075,"ĠâĮĶ":5076,"Ġéľĳ":5077,"Ġà¨²":5078,"Ġà¨ĸ":5079,"Ġä«ĳ":5080,"Ġà¹¡":5081,"Ġî¬Ł":5082,"Ġï·´":5083,"Ġä³»":5084,"Ġä³¾":5085,"ĠéĽ¢":5086,"ĠéĽ·":5087,"ĠæĦĬ":5088,"ĠæĦĶ":5089,"ĠäĪĴ":5090,"ĠîĥŁ":5091,"Ġä©±":5092,"Ġà¡°":5093,"Ġá®³":5094,"Ġï£§":5095,"Ġç»ı":5096,"Ġèĳī":5097,"ĠçīŁ":5098,"Ġæ¿¾":5099,"ĠçĬ¯":5100,"Ġà»¿":5101,"Ġà»ı":5102,"Ġà«·":5103,"ĠåŃ¦":5104,"ĠçĨ¾":5105,"ĠèĽĶ":5106,"ĠïĲµ":5107,"Ġç¨¡":5108,"ĠéĲ¬":5109,"Ġæ¢¨":5110,"Ġà§İ":5111,"Ġà©¶":5112,"Ġï¬ĳ":5113,"ĠáĦĨáħ¨áĨ±":5114,"Ġà¥¤":5115,"Ġï«¾":5116,"ĠáĦĨáħ©áĨª":5117,"ĠáĢ¥":5118,"Ġá³ª":5119,"ĠáĦĭáħ´áĨ½":5120,"ĠáĦĴáħ´áĨ½":5121,"ĠáĦĭáħ«áĨ¹":5122,"ĠáĦĬáħ§áĨ¶":5123,"ĠáĦĩáħ«áĨ²":5124,"ĠáĦħáħ¡áĨª":5125,"ĠáĦĥáħªáĨ®":5126,"ĠáĦįáħ®áĨµ":5127,"ĠáĦĬáħ¤áĨ¨":5128,"ĠáĦĩáħ±áĨº":5129,"ĠáĦĭáħ¢áĨµ":5130,"ĠáĦĬáħ«áĨ°":5131,"ĠáĦĴáħ¬áĨ¨":5132,"ĠáĦĲáħ¢áĨ»":5133,"ĠáĦĲáħ¢áĨ½":5134,"ĠáĦīáħ£áĨ²":5135,"ĠáĦīáħ±áĨ¹":5136,"ĠáĦĥáħ¡áĨ«":5137,"ĠáĦĭáħ©áĨº":5138,"¥Ļ":5139,"´¸":5140,"µĽ":5141,"º·":5142,"»³":5143,"»·":5144,"»¾":5145,"ĥĥ":5146,"ĮŁ":5147,"ĹĶ":5148,"Łı":5149,"Ġï¿ĳ":5150,"ĠâĻ¤":5151,"ĠáĦĬáħªáĩĤ":5152,"ĠáĦħáħ¬":5153,"ĠáĦħáħ¡áĩĢ":5154,"ĠáĦģáħ³áĩģ":5155,"ĠáĦĥáħªáĩģ":5156,"ĠáĦĦáħ¦áĩĤ":5157,"ĠâĤģ":5158,"ĠâĤĶ":5159,"ĠâĪĪ":5160,"Ġéĵ´":5161,"ĠâĴĳ":5162,"ĠâŁĪ":5163,"ĠâŁŁ":5164,"ĠâĺĤ":5165,"ĠâĺĲ":5166,"ĠâĺŁ":5167,"ĠâģĪ":5168,"ĠãıĻ":5169,"ĠâĿ¶":5170,"ĠâĿĤ":5171,"Ġïİµ":5172,"Ġïİ¾":5173,"Ġâľ³":5174,"Ġâľ´":5175,"ĠçŁ¡":5176,"Ġæĺħ":5177,"Ġæĺŀ":5178,"ĠäĶ´":5179,"ĠäĶĬ":5180,"Ġã§¨":5181,"Ġã¢Ī":5182,"ĠæĿł":5183,"Ġäĵ¸":5184,"Ġäĵģ":5185,"Ġæģı":5186,"Ġã·į":5187,"Ġã²ĸ":5188,"Ġã²Ľ":5189,"ĠîıĤ":5190,"ĠîıĴ":5191,"Ġãª³":5192,"Ġãªµ":5193,"ĠãªĽ":5194,"Ġç··":5195,"ĠäĿł":5196,"Ġçİ²":5197,"Ġçİľ":5198,"Ġäľ´":5199,"Ġäľĺ":5200,"ĠæĴĬ":5201,"ĠæĴļ":5202,"ĠîŁ¹":5203,"ĠîŁ¿":5204,"ĠäŁ½":5205,"Ġæį°":5206,"ĠîĿ·":5207,"ĠæľĻ":5208,"Ġãŀµ":5209,"Ġãŀ¸":5210,"Ġãºĭ":5211,"ĠãºŃ":5212,"Ġãģķ":5213,"Ġïŀŀ":5214,"Ġäı¥":5215,"Ġæĵ«":5216,"ĠæĵĽ":5217,"ĠæĵĿ":5218,"Ġæĵł":5219,"ĠâĹª":5220,"Ġå¾´":5221,"Ġå¾ĭ":5222,"Ġá¢Ŀ":5223,"Ġâĵµ":5224,"ĠçĦŃ":5225,"ĠæĸĻ":5226,"ĠæĸŁ":5227,"ĠéºŁ":5228,"Ġçŀ½":5229,"ĠçŀĢ":5230,"Ġé¾³":5231,"Ġãİ¿":5232,"Ġãİł":5233,"ĠîĵĮ":5234,"ĠãĵĴ":5235,"Ġéı»":5236,"ĠêĿ¯":5237,"Ġá¦ĩ":5238,"Ġç²»":5239,"Ġç²ĸ":5240,"Ġç¿Ĺ":5241,"Ġç¿ļ":5242,"Ġï¢ĵ":5243,"Ġî´±":5244,"Ġî´»":5245,"ĠîĻŃ":5246,"Ġè£»":5247,"Ġâŀ¶":5248,"ĠâŀĽ":5249,"ĠîŃ§":5250,"ĠîŃµ":5251,"Ġéļ£":5252,"Ġâıī":5253,"ĠâıĬ":5254,"Ġäİ£":5255,"Ġäİ¤":5256,"Ġäİ´":5257,"ĠäİĿ":5258,"Ġç¾ļ":5259,"Ġäĥĥ":5260,"Ġå±¢":5261,"Ġé´ŀ":5262,"Ġç¯ĩ":5263,"ĠäĮĳ":5264,"ĠäĮĶ":5265,"ĠäĮŁ":5266,"Ġï»Ł":5267,"Ġâī»":5268,"ĠäģĢ":5269,"ĠäģĴ":5270,"Ġîį©":5271,"ĠîįĿ":5272,"Ġîįł":5273,"ĠãĦļ":5274,"Ġæº¶":5275,"Ġæºľ":5276,"ĠãĶ¶":5277,"Ġï¯§":5278,"Ġï¯ĺ":5279,"Ġï¯ł":5280,"Ġç§¯":5281,"ĠèŁ¥":5282,"Ġé¸¯":5283,"Ġé¸¿":5284,"ĠäķĢ":5285,"ĠçĮĴ":5286,"Ġé®Ł":5287,"Ġé¶Ĵ":5288,"ĠïŁı":5289,"Ġäŀ¼":5290,"Ġã»·":5291,"Ġã»ı":5292,"ĠæĢ¸":5293,"ĠéĻ¼":5294,"Ġé¢£":5295,"Ġã¸Ĩ":5296,"Ġå»ĵ":5297,"ĠïĬİ":5298,"ĠïĴŁ":5299,"Ġîŀ´":5300,"Ġã¾®":5301,"ĠïĤĵ":5302,"ĠçĽŁ":5303,"Ġâĭĭ":5304,"ĠæĻ§":5305,"ĠæĻŃ":5306,"ĠæĲĳ":5307,"Ġêľº":5308,"Ġêľį":5309,"Ġâİĸ":5310,"Ġæļ§":5311,"Ġäĺº":5312,"Ġæŀ¢":5313,"Ġæµ®":5314,"Ġæ»¨":5315,"Ġæ»ı":5316,"ĠçľĤ":5317,"Ġêĸ©":5318,"Ġêĸ¶":5319,"ĠáªĲ":5320,"Ġáªĵ":5321,"ĠéĿ§":5322,"Ġî¡¾":5323,"Ġêŀ·":5324,"Ġêķ¼":5325,"ĠèĶĴ":5326,"ĠéģŁ":5327,"Ġç´¢":5328,"ĠçĵŁ":5329,"Ġçļ½":5330,"Ġå¯Ł":5331,"Ġæ±Ļ":5332,"Ġæ¶º":5333,"ĠîĬ¶":5334,"ĠèĤĽ":5335,"Ġè¥º":5336,"ĠèłŁ":5337,"Ġê§£":5338,"Ġïĩ¼":5339,"ĠïĩĤ":5340,"ĠîĢĿ":5341,"Ġä£»":5342,"ĠçĥĻ":5343,"Ġâ±³":5344,"Ġä¥¸":5345,"ĠîºĨ":5346,"Ġîģ¯":5347,"ĠèĻĥ":5348,"Ġâª¾":5349,"Ġé¯ĩ":5350,"Ġé¯Ĵ":5351,"Ġâ¬ļ":5352,"Ġà¸²":5353,"Ġå³Ģ":5354,"Ġïļµ":5355,"Ġêĺĺ":5356,"Ġè±º":5357,"ĠêĬĸ":5358,"ĠãĽĭ":5359,"Ġã¹®":5360,"Ġéł¿":5361,"Ġàª»":5362,"Ġä·¶":5363,"Ġå½©":5364,"Ġä´Ĳ":5365,"Ġèģ¢":5366,"ĠãĤ·":5367,"Ġæ¦¦":5368,"Ġæ²±":5369,"Ġê¬¶":5370,"Ġè¡Į":5371,"Ġè¿¯":5372,"Ġï¾ŀ":5373,"ĠåĳĤ":5374,"Ġä¾®":5375,"ĠåĬ©":5376,"ĠèĲ½":5377,"Ġâ¯ī":5378,"Ġé¬ĸ":5379,"Ġà¹¿":5380,"ĠæŃ£":5381,"ĠáķĨ":5382,"ĠèĹ¸":5383,"ĠéĽ£":5384,"Ġæ¼£":5385,"Ġèµį":5386,"Ġêª»":5387,"ĠæĦ¿":5388,"Ġå¦Ł":5389,"ĠïĹİ":5390,"Ġæĥĺ":5391,"ĠïĮ»":5392,"Ġá®°":5393,"Ġá®ķ":5394,"Ġê«§":5395,"ĠïłĹ":5396,"Ġè¸¨":5397,"Ġåĵı":5398,"ĠîµŃ":5399,"Ġà»Ł":5400,"Ġé¨°":5401,"ĠçĲī":5402,"Ġî¶ī":5403,"Ġã³·":5404,"Ġäĭĭ":5405,"ĠáĲŀ":5406,"Ġå£Ł":5407,"ĠäĸĴ":5408,"Ġæ°Ń":5409,"Ġà®¬":5410,"Ġïĺ½":5411,"Ġå¬¨":5412,"Ġãĩĩ":5413,"ĠæĪĳ":5414,"ĠãĢī":5415,"Ġç³º":5416,"Ġà¿ħ":5417,"ĠçłĹ":5418,"Ġà³²":5419,"ĠðŁĶ":5420,"ĠáĦĨáħ¨áĨ½":5421,"ĠáĦĨáħ©áĨ©":5422,"ĠáĦħáħªáĨ°":5423,"ĠáĦħáħªáĨ»":5424,"ĠáĦĥáħ¨áĨ¸":5425,"ĠáĦĨáħ²áĨ¿":5426,"ĠáĦĭáħ³áĨ´":5427,"ĠáĦĭáħ³áĨ¸":5428,"ĠáĦģáħŃáĨ¯":5429,"ĠáĦģáħŃáĨ¸":5430,"ĠáĦĳáħ¨áĨ«":5431,"ĠáĦĳáħ¨áĨ±":5432,"ĠáĦĳáħ¨áĨ¶":5433,"ĠáĦĬáħ¨áĨ²":5434,"ĠáĦįáħŃáĨ±":5435,"ĠðĿķ£":5436,"ĠáĦĬáħ²áĨº":5437,"ĠáĦĢáħ°áĨ±":5438,"ĠáĦĩáħ«áĨ«":5439,"ĠáĦģáħ«áĨ¼":5440,"ĠáĦĮáħµáĨµ":5441,"ĠáĦĮáħµáĨ¹":5442,"ĠáĦįáħ¯áĨ°":5443,"ĠáĦĭáħ¨áĨ¬":5444,"ĠáĦĢáħ¯áĨ¹":5445,"ĠáĦįáħ±áĨ·":5446,"ĠáĦīáħ²áĨ±":5447,"ĠáĦīáħ²áĨ³":5448,"ĠáĦĬáħ³áĨ¬":5449,"ĠáĦĦáħ°áĨ©":5450,"ĠáĦĳáħŃáĨº":5451,"ĠáĦīáħ¤áĨ©":5452,"ĠáĦĪáħµáĨ°":5453,"ĠáĦĨáħµáĨª":5454,"ĠáĦĬáħ®áĨº":5455,"ĠáĦįáħ«áĨ¨":5456,"ĠáĦĪáħ¬áĨ¾":5457,"ĠáĦīáħ´áĨ¹":5458,"ĠáĦĴáħ±áĨŃ":5459,"ĠáĦįáħ¬áĨ¶":5460,"ĠáĦİáħµáĨ¼":5461,"ĠáĦģáħ®áĨ±":5462,"ĠáĦĤáħ¢áĨ¶":5463,"ĠáĦĤáħ¢áĨ¿":5464,"ĠáĦĬáħŃáĨ±":5465,"ĠáĦīáħ§áĨ¬":5466,"ĠáĦĮáħ©áĨ·":5467,"ĠáĦĢáħ³áĨŃ":5468,"ĠáĦĬáħ¢áĨ±":5469,"ĠáĦĥáħ«áĨ¨":5470,"ĠáĦĩáħ¡áĨ±":5471,"ĠáĦĴáħ£áĨ¶":5472,"ĠáĦģáħµáĨŃ":5473,"³¾":5474,"¶¶":5475,"¸·":5476,"»§":5477,"»¿":5478,"»ı":5479,"¼ŀ":5480,"¾į":5481,"¿¶":5482,"¿ĩ":5483,"ģ¹":5484,"ĦĶ":5485,"įı":5486,"ļļ":5487,"ŀĹ":5488,"Ł¿":5489,"łĳ":5490,"ĠâĻł":5491,"Ġâĸģ":5492,"ĠáĦĬáħ§áĩĤ":5493,"ĠáĦħáħ´áĩĢ":5494,"ĠáĦģáħ©áĩĤ":5495,"ĠáĦĳáħ§":5496,"ĠáĦĴáħ´áĩĤ":5497,"ĠáĦĦáħ²":5498,"ĠáĦĦáħµáĩĤ":5499,"ĠáĦĤáħ¢áĩģ":5500,"ĠâĤĿ":5501,"ĠâĪ¥":5502,"ĠâĪĥ":5503,"ĠâĪļ":5504,"ĠéĵĴ":5505,"ĠâŁħ":5506,"Ġâĺ¬":5507,"Ġâĺ®":5508,"Ġâĺ³":5509,"Ġâĺĭ":5510,"Ġâĺı":5511,"ĠâĺĴ":5512,"Ġâĺŀ":5513,"ĠâģĹ":5514,"Ġãı¨":5515,"ĠãıĤ":5516,"ĠãıĴ":5517,"ĠâĿĥ":5518,"ĠâĿł":5519,"Ġïİ¹":5520,"Ġïİ¼":5521,"Ġïİĥ":5522,"ĠïİĽ":5523,"Ġâľ»":5524,"Ġâľĵ":5525,"ĠïıĤ":5526,"Ġâ¥º":5527,"Ġâ¥ī":5528,"ĠæĺĢ":5529,"ĠæĺĦ":5530,"Ġæĺĩ":5531,"Ġæĺĵ":5532,"ĠäĶ§":5533,"ĠäĶ¹":5534,"Ġã¢ħ":5535,"Ġã¢ŀ":5536,"Ġäĵļ":5537,"Ġæģµ":5538,"Ġã·»":5539,"Ġã·Ļ":5540,"ĠâĨĶ":5541,"Ġã²»":5542,"Ġã²İ":5543,"Ġîı½":5544,"Ġîıĩ":5545,"Ġâįĥ":5546,"Ġâįĵ":5547,"Ġãª¡":5548,"Ġç·Ĺ":5549,"ĠäĿİ":5550,"Ġäľĥ":5551,"ĠæĴĵ":5552,"ĠæĴŀ":5553,"Ġã¿·":5554,"Ġã¿Ĵ":5555,"Ġã¯§":5556,"ĠîŁļ":5557,"ĠäŁĤ":5558,"ĠîĿį":5559,"ĠîĿİ":5560,"Ġæľ¥":5561,"Ġãŀĺ":5562,"Ġãģ¡":5563,"Ġãģ¤":5564,"Ġçºĳ":5565,"Ġïŀ£":5566,"Ġïŀĵ":5567,"Ġäı½":5568,"Ġæĵı":5569,"ĠâķĦ":5570,"ĠäįŃ":5571,"Ġá¢»":5572,"Ġá¢¾":5573,"Ġá¢ĥ":5574,"Ġâĵ´":5575,"ĠçĦ¢":5576,"ĠçĶĥ":5577,"ĠçĶĴ":5578,"Ġéºħ":5579,"ĠçŀĿ":5580,"Ġé¾¤":5581,"ĠãİĿ":5582,"Ġîĵı":5583,"Ġãĳı":5584,"Ġãĵĵ":5585,"Ġâ£´":5586,"Ġéı¦":5587,"ĠéıĲ":5588,"ĠéıŁ":5589,"ĠêĿ¦":5590,"ĠêĿļ":5591,"Ġç¿Ĵ":5592,"ĠãĥĨ":5593,"Ġï¢§":5594,"Ġî´¸":5595,"ĠîĻ§":5596,"Ġâŀĳ":5597,"ĠîŃŀ":5598,"Ġéļ¸":5599,"Ġæķ°":5600,"Ġæķĩ":5601,"Ġç¾¾":5602,"ĠäĥĢ":5603,"ĠîľĤ":5604,"Ġîľĵ":5605,"Ġîľŀ":5606,"ĠäĬļ":5607,"Ġå±¤":5608,"Ġå±³":5609,"Ġå±ķ":5610,"Ġå±Ł":5611,"ĠäĤĭ":5612,"Ġäºİ":5613,"Ġé´Ī":5614,"Ġç¯½":5615,"ĠêŃ¤":5616,"ĠäĮĿ":5617,"Ġï»º":5618,"Ġâī½":5619,"Ġäģı":5620,"Ġé»ı":5621,"ĠãĦĤ":5622,"Ġïį£":5623,"Ġïį½":5624,"Ġé··":5625,"Ġèĺ£":5626,"ĠèĺŃ":5627,"Ġæºº":5628,"Ġâħĳ":5629,"ĠèĿ¦":5630,"Ġç§°":5631,"Ġç§Ĺ":5632,"Ġâļ¸":5633,"ĠçĮĵ":5634,"Ġé®¨":5635,"Ġé¶¦":5636,"ĠïŁĩ":5637,"ĠïŁĴ":5638,"Ġã®§":5639,"Ġäŀĺ":5640,"Ġã»º":5641,"Ġã»Ł":5642,"Ġâĩº":5643,"Ġî¥°":5644,"Ġî¥Ł":5645,"Ġêį©":5646,"Ġêįł":5647,"ĠæĢ¿":5648,"Ġæ·§":5649,"Ġã¸Ĥ":5650,"Ġã¦ŀ":5651,"Ġæĳ¡":5652,"Ġï½¼":5653,"Ġï½Ķ":5654,"ĠïĴ®":5655,"Ġîķ¦":5656,"Ġî¯·":5657,"Ġî¯Į":5658,"Ġâ»¿":5659,"Ġâ»Ī":5660,"ĠéµĬ":5661,"ĠçĽ´":5662,"Ġæ¸Ĵ":5663,"ĠâĭĨ":5664,"Ġâĭī":5665,"Ġæ´¾":5666,"ĠæĲĸ":5667,"Ġåµ±":5668,"ĠåµĢ":5669,"Ġæļĳ":5670,"ĠäĻº":5671,"Ġâ¹Ł":5672,"Ġäĺģ":5673,"Ġäĺį":5674,"ĠæŀĿ":5675,"Ġä¨·":5676,"Ġæ¹º":5677,"Ġæ¹İ":5678,"Ġæ»ĳ":5679,"Ġæ»Ľ":5680,"Ġâº¯":5681,"Ġâ§·":5682,"Ġïģµ":5683,"Ġä¢ķ":5684,"Ġè§Ģ":5685,"Ġçĳ±":5686,"Ġçľľ":5687,"Ġáªģ":5688,"Ġî®ª":5689,"Ġêļ¶":5690,"ĠèıĤ":5691,"Ġî½©":5692,"Ġåıĳ":5693,"ĠåıĹ":5694,"ĠåıĽ":5695,"Ġê®ī":5696,"Ġêķ½":5697,"Ġêķľ":5698,"Ġá²ĳ":5699,"ĠãĮĵ":5700,"Ġî¿į":5701,"Ġç´£":5702,"Ġçĵ¯":5703,"Ġçļŀ":5704,"Ġá±§":5705,"Ġá±Ĳ":5706,"ĠîĬ®":5707,"ĠîĬº":5708,"ĠêŁĳ":5709,"Ġïī¥":5710,"ĠäªĴ":5711,"Ġî¤£":5712,"Ġä»¤":5713,"Ġä»İ":5714,"Ġä»ĸ":5715,"ĠîĦĤ":5716,"ĠîĦĬ":5717,"Ġâĳİ":5718,"ĠîĢļ":5719,"ĠîĤĻ":5720,"Ġå¥Ī":5721,"Ġâ¡º":5722,"Ġè©¿":5723,"Ġâª¹":5724,"ĠâªĬ":5725,"Ġà¸Ĥ":5726,"ĠâĽĪ":5727,"Ġä²¯":5728,"Ġîĺį":5729,"Ġãµł":5730,"Ġàª°":5731,"Ġàª¶":5732,"Ġéĸº":5733,"Ġä°Ĵ":5734,"Ġé¤¦":5735,"Ġé¤©":5736,"ĠïµĻ":5737,"Ġè¨©":5738,"Ġèİ¨":5739,"Ġî±Ĭ":5740,"Ġåĩľ":5741,"Ġâ¿ı":5742,"Ġá¶ĸ":5743,"Ġèŀº":5744,"ĠæĭĢ":5745,"ĠêĹ·":5746,"Ġæ¦İ":5747,"Ġãį¤":5748,"Ġæ²º":5749,"Ġîħı":5750,"ĠåĿĨ":5751,"ĠêıĬ":5752,"Ġé°¿":5753,"Ġï¾¢":5754,"ĠéľĮ":5755,"Ġà¹¾":5756,"Ġî¦İ":5757,"Ġåľľ":5758,"ĠæŃ·":5759,"Ġá¡¨":5760,"Ġå¹¤":5761,"ĠèĹĪ":5762,"ĠæĮĤ":5763,"ĠéĹĹ":5764,"Ġå¢¨":5765,"ĠäīĪ":5766,"Ġäīį":5767,"Ġäłİ":5768,"Ġæĩ¶":5769,"Ġâ©¸":5770,"ĠîĮİ":5771,"Ġåĭ¤":5772,"Ġå¦«":5773,"Ġî³¿":5774,"ĠïĹ¤":5775,"ĠïĹĹ":5776,"Ġá®ĥ":5777,"Ġï£¯":5778,"ĠàºĮ":5779,"ĠêĤĤ":5780,"ĠêĤĺ":5781,"Ġä¼Ĳ":5782,"ĠèĸĬ":5783,"Ġê«»":5784,"Ġèĥ»":5785,"Ġèĳ£":5786,"ĠåĢ«":5787,"Ġä¯¼":5788,"Ġä½Ĩ":5789,"Ġï°¤":5790,"ĠçĹĻ":5791,"Ġà»³":5792,"Ġé²½":5793,"Ġà«º":5794,"Ġà«»":5795,"Ġæ¬º":5796,"Ġæ¬Ĳ":5797,"ĠçĨ°":5798,"ĠáĬħ":5799,"ĠèĽ¹":5800,"Ġáĭ»":5801,"Ġà¢¥":5802,"Ġäĸŀ":5803,"Ġç¥Ŀ":5804,"ĠåĤľ":5805,"Ġç¨£":5806,"Ġî²²":5807,"Ġè¼ª":5808,"Ġåŀ¿":5809,"Ġç«·":5810,"ĠêĻ§":5811,"ĠêĻļ":5812,"ĠèĪĺ":5813,"Ġçĸ´":5814,"Ġê£¶":5815,"Ġê£ĳ":5816,"ĠáĤĵ":5817,"Ġá¤Ĳ":5818,"ĠáĦĨáħ¡áĨ»":5819,"Ġà½Ģ":5820,"Ġà½ĸ":5821,"ĠáĦĨáħ©áĨ®":5822,"ĠáĦĨáħ©áĨ°":5823,"ĠáĦĨáħ©áĨ¸":5824,"Ġá³ı":5825,"ĠáĦĢáħ«áĨ¿":5826,"ĠáĦħáħ«áĨ¨":5827,"ĠáĦģáħ£áĨ¿":5828,"ĠáĦħáħ¤áĨ¾":5829,"ĠáĦĢáħ®áĨº":5830,"ĠáĦĳáħ§áĨµ":5831,"ĠáĦĬáħ¨áĨŃ":5832,"ĠáĦĢáħ°áĨ¾":5833,"ĠáĦģáħ«áĨ¸":5834,"ĠáĦĥáħªáĨ¨":5835,"ĠáĦĥáħªáĨ¬":5836,"ĠáĦħáħ´áĨ¾":5837,"ĠáĦĨáħ§áĨ¸":5838,"ĠáĦĭáħ¨áĨ¼":5839,"ĠáĦĮáħ²áĨ²":5840,"ĠáĦĬáħ³áĨ¹":5841,"ĠáĦĥáħ¢áĨ¹":5842,"ĠáĦħáħ¢áĨ«":5843,"ĠáĦĩáħ±áĨ³":5844,"ĠáĦĩáħ±áĨ»":5845,"ĠáĦħáħ¬áĨ¬":5846,"ĠáĦģáħ¥áĨ³":5847,"ĠáĦĨáħ«áĨŃ":5848,"ĠáĦīáħ¤áĨ±":5849,"ĠáĦĢáħµáĨ¬":5850,"ĠáĦĢáħµáĨŃ":5851,"ĠáĦĩáħ°áĨ¾":5852,"ĠáĦİáħ¬áĨ¸":5853,"ĠáĦģáħ¢áĨ¿":5854,"ĠáĦĨáħŃáĨ¸":5855,"ĠðĴĸ":5856,"ĠáĦģáħ§áĨŃ":5857,"ĠáĦĥáħ³áĨ²":5858,"ĠáĦĮáħ³áĨ´":5859,"ĠáĦĩáħ©áĨ·":5860,"ĠáĦĢáħ©áĨ¾":5861,"ĠáĦĮáħ£áĨ®":5862,"ĠáĦĭáħŃáĨ¾":5863,"ĠáĦĢáħŃáĨ¶":5864,"ĠáĦĮáħ±áĨ·":5865,"ĠáĦĲáħ±áĨ¶":5866,"ĠáĦįáħ¡áĨ©":5867,"ĠáĦįáħ´áĨ·":5868,"ĠáĦĤáħ³áĨµ":5869,"ĠáĦīáħ³áĨ¬":5870,"ĠáĦĤáħ£áĨº":5871,"ĠáĦıáħµáĨ¹":5872,"ĠáĦĦáħªáĨ®":5873,"§º":5874,"©«":5875,"¬¬":5876,"³´":5877,"´¶":5878,"¸º":5879,"¿ŀ":5880,"ģĮ":5881,"ģŁ":5882,"Ĭī":5883,"Įĳ":5884,"ıĤ":5885,"ķ¯":5886,"Ĺļ":5887,"Ļı":5888,"ŀ¿":5889,"Ł¹":5890,"Ł½":5891,"ŁĤ":5892,"Ġï¿´":5893,"Ġâĸ¹":5894,"ĠâĸĲ":5895,"ĠâĸĿ":5896,"ĠáĦĨáħ¨":5897,"ĠáĦĨáħ±":5898,"ĠáĦĨáħ«áĩĤ":5899,"ĠáĦĬáħ«":5900,"ĠáĦħáħªáĩĢ":5901,"ĠáĦĭáħ³áĩĢ":5902,"ĠáĦĮáħŃáĩģ":5903,"ĠáĦĮáħ¢áĩĢ":5904,"ĠáĦĥáħ¢áĩĤ":5905,"ĠáĦįáħ§áĩĢ":5906,"ĠáĦįáħ³áĩĢ":5907,"ĠáĦĪáħ¡áĩĢ":5908,"ĠâĤĳ":5909,"ĠâĪĳ":5910,"Ġéĵ¢":5911,"ĠâĴİ":5912,"Ġâĺ¾":5913,"Ġâĺĥ":5914,"Ġâģ£":5915,"Ġâģ¥":5916,"Ġçı¡":5917,"ĠâĿģ":5918,"ĠãŁº":5919,"ĠãŁľ":5920,"ĠãŁŃ":5921,"Ġïİ¦":5922,"Ġâľī":5923,"ĠâľŁ":5924,"Ġïı§":5925,"ĠäĴ¬":5926,"ĠäĴº":5927,"Ġæĺ²":5928,"ĠäĶ£":5929,"ĠäĶ»":5930,"Ġã¢ĳ":5931,"Ġã¢Ń":5932,"ĠæĿ£":5933,"ĠäĵĪ":5934,"ĠäĵĴ":5935,"Ġæģ£":5936,"ĠâĨĳ":5937,"Ġã²¶":5938,"Ġã²ĵ":5939,"ĠîıŃ":5940,"Ġâį´":5941,"Ġâįģ":5942,"Ġãª¶":5943,"ĠîĴº":5944,"ĠîĴķ":5945,"ĠîĴŀ":5946,"ĠíŁ¯":5947,"ĠäĿ½":5948,"Ġçİ½":5949,"ĠçİŁ":5950,"Ġäľī":5951,"Ġäľİ":5952,"Ġäľľ":5953,"ĠæĴµ":5954,"Ġã¿§":5955,"Ġã¯¡":5956,"Ġã¯Ń":5957,"ĠîŁı":5958,"ĠîŁķ":5959,"ĠäŁĿ":5960,"Ġæį©":5961,"Ġæį®":5962,"ĠîĿ©":5963,"ĠîĿ®":5964,"ĠîĿ¯":5965,"ĠîĿ¶":5966,"Ġæľ£":5967,"Ġãŀ§":5968,"Ġãº·":5969,"Ġéİī":5970,"ĠéİĻ":5971,"Ġçºµ":5972,"Ġçº½":5973,"Ġçºĭ":5974,"ĠçºĮ":5975,"Ġçºı":5976,"ĠèĴ¸":5977,"ĠïŀĽ":5978,"Ġäı©":5979,"Ġäı¸":5980,"ĠäıŁ":5981,"ĠâĬ¢":5982,"ĠæĵŁ":5983,"Ġäĳ¸":5984,"Ġäĳĳ":5985,"Ġäĳŀ":5986,"Ġâķª":5987,"Ġäį§":5988,"Ġäįİ":5989,"ĠâĵĦ":5990,"Ġá§·":5991,"Ġá§º":5992,"ĠéºĦ":5993,"Ġçŀ¿":5994,"Ġçŀł":5995,"Ġé¾¡":5996,"ĠãİĻ":5997,"ĠîĵĨ":5998,"Ġãĳ£":5999,"Ġãĳ¯":6000,"ĠãĳĮ":6001,"ĠãĵĬ":6002,"Ġãĵı":6003,"Ġâ£³":6004,"Ġâ£·":6005,"Ġâ£º":6006,"ĠêĿ¿":6007,"Ġç²®":6008,"Ġç¿¦":6009,"Ġãĥ»":6010,"Ġãĥ¼":6011,"Ġãĥŀ":6012,"Ġï¢ĭ":6013,"Ġï¢ł":6014,"Ġî´¨":6015,"Ġè£Ļ":6016,"ĠîŃŃ":6017,"ĠéļĶ":6018,"Ġäİľ":6019,"Ġæķ¬":6020,"Ġç¾±":6021,"Ġîľ¶":6022,"Ġä¸«":6023,"ĠäĤ·":6024,"ĠäĤĬ":6025,"ĠäºĦ":6026,"Ġäºħ":6027,"ĠäºĽ":6028,"Ġç¯·":6029,"ĠäĮĬ":6030,"Ġï»ĥ":6031,"Ġï»İ":6032,"Ġäģ¿":6033,"Ġîį¶":6034,"Ġîį¿":6035,"Ġé»¤":6036,"ĠãĦª":6037,"ĠãĦģ":6038,"Ġâ««":6039,"Ġâ«Ĥ":6040,"Ġïįľ":6041,"Ġî§Ļ":6042,"Ġî§ļ":6043,"Ġé·ĸ":6044,"Ġèĺ¹":6045,"Ġèĺ¾":6046,"Ġèĺĭ":6047,"Ġæºı":6048,"ĠãĶ¢":6049,"ĠãĶĴ":6050,"Ġâħ¨":6051,"Ġï¯ı":6052,"ĠèĿ¸":6053,"Ġç§±":6054,"Ġç§ĩ":6055,"Ġè«Ĵ":6056,"Ġäķ£":6057,"Ġäķĸ":6058,"ĠçĮľ":6059,"ĠïŁ»":6060,"Ġã®¾":6061,"ĠäĲ¬":6062,"Ġæħ©":6063,"Ġæħİ":6064,"Ġâ¶ļ":6065,"Ġâĩķ":6066,"ĠæĢ¨":6067,"ĠéĻµ":6068,"Ġé¢Ī":6069,"Ġã¸»":6070,"Ġã¸Ł":6071,"Ġã¦º":6072,"Ġã¦ĥ":6073,"Ġã¦ĳ":6074,"Ġå»·":6075,"Ġæĳ¯":6076,"Ġæĳµ":6077,"ĠïĬĮ":6078,"ĠïĬĸ":6079,"Ġï½¿":6080,"Ġï½į":6081,"ĠïĴĵ":6082,"Ġîŀ»":6083,"ĠîķĤ":6084,"Ġè¢¤":6085,"Ġè¢ģ":6086,"Ġã¾²":6087,"ĠæŁ«":6088,"ĠæŁĹ":6089,"Ġâ»Ł":6090,"ĠïĤ¶":6091,"ĠïĤĸ":6092,"ĠïĤľ":6093,"ĠéĮ³":6094,"ĠéĮİ":6095,"ĠéĮŁ":6096,"ĠçĽ§":6097,"Ġåº¶":6098,"Ġæ¸ı":6099,"ĠæĻ¾":6100,"Ġæ´»":6101,"ĠæĲĴ":6102,"Ġå¶£":6103,"Ġêľ»":6104,"Ġêľı":6105,"ĠåµĤ":6106,"ĠêĵĽ":6107,"Ġâİĥ":6108,"Ġâİł":6109,"Ġæļ¤":6110,"ĠäĻ£":6111,"ĠäĻ®":6112,"ĠäĻµ":6113,"ĠäĻĺ":6114,"Ġâ¹¯":6115,"Ġâ¹¶":6116,"Ġâ¹¿":6117,"Ġäĺ¸":6118,"Ġæŀ¿":6119,"ĠæŀĨ":6120,"ĠåħŃ":6121,"Ġä¨¸":6122,"Ġæ¹Ľ":6123,"Ġæ»®":6124,"Ġâ§§":6125,"Ġâ§ĥ":6126,"Ġä¢ĸ":6127,"Ġä¢Ľ":6128,"ĠâĲ¼":6129,"Ġçĳ©":6130,"Ġçĳľ":6131,"Ġáª¬":6132,"Ġáªĥ":6133,"Ġáªī":6134,"Ġáªĳ":6135,"Ġî®ŀ":6136,"Ġêļº":6137,"ĠêļĿ":6138,"ĠéĿ£":6139,"ĠéĿ¿":6140,"ĠéĿĪ":6141,"ĠéĿĸ":6142,"Ġâ¾¢":6143,"Ġâ¾¤":6144,"Ġî½į":6145,"Ġâ´©":6146,"ĠêŀĮ":6147,"Ġè®°":6148,"ĠãĮį":6149,"ĠãĮŁ":6150,"Ġî¿»":6151,"ĠæıĦ":6152,"Ġç´Ŀ":6153,"Ġçħ±":6154,"Ġæ¶·":6155,"ĠêŁ³":6156,"Ġïī°":6157,"ĠïīĲ":6158,"Ġèªµ":6159,"Ġâ¤Ĥ":6160,"ĠîĶļ":6161,"Ġê§ĳ":6162,"Ġç¹ª":6163,"Ġå¿ī":6164,"Ġåįµ":6165,"Ġåįĭ":6166,"Ġåįĳ":6167,"Ġç¶©":6168,"Ġâĳª":6169,"Ġâĳ³":6170,"ĠâĳĴ":6171,"ĠîĤ£":6172,"ĠîĤİ":6173,"Ġå²Ģ":6174,"Ġå²ĸ":6175,"Ġâ¡»":6176,"Ġä£¶":6177,"Ġçĥİ":6178,"Ġçĥı":6179,"Ġä¥©":6180,"ĠæİĤ":6181,"ĠæİĹ":6182,"Ġîºª":6183,"ĠèĻľ":6184,"Ġâª·":6185,"Ġâ¬»":6186,"Ġà¸ĥ":6187,"Ġéĳľ":6188,"ĠåĶĳ":6189,"ĠèŃµ":6190,"Ġçķ¾":6191,"Ġã¹į":6192,"ĠîĺĿ":6193,"Ġèķ¤":6194,"Ġèķı":6195,"Ġéłł":6196,"Ġãµİ":6197,"ĠäĽĽ":6198,"Ġè¾§":6199,"Ġè·Ł":6200,"ĠæĬĶ":6201,"ĠæĬĸ":6202,"Ġé¤¨":6203,"Ġé¤Ĩ":6204,"Ġé¤Ĵ":6205,"Ġå½¸":6206,"Ġêĳľ":6207,"Ġé¹¹":6208,"Ġèģ»":6209,"Ġã±Ĭ":6210,"Ġã±ĭ":6211,"Ġèĵľ":6212,"ĠåĩĻ":6213,"Ġâ¿ħ":6214,"ĠãĤŃ":6215,"Ġå¤ĥ":6216,"ĠåĹ®":6217,"Ġçģı":6218,"Ġæ²Ī":6219,"ĠèĬ¥":6220,"Ġïķ¹":6221,"ĠïķĬ":6222,"ĠáµĬ":6223,"Ġè¡ĩ":6224,"Ġé±µ":6225,"Ġé±Ĺ":6226,"Ġã©ħ":6227,"Ġä¾°":6228,"Ġä¾Ľ":6229,"ĠêĮĶ":6230,"ĠêĮŃ":6231,"Ġå¸¦":6232,"ĠâĮĤ":6233,"Ġéį±":6234,"Ġéįģ":6235,"Ġå©±":6236,"ĠæĨĲ":6237,"Ġèļ¦":6238,"ĠãĨĲ":6239,"ĠãĨĿ":6240,"Ġà¨«":6241,"Ġà¨ľ":6242,"Ġîĩ²":6243,"Ġïĥ§":6244,"Ġê¤Į":6245,"Ġï¼²":6246,"Ġîīİ":6247,"ĠåĻĿ":6248,"Ġá¡ļ":6249,"Ġî¼Ń":6250,"Ġæ½©":6251,"Ġæ½Ĭ":6252,"ĠêĶĶ":6253,"Ġä¶ĸ":6254,"Ġèīį":6255,"Ġäµº":6256,"Ġäµģ":6257,"Ġå´Ĵ":6258,"Ġå´Ļ":6259,"Ġäł¥":6260,"Ġæ¼¢":6261,"Ġæ¼¼":6262,"Ġïĳ¹":6263,"ĠæĩŁ":6264,"ĠèĮ¶":6265,"ĠåŁ¼":6266,"Ġèµģ":6267,"Ġåĺ¶":6268,"ĠåĺĴ":6269,"Ġêª¤":6270,"ĠêªĦ":6271,"ĠâŃ±":6272,"ĠåĭĴ":6273,"Ġãķµ":6274,"ĠåĽ¹":6275,"Ġä¡º":6276,"Ġæª³":6277,"Ġæĥį":6278,"Ġéħª":6279,"Ġéħį":6280,"Ġá®ī":6281,"Ġï²Ĭ":6282,"Ġàºİ":6283,"Ġàºŀ":6284,"ĠêĤĶ":6285,"Ġä¼¸":6286,"Ġèĸ³":6287,"Ġèĸº":6288,"Ġã¼Ł":6289,"Ġî¨´":6290,"Ġî·Ŀ":6291,"Ġç¡£":6292,"Ġç»¿":6293,"Ġà¦¡":6294,"ĠåĪº":6295,"ĠéĢĦ":6296,"ĠçĿĢ":6297,"Ġã½ĸ":6298,"ĠêĲĭ":6299,"ĠîµĽ":6300,"Ġé¥®":6301,"Ġæ¿ı":6302,"Ġç¼·":6303,"ĠêīĦ":6304,"ĠãĭŁ":6305,"ĠîĹ¨":6306,"ĠîĹĩ":6307,"Ġåİ©":6308,"Ġäĭ·":6309,"Ġã¡ł":6310,"ĠåŃľ":6311,"ĠæĶĤ":6312,"ĠáĬ½":6313,"Ġéĺ»":6314,"Ġáĵ»":6315,"ĠîĪ¯":6316,"Ġè³Į":6317,"Ġä¦Ħ":6318,"Ġé¡Ŀ":6319,"Ġã¬Ł":6320,"Ġç¨ľ":6321,"Ġã¨©":6322,"Ġãĩİ":6323,"ĠåĸĻ":6324,"Ġîĸ£":6325,"ĠéĪį":6326,"ĠéĪĿ":6327,"Ġã£Ń":6328,"Ġêłĸ":6329,"Ġàµ¬":6330,"Ġã«İ":6331,"Ġá¥Ł":6332,"ĠéĶĲ":6333,"ĠáłŁ":6334,"Ġáľ°":6335,"Ġç¤ª":6336,"Ġà³Ŀ":6337,"Ġåł½":6338,"Ġà§©":6339,"Ġà°¸":6340,"Ġà°º":6341,"Ġê¦Ń":6342,"Ġê¢ł":6343,"ĠàŃµ":6344,"Ġà··":6345,"Ġê£²":6346,"Ġê¨¥":6347,"Ġï¬·":6348,"Ġï¬¿":6349,"ĠáĦĨáħ¨áĨ¸":6350,"Ġà¥§":6351,"Ġá¤ĳ":6352,"Ġá¤Ł":6353,"Ġà½ģ":6354,"ĠáĦĨáħ©áĨ¨":6355,"ĠáĦĨáħ©áĨ²":6356,"ĠáĦĬáħ¯áĨ¹":6357,"ĠáĦĬáħ¯áĨŃ":6358,"ĠáĦĥáħ¨áĨ½":6359,"Ġíŀ§":6360,"ĠáĦĥáħ§áĨ°":6361,"ĠáĦĥáħ§áĨ¹":6362,"Ġá³Ħ":6363,"ĠáĦħáħ«áĨ¼":6364,"ĠáĦĭáħ´áĨ´":6365,"ĠáĦĨáħ²áĨ«":6366,"ĠáĦħáħ¤áĨ¯":6367,"ĠáĦĭáħ³áĨ±":6368,"ĠáĦĮáħŃáĨ¹":6369,"ĠáĦĳáħ¨áĨ®":6370,"ĠáĦĥáħ¦áĨ²":6371,"ĠáĦĥáħ¦áĨ³":6372,"ĠáĦįáħŃáĨ·":6373,"ĠáĦĬáħ¥áĨ¾":6374,"ĠáĦĬáħ²áĨ¹":6375,"ĠáĦĭáħ«áĨ«":6376,"ĠáĦĪáħ¦áĨº":6377,"ĠáĦĨáħ±áĨ»":6378,"ĠáĦĥáħªáĨ¶":6379,"ĠáĦĥáħªáĨ»":6380,"ĠáĦįáħ®áĨº":6381,"ĠáĦĮáħ¢áĨ±":6382,"ĠáĦĭáħ¨áĨ½":6383,"ĠáĦĮáħ²áĨ³":6384,"ĠáĦħáħ£áĨ±":6385,"ĠáĦĬáħ³áĨ´":6386,"ĠáĦĳáħŃáĨª":6387,"ĠáĦģáħªáĨ·":6388,"ĠáĦĭáħ®áĨº":6389,"ĠáĦĪáħµáĨ®":6390,"ĠáĦĬáħ«áĨ¿":6391,"ĠáĦĢáħ²áĨ½":6392,"ĠáĦİáħ¬áĨ¼":6393,"ĠáĦİáħ¬áĨ¾":6394,"ĠáĦĴáħ¬áĨº":6395,"ĠáĦĥáħ¥áĨ¸":6396,"ĠáĦĳáħ¥áĨ±":6397,"ĠáĦĬáħ¦áĨ¾":6398,"ĠáĦĨáħ°áĨ°":6399,"ĠáĦģáħ¯áĨ¶":6400,"ĠáĦĪáħ¬áĨ³":6401,"ĠáĦĩáħ©áĨ¿":6402,"ĠáĦĭáħ°áĨ´":6403,"ĠáĦĭáħ°áĨ¼":6404,"ĠáĦģáħ®áĨ¼":6405,"ĠáĦĭáħŃáĨ®":6406,"ĠáĦİáħ¡áĨµ":6407,"ĠáĦĳáħ©áĨ¶":6408,"ĠáĦģáħ°áĨ²":6409,"ĠáĦīáħ±áĨŃ":6410,"ĠáĦįáħ§áĨº":6411,"ĠáĦĨáħ¦áĨª":6412,"ĠáĦĢáħ³áĨ½":6413,"ĠáĦĴáħ¢áĨ¬":6414,"ĠáĦħáħ°áĨ®":6415,"ĠáĦĪáħ¥áĨŃ":6416,"ĠáĦĭáħ©áĨ¾":6417,"ĠáĦĪáħ¨áĨ²":6418,"ĠáĦĩáħŃáĨ½":6419,"ĠáĦĨáħ£áĨ´":6420,"ĠáĦħáħ¯áĨµ":6421,"ĠáĦĴáħ¦áĨµ":6422,"ĠáĦĢáħ¢áĨ¾":6423,"ĠáĦĭáħªáĨª":6424,"ĠáĦīáħ¨áĨ»":6425,"ĠáĦħáħ±áĨª":6426,"ĠáĦĪáħ§áĨ°":6427,"ĠáĦĦáħ¤áĨ½":6428,"ĠáĦĲáħ¦áĨ¶":6429,"ĠáĦĥáħ¯áĨº":6430,"Ġò´ŁĮ":6431,"Ġá½ĩ":6432,"Ġð¢¡Ĭ":6433,"©±":6434,"ªª":6435,"ªĥ":6436,"«ħ":6437,"¬®":6438,"¯¯":6439,"²©":6440,"µħ":6441,"¶Ł":6442,"··":6443,"ºİ":6444,"»£":6445,"¾¡":6446,"¿Ĺ":6447,"ģĿ":6448,"ħ±":6449,"ĩ§":6450,"ĭ¶":6451,"İ§":6452,"ıĢ":6453,"ıĶ":6454,"Ĳī":6455,"ĳİ":6456,"Ĵµ":6457,"ĴĪ":6458,"ĵĵ":6459,"ķ¦":6460,"ĺµ":6461,"Ľµ":6462,"ĽĪ":6463,"ľ§":6464,"ľ¬":6465,"Ŀ³":6466,"Ŀº":6467,"ŀŁ":6468,"Ł¨":6469,"Ł©":6470,"Ġï¿¿":6471,"Ġï¿ĩ":6472,"Ġï¿ķ":6473,"ĠâĻĳ":6474,"ĠâĻĻ":6475,"ĠáĦģáħ¢áĩĢ":6476,"ĠáĦĭáħ³":6477,"ĠáĦĥáħ£":6478,"ĠáĦĥáħŃáĩģ":6479,"ĠáĦĳáħ¥áĩĢ":6480,"ĠáĦĴáħ¬áĩĤ":6481,"ĠáĦīáħ§áĩĢ":6482,"ĠáĦīáħ¥áĩģ":6483,"ĠáĦĪáħµáĩĢ":6484,"ĠáĦĲáħ¬":6485,"ĠâĤĭ":6486,"ĠâĪĤ":6487,"ĠâĴª":6488,"ĠâŁİ":6489,"Ġâĺĩ":6490,"ĠâģĢ":6491,"ĠçıĬ":6492,"ĠçıĻ":6493,"ĠâĿı":6494,"ĠãŁĺ":6495,"Ġïİ¥":6496,"Ġïİľ":6497,"Ġâľ²":6498,"ĠâľĻ":6499,"ĠçŁ¢":6500,"ĠçŁ½":6501,"Ġâ¥¨":6502,"Ġâ¥½":6503,"ĠäĴ©":6504,"ĠäĴĭ":6505,"ĠæĺĴ":6506,"ĠäĶļ":6507,"Ġã§ł":6508,"Ġã¢Ģ":6509,"Ġã¢ģ":6510,"ĠæĿĺ":6511,"Ġäĵ§":6512,"Ġäĵµ":6513,"ĠäĵĿ":6514,"Ġæģ¯":6515,"Ġæģļ":6516,"Ġã·Ĩ":6517,"Ġã²ħ":6518,"Ġîı¦":6519,"ĠîıŁ":6520,"Ġâį«":6521,"ĠãªĢ":6522,"Ġãªī":6523,"ĠãªĿ":6524,"Ġãªŀ":6525,"ĠãªŁ":6526,"ĠéŀĦ":6527,"ĠîĴ³":6528,"ĠîĴĭ":6529,"Ġç·¯":6530,"Ġç·Į":6531,"ĠäĿ¦":6532,"ĠäĿ°":6533,"Ġçİª":6534,"Ġçİĭ":6535,"Ġäľ©":6536,"ĠäľĲ":6537,"ĠæĴĤ":6538,"Ġã¿Ŀ":6539,"Ġã¯ĳ":6540,"Ġã¯ĸ":6541,"ĠäŁ¦":6542,"ĠäŁĽ":6543,"ĠîĿ³":6544,"ĠîĿ¾":6545,"ĠîĿĥ":6546,"ĠîĿĩ":6547,"Ġæľ°":6548,"Ġæľ·":6549,"Ġæľº":6550,"Ġæľı":6551,"Ġãŀ¹":6552,"Ġéİł":6553,"ĠãģĻ":6554,"Ġçº³":6555,"Ġçºĥ":6556,"ĠéŁ¦":6557,"ĠéŁĬ":6558,"ĠéŁŁ":6559,"ĠïŀĶ":6560,"Ġäı·":6561,"Ġäı»":6562,"Ġäıļ":6563,"ĠäıŃ":6564,"ĠâĬ²":6565,"ĠâĬĬ":6566,"Ġæĵ©":6567,"Ġæĵ±":6568,"ĠêĴº":6569,"ĠæĹ®":6570,"Ġäĳ¤":6571,"Ġäĳ¨":6572,"Ġäĳ°":6573,"ĠâķĤ":6574,"Ġâķĩ":6575,"ĠâĹĹ":6576,"Ġå¾¦":6577,"Ġå¾³":6578,"Ġá¢ĩ":6579,"Ġá¢Ľ":6580,"ĠçĦĪ":6581,"ĠçĦī":6582,"ĠçĶī":6583,"ĠçĶĲ":6584,"ĠçĶķ":6585,"Ġæĸ¢":6586,"ĠæĸĢ":6587,"Ġá§ļ":6588,"Ġéºĸ":6589,"Ġçŀ¼":6590,"Ġîĵª":6591,"ĠîĵĽ":6592,"Ġãĳ©":6593,"Ġãĳ¸":6594,"Ġãĳĳ":6595,"ĠãĳĴ":6596,"ĠãĳĿ":6597,"Ġãĵľ":6598,"Ġâ£¿":6599,"Ġéıı":6600,"Ġéıĸ":6601,"Ġç²ĥ":6602,"Ġç¿¸":6603,"Ġãĥ¡":6604,"Ġî´´":6605,"ĠîĻ¦":6606,"ĠîĻ¯":6607,"ĠîĻ·":6608,"Ġè£©":6609,"Ġè£ģ":6610,"Ġâŀ¡":6611,"Ġâŀĭ":6612,"Ġâıº":6613,"Ġâıĩ":6614,"Ġäİ¼":6615,"ĠäİĦ":6616,"Ġäİĭ":6617,"Ġäİŀ":6618,"Ġæķ¸":6619,"ĠæķĢ":6620,"Ġç¾²":6621,"Ġç¾»":6622,"Ġäĥ£":6623,"Ġäĥ¶":6624,"Ġäĥ·":6625,"ĠäĬµ":6626,"ĠäĬĹ":6627,"ĠäĤĪ":6628,"ĠäĤĳ":6629,"ĠäĤĹ":6630,"Ġäº¯":6631,"Ġî£¸":6632,"Ġî£ı":6633,"Ġî£ĸ":6634,"Ġé´į":6635,"Ġç¯¦":6636,"Ġç¯®":6637,"Ġç¯µ":6638,"Ġç¯¶":6639,"ĠêŃ®":6640,"ĠêŃ¼":6641,"Ġï»»":6642,"Ġï»Ĳ":6643,"ĠâīĴ":6644,"Ġäģŀ":6645,"Ġîį¥":6646,"Ġé»¨":6647,"Ġé»ĳ":6648,"Ġé»ŀ":6649,"Ġâ«º":6650,"Ġâ«ĭ":6651,"Ġâ«ŀ":6652,"Ġïįģ":6653,"Ġïįį":6654,"Ġî§´":6655,"Ġî§į":6656,"Ġé·Ł":6657,"Ġèĺ³":6658,"ĠèĿ§":6659,"ĠèĿķ":6660,"Ġç§ª":6661,"Ġç§Ń":6662,"ĠèŁħ":6663,"ĠèŁŀ":6664,"Ġè«µ":6665,"Ġè«Ĩ":6666,"Ġé¸°":6667,"Ġäķ¶":6668,"ĠäķĦ":6669,"ĠçĮı":6670,"Ġé®®":6671,"Ġé¶³":6672,"ĠïŁ§":6673,"ĠïŁ¯":6674,"ĠäĲ¸":6675,"ĠäĲĴ":6676,"Ġæħ£":6677,"Ġæħħ":6678,"Ġã»Ħ":6679,"Ġâ¶¶":6680,"Ġâ¶ı":6681,"Ġâĩ´":6682,"ĠâĩĪ":6683,"Ġâĩľ":6684,"Ġêį¥":6685,"Ġêį§":6686,"Ġæ·ª":6687,"Ġé¢ĵ":6688,"Ġã¸ĸ":6689,"Ġã¦£":6690,"Ġå»ı":6691,"Ġï½©":6692,"Ġï½´":6693,"Ġï½µ":6694,"Ġï½ģ":6695,"Ġîŀ¾":6696,"ĠîŀĹ":6697,"Ġîŀľ":6698,"Ġîŀŀ":6699,"Ġã¶µ":6700,"Ġã¶½":6701,"Ġîķµ":6702,"Ġã¾§":6703,"Ġã¾©":6704,"Ġã¾º":6705,"Ġã¾¼":6706,"ĠæŁ³":6707,"Ġî¯¾":6708,"Ġâ»±":6709,"Ġéµ¶":6710,"Ġéµĥ":6711,"Ġéµį":6712,"ĠéĮŀ":6713,"Ġåºª":6714,"Ġåºĥ":6715,"ĠåºŁ":6716,"Ġâĭ¿":6717,"ĠæĻ¦":6718,"ĠïĨŀ":6719,"Ġæ´µ":6720,"Ġå¶·":6721,"Ġå¶Ĭ":6722,"ĠêľĿ":6723,"Ġæ¾«":6724,"Ġî«į":6725,"Ġåµµ":6726,"Ġêĵ½":6727,"Ġêĵī":6728,"Ġêĵİ":6729,"Ġæļ»":6730,"ĠäĻ¾":6731,"Ġåħ©":6732,"Ġä¨İ":6733,"Ġä¨ĵ":6734,"Ġæµº":6735,"Ġæµŀ":6736,"Ġæ¹¢":6737,"Ġæ¹Ļ":6738,"ĠâºĨ":6739,"Ġéĥ°":6740,"Ġä¢ı":6741,"Ġèº¼":6742,"ĠèºĨ":6743,"Ġèºį":6744,"ĠâĲ°":6745,"Ġè§§":6746,"Ġè§·":6747,"Ġçĳ»":6748,"Ġçĳı":6749,"Ġçľİ":6750,"Ġçľĳ":6751,"Ġè´Ĭ":6752,"ĠáªĪ":6753,"Ġáªķ":6754,"Ġî®±":6755,"Ġæ£Ļ":6756,"Ġèı¯":6757,"ĠèıĪ":6758,"Ġèıī":6759,"ĠèıĬ":6760,"Ġâµį":6761,"Ġä±²":6762,"Ġê®¶":6763,"Ġê®Ľ":6764,"Ġâ´Ļ":6765,"Ġî¡§":6766,"Ġî¡·":6767,"ĠðĿĲ":6768,"ĠðĿĵ²":6769,"Ġêķ¶":6770,"Ġêķ¹":6771,"ĠèĶĤ":6772,"Ġá²ĭ":6773,"Ġá²ļ":6774,"ĠãĮı":6775,"ĠãĮŀ":6776,"Ġî¿µ":6777,"Ġî¿Ħ":6778,"Ġè¶ļ":6779,"ĠéģĿ":6780,"Ġæ³Į":6781,"Ġæ³į":6782,"Ġçĵľ":6783,"Ġá¯Ģ":6784,"ĠçħĹ":6785,"Ġá±ª":6786,"Ġá±ľ":6787,"Ġæ±§":6788,"ĠîĬ¦":6789,"ĠêŁ¢":6790,"ĠäªĮ":6791,"ĠèĤĤ":6792,"ĠèĤĸ":6793,"ĠèĤŃ":6794,"Ġî¤Ĵ":6795,"Ġî¤Ń":6796,"Ġèªŀ":6797,"Ġâ¤¢":6798,"Ġâ¤ĵ":6799,"Ġä¤Ģ":6800,"Ġîĳĥ":6801,"ĠèłĿ":6802,"Ġê§§":6803,"Ġê§Ĵ":6804,"Ġê§Ł":6805,"Ġê§ł":6806,"Ġä»ķ":6807,"Ġå¿¬":6808,"Ġå¿®":6809,"Ġåįķ":6810,"ĠîĦį":6811,"Ġâĳ¶":6812,"Ġâ²ľ":6813,"Ġå¥ŀ":6814,"ĠäĦŀ":6815,"Ġï®¯":6816,"Ġçĥ´":6817,"Ġæİ¥":6818,"ĠæİĬ":6819,"Ġæİĸ":6820,"Ġæİļ":6821,"ĠîºĬ":6822,"ĠîºĿ":6823,"ĠîºŃ":6824,"Ġè©Į":6825,"Ġèľ·":6826,"Ġâ¬·":6827,"Ġà¸¿":6828,"Ġé¦ľ":6829,"Ġä§º":6830,"Ġä§ĭ":6831,"ĠäĢł":6832,"Ġêĺ¸":6833,"ĠéĳĬ":6834,"ĠåĶ©":6835,"ĠãĽľ":6836,"ĠèŃ´":6837,"Ġçķ°":6838,"Ġà´°":6839,"Ġà´º":6840,"Ġçµº":6841,"Ġâ°Ģ":6842,"ĠãµĴ":6843,"Ġéĸ¯":6844,"ĠéĸĴ":6845,"Ġè·Ĥ":6846,"ĠãĿ¤":6847,"ĠãĿ¦":6848,"ĠãĿ»":6849,"Ġé¤Ŀ":6850,"Ġïµī":6851,"Ġêĳ¨":6852,"Ġêĳ³":6853,"Ġä´ģ":6854,"Ġè¨´":6855,"Ġæ¥µ":6856,"Ġî±·":6857,"Ġî±ĥ":6858,"Ġé¹ĩ":6859,"Ġâ½ĭ":6860,"Ġæ¤¦":6861,"ĠèģĨ":6862,"ĠãĤ¤":6863,"Ġèŀ«":6864,"Ġå¤©":6865,"Ġæĭı":6866,"ĠéŃī":6867,"ĠêĹ¨":6868,"ĠãįĿ":6869,"Ġæ¡¸":6870,"Ġæ¡»":6871,"ĠèĬĸ":6872,"ĠåĿĶ":6873,"Ġê¬¡":6874,"ĠïĸĦ":6875,"Ġé°º":6876,"Ġè¿Ĳ":6877,"Ġè¿ľ":6878,"Ġï¾¡":6879,"Ġä¾¿":6880,"ĠêĮ¤":6881,"Ġêħ¢":6882,"ĠïĿ¾":6883,"ĠïĿĬ":6884,"ĠäħĽ":6885,"Ġçį¡":6886,"Ġçį¼":6887,"Ġæ«ĸ":6888,"Ġæ«Ĺ":6889,"ĠéįĬ":6890,"ĠèĢ¦":6891,"Ġå©ļ":6892,"Ġéľį":6893,"Ġéľİ":6894,"ĠéľĿ":6895,"Ġèļ³":6896,"ĠèļĶ":6897,"Ġê¡²":6898,"Ġîļ®":6899,"Ġé¬¢":6900,"Ġà¹¦":6901,"Ġà¹ı":6902,"Ġéĩ§":6903,"Ġéĩı":6904,"Ġï·¯":6905,"Ġï·¿":6906,"Ġïĥ¼":6907,"Ġî¦³":6908,"Ġê¤ŀ":6909,"Ġá´´":6910,"Ġá´Ģ":6911,"Ġá´Ŀ":6912,"Ġâ¸µ":6913,"ĠáĶĢ":6914,"Ġî»¥":6915,"Ġî»³":6916,"Ġè¦ĸ":6917,"ĠèĹļ":6918,"Ġå´¿":6919,"Ġå¼±":6920,"Ġå¢ª":6921,"Ġäł¦":6922,"Ġæ¼ı":6923,"Ġïĳŀ":6924,"ĠåŁĨ":6925,"Ġåĺŀ":6926,"Ġêª£":6927,"Ġêª®":6928,"ĠæīĴ":6929,"ĠîĮĥ":6930,"ĠîĮĶ":6931,"Ġåĭº":6932,"Ġåĭī":6933,"Ġå¦¾":6934,"ĠîĥĴ":6935,"ĠêĽ¨":6936,"Ġæª±":6937,"ĠïĮİ":6938,"Ġç®¿":6939,"Ġæ®®":6940,"ĠåīĴ":6941,"Ġá®ŀ":6942,"Ġä¼Į":6943,"Ġä¼ı":6944,"Ġã¼·":6945,"Ġã¼Ļ":6946,"Ġî¨¹":6947,"Ġê«¤":6948,"Ġé£¼":6949,"Ġç»ĺ":6950,"Ġà¦į":6951,"ĠïĪ·":6952,"ĠåĪ©":6953,"Ġã½¶":6954,"Ġã½ĭ":6955,"ĠçĹĬ":6956,"Ġä¿ķ":6957,"Ġåĵľ":6958,"Ġïħ¿":6959,"Ġçī¾":6960,"ĠçīĦ":6961,"Ġï¶ī":6962,"Ġé¥Ĺ":6963,"ĠéĨī":6964,"ĠçĬ¬":6965,"ĠçĬĿ":6966,"Ġæ©«":6967,"Ġç¸ī":6968,"Ġç¸Ł":6969,"Ġïº±":6970,"Ġé©©":6971,"Ġãĭģ":6972,"ĠãĭĽ":6973,"ĠïĵĨ":6974,"Ġã³Ĭ":6975,"Ġã³ı":6976,"Ġà«¿":6977,"ĠãĬĿ":6978,"Ġå¡Ģ":6979,"Ġå°Ĳ":6980,"Ġå£¹":6981,"ĠïĲ¹":6982,"Ġà¢ĥ":6983,"Ġäĸ¨":6984,"Ġã¤ª":6985,"Ġè³Ĥ":6986,"Ġî¸ª":6987,"Ġî¸¼":6988,"Ġäĩ·":6989,"Ġáį¼":6990,"ĠåĴĮ":6991,"ĠåĴĹ":6992,"ĠåĮ¿":6993,"ĠåĮĮ":6994,"ĠêĭĶ":6995,"Ġã£¯":6996,"Ġã£ĵ":6997,"ĠàµĲ":6998,"Ġæ¢ŀ":6999,"ĠãĻĸ":7000,"ĠãĺĮ":7001,"Ġé¼Ī":7002,"Ġà¿²":7003,"ĠçĤ§":7004,"ĠçĻ³":7005,"ĠçĻĤ":7006,"ĠáĨ±":7007,"ĠáĨĻ":7008,"Ġç¤¼":7009,"ĠïĽ¿":7010,"ĠïĻħ":7011,"ĠáŀŁ":7012,"ĠáĪµ":7013,"ĠáŃ¤":7014,"ĠðŁĳ":7015,"ĠáĦĨáħ¨áĨ´":7016,"Ġà¥¶":7017,"Ġà±¸":7018,"Ġá¤ı":7019,"Ġá¬±":7020,"ĠáĦħáħªáĨµ":7021,"Ġàłĥ":7022,"ĠáĦĥáħ¨áĨ»":7023,"Ġíŀ¼":7024,"ĠáĦĥáħ§áĨ´":7025,"ĠáĦĥáħ§áĨ¿":7026,"Ġâ·Ķ":7027,"ĠáĦħáħ«áĨ°":7028,"ĠáĦħáħ«áĨ±":7029,"ĠáĦģáħ£áĨ²":7030,"ĠáĦĭáħ´áĨ»":7031,"ĠáĦĴáħµáĨ³":7032,"ĠáĦĴáħµáĨ·":7033,"ĠáĦĨáħ²áĨ®":7034,"ĠáĦĳáħ¦áĨ¬":7035,"ĠáĦĢáħ®áĨ¹":7036,"ĠáĦĮáħŃáĨ¼":7037,"ĠáĦĥáħ©áĨ°":7038,"ĠáĦĬáħ¨áĨ»":7039,"ĠáĦĭáħ«áĨ®":7040,"ĠáĦĮáħ®áĨ·":7041,"ĠáĦĬáħ§áĨ¹":7042,"ĠáĦĬáħ§áĨ¾":7043,"Ġï¸¿":7044,"ĠáĦħáħµáĨ¹":7045,"ĠáĦĢáħ°áĨº":7046,"ĠáĦģáħ¦áĨ±":7047,"ĠáĦģáħ¦áĨ¶":7048,"ĠáĦĪáħ¦áĨª":7049,"ĠáĦĪáħ¦áĨ°":7050,"ĠáĦħáħ¡áĨ¯":7051,"ĠáĦģáħ«áĨ²":7052,"ĠáĦģáħ«áĨ¾":7053,"ĠáĦįáħ¯áĨ¸":7054,"ĠáĦĥáħªáĨŃ":7055,"ĠáĦĴáħ³áĨ«":7056,"ĠáĦĮáħ¬áĨ¶":7057,"ĠáĦĮáħ¢áĨº":7058,"ĠáĦĬáħ¤áĨ¸":7059,"ĠáĦĨáħ§áĨ·":7060,"ĠáĦĢáħ¯áĨ¬":7061,"ĠáĦĢáħ¯áĨµ":7062,"ĠáĦīáħ²áĨ½":7063,"ĠáĦĥáħ¢áĨ©":7064,"ĠáĦĥáħ¢áĨ±":7065,"ĠáĦĳáħŃáĨ©":7066,"ĠáĦħáħ¢áĨ¨":7067,"ĠáĦĨáħ´áĨº":7068,"ĠáĦĭáħ®áĨ®":7069,"ĠáĦĭáħ®áĨ²":7070,"ĠáĦĭáħ®áĨŃ":7071,"ĠáĦİáħ©áĨº":7072,"ĠáĦģáħ¥áĨ´":7073,"ĠáĦģáħ¥áĨ¶":7074,"ĠáĦİáħªáĨ½":7075,"ĠáĦĭáħ¢áĨ¯":7076,"ĠáĦīáħ¤áĨ·":7077,"ĠáĦıáħ¬áĨ©":7078,"ĠáĦįáħ²áĨ·":7079,"ĠáĦģáħ¢áĨ¼":7080,"ĠáĦĬáħ¦áĨº":7081,"ĠáĦĭáħ£áĨ¬":7082,"ĠáĦĪáħªáĨ°":7083,"ĠáĦģáħ³áĨ¿":7084,"ĠáĦĩáħ¯áĨ´":7085,"ĠáĦĩáħ¯áĨ¸":7086,"ĠáĦĮáħ¥áĨº":7087,"ĠáĦģáħ¬áĨ¿":7088,"ĠáĦĪáħ´áĨ®":7089,"ĠáĦĪáħ´áĨŃ":7090,"Ġá©Ĳ":7091,"Ġá©Ł":7092,"ĠáĦīáħ±áĨ²":7093,"ĠáĦĥáħŃáĨ¸":7094,"ĠáĦĥáħŃáĨ½":7095,"ĠáĦīáħ§áĨ¼":7096,"ĠáĦĢáħ±áĨ·":7097,"ĠáĦĲáħ¬áĨ¾":7098,"ĠáĦĲáħ£áĨº":7099,"Ġà£ĳ":7100,"ĠáĦĥáħ¡áĨª":7101,"ĠáĦĪáħ²áĨ±":7102,"ĠáĦıáħ²áĨ¾":7103,"ĠáĦīáħ¬áĨ¿":7104,"ĠòŁļ":7105,"ĠáĦįáħ¡áĨ¼":7106,"ĠáĦĲáħªáĨ©":7107,"ĠáĦĪáħ¨áĨ´":7108,"ĠáĦıáħ«áĨ»":7109,"ĠáĦĳáħ¯áĨ½":7110,"ĠáĦĢáħ¢áĨ»":7111,"ĠáĦĥáħ®áĨ¶":7112,"ĠáĦĤáħ¡áĨ¬":7113,"ĠáĦĭáħ¬áĨŃ":7114,"ĠáĦħáħŃáĨ½":7115,"ĠáĦĦáħ¬áĨº":7116,"Ġá¿ħ":7117,"¤Ĩ":7118,"¤İ":7119,"¦³":7120,"§¿":7121,"©¥":7122,"©©":7123,"ªį":7124,"¬º":7125,"¯ı":7126,"°ĵ":7127,"±¹":7128,"´Ĩ":7129,"µ´":7130,"·¨":7131,"·¬":7132,"¸¿":7133,"¹¹":7134,"ºĬ":7135,"ºĺ":7136,"¼į":7137,"½»":7138,"½ŀ":7139,"ģ§":7140,"ģ©":7141,"ģ´":7142,"ģµ":7143,"Ĥĵ":7144,"ĥ¥":7145,"ĥ¹":7146,"Ħ¢":7147,"Ĩº":7148,"Ĭĵ":7149,"ĭ«":7150,"Įĥ":7151,"Įĸ":7152,"į¿":7153,"ıº":7154,"ıĽ":7155,"ĳ·":7156,"ĳº":7157,"Ĵ©":7158,"Ĵ¬":7159,"ĵł":7160,"ĵŃ":7161,"Ķĳ":7162,"ĸĵ":7163,"Ĺ¨":7164,"ĹĹ":7165,"Ľı":7166,"ŀ¥":7167,"ŀĽ":7168,"Ł®":7169,"Ń©":7170,"Ġï¿Ľ":7171,"ĠâĻĦ":7172,"ĠâĻŀ":7173,"Ġâĸĳ":7174,"ĠâĸĻ":7175,"ĠáĦĨáħ²áĩģ":7176,"ĠáĦĨáħ¨áĩĤ":7177,"ĠáĦĨáħ¨áĩĢ":7178,"ĠáĦĨáħ±áĩĤ":7179,"ĠáĦĬáħ¢":7180,"ĠáĦĬáħ°":7181,"ĠáĦĬáħŃáĩģ":7182,"ĠáĦĬáħ¤áĩĤ":7183,"ĠáĦĬáħ°áĩĢ":7184,"ĠáĦħáħ«":7185,"ĠáĦħáħ£áĩģ":7186,"ĠáĦĭáħ²áĩĤ":7187,"ĠáĦĢáħ©áĩģ":7188,"ĠáĦĳáħŃáĩĢ":7189,"ĠáĦĳáħ¬áĩģ":7190,"ĠáĦĴáħµáĩĤ":7191,"ĠáĦīáħ³áĩĤ":7192,"ĠáĦĪáħ²áĩĤ":7193,"ĠáĦĪáħ¬áĩĤ":7194,"ĠáĦıáħ±":7195,"ĠáĦĤáħ¢áĩĤ":7196,"ĠâĤª":7197,"ĠâĤ´":7198,"ĠâĤ¿":7199,"ĠâĦł":7200,"Ġéĵ¨":7201,"Ġéĵª":7202,"Ġéĵ¶":7203,"ĠéĵĮ":7204,"ĠéĵŁ":7205,"ĠâĴ¿":7206,"ĠâĴħ":7207,"ĠâĴĪ":7208,"ĠâĴĿ":7209,"ĠâŁĶ":7210,"Ġâģ¤":7211,"Ġãı¡":7212,"Ġãı©":7213,"Ġãı·":7214,"ĠãıĦ":7215,"Ġãıļ":7216,"ĠçıĿ":7217,"Ġçıł":7218,"ĠâĿĦ":7219,"ĠãŁ¡":7220,"Ġïİ±":7221,"Ġïİļ":7222,"Ġâľ¦":7223,"Ġâľ¿":7224,"ĠâľĴ":7225,"ĠçŁĲ":7226,"ĠïıĲ":7227,"Ġïıļ":7228,"Ġâ¥³":7229,"Ġâ¥¼":7230,"Ġæĺ¬":7231,"Ġæĺ´":7232,"Ġæĺµ":7233,"Ġæĺ¼":7234,"ĠæĺĤ":7235,"ĠæĺĨ":7236,"Ġæĺĭ":7237,"Ġæĺİ":7238,"ĠäĶ¦":7239,"ĠäĶ®":7240,"ĠäĶ·":7241,"ĠäĶĤ":7242,"Ġã§Ģ":7243,"Ġã§Ń":7244,"ĠæĿħ":7245,"ĠæĿĩ":7246,"Ġäĵ¥":7247,"Ġäĵ´":7248,"Ġæģ¢":7249,"Ġæģī":7250,"Ġæģĳ":7251,"ĠæģĶ":7252,"Ġæģŀ":7253,"Ġã·§":7254,"Ġã·Ķ":7255,"ĠâĨ¬":7256,"Ġã²Ĥ":7257,"Ġã²ı":7258,"Ġîı»":7259,"Ġãª©":7260,"Ġãª«":7261,"Ġãª·":7262,"Ġãªİ":7263,"Ġãªĳ":7264,"Ġéŀ¼":7265,"ĠéŀĨ":7266,"Ġéŀŀ":7267,"ĠîĴĴ":7268,"ĠíŁ§":7269,"ĠíŁı":7270,"ĠíŁĴ":7271,"Ġç·¥":7272,"Ġç·½":7273,"Ġç·Ń":7274,"Ġçİķ":7275,"Ġäľ¶":7276,"Ġã¿°":7277,"Ġã¿ľ":7278,"ĠîŁ£":7279,"ĠîŁ¸":7280,"Ġæľ»":7281,"ĠæľĨ":7282,"Ġãº§":7283,"ĠãºĹ":7284,"Ġéİ¤":7285,"Ġçº§":7286,"Ġçº¿":7287,"ĠçºĪ":7288,"ĠçºĲ":7289,"ĠçºĽ":7290,"ĠéŁĵ":7291,"ĠèĴĳ":7292,"ĠèĴĴ":7293,"Ġäı¡":7294,"Ġäıı":7295,"Ġæĵª":7296,"Ġæĵ¬":7297,"ĠæĵĪ":7298,"ĠêĴĵ":7299,"ĠæĹ·":7300,"ĠæĹĸ":7301,"ĠæĹļ":7302,"Ġäĳ©":7303,"Ġäĳ¾":7304,"Ġäĳĵ":7305,"Ġâķ¢":7306,"Ġâķ¤":7307,"Ġâķ¦":7308,"Ġâķķ":7309,"Ġäį¤":7310,"Ġäį´":7311,"Ġäį¹":7312,"Ġäįħ":7313,"ĠäįĨ":7314,"ĠâĹ¥":7315,"ĠâĹ¨":7316,"ĠâĹļ":7317,"Ġå¾¥":7318,"Ġá¢«":7319,"ĠâĵĬ":7320,"ĠçĦ¾":7321,"ĠçĦĭ":7322,"ĠçĶĢ":7323,"ĠçĶĭ":7324,"Ġæĸ»":7325,"ĠæĸĮ":7326,"Ġéºį":7327,"ĠéºĴ":7328,"Ġéºľ":7329,"Ġçŀ¢":7330,"Ġçŀ¾":7331,"Ġé¾¢":7332,"Ġé¾±":7333,"Ġé¾Ĺ":7334,"Ġãİĺ":7335,"Ġãİľ":7336,"Ġãİŀ":7337,"Ġîĵ¤":7338,"ĠîĵĢ":7339,"Ġîĵģ":7340,"Ġãĳ»":7341,"ĠãĳĤ":7342,"Ġãĳķ":7343,"Ġãĵ¥":7344,"Ġãĵ²":7345,"Ġãĵį":7346,"Ġãĵł":7347,"Ġâ£¯":7348,"Ġâ£½":7349,"Ġâ£¾":7350,"Ġâ£ķ":7351,"Ġéıļ":7352,"ĠêĿ¾":7353,"ĠêĿĥ":7354,"Ġá¦©":7355,"Ġá¦ī":7356,"Ġç²Į":7357,"Ġç²ĳ":7358,"Ġç¿µ":7359,"Ġãĥ±":7360,"Ġî´°":7361,"Ġî´º":7362,"ĠîĻ®":7363,"ĠîĻİ":7364,"ĠîĻĸ":7365,"Ġè£«":7366,"Ġè£¹":7367,"Ġè£ĵ":7368,"ĠîŃ£":7369,"ĠîŃĸ":7370,"Ġéļģ":7371,"ĠâıĽ":7372,"Ġäİ¸":7373,"Ġäİī":7374,"ĠäİŁ":7375,"Ġç¾³":7376,"Ġç¾·":7377,"Ġäĥŀ":7378,"ĠîľĲ":7379,"Ġîľł":7380,"ĠäĬĤ":7381,"Ġå±·":7382,"Ġå±ŀ":7383,"Ġä¸ĳ":7384,"Ġä¸Ĵ":7385,"ĠäĤ©":7386,"Ġäº½":7387,"Ġî£©":7388,"Ġî£ª":7389,"Ġî£į":7390,"Ġî£İ":7391,"Ġé´Ŀ":7392,"ĠäĮ¢":7393,"ĠäĮİ":7394,"Ġï»¶":7395,"Ġäģ©":7396,"Ġäģİ":7397,"Ġäģĸ":7398,"Ġîįĥ":7399,"ĠãĦ²":7400,"ĠãĦľ":7401,"Ġâ«±":7402,"Ġâ«»":7403,"Ġâ«ĳ":7404,"Ġî§¥":7405,"Ġé·¿":7406,"Ġé·į":7407,"Ġé·ľ":7408,"Ġèĺ¸":7409,"Ġèĺį":7410,"ĠæºĹ":7411,"Ġæºļ":7412,"ĠãĶ½":7413,"ĠãĶģ":7414,"ĠãĶĬ":7415,"ĠãĶļ":7416,"Ġâħ¦":7417,"Ġâħª":7418,"Ġâħ¸":7419,"Ġï¯Ĵ":7420,"Ġï¯ĸ":7421,"Ġç§µ":7422,"Ġç§ı":7423,"ĠèŁº":7424,"Ġé¸º":7425,"Ġé¸Į":7426,"Ġé¸į":7427,"Ġé¸ĵ":7428,"Ġé¸Ł":7429,"Ġâļº":7430,"ĠçĮģ":7431,"Ġé®ī":7432,"Ġé¶¶":7433,"ĠïŁĮ":7434,"ĠïŁĺ":7435,"Ġã®º":7436,"Ġã®ĭ":7437,"Ġã®ļ":7438,"Ġäŀ³":7439,"Ġäŀ¿":7440,"ĠäŀĨ":7441,"ĠäĲ»":7442,"ĠäĲĶ":7443,"Ġæħª":7444,"ĠæħĦ":7445,"ĠæħĿ":7446,"Ġã»¸":7447,"Ġã»ĵ":7448,"Ġâ¶·":7449,"Ġâ¶ĸ":7450,"Ġêį£":7451,"Ġêį³":7452,"Ġêį½":7453,"ĠêįĻ":7454,"ĠæĢł":7455,"Ġã¦»":7456,"Ġã¦ī":7457,"Ġå»Ľ":7458,"ĠïĬ¥":7459,"ĠïĬª":7460,"ĠïĬ½":7461,"ĠïĬģ":7462,"Ġï½½":7463,"Ġé§¿":7464,"Ġé§Ĩ":7465,"Ġé§ĩ":7466,"ĠïĴĢ":7467,"ĠïĴģ":7468,"Ġã¶¾":7469,"ĠæŁ¤":7470,"ĠæŁ½":7471,"Ġâ»¨":7472,"ĠïĤħ":7473,"Ġéµº":7474,"Ġéµħ":7475,"ĠéµŁ":7476,"ĠéĮ£":7477,"ĠéĮĢ":7478,"ĠçĽĭ":7479,"Ġæ¸·":7480,"Ġæ¸Ĳ":7481,"Ġæ¸Ł":7482,"Ġâĭ±":7483,"Ġâĭ»":7484,"ĠæĻĮ":7485,"ĠæĻĻ":7486,"ĠïĨ¯":7487,"Ġæ´¸":7488,"Ġæ´ı":7489,"ĠæĲı":7490,"Ġæ¾¦":7491,"Ġæ¾§":7492,"Ġî«¹":7493,"Ġåµľ":7494,"Ġêĵª":7495,"Ġêĵµ":7496,"Ġâİŀ":7497,"ĠæļĦ":7498,"ĠäĻ¢":7499,"ĠåķĹ":7500,"ĠäĺŁ":7501,"ĠæŀĹ":7502,"Ġæµ¾":7503,"Ġæµı":7504,"Ġæ»į":7505,"Ġéĥ§":7506,"Ġâ§¸":7507,"Ġâ§į":7508,"Ġïģ½":7509,"Ġèº£":7510,"Ġèº¯":7511,"Ġè§¦":7512,"Ġè§´":7513,"Ġè´ĩ":7514,"Ġêĸº":7515,"Ġêĸİ":7516,"Ġáª¨":7517,"Ġáªª":7518,"Ġêļ¦":7519,"ĠéĿ¯":7520,"ĠéĿĴ":7521,"ĠéĿŃ":7522,"Ġâ¾²":7523,"ĠèıĢ":7524,"Ġèıļ":7525,"ĠâµĨ":7526,"Ġî½±":7527,"Ġî½Ń":7528,"Ġä±Ŀ":7529,"Ġä±ŀ":7530,"Ġê®Ĭ":7531,"Ġê®ı":7532,"Ġî¡¸":7533,"Ġêķĩ":7534,"Ġè®®":7535,"Ġè®²":7536,"Ġá²»":7537,"ĠãĮ¶":7538,"ĠãĮĮ":7539,"ĠãĮľ":7540,"Ġî¿±":7541,"Ġî¿·":7542,"Ġî¿ĳ":7543,"Ġè¶¶":7544,"Ġéģł":7545,"Ġæ³¿":7546,"Ġæ³Ł":7547,"Ġéª¯":7548,"Ġéªı":7549,"Ġéªĵ":7550,"Ġéªķ":7551,"Ġèį»":7552,"Ġèįĵ":7553,"ĠèįĶ":7554,"Ġá¯ĥ":7555,"Ġá¯Į":7556,"Ġçħ£":7557,"Ġçħ©":7558,"Ġçħ³":7559,"Ġçħ¼":7560,"Ġå¯Ĭ":7561,"Ġá±¸":7562,"Ġá±Į":7563,"Ġá±ĸ":7564,"Ġæ±®":7565,"Ġç¢İ":7566,"ĠêŁİ":7567,"Ġïīĵ":7568,"ĠïīŃ":7569,"Ġáı¡":7570,"Ġáı®":7571,"Ġáıĭ":7572,"ĠèĤ®":7573,"ĠèĤĩ":7574,"ĠèªĴ":7575,"Ġâ¤Ĵ":7576,"Ġèł¬":7577,"Ġä»Ĵ":7578,"Ġç¹¢":7579,"Ġç¹£":7580,"Ġåįĥ":7581,"Ġç¶¾":7582,"Ġç¶İ":7583,"Ġâĳ¬":7584,"Ġâĳģ":7585,"ĠîĤĢ":7586,"Ġå¥¿":7587,"Ġå²ŀ":7588,"ĠäĦ«":7589,"ĠäĦĤ":7590,"ĠäĦħ":7591,"Ġâ¡´":7592,"Ġâ¡ģ":7593,"Ġäļ¦":7594,"Ġä£·":7595,"Ġä£ĵ":7596,"ĠçĥĪ":7597,"ĠçĥĬ":7598,"Ġä¥´":7599,"ĠæİĢ":7600,"Ġæİł":7601,"ĠîºĴ":7602,"ĠèĻ¾":7603,"ĠèĻĲ":7604,"Ġä¹·":7605,"Ġé¯ļ":7606,"Ġâ¬ĳ":7607,"Ġà¸ª":7608,"Ġà¸Ł":7609,"Ġè¯¯":7610,"ĠâĽ«":7611,"Ġä¬µ":7612,"Ġèħĩ":7613,"Ġå³¯":7614,"Ġå³º":7615,"Ġïļĭ":7616,"ĠïļĹ":7617,"ĠïļŃ":7618,"Ġä§§":7619,"Ġä§¼":7620,"ĠäĢ¤":7621,"Ġè¤Į":7622,"Ġè±ĺ":7623,"Ġä²Ľ":7624,"ĠêĬĺ":7625,"ĠêĬľ":7626,"ĠãĽ·":7627,"ĠèŃ¥":7628,"ĠçķĮ":7629,"Ġã¹³":7630,"Ġã¹Į":7631,"Ġà´Į":7632,"Ġîĺ·":7633,"Ġèķ¢":7634,"ĠèķĢ":7635,"Ġèķŀ":7636,"Ġâ°ĸ":7637,"Ġãµ¶":7638,"Ġãµº":7639,"Ġàª·":7640,"ĠäĽģ":7641,"Ġé½¥":7642,"Ġé½ĩ":7643,"Ġé½Ī":7644,"Ġè¾£":7645,"Ġä·¾":7646,"Ġéĸį":7647,"Ġè·¯":7648,"Ġä°³":7649,"ĠãĿĿ":7650,"ĠæĬ´":7651,"ĠæĬı":7652,"ĠæĬĹ":7653,"Ġå½¼":7654,"Ġêĳ´":7655,"Ġä´©":7656,"Ġèİ«":7657,"Ġâ½°":7658,"Ġâ½·":7659,"ĠèģĶ":7660,"Ġã±¤":7661,"Ġîł¨":7662,"Ġîł·":7663,"Ġâ¼·":7664,"Ġâ¼Ĵ":7665,"Ġá¶¡":7666,"Ġá¶µ":7667,"ĠãĤ±":7668,"ĠãĤµ":7669,"ĠãĤ½":7670,"ĠãĤł":7671,"Ġèŀ·":7672,"ĠèŀĿ":7673,"Ġçģ¢":7674,"Ġæĭģ":7675,"ĠéŃķ":7676,"ĠêĹ²":7677,"ĠêĹĴ":7678,"ĠêĹĹ":7679,"Ġã´®":7680,"ĠæĽ§":7681,"ĠæĽª":7682,"ĠæĽĨ":7683,"Ġãħ£":7684,"Ġãį¸":7685,"Ġæ²²":7686,"Ġïķĺ":7687,"Ġê¬Ń":7688,"Ġáµ¶":7689,"Ġêı¾":7690,"Ġé±Ń":7691,"ĠèĦ¢":7692,"ĠèĦ·":7693,"Ġâ³´":7694,"Ġâ³»":7695,"Ġï¾·":7696,"Ġã©İ":7697,"Ġä¾ª":7698,"ĠêĮĳ":7699,"Ġå¸Ĵ":7700,"Ġêħł":7701,"ĠïĿ¿":7702,"Ġäħ©":7703,"ĠäħĲ":7704,"Ġçįľ":7705,"ĠâĮĴ":7706,"Ġéį§":7707,"Ġéįª":7708,"Ġå©¢":7709,"Ġê¡¨":7710,"Ġâ¯ļ":7711,"ĠãĨį":7712,"ĠîļĽ":7713,"Ġä«Ĵ":7714,"Ġé¬§":7715,"ĠîĩĽ":7716,"Ġà¹º":7717,"Ġî¬ĵ":7718,"Ġïĥ·":7719,"Ġïĥľ":7720,"Ġî¦ģ":7721,"Ġåľ¬":7722,"Ġê¤Ĩ":7723,"Ġï¼·":7724,"Ġå¹¸":7725,"ĠéĴ¶":7726,"Ġâ¸§":7727,"Ġâ¸Ķ":7728,"Ġä¶¦":7729,"ĠãļĦ":7730,"Ġèī»":7731,"Ġäµ¾":7732,"ĠäŃ¿":7733,"ĠäŃĿ":7734,"ĠæĮ¯":7735,"Ġå´ĳ":7736,"Ġå´ļ":7737,"Ġà¶º":7738,"ĠãľĲ":7739,"Ġãľĵ":7740,"ĠäīĢ":7741,"ĠäłĬ":7742,"Ġæ¼®":7743,"Ġïĳĵ":7744,"Ġîªº":7745,"ĠîªĮ":7746,"ĠèĩŃ":7747,"ĠæīĿ":7748,"Ġç©ł":7749,"ĠäĪį":7750,"ĠîĲł":7751,"ĠêĽ½":7752,"ĠáİŁ":7753,"Ġä©İ":7754,"Ġç±º":7755,"Ġç®¼":7756,"Ġç®ķ":7757,"Ġç°ł":7758,"ĠçĴĺ":7759,"Ġá®ĳ":7760,"Ġá®Ĵ":7761,"Ġàºĩ":7762,"ĠêĤĹ":7763,"Ġî·§":7764,"Ġé£µ":7765,"Ġé£¿":7766,"ĠèĥĽ":7767,"ĠåĢ¥":7768,"ĠåĢŁ":7769,"Ġà¦¤":7770,"Ġä¯ĸ":7771,"ĠåĪĹ":7772,"ĠéĢ£":7773,"Ġè»¶":7774,"ĠçĹ¥":7775,"ĠêĲį":7776,"ĠêĲı":7777,"Ġä¿Ķ":7778,"Ġåĵĵ":7779,"Ġâ®ĥ":7780,"Ġî¹©":7781,"Ġî¹Į":7782,"ĠéĨ´":7783,"ĠéĨı":7784,"ĠçĬ¸":7785,"Ġæ©ĵ":7786,"Ġïº®":7787,"ĠáĺĪ":7788,"ĠîĽª":7789,"Ġé©µ":7790,"Ġé©½":7791,"Ġç¦į":7792,"Ġç¦İ":7793,"Ġï¹°":7794,"ĠçĢ¼":7795,"Ġî¾±":7796,"ĠïĵŁ":7797,"Ġã³Ģ":7798,"ĠçĪµ":7799,"Ġê¥£":7800,"Ġé«¿":7801,"Ġê©¦":7802,"Ġê©§":7803,"Ġê©¸":7804,"Ġã¡¤":7805,"Ġçĭĭ":7806,"Ġà¬²":7807,"ĠïĲ·":7808,"ĠïĲ½":7809,"Ġà¢Ĥ":7810,"Ġãĸ¦":7811,"Ġãĸļ":7812,"ĠêĪĿ":7813,"Ġæ°º":7814,"Ġî°·":7815,"Ġêģļ":7816,"Ġêģľ":7817,"Ġáĩĩ":7818,"Ġïĺ³":7819,"Ġïĺ·":7820,"Ġå¬¡":7821,"Ġã¬Ĵ":7822,"Ġãī¦":7823,"Ġãīİ":7824,"Ġç¨¨":7825,"Ġç¨ĵ":7826,"Ġãĩĸ":7827,"ĠæĪĢ":7828,"ĠåĮı":7829,"ĠéĪĶ":7830,"Ġã££":7831,"Ġã£¹":7832,"Ġî²Ń":7833,"Ġêł¸":7834,"ĠêłĮ":7835,"ĠêłŁ":7836,"Ġàµ¨":7837,"Ġä®¶":7838,"Ġéīİ":7839,"Ġè²µ":7840,"Ġåŀŀ":7841,"Ġáļı":7842,"ĠåĦĴ":7843,"ĠçĻŀ":7844,"Ġáłı":7845,"ĠáĨŁ":7846,"ĠáľĲ":7847,"ĠêĻ£":7848,"ĠïŃ¯":7849,"ĠïŃ¾":7850,"Ġà³Ļ":7851,"Ġçĸ¯":7852,"Ġà§ĳ":7853,"Ġê¦ķ":7854,"ĠáĪ®":7855,"Ġà¯±":7856,"ĠáĴŁ":7857,"Ġê£³":7858,"Ġê£´":7859,"Ġê£Ĳ":7860,"Ġê¨ĥ":7861,"ĠðŁĴ":7862,"ĠáĦĨáħ¨áĨ³":7863,"ĠáĦĨáħ¨áĨ¿":7864,"Ġà¥Ń":7865,"ĠáĤº":7866,"ĠáĤĲ":7867,"Ġá¤ī":7868,"Ġá¤İ":7869,"ĠáĦĨáħ³áĨ³":7870,"Ġà½ĳ":7871,"Ġà½Ľ":7872,"Ġï«Ł":7873,"ĠáĦĬáħ¯áĨ©":7874,"Ġáģľ":7875,"Ġíŀ¹":7876,"ĠáĦĥáħ§áĨ»":7877,"Ġâ·Ĭ":7878,"ĠáĦģáħ£áĨµ":7879,"ĠáĦģáħ£áĨ»":7880,"ĠáĦĳáħ¦áĨ°":7881,"ĠáĦħáħ¤áĨ¶":7882,"ĠáĦĢáħ®áĨ¬":7883,"ĠáĦĮáħŃáĨ´":7884,"ĠáĦĳáħ§áĨ´":7885,"ĠáĦĥáħ¦áĨ¶":7886,"ĠáĦĴáħ´áĨª":7887,"ĠáĦįáħŃáĨª":7888,"ĠáĦĬáħ²áĨµ":7889,"ĠáĦĬáħ²áĨ½":7890,"ĠáĦĭáħ«áĨ²":7891,"ĠáĦģáħ¤áĨ´":7892,"ĠáĦģáħ¤áĨ½":7893,"ĠáĦĢáħ°áĨ½":7894,"ĠáĦģáħ¦áĨ²":7895,"ĠáĦĩáħ«áĨº":7896,"ĠáĦĩáħ«áĨ»":7897,"ĠáĦĪáħ¦áĨ¸":7898,"ĠáĦħáħ¡áĨ®":7899,"ĠáĦĮáħµáĨ©":7900,"ĠáĦĨáħ±áĨ½":7901,"ĠáĦĴáħ³áĨ¼":7902,"ĠáĦĮáħ¬áĨ³":7903,"ĠáĦĮáħ¬áĨŃ":7904,"ĠáĦĢáħ¥áĨ¬":7905,"ĠáĦįáħ®áĨ®":7906,"ĠáĦİáħ£áĨ´":7907,"ĠáĦİáħ£áĨº":7908,"ĠáĦĬáħ¤áĨ«":7909,"ĠáĦĭáħ¨áĨ¨":7910,"ĠáĦĭáħ¨áĨŃ":7911,"ĠáĦĢáħ¯áĨº":7912,"ĠáĦħáħ£áĨ®":7913,"ĠáĦĬáħ³áĨ¼":7914,"ĠáĦĥáħ¢áĨº":7915,"ĠáĦĩáħ²áĨ®":7916,"ĠáĦħáħ¢áĨ³":7917,"ĠáĦĩáħ±áĨ¼":7918,"ĠáĦĭáħ®áĨ³":7919,"ĠáĦĭáħ®áĨ»":7920,"ĠáĦħáħ¬áĨ®":7921,"ĠáĦİáħ©áĨ¶":7922,"ĠáĦģáħ¥áĨ¹":7923,"ĠáĦĨáħ«áĨ¯":7924,"ĠáĦĭáħ¢áĨ°":7925,"ĠáĦīáħ¤áĨ«":7926,"ĠáĦīáħ¤áĨ¹":7927,"ĠáĦĬáħ®áĨ¶":7928,"ĠáĦįáħ²áĨ¾":7929,"ĠáĦĨáħŃáĨ®":7930,"ĠáĦĩáħ´áĨº":7931,"ĠáĦĮáħ¡áĨ±":7932,"ĠáĦıáħ£áĨª":7933,"ĠáĦįáħ«áĨª":7934,"ĠáĦįáħ«áĨ½":7935,"ĠáĦįáħ«áĨ¿":7936,"ĠáĦİáħ±áĨ½":7937,"ĠáĦĭáħ£áĨ´":7938,"ĠáĦĭáħ£áĨ¸":7939,"ĠáĦĥáħ³áĨ©":7940,"ĠáĦĪáħªáĨ¸":7941,"ĠáĦĩáħ©áĨ±":7942,"ĠáĦıáħ©áĨ²":7943,"ĠáĦıáħ©áĨ¸":7944,"ĠáĦģáħ³áĨ°":7945,"ĠáĦģáħ³áĨ±":7946,"ĠáĦģáħ³áĨŃ":7947,"ĠáĦĩáħ¢áĨ±":7948,"ĠáĦģáħ¡áĨ¿":7949,"ĠáĦĭáħ°áĨ¿":7950,"ĠáĦĢáħ©áĨ¸":7951,"ĠâĥĪ":7952,"ĠáĦĥáħ²áĨ»":7953,"ĠáĦįáħ°áĨ¸":7954,"ĠáĦĪáħ´áĨ³":7955,"ĠáĦĪáħ¢áĨ¹":7956,"ĠáĦįáħ³áĨ¸":7957,"ĠáĦĳáħ£áĨ¶":7958,"ĠáĦİáħ¯áĨ©":7959,"ĠáĦĬáħ¬áĨ²":7960,"ĠáĦįáħ§áĨ´":7961,"ĠáĦĨáħ¢áĨ¬":7962,"ĠáĦħáħ³áĨ¶":7963,"ĠáĦĳáħ¬áĨ¸":7964,"ĠáĦĢáħ±áĨŃ":7965,"ĠáĦĲáħ¬áĨŃ":7966,"ĠáĦīáħ°áĨº":7967,"ĠáĦĲáħ£áĨ¯":7968,"ĠáĦĩáħ£áĨº":7969,"ĠáĦĴáħ¢áĨ°":7970,"Ġà£Ĩ":7971,"ĠáĦĢáħ´áĨ¬":7972,"ĠáĦĢáħ´áĨ±":7973,"ĠáĦĨáħ®áĨ®":7974,"ĠáĦĬáħ¡áĨ½":7975,"ĠáĦīáħ©áĨ¸":7976,"ĠáĦīáħªáĨ»":7977,"ĠáĦīáħ¥áĨµ":7978,"ĠáĦĪáħ¥áĨ³":7979,"ĠáĦĭáħ©áĨ¹":7980,"ĠáĦĦáħ¨áĨŃ":7981,"ĠáĦĬáħ´áĨ©":7982,"ĠáĦĭáħ¤áĨ©":7983,"ĠáĦĮáħªáĨŃ":7984,"ĠáĦĮáħ¦áĨ·":7985,"ĠáĦĮáħ¦áĨŃ":7986,"ĠáĦĥáħ«áĨ´":7987,"ĠáĦıáħ¢áĨ°":7988,"ĠáĦıáħ¢áĨ¶":7989,"ĠáĦĲáħ¨áĨ¸":7990,"ĠáĦįáħ©áĨº":7991,"ĠáĦĨáħªáĨ¾":7992,"ĠáĦĴáħªáĨ·":7993,"ĠáĦĦáħ²áĨ·":7994,"ĠáĦĤáħ£áĨ±":7995,"ĠáĦĪáħ©áĨµ":7996,"ĠáĦĨáħ¬áĨº":7997,"ĠáĦĢáħ¦áĨ«":7998,"ĠáĦĦáħ¤áĨº":7999,"ĠáĦĦáħªáĨ´":8000,"ĠáĦĪáħ¤áĨ°":8001,"ĠáĦħáħ¨áĨ±":8002,"ĠáĦĲáħ©áĨ¯":8003,"ĠáĦıáħ±áĨ°":8004,"Ġá¿Ģ":8005,"Ġò°¼Ī":8006,"Ġá½¿":8007,"ĠáºĿ":8008,"ĠáºŁ":8009,"¡º":8010,"£Ī":8011,"£ļ":8012,"¤¹":8013,"§İ":8014,"¬Ĵ":8015,"®¯":8016,"¯®":8017,"µ¤":8018,"µ·":8019,"¶ª":8020,"¶Ĺ":8021,"·¦":8022,"·į":8023,"¹Ĩ":8024,"ºģ":8025,"ºĨ":8026,"ºĿ":8027,"»ŀ":8028,"¼ļ":8029,"½±":8030,"¾µ":8031,"¾ĥ":8032,"¿¥":8033,"¿§":8034,"ĥ¨":8035,"ĥª":8036,"Ĩ¹":8037,"Ĩ¿":8038,"ĨŁ":8039,"ĩ¹":8040,"ĩº":8041,"ĩİ":8042,"Īŀ":8043,"ī¤":8044,"ĬĬ":8045,"ĭĲ":8046,"į¼":8047,"į¾":8048,"İ½":8049,"İ¾":8050,"İİ":8051,"İĵ":8052,"İľ":8053,"ı©":8054,"ı¶":8055,"ıķ":8056,"ıŀ":8057,"ĳ¤":8058,"ĳ¿":8059,"ĳĲ":8060,"Ĵ±":8061,"Ķ®":8062,"Ķĺ":8063,"ķ£":8064,"ĸİ":8065,"Ĺ³":8066,"ĺ¯":8067,"ļ½":8068,"ľĢ":8069,"ŀ®":8070,"ŀ¯":8071,"Ł«":8072,"Ł»":8073,"Łī":8074,"Łķ":8075,"ŁĿ":8076,"Ń¼":8077,"ŃĿ":8078,"Ġï¿³":8079,"Ġï¿ľ":8080,"Ġï¿ł":8081,"ĠâĻ°":8082,"ĠâĻ¶":8083,"Ġâĸ½":8084,"Ġâĸ¿":8085,"Ġâĸī":8086,"ĠáĦĬáħ³áĩģ":8087,"ĠáĦģáħ§áĩģ":8088,"ĠáĦģáħ£áĩĢ":8089,"ĠáĦĭáħ¦áĩģ":8090,"ĠáĦĮáħ¡áĩģ":8091,"ĠáĦĥáħª":8092,"ĠáĦĥáħ³áĩĤ":8093,"ĠáĦĢáħ¥":8094,"ĠáĦįáħ¯áĩĢ":8095,"ĠáĦĳáħ±áĩĤ":8096,"ĠáĦĩáħ¯áĩģ":8097,"ĠáĦİáħ¨áĩĢ":8098,"ĠáĦĴáħ®áĩĢ":8099,"ĠáĦıáħ¦áĩĤ":8100,"ĠáĦıáħ«áĩĢ":8101,"ĠáĦĦáħ°áĩĤ":8102,"ĠáĦĦáħ£áĩģ":8103,"ĠáĦĲáħ«":8104,"ĠáĦĤáħ±áĩģ":8105,"ĠâĤ©":8106,"ĠâĤĴ":8107,"ĠâĪ¶":8108,"ĠâĪĭ":8109,"ĠâĪĹ":8110,"ĠâĦĴ":8111,"ĠâĦĹ":8112,"Ġéĵĵ":8113,"Ġéĵŀ":8114,"ĠâĴ¶":8115,"ĠâĴº":8116,"ĠâĴĥ":8117,"ĠâĴī":8118,"ĠâĴĲ":8119,"ĠâŁı":8120,"Ġâĺ¿":8121,"ĠâĺĬ":8122,"Ġâĺĸ":8123,"ĠâĺŃ":8124,"ĠâģĨ":8125,"ĠâģĮ":8126,"ĠâģĲ":8127,"Ġãıµ":8128,"Ġãıł":8129,"ĠâĿķ":8130,"ĠâĿļ":8131,"ĠãŁĦ":8132,"ĠãŁł":8133,"Ġïİķ":8134,"Ġïİł":8135,"Ġâľ¨":8136,"Ġâľ¾":8137,"ĠçŁ£":8138,"ĠçŁĬ":8139,"Ġâ¥İ":8140,"ĠäĴ¢":8141,"ĠäĴĬ":8142,"ĠäĴĿ":8143,"ĠæĺĬ":8144,"ĠæĺŁ":8145,"ĠäĶ¥":8146,"ĠäĶ°":8147,"ĠäĶĴ":8148,"Ġã§¤":8149,"Ġã¢ª":8150,"Ġã¢Į":8151,"ĠæĿ´":8152,"ĠæĿī":8153,"ĠæĿĮ":8154,"Ġäĵ¢":8155,"Ġäĵ©":8156,"Ġäĵĥ":8157,"Ġäĵĺ":8158,"ĠäĵĽ":8159,"Ġäĵł":8160,"Ġæģ©":8161,"Ġæģģ":8162,"Ġæģķ":8163,"Ġã·µ":8164,"Ġã·¶":8165,"ĠâĨª":8166,"Ġã²¯":8167,"Ġã²³":8168,"Ġã²¸":8169,"Ġã²Ļ":8170,"Ġîı¯":8171,"ĠîıĲ":8172,"ĠâįĤ":8173,"ĠâįĬ":8174,"Ġãªı":8175,"ĠíŁĩ":8176,"ĠíŁĶ":8177,"ĠíŁŁ":8178,"Ġç·¼":8179,"ĠäĿ¡":8180,"ĠäĿ¯":8181,"ĠäĿ»":8182,"Ġäľĭ":8183,"ĠäľĮ":8184,"ĠæĴ®":8185,"Ġã¿Ĩ":8186,"Ġã¯ī":8187,"ĠîŁŀ":8188,"ĠäŁ¨":8189,"ĠäŁİ":8190,"ĠäŁĹ":8191,"Ġæį½":8192,"ĠæįŃ":8193,"ĠîĿ¦":8194,"ĠîĿĸ":8195,"Ġæľ®":8196,"ĠæľĢ":8197,"ĠæľŁ":8198,"Ġãº²":8199,"Ġãº¶":8200,"ĠãºĨ":8201,"ĠãºĲ":8202,"Ġãºĳ":8203,"Ġéİ©":8204,"Ġéİĺ":8205,"Ġéİŀ":8206,"Ġçºº":8207,"Ġçºķ":8208,"ĠçºĿ":8209,"ĠéŁ©":8210,"ĠéŁĴ":8211,"ĠéŁĶ":8212,"Ġïŀ®":8213,"ĠïŀĢ":8214,"Ġäı¿":8215,"ĠäıĲ":8216,"ĠâĬ³":8217,"ĠâĬĥ":8218,"ĠâĬĩ":8219,"ĠâĬķ":8220,"Ġæĵµ":8221,"ĠæĵĢ":8222,"ĠæĵĮ":8223,"Ġæĵľ":8224,"ĠêĴ©":8225,"ĠæĹ§":8226,"ĠæĹµ":8227,"ĠæĹĳ":8228,"ĠæĹŁ":8229,"ĠäĳĲ":8230,"Ġâķ¡":8231,"Ġâķ¸":8232,"ĠâķŃ":8233,"Ġäį¢":8234,"Ġäį®":8235,"Ġäį¸":8236,"Ġäį¼":8237,"Ġäįı":8238,"ĠâĹŁ":8239,"Ġá¢µ":8240,"Ġá¢Ĳ":8241,"Ġâĵĩ":8242,"ĠâĵĻ":8243,"ĠçĦĢ":8244,"ĠçĦģ":8245,"ĠçĦĥ":8246,"ĠçĶ«":8247,"ĠçĶ¶":8248,"Ġæĸ§":8249,"Ġæĸľ":8250,"Ġá§»":8251,"Ġá§İ":8252,"Ġçŀĩ":8253,"Ġçŀĺ":8254,"Ġé¾¼":8255,"Ġé¾ı":8256,"ĠîĵĹ":8257,"Ġãĳ´":8258,"Ġãĳİ":8259,"Ġãĵª":8260,"Ġãĵĥ":8261,"Ġãĵĩ":8262,"Ġâ£«":8263,"Ġâ£ī":8264,"Ġéı¯":8265,"Ġéı½":8266,"ĠêĿ¡":8267,"ĠêĿ¢":8268,"ĠêĿ£":8269,"ĠêĿ®":8270,"ĠêĿ²":8271,"ĠêĿİ":8272,"ĠêĿı":8273,"ĠêĿŃ":8274,"Ġá¦¾":8275,"Ġç²Ľ":8276,"Ġãĥĥ":8277,"Ġãĥį":8278,"Ġï¢¸":8279,"Ġï¢ĳ":8280,"Ġï¢Ľ":8281,"Ġï¢Ŀ":8282,"Ġî´«":8283,"ĠîĻ£":8284,"ĠîĻ¤":8285,"ĠîĻ¶":8286,"ĠîĻ¹":8287,"Ġâŀ³":8288,"Ġâŀº":8289,"ĠâŀĨ":8290,"ĠâŀŁ":8291,"ĠîŃ¸":8292,"ĠîŃ¾":8293,"ĠîŃĥ":8294,"Ġéļĵ":8295,"ĠâıĨ":8296,"Ġäİ½":8297,"Ġç¾¯":8298,"Ġç¾¹":8299,"Ġç¾¼":8300,"Ġç¾¿":8301,"Ġç¾Ĭ":8302,"Ġç¾ľ":8303,"Ġç¾Ń":8304,"Ġäĥ³":8305,"Ġäĥ¿":8306,"ĠäĥĮ":8307,"Ġîľ´":8308,"Ġîľī":8309,"Ġîľı":8310,"ĠäĬ´":8311,"ĠäĬĮ":8312,"ĠäĬĴ":8313,"Ġå±µ":8314,"Ġå±Ģ":8315,"Ġå±Ĺ":8316,"Ġä¸¦":8317,"Ġäº¾":8318,"ĠäºĬ":8319,"Ġî£¼":8320,"Ġî£ł":8321,"Ġé´µ":8322,"Ġé´¹":8323,"Ġç¯¨":8324,"ĠäĮ¤":8325,"ĠäĮ±":8326,"ĠäĮ¶":8327,"ĠäĮĵ":8328,"Ġâīķ":8329,"Ġäģ§":8330,"Ġäģĵ":8331,"ĠäģŁ":8332,"Ġîį³":8333,"Ġîį·":8334,"Ġé»§":8335,"ĠãĦł":8336,"Ġâ«·":8337,"Ġïį¡":8338,"Ġïį³":8339,"Ġïį»":8340,"Ġî§§":8341,"Ġî§ĭ":8342,"Ġî§ĳ":8343,"Ġî§Ł":8344,"ĠèĺĿ":8345,"Ġæº®":8346,"ĠãĶķ":8347,"Ġâħ¥":8348,"Ġâħ¿":8349,"Ġï¯©":8350,"Ġï¯Ĭ":8351,"ĠèĿ¯":8352,"ĠèĿº":8353,"Ġç§¨":8354,"Ġç§©":8355,"Ġç§¶":8356,"Ġè«¦":8357,"Ġè«Ŀ":8358,"Ġè«Ł":8359,"Ġé¸¸":8360,"Ġé¸ī":8361,"Ġâļĸ":8362,"Ġâļł":8363,"ĠäķŃ":8364,"ĠçĮ¼":8365,"Ġé®¯":8366,"Ġé®ĩ":8367,"Ġé®ŀ":8368,"Ġé¶£":8369,"Ġé¶Ń":8370,"ĠïŁķ":8371,"Ġã®®":8372,"Ġã®ĳ":8373,"ĠäĲ¼":8374,"Ġæħ¤":8375,"Ġæħĳ":8376,"Ġã»°":8377,"Ġã»²":8378,"Ġâ¶§":8379,"Ġâ¶¼":8380,"Ġâĩ¨":8381,"Ġî¥£":8382,"Ġî¥´":8383,"Ġî¥Ĥ":8384,"Ġêį¦":8385,"Ġêįª":8386,"Ġæ·ļ":8387,"Ġé¢¦":8388,"Ġé¢Ĵ":8389,"Ġã¸½":8390,"Ġã¸ģ":8391,"Ġã¸Ŀ":8392,"Ġå»ĸ":8393,"Ġå»Ŀ":8394,"Ġæĳ§":8395,"Ġæĳ°":8396,"ĠïĬ¶":8397,"ĠïĬĭ":8398,"Ġï½Ģ":8399,"Ġï½ĥ":8400,"Ġé§´":8401,"ĠïĴ¢":8402,"ĠïĴĲ":8403,"ĠîŀĶ":8404,"Ġîķ£":8405,"Ġîķª":8406,"Ġã¾´":8407,"Ġã¾¾":8408,"Ġã¾Ĭ":8409,"ĠæŁ¥":8410,"ĠæŁı":8411,"ĠæŁŁ":8412,"Ġî¯ı":8413,"ĠïĤ±":8414,"ĠïĤı":8415,"ĠïĤŀ":8416,"ĠâĶ·":8417,"ĠâĶķ":8418,"Ġéµ¾":8419,"ĠéĮĤ":8420,"ĠéĮĸ":8421,"ĠçĽĩ":8422,"Ġæ¸¾":8423,"Ġæ¸Ģ":8424,"Ġæ¸ŀ":8425,"ĠâĭĢ":8426,"ĠâĭĦ":8427,"ĠâĭĪ":8428,"ĠïĨ«":8429,"Ġæ´´":8430,"Ġæ´Ł":8431,"ĠæĲī":8432,"Ġå¶Ģ":8433,"Ġêľ³":8434,"ĠêľĲ":8435,"Ġæ¾³":8436,"Ġæ¾¸":8437,"Ġæ¾Ĺ":8438,"Ġî«Ĺ":8439,"Ġåµł":8440,"Ġêĵł":8441,"ĠâİĻ":8442,"Ġæļ¦":8443,"Ġæļ¹":8444,"Ġæļ¿":8445,"Ġæļĥ":8446,"ĠäĻ¦":8447,"ĠäĻ¶":8448,"Ġåķ´":8449,"Ġâ¹¬":8450,"Ġâ¹ľ":8451,"Ġâ¹ł":8452,"Ġæŀª":8453,"Ġæŀ¶":8454,"Ġæŀ»":8455,"ĠæŀĦ":8456,"Ġåħµ":8457,"Ġåħ¸":8458,"Ġåħ¿":8459,"Ġæµ±":8460,"Ġæµ¼":8461,"Ġæ¹ĸ":8462,"Ġâº¼":8463,"Ġâºĭ":8464,"Ġâºļ":8465,"Ġîİ¸":8466,"ĠîİĢ":8467,"Ġîİĥ":8468,"ĠîİŃ":8469,"Ġéĥ¯":8470,"Ġéĥ»":8471,"Ġéĥľ":8472,"Ġâ§®":8473,"Ġâ§°":8474,"Ġâ§Ĩ":8475,"Ġâ§ı":8476,"Ġâ§Ķ":8477,"ĠïģĦ":8478,"Ġä¢£":8479,"Ġèº¦":8480,"ĠâĲī":8481,"ĠâĲĬ":8482,"ĠâĲĳ":8483,"ĠâĲĻ":8484,"Ġè§³":8485,"Ġè§į":8486,"Ġè§ľ":8487,"Ġè§Ł":8488,"Ġçĳ¨":8489,"Ġçĳİ":8490,"Ġçĳĳ":8491,"ĠçĳŁ":8492,"ĠçľĢ":8493,"Ġçľĭ":8494,"Ġçľķ":8495,"Ġè´ĳ":8496,"Ġêĸ§":8497,"ĠáªŃ":8498,"Ġå§§":8499,"Ġå§¯":8500,"Ġå§ļ":8501,"Ġêļ»":8502,"Ġêļķ":8503,"ĠêļĹ":8504,"ĠéĿ¥":8505,"ĠéĿŁ":8506,"Ġâ¾µ":8507,"Ġæ£°":8508,"Ġèıı":8509,"ĠâµĻ":8510,"Ġî½£":8511,"Ġî½ī":8512,"Ġä±ĥ":8513,"Ġî¡´":8514,"Ġî¡İ":8515,"Ġêŀ¨":8516,"Ġêŀµ":8517,"Ġêŀº":8518,"Ġêŀ¿":8519,"Ġêŀĸ":8520,"ĠêŀĽ":8521,"Ġêķ¥":8522,"Ġè®¨":8523,"ĠèĶ¤":8524,"ĠèĶ¯":8525,"Ġá²º":8526,"Ġî¿ī":8527,"Ġè¶®":8528,"Ġè¶Ń":8529,"Ġéģ¯":8530,"Ġç´·":8531,"Ġç´Ĭ":8532,"Ġéª´":8533,"Ġéªŀ":8534,"Ġçĵŀ":8535,"Ġçļ±":8536,"ĠçļĿ":8537,"Ġá¯Ħ":8538,"Ġá¯Ĵ":8539,"Ġç¢ı":8540,"Ġç¢ķ":8541,"Ġæ¶Ĵ":8542,"ĠêŁ¥":8543,"ĠêŁ»":8544,"Ġáıĩ":8545,"Ġáıī":8546,"Ġáıŀ":8547,"Ġäª§":8548,"ĠäªĨ":8549,"ĠèĤª":8550,"Ġî¤¶":8551,"Ġî¤ģ":8552,"Ġî¤ĳ":8553,"Ġî¤ĸ":8554,"Ġèª®":8555,"Ġèªł":8556,"Ġâ¤³":8557,"Ġä¤Ħ":8558,"ĠîĳĢ":8559,"Ġîĳļ":8560,"ĠîĶĨ":8561,"ĠîĶĭ":8562,"Ġè¥¤":8563,"Ġè¥¶":8564,"Ġèł©":8565,"ĠèłĤ":8566,"Ġèłŀ":8567,"Ġê§±":8568,"Ġïĩ¹":8569,"Ġä»¦":8570,"Ġä»Ģ":8571,"Ġç¹¦":8572,"Ġç¹ĳ":8573,"Ġå¿±":8574,"Ġå¿¼":8575,"ĠæĤĸ":8576,"ĠîĦĭ":8577,"ĠîĦĴ":8578,"Ġâĳ°":8579,"ĠîĤł":8580,"Ġå¥³":8581,"Ġå²ģ":8582,"ĠäĦĩ":8583,"Ġâ¡²":8584,"Ġäļ¯":8585,"Ġçĥ¯":8586,"Ġâ±®":8587,"Ġä¥ģ":8588,"Ġä¥ķ":8589,"Ġæİ·":8590,"Ġæİģ":8591,"Ġîº¬":8592,"Ġîº®":8593,"Ġîºľ":8594,"Ġæ§°":8595,"Ġæ§Ĭ":8596,"ĠîģĹ":8597,"Ġè©³":8598,"Ġèľ¹":8599,"ĠèľĦ":8600,"Ġâªĵ":8601,"Ġâªĺ":8602,"Ġä¹Ĭ":8603,"Ġä¹Ł":8604,"Ġâ¬º":8605,"ĠâĽ´":8606,"ĠâĽ¾":8607,"ĠâĽĦ":8608,"Ġä¬¤":8609,"Ġä¬¦":8610,"Ġé¦¾":8611,"Ġïļ«":8612,"Ġè¤ŀ":8613,"Ġêĺį":8614,"ĠêĺĻ":8615,"Ġéĳ¢":8616,"Ġéĳİ":8617,"Ġéĳĳ":8618,"Ġä²©":8619,"ĠåĶĩ":8620,"ĠêĬ§":8621,"ĠêĬĹ":8622,"ĠãĽī":8623,"ĠèŃ¬":8624,"ĠèŃį":8625,"Ġã¹£":8626,"Ġã¹Ĳ":8627,"Ġîĺ»":8628,"Ġâ°£":8629,"Ġãµ³":8630,"Ġàªª":8631,"ĠàªĢ":8632,"ĠàªĬ":8633,"ĠäĽİ":8634,"Ġé½³":8635,"Ġé½Ĺ":8636,"Ġä·Ĵ":8637,"Ġéĸĸ":8638,"ĠãĿ¹":8639,"ĠãĿ¼":8640,"ĠãĿģ":8641,"ĠæĬŃ":8642,"ĠêİĬ":8643,"ĠêİŃ":8644,"Ġé¤¤":8645,"Ġé¤Ĭ":8646,"Ġé¤į":8647,"Ġå½¾":8648,"Ġå½¿":8649,"Ġïµº":8650,"Ġêĳµ":8651,"Ġè¨£":8652,"Ġè¨³":8653,"Ġèİ·":8654,"ĠèİĹ":8655,"Ġâ½¸":8656,"Ġèģ¾":8657,"Ġîłł":8658,"Ġåĩħ":8659,"Ġâ¿ª":8660,"Ġâ¿·":8661,"Ġâ¿ĺ":8662,"Ġá¶ŀ":8663,"ĠãĤ³":8664,"Ġå¤Ĭ":8665,"Ġî¢¶":8666,"Ġî¢Ĺ":8667,"ĠçģŁ":8668,"Ġæĭ¾":8669,"ĠéŃĤ":8670,"ĠéŃŃ":8671,"ĠêĹº":8672,"Ġã´ī":8673,"Ġã´ı":8674,"Ġæ¦£":8675,"Ġæ¦Ī":8676,"Ġãħ°":8677,"Ġãį§":8678,"Ġãį³":8679,"Ġæ²«":8680,"Ġæ¡¤":8681,"Ġæ¡´":8682,"Ġîħª":8683,"Ġîħ»":8684,"ĠèĬĶ":8685,"ĠïķŃ":8686,"Ġáµ²":8687,"Ġè¡Ī":8688,"Ġïĸ«":8689,"Ġé±¸":8690,"Ġé±Ļ":8691,"Ġâ³µ":8692,"Ġè¿«":8693,"Ġåª¡":8694,"Ġåª©":8695,"Ġåªĵ":8696,"Ġã©¤":8697,"Ġã©ī":8698,"Ġã©ı":8699,"ĠåĳĹ":8700,"Ġä¾·":8701,"Ġå¸¿":8702,"Ġêħħ":8703,"ĠêħĿ":8704,"Ġäħ«":8705,"Ġäħ¾":8706,"Ġçįµ":8707,"Ġçį¿":8708,"Ġêĥ´":8709,"Ġæ«µ":8710,"Ġé¿¥":8711,"Ġéį¾":8712,"ĠèĢģ":8713,"Ġå®ı":8714,"ĠæĨ°":8715,"ĠæĨĩ":8716,"Ġéľ²":8717,"Ġéľı":8718,"Ġèļ¢":8719,"Ġèļħ":8720,"Ġê¡·":8721,"Ġâ¯ĩ":8722,"Ġà¨µ":8723,"Ġà¨·":8724,"Ġé¬¯":8725,"Ġé¬µ":8726,"Ġé¬Ł":8727,"Ġè¬¢":8728,"Ġè¬³":8729,"Ġâ¦·":8730,"Ġà¹®":8731,"Ġà¹¼":8732,"Ġî¬§":8733,"Ġî¬ĸ":8734,"Ġéĩ¶":8735,"Ġî©µ":8736,"Ġî¦¯":8737,"Ġåľ¨":8738,"ĠåľĿ":8739,"Ġê¤¥":8740,"Ġê¤Ľ":8741,"Ġï¼¿":8742,"ĠæŃ©":8743,"ĠîīĨ":8744,"Ġá¡©":8745,"Ġî¼ĥ":8746,"Ġá´ĥ":8747,"ĠáĶĵ":8748,"Ġî»°":8749,"Ġî»Ń":8750,"Ġæ½®":8751,"ĠêĶ¤":8752,"ĠêĶģ":8753,"Ġä¶ģ":8754,"Ġè¦©":8755,"Ġè¦Ŀ":8756,"ĠèĹł":8757,"Ġå¼Ħ":8758,"ĠéĽ¶":8759,"ĠêĦĤ":8760,"Ġà¶Ĩ":8761,"Ġãľı":8762,"Ġãľĳ":8763,"Ġãľļ":8764,"Ġå¢ı":8765,"Ġå¢ŀ":8766,"Ġäīİ":8767,"ĠäīŃ":8768,"Ġäł«":8769,"Ġäłķ":8770,"Ġæ¼¾":8771,"Ġå·®":8772,"Ġïĳı":8773,"ĠèĮ»":8774,"ĠåŁ½":8775,"ĠåŁĽ":8776,"Ġîª»":8777,"Ġîªİ":8778,"Ġîªŀ":8779,"ĠèµĽ":8780,"Ġè½½":8781,"ĠèĩŁ":8782,"Ġç©©":8783,"Ġãķ¦":8784,"Ġãķ±":8785,"Ġãķī":8786,"Ġî³°":8787,"Ġî³·":8788,"Ġîĥŀ":8789,"ĠåĽī":8790,"ĠåĽĮ":8791,"Ġæª£":8792,"Ġæªµ":8793,"Ġæĥ¨":8794,"Ġæĥł":8795,"Ġç®Ģ":8796,"Ġéħĸ":8797,"ĠçĴ¸":8798,"Ġá®Ĭ":8799,"Ġá®ı":8800,"Ġá®Ĳ":8801,"Ġâ¨Ĩ":8802,"Ġèĸ·":8803,"Ġî¨Ń":8804,"Ġî·º":8805,"Ġî·į":8806,"Ġê«Ĩ":8807,"Ġç»Ĺ":8808,"Ġèĥ¢":8809,"Ġèĳ¨":8810,"Ġèĳ·":8811,"Ġèĳł":8812,"ĠåĢĢ":8813,"ĠåĢļ":8814,"Ġà¦©":8815,"Ġà¦ĺ":8816,"Ġä¯¿":8817,"ĠåĪĪ":8818,"Ġà²³":8819,"ĠäĨ´":8820,"ĠäĨī":8821,"ĠéĢ¤":8822,"ĠéĢ§":8823,"Ġè¸·":8824,"Ġè»°":8825,"Ġè»½":8826,"Ġä½ĭ":8827,"ĠãĲ£":8828,"Ġã½·":8829,"ĠçĹĺ":8830,"Ġä¿´":8831,"Ġîµ¥":8832,"Ġîµ¿":8833,"Ġâ®¸":8834,"Ġâ®»":8835,"Ġà»Ĵ":8836,"Ġæ©ı":8837,"ĠáĳĲ":8838,"Ġç¼ģ":8839,"Ġç¼ĩ":8840,"Ġêīļ":8841,"ĠêīŁ":8842,"Ġáĺµ":8843,"ĠîĽ¦":8844,"ĠîĽ¯":8845,"Ġé¨Ļ":8846,"Ġç¦¿":8847,"Ġç¦ī":8848,"ĠçĲħ":8849,"ĠçĲĨ":8850,"Ġï±¿":8851,"Ġï¹¦":8852,"Ġï¹ı":8853,"ĠçĢį":8854,"Ġãĭĭ":8855,"Ġî¾¯":8856,"Ġî¾³":8857,"Ġê¥³":8858,"Ġê¥¶":8859,"Ġà«¡":8860,"Ġà«¹":8861,"Ġà«¼":8862,"Ġà«ľ":8863,"Ġé«¤":8864,"Ġå¡¡":8865,"Ġå¡º":8866,"ĠéĬ¤":8867,"ĠåİĿ":8868,"Ġäĭ¶":8869,"ĠçĭĤ":8870,"Ġá«Ľ":8871,"ĠáĲĴ":8872,"ĠæĶ±":8873,"ĠçĨ·":8874,"Ġï³®":8875,"Ġà¬Ł":8876,"ĠáĬĨ":8877,"Ġéĺ³":8878,"Ġéĺ¾":8879,"ĠèĽ²":8880,"Ġáĸ·":8881,"Ġáĭľ":8882,"Ġáĵ½":8883,"ĠäĹĶ":8884,"Ġè³Ī":8885,"Ġè³ī":8886,"Ġç¥Ī":8887,"Ġä¦Ī":8888,"Ġä¦Ķ":8889,"Ġäĩ»":8890,"Ġäĩĺ":8891,"Ġæ°¹":8892,"Ġî°¸":8893,"Ġî°Ŀ":8894,"Ġà®¹":8895,"ĠåĤĤ":8896,"Ġé¡į":8897,"ĠïĢı":8898,"ĠåĲ¢":8899,"Ġï´«":8900,"Ġï´Ī":8901,"Ġå¬ĳ":8902,"Ġã¬¨":8903,"Ġåĥ£":8904,"Ġåĥ²":8905,"ĠéĲĨ":8906,"ĠéĲį":8907,"Ġåĸ¥":8908,"Ġåĸĸ":8909,"ĠáĮµ":8910,"ĠáĮĲ":8911,"Ġè¹¦":8912,"ĠéĪı":8913,"Ġç£Ĭ":8914,"Ġå«Ĥ":8915,"ĠïĶĤ":8916,"Ġàµ±":8917,"Ġàµ³":8918,"ĠàµĶ":8919,"Ġä®£":8920,"Ġï¡ľ":8921,"Ġãĺ¸":8922,"Ġê¯¶":8923,"Ġáīŀ":8924,"Ġá¥Ń":8925,"Ġâł¨":8926,"Ġâłĸ":8927,"ĠçĤ¼":8928,"ĠçĤĻ":8929,"ĠáĹĭ":8930,"Ġçł¦":8931,"ĠáĨ¿":8932,"ĠêĢ³":8933,"ĠêĢĸ":8934,"ĠêĻī":8935,"ĠèĪį":8936,"ĠïŃ¥":8937,"ĠïŃ»":8938,"ĠïŃŃ":8939,"Ġãł¯":8940,"Ġãłł":8941,"Ġà³ľ":8942,"Ġçĸİ":8943,"ĠåłĦ":8944,"Ġà§ķ":8945,"ĠáŀĦ":8946,"Ġê¦ł":8947,"Ġà©»":8948,"Ġà©Ĳ":8949,"Ġà¯°":8950,"ĠáŃµ":8951,"Ġà·¥":8952,"Ġà·°":8953,"Ġà·į":8954,"ĠáĦĨáħ¨áĨ¾":8955,"Ġà¥¼":8956,"Ġá¬ħ":8957,"Ġá¬ĭ":8958,"Ġá¬ĵ":8959,"Ġï«½":8960,"ĠáĢĵ":8961,"Ġíŀ¥":8962,"Ġíŀª":8963,"Ġíŀ¸":8964,"Ġâ·İ":8965,"ĠáĦħáħ«áĨ½":8966,"ĠáĦģáħ£áĨ©":8967,"ĠáĦģáħ£áĨ¯":8968,"ĠáĦģáħ£áĨ¹":8969,"ĠáĦģáħ£áĨŃ":8970,"ĠáĦĭáħ´áĨ©":8971,"ĠáĦĭáħ´áĨº":8972,"ĠáĦĨáħ²áĨ°":8973,"ĠáĦĨáħ²áĨ½":8974,"ĠáĦĳáħ¦áĨ³":8975,"ĠáĦĳáħ¦áĨŃ":8976,"ĠáĦĭáħ³áĨ®":8977,"ĠáĦĭáħ³áĨ°":8978,"ĠáĦĭáħ³áĨ¹":8979,"ĠáĦģáħŃáĨª":8980,"ĠáĦģáħŃáĨ²":8981,"ĠáĦģáħŃáĨ¶":8982,"ĠáĦĢáħ®áĨª":8983,"ĠáĦĮáħŃáĨ¾":8984,"ĠáĦĳáħ¨áĨ¼":8985,"ĠáĦĳáħ§áĨ½":8986,"ĠáĦĬáħ¨áĨµ":8987,"ĠáĦįáħŃáĨ¨":8988,"ĠáĦįáħŃáĨ¶":8989,"ĠáĦĬáħ²áĨ¿":8990,"ĠáĦĭáħ«áĨ±":8991,"ĠáĦĬáħ§áĨ³":8992,"ĠáĦħáħµáĨ°":8993,"ĠáĦĢáħ°áĨ®":8994,"ĠáĦĥáħªáĨ´":8995,"ĠáĦĴáħ³áĨ´":8996,"ĠáĦĮáħ¬áĨ²":8997,"ĠáĦįáħ®áĨ¬":8998,"ĠáĦįáħ®áĨ¸":8999,"ĠáĦİáħ£áĨ¹":9000,"ĠáĦİáħ£áĨ¿":9001,"ĠáĦĮáħ¢áĨ«":9002,"ĠáĦĮáħ¢áĨ®":9003,"ĠáĦĬáħ¤áĨ½":9004,"ĠáĦĭáħµáĨ¯":9005,"ĠáĦĭáħµáĨ²":9006,"ĠáĦħáħ£áĨ°":9007,"ĠáĦįáħ±áĨ®":9008,"ĠáĦĩáħ²áĨ±":9009,"ĠáĦĩáħ±áĨ½":9010,"ĠáĦģáħªáĨ¬":9011,"ĠáĦģáħªáĨ³":9012,"ĠáĦİáħ©áĨ®":9013,"ĠáĦĨáħ«áĨ¶":9014,"ĠáĦīáħ¤áĨ»":9015,"ĠáĦĬáħ«áĨ©":9016,"ĠáĦĬáħ«áĨ«":9017,"ĠáĦĬáħ«áĨ¯":9018,"ĠáĦıáħ¬áĨ¶":9019,"ĠáĦĨáħµáĨ¨":9020,"ĠáĦĩáħ°áĨ®":9021,"ĠáĦĢáħ²áĨ¯":9022,"ĠáĦįáħ²áĨª":9023,"ĠáĦģáħ¢áĨ±":9024,"ĠáĦĩáħ´áĨ½":9025,"ĠáĦĬáħ¦áĨ«":9026,"ĠáĦĬáħ¦áĨŃ":9027,"ĠáĦĮáħ¡áĨ²":9028,"ĠáĦıáħ£áĨ¸":9029,"ĠáĦģáħ¯áĨ«":9030,"ĠáĦģáħ¯áĨ½":9031,"ĠáĦĬáħ°áĨ©":9032,"ĠáĦĪáħ¬áĨ®":9033,"ĠáĦĥáħ³áĨ³":9034,"ĠáĦĪáħªáĨ«":9035,"ĠáĦĮáħ³áĨ³":9036,"ĠáĦĥáħ£áĨ©":9037,"ĠáĦıáħ©áĨª":9038,"ĠáĦģáħ³áĨ¯":9039,"ĠáĦĲáħ¢áĨ¿":9040,"ĠáĦĮáħ¥áĨ·":9041,"ĠáĦģáħ¬áĨµ":9042,"ĠáĦģáħ¬áĨ¸":9043,"ĠáĦĩáħ¢áĨ«":9044,"ĠáĦģáħ¡áĨ·":9045,"ĠáĦĴáħ±áĨ«":9046,"ĠáĦĳáħ¡áĨ·":9047,"Ġâĥĥ":9048,"ĠáĦĩáħªáĨ¿":9049,"ĠáĦĮáħ§áĨ¾":9050,"ĠáĦģáħ©áĨ³":9051,"ĠáĦĳáħ©áĨ¹":9052,"ĠáĦĬáħ±áĨ»":9053,"ĠáĦįáħ³áĨ¾":9054,"ĠáĦģáħ°áĨ«":9055,"ĠáĦģáħ°áĨ±":9056,"ĠáĦĳáħ³áĨ¯":9057,"ĠáĦĦáħŃáĨ»":9058,"ĠáĦĬáħŃáĨ©":9059,"ĠáĦĬáħŃáĨ«":9060,"ĠáĦĬáħŃáĨ®":9061,"ĠáĦĥáħŃáĨ¬":9062,"ĠáĦİáħ¯áĨµ":9063,"ĠáĦĮáħ´áĨ¿":9064,"ĠáĦıáħ¨áĨ²":9065,"ĠáĦĨáħ¢áĨª":9066,"ĠáĦĳáħ¬áĨº":9067,"ĠáĦĢáħ±áĨ½":9068,"ĠáĦĲáħ¬áĨ©":9069,"ĠáĦĲáħ¬áĨª":9070,"ĠáĦĲáħ¬áĨ±":9071,"ĠáĦĲáħ£áĨ³":9072,"Ġà£ı":9073,"Ġà£ĵ":9074,"ĠáĦĳáħ²áĨ¿":9075,"ĠáĦĪáħ¯áĨ¾":9076,"ĠáĦıáħ²áĨ¸":9077,"ĠáĦĭáħ¡áĨ±":9078,"ĠáĦįáħ¨áĨ´":9079,"ĠáĦĬáħ¢áĨ°":9080,"ĠáĦįáħ¡áĨ¬":9081,"ĠáĦĬáħ´áĨ°":9082,"ĠáĦīáħ«áĨ³":9083,"ĠáĦıáħªáĨ¶":9084,"ĠáĦĲáħ¥áĨ®":9085,"ĠáĦĲáħ¥áĨ±":9086,"ĠáĦĦáħ³áĨµ":9087,"ĠáĦīáħ¨áĨ°":9088,"ĠáĦīáħ¯áĨº":9089,"ĠáĦĦáħ²áĨ©":9090,"ĠáĦĥáħ®áĨ³":9091,"ĠáĦīáħ¡áĨ¬":9092,"ĠáĦĤáħ£áĨ³":9093,"ĠáĦĮáħ°áĨ°":9094,"ĠáĦĨáħ¬áĨµ":9095,"ĠáĦĴáħ¡áĨ«":9096,"ĠáĦĴáħ¡áĨ®":9097,"ĠáĦĤáħ©áĨ±":9098,"ĠáĦīáħµáĨ©":9099,"ĠáĦĲáħµáĨ¶":9100,"ĠáĦĢáħ¦áĨµ":9101,"ĠáĦģáħµáĨ·":9102,"ĠáĦıáħ³áĨª":9103,"ĠáĦĲáħ´áĨ©":9104,"Ġñ´§¢":9105,"Ġá»¿":9106,"Ġá·¹":9107,"¡ł":9108,"¢Ĭ":9109,"¢İ":9110,"£¨":9111,"£®":9112,"¤¬":9113,"¦¶":9114,"¨ª":9115,"¨·":9116,"©Ħ":9117,"©ĭ":9118,"«ģ":9119,"®¸":9120,"¯§":9121,"±·":9122,"³İ":9123,"µķ":9124,"¶²":9125,"¶µ":9126,"·§":9127,"·Ł":9128,"¹¦":9129,"¹¿":9130,"º³":9131,"»½":9132,"¼»":9133,"¼ģ":9134,"½¶":9135,"½¾":9136,"¾«":9137,"¿¦":9138,"¿ĸ":9139,"¿ĺ":9140,"ģĥ":9141,"ģĪ":9142,"ģĳ":9143,"ģł":9144,"ĥ©":9145,"ĥ´":9146,"ĥŀ":9147,"ħ¦":9148,"Ĩ£":9149,"ĨĿ":9150,"ĩĤ":9151,"Ī¢":9152,"Ĭĥ":9153,"Ĭĩ":9154,"ĭ¦":9155,"ĭı":9156,"Į¼":9157,"į«":9158,"İ£":9159,"ı«":9160,"ı¼":9161,"ıŁ":9162,"Ĳ¤":9163,"ĳĥ":9164,"ĳŀ":9165,"ĴĴ":9166,"ĴĹ":9167,"ĵµ":9168,"Ķ·":9169,"ķĭ":9170,"ĸĲ":9171,"ĹĤ":9172,"ļ¨":9173,"ļģ":9174,"ļĽ":9175,"Ľ·":9176,"ľ·":9177,"ľŀ":9178,"ŀĩ":9179,"ŀı":9180,"ŀŀ":9181,"Ł¯":9182,"łĲ":9183,"Ń½":9184,"Ń¿":9185,"Ńī":9186,"Ġï¿¥":9187,"Ġï¿ı":9188,"ĠâĢ·":9189,"ĠâĢļ":9190,"ĠâĻ¿":9191,"ĠâĻĮ":9192,"ĠâĻĲ":9193,"ĠâĻĺ":9194,"Ġà¤Ĵ":9195,"Ġâĸ¬":9196,"ĠâĸĦ":9197,"Ġâĸĸ":9198,"ĠáĦĨáħ¨áĩģ":9199,"ĠáĦĬáħŃáĩĤ":9200,"ĠáĦħáħ¡":9201,"ĠáĦħáħ±áĩĢ":9202,"ĠáĦģáħ¥":9203,"ĠáĦģáħ¨":9204,"ĠáĦģáħŃáĩĢ":9205,"ĠáĦģáħŃáĩģ":9206,"ĠáĦģáħªáĩĢ":9207,"ĠáĦĭáħ¤áĩģ":9208,"ĠáĦĮáħ°áĩģ":9209,"ĠáĦĥáħ§áĩĢ":9210,"ĠáĦĥáħ¢áĩģ":9211,"ĠáĦĢáħ¬áĩģ":9212,"ĠáĦįáħ®áĩĢ":9213,"ĠáĦįáħ°áĩĢ":9214,"ĠáĦĳáħ±áĩĢ":9215,"ĠáĦĳáħ¤áĩĤ":9216,"ĠáĦĩáħŃ":9217,"ĠáĦĩáħ±áĩģ":9218,"ĠáĦĩáħ®áĩģ":9219,"ĠáĦĴáħ¯áĩĢ":9220,"ĠáĦĴáħµáĩģ":9221,"ĠáĦīáħ§áĩĤ":9222,"ĠáĦīáħ©áĩĤ":9223,"ĠáĦĪáħ£":9224,"ĠáĦĪáħ°áĩĤ":9225,"ĠáĦıáħ«áĩĤ":9226,"ĠáĦĦáħ´áĩģ":9227,"ĠáĦĦáħ©áĩĢ":9228,"ĠáĦĦáħµáĩĢ":9229,"ĠáĦĲáħ¯áĩĤ":9230,"ĠáĦĤáħ£":9231,"ĠâĪĸ":9232,"ĠâĦħ":9233,"ĠâĦķ":9234,"Ġéĵ¡":9235,"Ġéĵİ":9236,"Ġéĵı":9237,"ĠéĵĶ":9238,"Ġéĵļ":9239,"ĠâĴĤ":9240,"ĠâĴļ":9241,"ĠâŁĭ":9242,"ĠâŁį":9243,"Ġâĺ²":9244,"Ġâģ¢":9245,"Ġâģ¾":9246,"Ġãı®":9247,"Ġãıĺ":9248,"ĠãıĽ":9249,"Ġçı©":9250,"ĠâĿ°":9251,"ĠâĿĸ":9252,"ĠãŁ¤":9253,"ĠãŁĨ":9254,"ĠãŁŁ":9255,"Ġïİ¡":9256,"Ġïİ°":9257,"Ġâľĭ":9258,"ĠçŁ¸":9259,"ĠçŁĵ":9260,"ĠçŁĻ":9261,"ĠïıĮ":9262,"Ġïıĺ":9263,"Ġâ¥¤":9264,"Ġâ¥¯":9265,"Ġâ¥ħ":9266,"Ġâ¥Ī":9267,"Ġâ¥į":9268,"Ġâ¥ĳ":9269,"ĠäĴ§":9270,"ĠäĴĪ":9271,"ĠäĴļ":9272,"Ġæĺ®":9273,"Ġæĺ»":9274,"ĠäĶĨ":9275,"Ġã§¥":9276,"Ġã§°":9277,"Ġã¢»":9278,"Ġã¢Ħ":9279,"Ġã¢ī":9280,"Ġã¢Ĭ":9281,"ĠæĿ¥":9282,"ĠæĿ¦":9283,"ĠæĿ¯":9284,"ĠæĿĢ":9285,"ĠæĿĻ":9286,"Ġäĵ¨":9287,"Ġäĵ»":9288,"ĠäĵĢ":9289,"ĠäĵĦ":9290,"ĠæģĽ":9291,"Ġã·ī":9292,"Ġã·Į":9293,"Ġã·ĸ":9294,"Ġã²·":9295,"Ġã²Ĵ":9296,"Ġîı©":9297,"Ġîı³":9298,"ĠîıĢ":9299,"ĠîıĶ":9300,"Ġîıľ":9301,"Ġâį£":9302,"Ġâį¨":9303,"Ġâįª":9304,"Ġâįı":9305,"Ġãª¥":9306,"Ġãª¹":9307,"Ġãªģ":9308,"Ġãªħ":9309,"Ġéŀ±":9310,"Ġéŀ¸":9311,"ĠíŁº":9312,"ĠíŁĵ":9313,"ĠíŁĽ":9314,"ĠäĿ¿":9315,"Ġçİ¦":9316,"Ġçİ¯":9317,"Ġçİ¹":9318,"ĠçİĽ":9319,"Ġäľ¼":9320,"ĠäľĹ":9321,"ĠäľĿ":9322,"Ġäľł":9323,"ĠæĴ¹":9324,"ĠæĴĭ":9325,"Ġã¿¨":9326,"Ġã¿Ħ":9327,"Ġã¿Į":9328,"Ġã¯¹":9329,"Ġã¯½":9330,"Ġã¯Ħ":9331,"ĠîŁ¨":9332,"ĠîŁ¶":9333,"ĠîŁ½":9334,"ĠîŁŃ":9335,"ĠäŁļ":9336,"ĠäŁľ":9337,"ĠäŁŁ":9338,"Ġæį´":9339,"ĠæįĬ":9340,"ĠîĿ»":9341,"ĠîĿ½":9342,"ĠîĿĴ":9343,"Ġãŀ±":9344,"Ġãŀĩ":9345,"Ġãºİ":9346,"ĠéİĢ":9347,"ĠéİĿ":9348,"Ġçº¯":9349,"Ġçº¹":9350,"Ġçº»":9351,"ĠçºĨ":9352,"Ġçºī":9353,"Ġçºį":9354,"ĠéŁ§":9355,"ĠéŁ¨":9356,"ĠéŁ®":9357,"ĠéŁº":9358,"ĠéŁķ":9359,"ĠèĴ»":9360,"ĠèĴĬ":9361,"Ġïŀ´":9362,"Ġïŀ»":9363,"Ġïŀ¾":9364,"ĠïŀĪ":9365,"Ġïŀķ":9366,"Ġäı¬":9367,"Ġæĵ¨":9368,"Ġæĵ»":9369,"ĠæĵĨ":9370,"ĠæĹĻ":9371,"ĠäĳĢ":9372,"Ġäĳĥ":9373,"Ġäĳİ":9374,"Ġäĳľ":9375,"Ġäĳł":9376,"Ġâķ£":9377,"Ġâķ¨":9378,"ĠâķĲ":9379,"Ġâķŀ":9380,"Ġäį©":9381,"Ġäį¾":9382,"Ġäį¿":9383,"ĠâĹį":9384,"Ġå¾¡":9385,"Ġå¾®":9386,"Ġå¾±":9387,"Ġå¾µ":9388,"Ġå¾Ĺ":9389,"Ġá¢ª":9390,"Ġá¢ī":9391,"Ġá¢ĺ":9392,"Ġâĵ£":9393,"Ġâĵ¤":9394,"Ġâĵľ":9395,"ĠâĵŁ":9396,"ĠçĶ¢":9397,"ĠçĶ»":9398,"ĠçĶĪ":9399,"ĠçĶļ":9400,"Ġæĸº":9401,"Ġæĸļ":9402,"Ġá§Ħ":9403,"Ġéº©":9404,"Ġéº¶":9405,"Ġéºº":9406,"Ġéº¿":9407,"ĠéºĮ":9408,"Ġçŀµ":9409,"Ġé¾©":9410,"Ġé¾°":9411,"Ġé¾į":9412,"Ġé¾ĺ":9413,"Ġé¾Ł":9414,"Ġãİ¾":9415,"Ġîĵ§":9416,"Ġîĵ¯":9417,"Ġãĳ·":9418,"Ġãĳī":9419,"Ġãĵ®":9420,"Ġãĵģ":9421,"ĠãĵĪ":9422,"Ġâ£¼":9423,"Ġâ£Ģ":9424,"Ġâ£Ĳ":9425,"Ġâ£Ĵ":9426,"Ġéı§":9427,"Ġéıº":9428,"Ġéı¿":9429,"ĠêĿº":9430,"ĠêĿĻ":9431,"ĠêĿĿ":9432,"Ġá¦Ń":9433,"Ġç²³":9434,"Ġç²º":9435,"Ġç²Ł":9436,"Ġç¿¥":9437,"Ġç¿¿":9438,"Ġãĥ½":9439,"Ġï¢·":9440,"Ġï¢ĥ":9441,"Ġï¢ĺ":9442,"Ġï¢ľ":9443,"Ġï¢Ń":9444,"Ġî´ĺ":9445,"Ġî´Ń":9446,"ĠîĻĩ":9447,"ĠîĻı":9448,"Ġè£¥":9449,"Ġè£·":9450,"Ġè£º":9451,"Ġâŀ·":9452,"Ġâŀį":9453,"ĠâŀĹ":9454,"Ġâŀŀ":9455,"ĠîŃ¥":9456,"ĠîŃ¯":9457,"ĠîŃī":9458,"ĠîŃĵ":9459,"Ġéļ´":9460,"Ġéļ¶":9461,"Ġâı´":9462,"Ġæķ¡":9463,"Ġæķ¤":9464,"Ġæķ¥":9465,"Ġæķº":9466,"ĠæķĨ":9467,"Ġæķķ":9468,"Ġç¾ĩ":9469,"Ġç¾Ķ":9470,"Ġç¾ŀ":9471,"ĠäĥĦ":9472,"Ġäĥı":9473,"ĠäĥĴ":9474,"Ġîľº":9475,"ĠîľĢ":9476,"ĠäĬĳ":9477,"ĠäĬĵ":9478,"Ġå±»":9479,"Ġä¸°":9480,"Ġä¸Ĭ":9481,"Ġä¸Ĳ":9482,"ĠäĤ£":9483,"Ġäºį":9484,"Ġî£Ķ":9485,"Ġé´¦":9486,"Ġé´ĸ":9487,"Ġé´Ļ":9488,"ĠêŃĿ":9489,"ĠäĮ¦":9490,"ĠäĮª":9491,"ĠäĮĲ":9492,"Ġï»Ĵ":9493,"Ġâī³":9494,"ĠâīĶ":9495,"Ġäģį":9496,"ĠäģĻ":9497,"ĠîįŃ":9498,"Ġé»¡":9499,"Ġé»»":9500,"Ġé»¾":9501,"ĠãĦ¸":9502,"ĠãĦĪ":9503,"ĠãĦī":9504,"ĠãĦĻ":9505,"Ġâ«¹":9506,"Ġâ«½":9507,"Ġïį¬":9508,"Ġïį®":9509,"Ġïį¯":9510,"Ġïįī":9511,"Ġî§³":9512,"Ġî§·":9513,"Ġî§º":9514,"Ġé·¤":9515,"Ġé·«":9516,"Ġé·Į":9517,"Ġé·ı":9518,"Ġé·ĳ":9519,"Ġèĺī":9520,"Ġèĺı":9521,"Ġæº¯":9522,"Ġæºĥ":9523,"ĠãĶ§":9524,"ĠãĶĪ":9525,"Ġâħ£":9526,"Ġâħº":9527,"ĠâħĨ":9528,"ĠâħĹ":9529,"Ġï¯¿":9530,"ĠèĿ¤":9531,"ĠèĿ¬":9532,"ĠèĿļ":9533,"Ġç§®":9534,"Ġç§½":9535,"ĠèŁµ":9536,"ĠèŁĹ":9537,"Ġè«±":9538,"Ġè«ľ":9539,"Ġé¸¤":9540,"Ġé¸Ĭ":9541,"Ġâļ³":9542,"ĠçĮĳ":9543,"Ġé®¬":9544,"Ġé®Ī":9545,"Ġé¶¢":9546,"Ġé¶¿":9547,"Ġé¶ī":9548,"Ġé¶Ĺ":9549,"Ġé¶ļ":9550,"Ġã®ĥ":9551,"Ġã®ĩ":9552,"Ġã®Ī":9553,"Ġäŀ¤":9554,"Ġäŀ¥":9555,"Ġäŀ«":9556,"Ġäŀ¸":9557,"ĠäŀĶ":9558,"ĠäŀĻ":9559,"ĠäĲ·":9560,"ĠäĲħ":9561,"ĠäĲį":9562,"ĠäĲĽ":9563,"Ġæħ·":9564,"Ġæħĺ":9565,"Ġã»¥":9566,"Ġã»»":9567,"Ġã»ķ":9568,"Ġâ¶į":9569,"Ġâ¶Ĳ":9570,"Ġâ¶Ļ":9571,"Ġâ¶ŀ":9572,"Ġî¥¸":9573,"Ġî¥¼":9574,"Ġî¥Į":9575,"Ġêįĩ":9576,"Ġêįı":9577,"ĠæĢ½":9578,"ĠæĢĳ":9579,"ĠéĻ¥":9580,"ĠéĻķ":9581,"Ġæ·±":9582,"Ġé¢¢":9583,"Ġé¢ł":9584,"Ġã¸´":9585,"Ġã¸İ":9586,"Ġã¦ª":9587,"Ġã¦¼":9588,"Ġã¦ļ":9589,"Ġå»¸":9590,"Ġæĳ·":9591,"Ġæĳ¾":9592,"Ġæĳĳ":9593,"ĠïĬ°":9594,"ĠïĬı":9595,"Ġï½»":9596,"Ġï½ħ":9597,"Ġé§ĭ":9598,"ĠïĴ¥":9599,"ĠïĴŀ":9600,"Ġîŀ±":9601,"Ġîŀ¿":9602,"Ġã¶³":9603,"Ġã¶ĳ":9604,"Ġã¶ĸ":9605,"Ġã¶Ŀ":9606,"Ġã¶ŀ":9607,"Ġîķĥ":9608,"Ġîķī":9609,"ĠîķŃ":9610,"Ġè¢ĳ":9611,"Ġã¾·":9612,"Ġã¾ĭ":9613,"Ġî¯¯":9614,"Ġî¯»":9615,"Ġî¯ĥ":9616,"Ġî¯ŀ":9617,"Ġâ»ļ":9618,"Ġâ»Ń":9619,"ĠïĤ¿":9620,"ĠïĤĽ":9621,"ĠâĶ©":9622,"ĠâĶĲ":9623,"ĠâĶĴ":9624,"Ġéµ®":9625,"ĠéĮ¦":9626,"ĠéĮ¯":9627,"ĠéĮĳ":9628,"ĠåºĹ":9629,"Ġåºĺ":9630,"ĠåºĿ":9631,"Ġæ¸´":9632,"Ġæ¸½":9633,"Ġæ¸Ļ":9634,"ĠâĭĬ":9635,"Ġâĭİ":9636,"ĠâĭĹ":9637,"ĠæĻ¢":9638,"ĠæĻ¤":9639,"ĠæĻº":9640,"ĠæĻŀ":9641,"ĠïĨĽ":9642,"ĠïĨĿ":9643,"Ġæ´«":9644,"Ġæ´ĥ":9645,"Ġæ´Ļ":9646,"ĠæĲµ":9647,"ĠæĲİ":9648,"ĠæĲĹ":9649,"ĠæĲĽ":9650,"ĠêľŁ":9651,"Ġæ¾Ł":9652,"Ġî«¸":9653,"Ġî«¿":9654,"Ġåµį":9655,"ĠåµŃ":9656,"Ġêĵ¬":9657,"Ġêĵ¾":9658,"Ġâİģ":9659,"Ġâİħ":9660,"Ġæļ±":9661,"Ġæļ´":9662,"Ġæļį":9663,"ĠæļĹ":9664,"ĠäĻį":9665,"ĠäĻĲ":9666,"ĠäĻŁ":9667,"Ġåķº":9668,"Ġåķ¾":9669,"Ġåķ¿":9670,"Ġåķĸ":9671,"Ġâ¹¼":9672,"Ġâ¹Į":9673,"Ġâ¹ı":9674,"Ġäĺ¶":9675,"Ġäĺı":9676,"Ġäĺĺ":9677,"ĠæŀĻ":9678,"Ġåħ¥":9679,"Ġä¨»":9680,"Ġä¨ļ":9681,"Ġæµ¬":9682,"Ġæ¹¡":9683,"Ġæ¹¼":9684,"Ġæ»¢":9685,"Ġæ»º":9686,"Ġâºº":9687,"Ġâºľ":9688,"ĠâºŁ":9689,"Ġîİİ":9690,"Ġîİļ":9691,"ĠîİĿ":9692,"Ġéĥ¥":9693,"ĠéĥĮ":9694,"Ġéĥı":9695,"Ġéĥļ":9696,"Ġâ§Ľ":9697,"Ġïģ·":9698,"Ġä¢¢":9699,"Ġä¢ª":9700,"Ġä¢Ĳ":9701,"Ġä¢ŀ":9702,"ĠèºĻ":9703,"ĠâĲ²":9704,"ĠâĲ¶":9705,"Ġè§Ŀ":9706,"Ġçĳĵ":9707,"Ġçľ³":9708,"Ġçľļ":9709,"Ġè´±":9710,"Ġè´ĭ":9711,"Ġêĸī":9712,"ĠêĸĹ":9713,"Ġáª¿":9714,"ĠáªĴ":9715,"ĠáªĹ":9716,"Ġî®¡":9717,"Ġî®¶":9718,"Ġî®ĸ":9719,"Ġî®Ł":9720,"Ġå§©":9721,"Ġå§¹":9722,"Ġå§ĥ":9723,"Ġå§ĺ":9724,"Ġêļ¢":9725,"Ġêļ·":9726,"ĠêļĲ":9727,"Ġêļĸ":9728,"ĠéĿ¢":9729,"ĠéĿ¦":9730,"Ġâ¾±":9731,"Ġâ¾ı":9732,"Ġâ¾ķ":9733,"Ġâ¾ĺ":9734,"Ġâ¾Ļ":9735,"Ġæ£ı":9736,"Ġèı±":9737,"Ġèı»":9738,"Ġâµ¤":9739,"ĠâµĬ":9740,"Ġî½´":9741,"Ġî½Ħ":9742,"Ġåı©":9743,"Ġåı¯":9744,"Ġä±¬":9745,"Ġä±ĭ":9746,"Ġê®§":9747,"Ġê®Į":9748,"Ġâ´¼":9749,"Ġî¡į":9750,"ĠêķŃ":9751,"Ġè®Ģ":9752,"Ġè®Į":9753,"ĠèĶ¥":9754,"ĠèĶ®":9755,"ĠèĶĳ":9756,"Ġá²¤":9757,"Ġá²ī":9758,"Ġá²Ĵ":9759,"ĠãĮ¯":9760,"ĠãĮĥ":9761,"Ġî¿Ĭ":9762,"Ġè¶į":9763,"Ġè¶Ĵ":9764,"Ġè¶ł":9765,"Ġéģ¬":9766,"Ġæ³º":9767,"Ġæ³ĸ":9768,"Ġæ³Ľ":9769,"Ġéª¥":9770,"Ġéª±":9771,"Ġèįİ":9772,"Ġèįł":9773,"Ġá¯´":9774,"Ġá¯¿":9775,"Ġá±Ł":9776,"Ġæ±³":9777,"Ġæ±ı":9778,"Ġæ±ļ":9779,"Ġç¢ĸ":9780,"ĠîĬĸ":9781,"ĠêŁ´":9782,"ĠêŁķ":9783,"Ġïī¸":9784,"Ġïīľ":9785,"Ġáı½":9786,"Ġäª³":9787,"Ġäªİ":9788,"ĠèĤĺ":9789,"ĠèĤĻ":9790,"Ġâ¤¤":9791,"Ġâ¤ı":9792,"Ġîĳ¯":9793,"Ġîĳ³":9794,"ĠîĳĮ":9795,"ĠîĶĲ":9796,"ĠîĶĸ":9797,"ĠîĶĹ":9798,"Ġè¥£":9799,"Ġê§ŀ":9800,"Ġïĩļ":9801,"Ġä»§":9802,"Ġä»µ":9803,"Ġä»ģ":9804,"Ġç¹¡":9805,"Ġç¹¤":9806,"Ġç¹®":9807,"Ġç¹Ł":9808,"Ġåį¶":9809,"ĠæĤ©":9810,"ĠîĦ·":9811,"ĠîĦļ":9812,"Ġç¶Ĭ":9813,"Ġâĳĳ":9814,"Ġâ²¼":9815,"Ġâ²ĩ":9816,"Ġâ²ī":9817,"Ġâ²Ł":9818,"Ġâ²Ń":9819,"ĠîĢ©":9820,"ĠîĢº":9821,"ĠîĢħ":9822,"ĠîĤĺ":9823,"Ġå²Ĵ":9824,"ĠäĦļ":9825,"Ġï®®":9826,"Ġï®º":9827,"Ġäļ»":9828,"Ġçĥ¨":9829,"Ġä¥¨":9830,"Ġæİ§":9831,"Ġîº¶":9832,"ĠîºĲ":9833,"Ġæ§·":9834,"Ġæ§»":9835,"Ġè©»":9836,"Ġè©ģ":9837,"Ġè©ħ":9838,"Ġè©ī":9839,"Ġè©İ":9840,"Ġèľ³":9841,"Ġèľµ":9842,"Ġèľ¸":9843,"Ġèľį":9844,"ĠèľĿ":9845,"ĠèĻ§":9846,"ĠèĻ¬":9847,"ĠèĻ®":9848,"ĠèĻĶ":9849,"Ġâª´":9850,"ĠâªĨ":9851,"Ġä¹®":9852,"Ġä¹¾":9853,"Ġä¹İ":9854,"Ġé¯¯":9855,"Ġé¯ī":9856,"Ġé¯Ĺ":9857,"Ġà¸£":9858,"Ġà¸¯":9859,"Ġà¸ķ":9860,"Ġà¸ļ":9861,"Ġà¸ł":9862,"Ġè¯ĳ":9863,"ĠâĽ¥":9864,"ĠâĽħ":9865,"ĠâĽĿ":9866,"ĠâĽŀ":9867,"Ġä¬Ĵ":9868,"Ġé¦Ĥ":9869,"Ġé¦Ĭ":9870,"ĠèħĻ":9871,"Ġå³Į":9872,"Ġå³İ":9873,"Ġïļ£":9874,"Ġïļı":9875,"ĠïļŁ":9876,"Ġä§į":9877,"Ġè¤®":9878,"Ġè¤ĵ":9879,"Ġè¤Ľ":9880,"Ġéĳ¬":9881,"Ġä²¬":9882,"Ġä²ĭ":9883,"ĠåĶ±":9884,"ĠåĶĮ":9885,"ĠåĶĽ":9886,"ĠãĽĦ":9887,"ĠãĽı":9888,"ĠèŃ±":9889,"ĠèŃ½":9890,"ĠèŃĲ":9891,"Ġçķ¡":9892,"Ġã¹´":9893,"Ġîĺ¸":9894,"ĠîĺĽ":9895,"Ġçµ°":9896,"Ġçµ¶":9897,"Ġçµĭ":9898,"Ġâ°¯":9899,"Ġâ°Ľ":9900,"Ġãµ¤":9901,"Ġàª¦":9902,"Ġàª¹":9903,"Ġàª½":9904,"Ġàªĭ":9905,"ĠäĽ³":9906,"ĠäĽ¿":9907,"ĠäĽį":9908,"ĠäĽĳ":9909,"ĠäĽĵ":9910,"Ġä·Ħ":9911,"Ġéĸ¸":9912,"Ġéĸ¿":9913,"Ġè·¹":9914,"Ġä°±":9915,"ĠãĿ§":9916,"ĠæĬ©":9917,"ĠæĬĳ":9918,"ĠæĬĴ":9919,"Ġé¤¯":9920,"ĠçªĿ":9921,"Ġå½·":9922,"Ġå½ı":9923,"Ġïµ½":9924,"Ġïµŀ":9925,"Ġêĳ¢":9926,"Ġêĳ£":9927,"Ġêĳ½":9928,"Ġä´Į":9929,"ĠèİŃ":9930,"Ġæ¥°":9931,"Ġé¹±":9932,"Ġé¹½":9933,"Ġé¹Ĥ":9934,"Ġæ¤©":9935,"Ġæ¤ĺ":9936,"Ġæ¤ł":9937,"Ġèģ¡":9938,"Ġã±Ķ":9939,"Ġã±Ŀ":9940,"Ġîł®":9941,"Ġîłħ":9942,"Ġèĵ´":9943,"Ġåĩł":9944,"Ġâ¼ļ":9945,"Ġá¶Ģ":9946,"Ġá¶ĩ":9947,"ĠãĤª":9948,"ĠãĤ«":9949,"ĠãĤĿ":9950,"Ġå¤¯":9951,"ĠåĹķ":9952,"Ġî¢±":9953,"Ġî¢ĭ":9954,"Ġî¢ĵ":9955,"Ġî¢ł":9956,"Ġçģİ":9957,"ĠæĭĿ":9958,"ĠáĽĮ":9959,"Ġã´²":9960,"Ġã´´":9961,"ĠæĽĵ":9962,"ĠæĽĿ":9963,"Ġãħ©":9964,"Ġãħ·":9965,"Ġãį¶":9966,"Ġãįł":9967,"Ġæ¡·":9968,"Ġæ¡ĥ":9969,"Ġæ¡ĳ":9970,"ĠåĿ²":9971,"Ġïķ¬":9972,"Ġïķī":9973,"Ġê¬®":9974,"Ġáµ·":9975,"Ġáµ¼":9976,"Ġáµ¿":9977,"ĠáµĨ":9978,"ĠáµŃ":9979,"Ġè¡ĭ":9980,"Ġè¡ı":9981,"Ġè¡Ľ":9982,"Ġêıī":9983,"ĠêıŁ":9984,"Ġïĸ£":9985,"Ġïĸ¿":9986,"Ġïĸľ":9987,"Ġé±¾":9988,"Ġé±ĵ":9989,"ĠèĦĲ":9990,"Ġâ³ľ":9991,"Ġæ¨®":9992,"Ġæ¨Ĳ":9993,"Ġæ¨ĸ":9994,"Ġé°¯":9995,"Ġé°»":9996,"Ġé°ĳ":9997,"Ġé°Ĺ":9998,"Ġè¿ķ":9999,"Ġåª«":10000,"Ġï¾¹":10001,"Ġï¾Ł":10002,"Ġã©©":10003,"Ġã©´":10004,"Ġåĳħ":10005,"Ġåĳİ":10006,"Ġä¾¡":10007,"Ġä¾Ģ":10008,"ĠêĮ¶":10009,"ĠêĮ·":10010,"Ġå¸ī":10011,"Ġå¸Ķ":10012,"Ġêħ¥":10013,"ĠïĿ¸":10014,"Ġäħ¨":10015,"Ġäħ°":10016,"Ġçį§":10017,"ĠçįĹ":10018,"ĠèĲĳ":10019,"Ġêĥ·":10020,"Ġêĥ¹":10021,"Ġêĥ¼":10022,"Ġêĥį":10023,"ĠêĥŃ":10024,"ĠâĮĮ":10025,"ĠâĮĸ":10026,"Ġæ«¶":10027,"Ġæ«»":10028,"Ġé¿¢":10029,"Ġé¿ª":10030,"Ġé¿²":10031,"Ġé¿¾":10032,"Ġéį£":10033,"ĠèĢĺ":10034,"Ġå©Ģ":10035,"Ġå®ħ":10036,"ĠæĨĭ":10037,"Ġèļĸ":10038,"Ġê¡§":10039,"Ġâ¯³":10040,"ĠãĨ¨":10041,"Ġîļº":10042,"Ġîļ¼":10043,"Ġîļ¾":10044,"ĠîļĲ":10045,"Ġà¨Ĵ":10046,"Ġä«¿":10047,"Ġâ¦ļ":10048,"Ġîĩ¡":10049,"ĠîĩĬ":10050,"Ġîĩı":10051,"Ġà¹¨":10052,"Ġà¹¬":10053,"Ġî©±":10054,"Ġî©Ĥ":10055,"Ġî©Į":10056,"Ġï·º":10057,"Ġï·¾":10058,"Ġïĥ®":10059,"Ġïĥ´":10060,"Ġî¦°":10061,"Ġåľ°":10062,"ĠåľĤ":10063,"ĠåľĦ":10064,"ĠåľĮ":10065,"Ġê¤ĥ":10066,"Ġï¼Ł":10067,"ĠæŃ¶":10068,"ĠîīĽ":10069,"Ġá¡¥":10070,"Ġá¡½":10071,"Ġáķ´":10072,"Ġáķĺ":10073,"Ġî¼Ķ":10074,"Ġá´ľ":10075,"Ġá´Ł":10076,"ĠéĴº":10077,"ĠéĴī":10078,"Ġâ¸ı":10079,"Ġî»¯":10080,"Ġî»¿":10081,"Ġæ½¶":10082,"Ġæ½ļ":10083,"ĠêĶ¥":10084,"Ġä¶¾":10085,"Ġä¶į":10086,"Ġãļº":10087,"Ġãļĳ":10088,"Ġä³³":10089,"Ġä³ĸ":10090,"Ġä³ŀ":10091,"Ġäµĥ":10092,"ĠäµĴ":10093,"ĠèĹº":10094,"ĠäŃ¹":10095,"ĠäŃĩ":10096,"ĠäŃı":10097,"ĠæĮĨ":10098,"ĠæĮİ":10099,"Ġå¼°":10100,"Ġå¼¾":10101,"Ġå¼ı":10102,"Ġå¼ĵ":10103,"ĠéĹ·":10104,"ĠéĹ¹":10105,"ĠéĹº":10106,"ĠéĽľ":10107,"ĠêĦ´":10108,"ĠêĦĦ":10109,"ĠêĦĨ":10110,"ĠêĦĲ":10111,"Ġà¶°":10112,"Ġà¶¾":10113,"Ġãľİ":10114,"Ġãľŀ":10115,"ĠãľŁ":10116,"Ġå¢Ģ":10117,"Ġå·³":10118,"Ġå·¸":10119,"Ġå·Ĵ":10120,"Ġæĩ¸":10121,"ĠèĮ¦":10122,"ĠåŁº":10123,"Ġîª®":10124,"Ġîª´":10125,"Ġîªµ":10126,"ĠèµŃ":10127,"Ġåĺ¦":10128,"Ġåĺª":10129,"ĠêªĻ":10130,"ĠâŃŁ":10131,"Ġâ©«":10132,"Ġâ©¹":10133,"Ġç©£":10134,"Ġåĭµ":10135,"Ġè°º":10136,"Ġå¦¯":10137,"Ġîĥĳ":10138,"ĠîĲĨ":10139,"ĠåĽĪ":10140,"ĠåĽį":10141,"ĠêĽ¦":10142,"ĠêĽĭ":10143,"ĠïĹı":10144,"Ġáİ¼":10145,"Ġä©½":10146,"Ġæª·":10147,"Ġç±³":10148,"ĠïĮ©":10149,"ĠïĮŀ":10150,"Ġà¡ª":10151,"Ġà¡·":10152,"Ġéħĩ":10153,"ĠçĴª":10154,"ĠçĴł":10155,"Ġåī³":10156,"ĠåīĶ":10157,"Ġï£°":10158,"Ġï£±":10159,"Ġâ¨¡":10160,"ĠêĤī":10161,"ĠêĤĻ":10162,"Ġèĸļ":10163,"Ġã¼¶":10164,"Ġç¡¦":10165,"Ġê«ª":10166,"Ġê«²":10167,"Ġê«¹":10168,"Ġê«ľ":10169,"Ġê«Ł":10170,"Ġé£§":10171,"Ġé£ı":10172,"Ġéĭ£":10173,"Ġç»¨":10174,"Ġèĥ´":10175,"Ġèĳ¢":10176,"ĠèĳĹ":10177,"Ġä¯İ":10178,"Ġä¯Ł":10179,"ĠåĪ³":10180,"ĠäĨº":10181,"ĠéĢ¬":10182,"Ġè»Ĭ":10183,"Ġä½ĵ":10184,"ĠãĲĢ":10185,"ĠãĲĺ":10186,"ĠãĲł":10187,"Ġèĭĸ":10188,"Ġï°¶":10189,"Ġï°ĳ":10190,"ĠçĹĢ":10191,"ĠêĲ¸":10192,"ĠêĲĴ":10193,"Ġä¿®":10194,"Ġä¿Ń":10195,"Ġåĵ¦":10196,"Ġïħĩ":10197,"ĠïħĪ":10198,"Ġîµ«":10199,"Ġçīı":10200,"Ġï¶¢":10201,"Ġï¶ĩ":10202,"Ġé¥¨":10203,"Ġâ¢ª":10204,"Ġâ¢ĸ":10205,"Ġâ¢ľ":10206,"Ġâ®£":10207,"Ġâ®³":10208,"Ġæ¿´":10209,"Ġæ¿ķ":10210,"ĠéĨŃ":10211,"ĠçĬ§":10212,"ĠçĬ¶":10213,"Ġà»¸":10214,"Ġà»İ":10215,"Ġà»ŀ":10216,"Ġæ©³":10217,"Ġáĳ¯":10218,"Ġáĳĳ":10219,"Ġêīī":10220,"Ġêīı":10221,"ĠîĽ±":10222,"Ġé²ı":10223,"Ġç¦Ł":10224,"ĠçĲ·":10225,"Ġï±´":10226,"Ġï±¾":10227,"Ġî¶»":10228,"Ġãĭ¼":10229,"ĠãĴ¹":10230,"ĠïĵĬ":10231,"Ġã³²":10232,"ĠîĹ§":10233,"Ġê¥»":10234,"Ġê¥ĺ":10235,"Ġã°¼":10236,"Ġã°ĭ":10237,"Ġà«¨":10238,"Ġà«½":10239,"Ġà«ı":10240,"Ġà«Ł":10241,"Ġé«´":10242,"Ġé«į":10243,"ĠãĬ«":10244,"Ġê©·":10245,"Ġê©İ":10246,"Ġå°¤":10247,"Ġåİ¿":10248,"Ġåİģ":10249,"ĠåİĮ":10250,"ĠäĭĽ":10251,"Ġã¡ī":10252,"Ġã¡İ":10253,"ĠåŃ¡":10254,"Ġá«Ŀ":10255,"Ġç½±":10256,"Ġç½²":10257,"Ġç½·":10258,"Ġç½¹":10259,"Ġç½ķ":10260,"Ġæ¬ª":10261,"ĠçĨ´":10262,"ĠçĨµ":10263,"Ġå£į":10264,"Ġçĩ¼":10265,"Ġï³ķ":10266,"Ġà¬¢":10267,"Ġà¬·":10268,"Ġà¬º":10269,"ĠêĨı":10270,"ĠáĬ¯":10271,"ĠáĬľ":10272,"ĠïĲ°":10273,"ĠïĲ²":10274,"ĠïĲ¸":10275,"ĠïĲ¿":10276,"ĠïĲĻ":10277,"Ġáĸĭ":10278,"Ġáĭ¸":10279,"Ġáĵ¨":10280,"ĠáĵĢ":10281,"ĠáĵĪ":10282,"ĠãĸŃ":10283,"ĠêĪ³":10284,"Ġã¤£":10285,"Ġã¤Ĵ":10286,"Ġî¸®":10287,"Ġäĩį":10288,"Ġæ°Ĺ":10289,"Ġæł³":10290,"ĠæłĢ":10291,"Ġêģį":10292,"ĠãŃ¼":10293,"ĠãŃŃ":10294,"ĠåĤĳ":10295,"ĠïĢ§":10296,"ĠïĢ¬":10297,"ĠåĲĵ":10298,"Ġï´´":10299,"Ġáį¢":10300,"Ġãīī":10301,"Ġç¨¦":10302,"Ġá£Ħ":10303,"ĠéĲ½":10304,"Ġã¨ł":10305,"Ġãĩ±":10306,"Ġç³Ŀ":10307,"ĠáĮ¦":10308,"Ġè¹Ĵ":10309,"Ġîĸª":10310,"Ġîĸ·":10311,"Ġïľİ":10312,"Ġç£¶":10313,"ĠïĶĮ":10314,"Ġêł¾":10315,"Ġêłİ":10316,"Ġàµ°":10317,"Ġàµ¿":10318,"Ġàµħ":10319,"ĠéīĦ":10320,"Ġæ¢ł":10321,"Ġêĩ¼":10322,"ĠãĪ¿":10323,"Ġé¼Ħ":10324,"ĠáĻ¥":10325,"ĠáĻı":10326,"Ġã«Ģ":10327,"Ġã«Ĩ":10328,"Ġã«ı":10329,"Ġã«ĸ":10330,"Ġã«Ŀ":10331,"ĠéĤ¤":10332,"ĠéĤ¦":10333,"ĠéĤ¶":10334,"Ġê¯³":10335,"Ġê¯¼":10336,"Ġê¯ĩ":10337,"Ġáļ´":10338,"Ġå¨¦":10339,"Ġáīķ":10340,"Ġã¥Ĺ":10341,"ĠîĨ¦":10342,"ĠîĨī":10343,"ĠîĨĸ":10344,"Ġç«ĸ":10345,"Ġç«Ľ":10346,"Ġá¨«":10347,"Ġá¨Ĳ":10348,"ĠçĤŀ":10349,"ĠçĻĻ":10350,"ĠáĹ´":10351,"Ġæ¯ĭ":10352,"Ġæ¯ł":10353,"Ġç¬Ĳ":10354,"Ġáħµ":10355,"Ġáħ¿":10356,"Ġáħĳ":10357,"ĠáĨ¤":10358,"Ġáľ¤":10359,"ĠêĻ®":10360,"ĠêĻİ":10361,"Ġç¤¾":10362,"Ġà¼Ĳ":10363,"ĠïŃ¶":10364,"ĠïĽ±":10365,"Ġà³®":10366,"Ġà³¸":10367,"Ġéķª":10368,"Ġçĸĳ":10369,"Ġçĸķ":10370,"Ġåļİ":10371,"Ġê¦į":10372,"Ġê¢İ":10373,"Ġà©¹":10374,"Ġà©º":10375,"Ġà¯ķ":10376,"ĠáŃľ":10377,"ĠáŃŁ":10378,"Ġà·®":10379,"Ġà·ĩ":10380,"Ġê£º":10381,"Ġê£ı":10382,"Ġê¨¹":10383,"Ġï¬ı":10384,"ĠáĦĨáħ¨áĨ¨":10385,"ĠáĦĨáħ¨áĨ¯":10386,"ĠáĤ¨":10387,"ĠáĦĨáħ³áĨ°":10388,"Ġá¬ĩ":10389,"Ġà½Ł":10390,"Ġï«´":10391,"ĠáĦĨáħ©áĨ´":10392,"ĠáĦĨáħ©áĨµ":10393,"ĠáĦĨáħ©áĨŃ":10394,"ĠáĦĬáħ¯áĨª":10395,"ĠáĦħáħªáĨ¾":10396,"ĠáĦĥáħ§áĨ·":10397,"Ġâ·ĭ":10398,"ĠáŁĽ":10399,"ĠáĦħáħ«áĨ´":10400,"ĠáĦħáħ«áĨ¿":10401,"ĠáĦģáħ£áĨ¶":10402,"ĠáĦģáħ£áĨ½":10403,"ĠáĦģáħ£áĨ¾":10404,"ĠáĦĭáħ´áĨ®":10405,"ĠáĦĴáħµáĨ´":10406,"ĠáĦĴáħµáĨº":10407,"ĠáĦĳáħ¦áĨ¯":10408,"ĠáĦĳáħ¦áĨ¼":10409,"ĠáĦħáħ¤áĨ·":10410,"ĠáĦĭáħ³áĨª":10411,"ĠáĦģáħŃáĨ·":10412,"ĠáĦģáħŃáĨ¾":10413,"ĠáĦĢáħ®áĨ©":10414,"ĠáĦĮáħŃáĨ²":10415,"ĠáĦĳáħ¨áĨ¨":10416,"ĠáĦĳáħ¨áĨ©":10417,"ĠáĦĥáħ©áĨ®":10418,"ĠáĦĥáħ©áĨ»":10419,"ĠáĦįáħŃáĨº":10420,"ĠáĦĬáħ¥áĨµ":10421,"ĠáĦĬáħ¥áĨ»":10422,"ĠáĦĮáħ®áĨ®":10423,"ĠáĦĮáħ®áĨ±":10424,"ĠáĦĬáħ§áĨ²":10425,"Ġï¸Ĵ":10426,"ĠáĦģáħ¤áĨŃ":10427,"ĠáĦħáħµáĨ²":10428,"ĠáĦĢáħ°áĨ«":10429,"ĠáĦĢáħ°áĨ°":10430,"ĠáĦĢáħ°áĨ´":10431,"ĠáĦģáħ¦áĨ¨":10432,"ĠáĦĪáħ¦áĨ¹":10433,"ĠáĦĮáħµáĨ¶":10434,"ĠáĦįáħ¯áĨª":10435,"ĠáĦįáħ¯áĨ»":10436,"ĠáĦĨáħ±áĨ©":10437,"ĠáĦĨáħ±áĨ¼":10438,"ĠáĦĥáħªáĨ½":10439,"ĠáĦĴáħ³áĨº":10440,"ĠáĦĮáħ¢áĨ¨":10441,"ĠáĦĮáħ¢áĨŃ":10442,"ĠáĦĬáħ¤áĨ°":10443,"ĠáĦĬáħ¤áĨ³":10444,"ĠáĦħáħ´áĨ´":10445,"ĠáĦħáħ´áĨ¿":10446,"ĠáĦĭáħµáĨ¬":10447,"ĠáĦĨáħ§áĨ¹":10448,"ĠáĦĨáħ§áĨ½":10449,"ĠáĦĭáħ¨áĨ¯":10450,"ĠáĦĢáħ¯áĨ¶":10451,"ĠáĦĢáħ¯áĨ¼":10452,"ĠáĦĬáħ³áĨ©":10453,"ĠáĦĬáħ³áĨ²":10454,"ĠáĦĥáħ¢áĨ¨":10455,"ĠáĦĥáħ¢áĨ¸":10456,"ĠáĦĩáħ²áĨ¯":10457,"ĠáĦĳáħŃáĨ¿":10458,"ĠáĦĨáħ´áĨ³":10459,"ĠáĦĩáħ±áĨ°":10460,"ĠáĦģáħªáĨ¶":10461,"ĠáĦİáħ©áĨµ":10462,"ĠáĦģáħ¥áĨ«":10463,"ĠáĦģáħ¥áĨ¾":10464,"ĠáĦİáħªáĨ´":10465,"ĠáĦĨáħ«áĨª":10466,"ĠáĦĨáħ«áĨ²":10467,"ĠáĦĨáħ«áĨ¿":10468,"ĠáĦĭáħ¢áĨ±":10469,"ĠáĦĪáħµáĨº":10470,"ĠáĦıáħ¬áĨ´":10471,"ĠáĦĨáħµáĨ»":10472,"ĠáĦĬáħ®áĨ±":10473,"ĠáĦĩáħ°áĨ¯":10474,"ĠáĦĴáħ¬áĨ¸":10475,"ĠáĦģáħ¢áĨ·":10476,"ĠáĦģáħ¢áĨ¾":10477,"ĠáĦĨáħŃáĨ±":10478,"ĠáĦĥáħ¥áĨ¿":10479,"ĠáĦĩáħ´áĨ¬":10480,"ĠáĦĩáħ´áĨ»":10481,"ĠáĦĦáħ®áĨº":10482,"ĠáĦĮáħ¡áĨ¼":10483,"ĠáĦįáħ«áĨ±":10484,"ĠáĦİáħ±áĨµ":10485,"ĠáĦĨáħ¤áĨ»":10486,"ĠáĦģáħ§áĨ°":10487,"ĠáĦģáħ§áĨ´":10488,"ĠáĦĭáħ¦áĨ«":10489,"ĠáĦĭáħ¦áĨ¼":10490,"ĠáĦĳáħ¤áĨ¿":10491,"ĠáĦĬáħ©áĨ´":10492,"ĠáĦĪáħŃáĨ¼":10493,"ĠáĦĭáħ£áĨ³":10494,"ĠáĦĥáħ³áĨ¬":10495,"ĠáĦĥáħ£áĨµ":10496,"ĠáĦĩáħ©áĨµ":10497,"ĠáĦĩáħ©áĨ¶":10498,"ĠáĦĩáħ¯áĨª":10499,"ĠáĦĩáħ¢áĨ²":10500,"ĠáĦĩáħ¢áĨ¿":10501,"ĠáĦĩáħ¢áĨŃ":10502,"ĠáĦīáħ£áĨº":10503,"ĠáĦīáħ£áĨ½":10504,"ĠáĦģáħ¡áĨ®":10505,"ĠáĦįáħ¬áĨ©":10506,"ĠáĦĳáħ¡áĨ«":10507,"ĠáĦĢáħ©áĨ¹":10508,"ĠáĦģáħ®áĨ®":10509,"ĠáĦħáħ¥áĨª":10510,"ĠáĦĭáħ±áĨ¬":10511,"ĠáĦĭáħ±áĨ±":10512,"ĠáĦİáħ¡áĨ¹":10513,"ĠáĦĥáħ²áĨ¾":10514,"ĠáĦĮáħ§áĨ¼":10515,"ĠáĦĳáħ©áĨ¸":10516,"ĠáĦĪáħ¢áĨ©":10517,"ĠáĦĬáħ±áĨµ":10518,"ĠáĦįáħ³áĨ±":10519,"ĠáĦģáħ°áĨµ":10520,"ĠáĦĳáħ³áĨ¨":10521,"ĠáĦĦáħŃáĨ¹":10522,"ĠáĦĮáħ¯áĨ¿":10523,"ĠáĦĮáħ¯áĨŃ":10524,"ĠáĦĳáħ£áĨ¾":10525,"ĠáĦĨáħ¯áĨ¬":10526,"ĠáĦĨáħ¥áĨ©":10527,"ĠáĦĮáħ´áĨ·":10528,"ĠáĦıáħ¨áĨ®":10529,"ĠáĦĬáħ¬áĨ¼":10530,"ĠáĦĬáħ¬áĨ¾":10531,"ĠáĦĨáħ¢áĨ¾":10532,"ĠáĦĮáħ©áĨ¶":10533,"ĠáĦĳáħ¬áĨ³":10534,"ĠáĦĪáħ£áĨ´":10535,"ĠáĦĢáħ¬áĨ¯":10536,"ĠáĦĲáħ¬áĨ»":10537,"ĠáĦĩáħ¤áĨ¶":10538,"ĠáĦİáħ¨áĨµ":10539,"ĠáĦįáħ¦áĨ¶":10540,"ĠáĦħáħ°áĨ©":10541,"ĠáĦħáħ°áĨŃ":10542,"ĠáĦĢáħªáĨ¯":10543,"Ġà£į":10544,"ĠáĦĳáħ²áĨ«":10545,"ĠáĦĪáħ¯áĨ¼":10546,"ĠáĦıáħ²áĨµ":10547,"ĠáĦĨáħ®áĨª":10548,"ĠáĦĭáħ¡áĨ°":10549,"ĠáĦīáħ¥áĨ¯":10550,"ĠáĦıáħŃáĨª":10551,"ĠáĦĭáħ©áĨ»":10552,"ĠáĦīáħ¬áĨº":10553,"ĠáĦĦáħ¨áĨ»":10554,"ĠáĦĲáħ¡áĨ¼":10555,"ĠáĦĲáħªáĨ½":10556,"ĠáĦıáħ«áĨ¬":10557,"ĠáĦıáħ«áĨŃ":10558,"ĠáĦĩáħŃáĨ±":10559,"ĠáĦĨáħ£áĨ·":10560,"ĠáĦħáħ¯áĨª":10561,"ĠáĦģáħ¨áĨ¨":10562,"ĠáĦĭáħ¤áĨµ":10563,"ĠáĦĭáħ¤áĨ¹":10564,"ĠáĦĳáħ¯áĨ´":10565,"ĠáĦĴáħ¥áĨŃ":10566,"ĠáĦħáħ¦áĨ¬":10567,"ĠáĦħáħ¦áĨ¯":10568,"ĠáĦĮáħ¦áĨ³":10569,"ĠáĦīáħ«áĨ°":10570,"ĠáĦħáħ§áĨ½":10571,"ĠáĦįáħ©áĨª":10572,"ĠáĦĢáħ¢áĨª":10573,"ĠáĦĢáħ¤áĨ¯":10574,"ĠáĦĭáħªáĨµ":10575,"ĠáĦħáħ±áĨ®":10576,"ĠáĦĢáħ¡áĨ©":10577,"ĠáĦĢáħ¨áĨ©":10578,"ĠáĦĳáħ¢áĨ²":10579,"ĠáĦĩáħ¦áĨ°":10580,"ĠáĦįáħ¢áĨ¯":10581,"ĠáĦīáħ¡áĨ®":10582,"ĠáĦĤáħ£áĨµ":10583,"ĠáĦĮáħ°áĨ½":10584,"ĠáĦĢáħ£áĨª":10585,"ĠáĦĴáħ¡áĨ½":10586,"ĠáĦĭáħ¥áĨ±":10587,"ĠáĦīáħµáĨŃ":10588,"ĠáĦİáħ¦áĨµ":10589,"ĠáĦİáħ¦áĨ¾":10590,"ĠáĦĳáħªáĨº":10591,"ĠáĦİáħ´áĨ©":10592,"ĠáĦİáħ´áĨ²":10593,"ĠáĦĪáħ§áĨŃ":10594,"ĠáĦĦáħ¤áĨª":10595,"ĠáĦĦáħªáĨ¹":10596,"ĠáĦĲáħ´áĨ¬":10597,"ĠáĦĥáħ°áĨ¯":10598,"ĠáĦıáħ®áĨ·":10599,"ĠáĦĥáħ±áĨª":10600,"ĠáĦĲáħ°áĨª":10601,"ĠáĦĴáħ©áĨ¾":10602,"ĠáĦĲáħŃáĨ®":10603,"ĠáĦĴáħ®áĨ¾":10604,"ĠáĦĲáħ©áĨ°":10605,"ĠáĦĩáħ§áĨ½":10606,"Ġóį±":10607,"ĠðĿĺŃ":10608,"Ġá·¸":10609,"¡·":10610,"¢Ļ":10611,"£«":10612,"£±":10613,"£ĩ":10614,"¤ĭ":10615,"¦±":10616,"§«":10617,"§±":10618,"¨¢":10619,"¨¥":10620,"¨©":10621,"¨¬":10622,"¨ĳ":10623,"©¹":10624,"©Ī":10625,"ªĽ":10626,"«ı":10627,"«Ń":10628,"¬µ":10629,"¯Ł":10630,"°¶":10631,"±ı":10632,"³»":10633,"´½":10634,"´Ŀ":10635,"µ¦":10636,"µ©":10637,"¶§":10638,"·¡":10639,"¸µ":10640,"¸¹":10641,"¸ĭ":10642,"¹§":10643,"¹µ":10644,"¹»":10645,"¹Ļ":10646,"ºŀ":10647,"»±":10648,"»µ":10649,"»º":10650,"»Ķ":10651,"¼®":10652,"¼Ĳ":10653,"¼ĵ":10654,"¼Ł":10655,"½Ī":10656,"¾£":10657,"¾²":10658,"¾¹":10659,"¾Ĳ":10660,"¾ļ":10661,"¿¤":10662,"¿Ĭ":10663,"ģ¨":10664,"ģľ":10665,"Ĥ¬":10666,"ĤĬ":10667,"ĤĶ":10668,"Ĥĸ":10669,"ĥĺ":10670,"Ħİ":10671,"ĦĻ":10672,"ħ£":10673,"ħĨ":10674,"ħļ":10675,"Ĩ©":10676,"ĩ®":10677,"ĩħ":10678,"Ī¤":10679,"Ī¨":10680,"Ī¯":10681,"Īĭ":10682,"ī¶":10683,"ī¾":10684,"Ĭ¼":10685,"ĬĲ":10686,"ĭ§":10687,"ĭ©":10688,"ĭĭ":10689,"ĭŁ":10690,"Įľ":10691,"įĳ":10692,"İ¢":10693,"İ»":10694,"İ¼":10695,"İ¿":10696,"İĿ":10697,"ıµ":10698,"ı¿":10699,"ıĩ":10700,"Ĳ£":10701,"ĳ¯":10702,"ĳģ":10703,"ĵ«":10704,"ĵ¶":10705,"ĶĨ":10706,"ĶĬ":10707,"ĶĲ":10708,"Ĺ»":10709,"Ĺı":10710,"ĺ¤":10711,"ĺ¦":10712,"Ļ¨":10713,"Ļµ":10714,"ļ¦":10715,"ļĬ":10716,"Ľĭ":10717,"ĽĻ":10718,"ŀĺ":10719,"Ł¼":10720,"ł¾":10721,"łĸ":10722,"Ń·":10723,"Ńı":10724,"ŃŁ":10725,"Ġï¿¡":10726,"Ġï¿«":10727,"Ġï¿µ":10728,"Ġï¿ħ":10729,"Ġï¿į":10730,"ĠâĢµ":10731,"ĠâĻµ":10732,"ĠâĻĩ":10733,"ĠâĻķ":10734,"Ġâĸ©":10735,"Ġâĸ®":10736,"ĠâĸĽ":10737,"ĠáĦĨáħ¦áĩĤ":10738,"ĠáĦĨáħ«áĩģ":10739,"ĠáĦĨáħ´áĩĤ":10740,"ĠáĦĨáħ¥áĩĢ":10741,"ĠáĦĬáħ®":10742,"ĠáĦĬáħ©áĩĤ":10743,"ĠáĦĬáħ§áĩģ":10744,"ĠáĦĬáħ´áĩģ":10745,"ĠáĦħáħ©áĩĤ":10746,"ĠáĦħáħ«áĩģ":10747,"ĠáĦħáħµáĩģ":10748,"ĠáĦģáħ£":10749,"ĠáĦģáħ¯":10750,"ĠáĦģáħ¦áĩĤ":10751,"ĠáĦģáħ§áĩĢ":10752,"ĠáĦģáħ®áĩĢ":10753,"ĠáĦĭáħŃáĩģ":10754,"ĠáĦĭáħ±áĩģ":10755,"ĠáĦĭáħ¨áĩģ":10756,"ĠáĦĮáħ«áĩģ":10757,"ĠáĦĥáħ²":10758,"ĠáĦĥáħ³":10759,"ĠáĦĥáħ©áĩĤ":10760,"ĠáĦĢáħ¬":10761,"ĠáĦĢáħ¯áĩģ":10762,"ĠáĦįáħ¢":10763,"ĠáĦįáħŃáĩģ":10764,"ĠáĦĳáħ¨":10765,"ĠáĦĳáħ¯":10766,"ĠáĦĳáħ²":10767,"ĠáĦĳáħ«áĩĢ":10768,"ĠáĦĳáħ®áĩģ":10769,"ĠáĦĩáħ¡áĩĢ":10770,"ĠáĦĩáħ¨áĩĢ":10771,"ĠáĦĩáħ±áĩĤ":10772,"ĠáĦİáħ¨":10773,"ĠáĦİáħª":10774,"ĠáĦİáħ¯":10775,"ĠáĦİáħ«áĩĤ":10776,"ĠáĦİáħµáĩĤ":10777,"ĠáĦİáħ£áĩģ":10778,"ĠáĦİáħ¬áĩģ":10779,"ĠáĦİáħ£áĩĤ":10780,"ĠáĦĴáħ³áĩĤ":10781,"ĠáĦĴáħ¦áĩĤ":10782,"ĠáĦĴáħ²áĩģ":10783,"ĠáĦĴáħ¢áĩĢ":10784,"ĠáĦĴáħ©áĩģ":10785,"ĠáĦīáħµáĩĤ":10786,"ĠáĦĪáħ°áĩģ":10787,"ĠáĦıáħ£":10788,"ĠáĦıáħ§áĩģ":10789,"ĠáĦĦáħ®áĩĢ":10790,"ĠáĦĲáħ°áĩĢ":10791,"ĠáĦĤáħ´":10792,"ĠáĦĤáħ±áĩĢ":10793,"ĠâĦģ":10794,"Ġéĵ©":10795,"ĠéĵĦ":10796,"Ġéĵĸ":10797,"ĠâŁĬ":10798,"Ġâĺ¹":10799,"Ġâģĥ":10800,"Ġãıĭ":10801,"Ġçı¢":10802,"Ġçı¨":10803,"Ġçı®":10804,"Ġçıİ":10805,"ĠâĿī":10806,"ĠãŁ®":10807,"ĠãŁ¾":10808,"ĠãŁį":10809,"ĠãŁĿ":10810,"Ġâľ¥":10811,"ĠçŁĪ":10812,"ĠçŁĶ":10813,"ĠçŁķ":10814,"ĠïıĪ":10815,"Ġâ¥£":10816,"Ġâ¥§":10817,"Ġâ¥±":10818,"Ġâ¥¾":10819,"ĠäĴ¤":10820,"ĠäĴ¥":10821,"ĠäĴ·":10822,"ĠäĴ¿":10823,"ĠäĴĮ":10824,"ĠäĴĴ":10825,"Ġæĺ¤":10826,"Ġæĺı":10827,"ĠæĺĲ":10828,"Ġæĺĺ":10829,"ĠæĺŃ":10830,"ĠäĶ¼":10831,"ĠäĶı":10832,"ĠäĶĻ":10833,"ĠäĶľ":10834,"Ġã§¡":10835,"Ġã§¦":10836,"Ġã§¶":10837,"Ġã§¹":10838,"Ġã¢³":10839,"Ġã¢·":10840,"Ġã¢Ł":10841,"ĠæĿ¼":10842,"ĠæĿĨ":10843,"ĠæĿĴ":10844,"Ġäĵ·":10845,"Ġäĵĩ":10846,"Ġäĵķ":10847,"Ġæģ®":10848,"Ġæģ±":10849,"ĠæģĢ":10850,"ĠæģĨ":10851,"ĠæģĲ":10852,"ĠæģĿ":10853,"Ġæģł":10854,"Ġã·°":10855,"Ġã·±":10856,"Ġã·¸":10857,"Ġã·¿":10858,"Ġã·Ĳ":10859,"ĠâĨģ":10860,"ĠâĨŀ":10861,"Ġã²¬":10862,"Ġã²Ķ":10863,"Ġã²Ĺ":10864,"Ġã²Ŀ":10865,"Ġîı¢":10866,"Ġîıĥ":10867,"Ġîıĵ":10868,"Ġâį¤":10869,"Ġâįį":10870,"Ġâįĺ":10871,"ĠâįĻ":10872,"Ġãª¨":10873,"Ġãª¯":10874,"Ġãª¿":10875,"Ġãªķ":10876,"ĠãªĹ":10877,"ĠãªŃ":10878,"Ġéŀħ":10879,"Ġéŀĺ":10880,"Ġéŀľ":10881,"ĠîĴĢ":10882,"ĠîĴĵ":10883,"ĠíŁ®":10884,"ĠíŁĸ":10885,"ĠíŁļ":10886,"Ġç·µ":10887,"Ġç·¾":10888,"ĠäĿ·":10889,"ĠäĿı":10890,"ĠäĿĸ":10891,"ĠäĿĺ":10892,"Ġçİ»":10893,"Ġçİŀ":10894,"Ġäľ¤":10895,"ĠæĴĨ":10896,"Ġã¿³":10897,"Ġã¿Ļ":10898,"Ġã¿ŀ":10899,"Ġã¯¯":10900,"Ġã¯ŀ":10901,"ĠîŁª":10902,"ĠîŁ·":10903,"ĠîŁ¼":10904,"ĠîŁĲ":10905,"ĠîŁĳ":10906,"ĠäŁ¤":10907,"ĠäŁº":10908,"ĠäŁ¼":10909,"ĠäŁį":10910,"ĠäŁĲ":10911,"Ġæį¾":10912,"Ġæįĳ":10913,"ĠîĿª":10914,"ĠîĿµ":10915,"ĠîĿ¹":10916,"Ġæľª":10917,"Ġæľ²":10918,"Ġæľ¾":10919,"Ġæľ¿":10920,"ĠæľĪ":10921,"ĠæľĲ":10922,"Ġæľĵ":10923,"Ġãŀ£":10924,"ĠãŀŃ":10925,"Ġãºº":10926,"Ġãºģ":10927,"Ġãºħ":10928,"ĠãºĽ":10929,"Ġéİ¾":10930,"Ġéİĥ":10931,"Ġéİħ":10932,"ĠãģĬ":10933,"Ġçº¥":10934,"Ġçº¨":10935,"Ġçºģ":10936,"ĠéŁı":10937,"ĠéŁŃ":10938,"Ġïŀ¼":10939,"ĠïŀĨ":10940,"Ġïŀĩ":10941,"Ġïŀľ":10942,"Ġäı¨":10943,"ĠäıĻ":10944,"Ġæĵ´":10945,"ĠæĵĻ":10946,"ĠêĴĤ":10947,"ĠêĴĴ":10948,"ĠæĹ¦":10949,"Ġäĳª":10950,"Ġäĳ³":10951,"ĠäĳĮ":10952,"ĠäĳĶ":10953,"ĠäĳĻ":10954,"Ġâķ®":10955,"Ġäį¡":10956,"Ġäį¬":10957,"ĠäįĪ":10958,"ĠâĹ¤":10959,"ĠâĹ¶":10960,"ĠâĹ·":10961,"ĠâĹĪ":10962,"ĠâĹĻ":10963,"Ġå¾²":10964,"Ġå¾¹":10965,"Ġå¾½":10966,"Ġå¾Ī":10967,"Ġá¢±":10968,"Ġá¢³":10969,"Ġá¢ĳ":10970,"Ġá¢Ķ":10971,"Ġá¢Ĺ":10972,"Ġá¢ŀ":10973,"Ġá¢Ń":10974,"Ġâĵ®":10975,"ĠâĵĪ":10976,"Ġâĵī":10977,"Ġâĵļ":10978,"ĠçĦ¶":10979,"ĠçĦ¸":10980,"ĠçĦĤ":10981,"ĠçĦļ":10982,"ĠçĦľ":10983,"ĠçĶĨ":10984,"ĠçĶĩ":10985,"ĠçĶŀ":10986,"Ġæĸ¾":10987,"ĠæĸĶ":10988,"Ġá§´":10989,"Ġá§¿":10990,"Ġéº¥":10991,"Ġéºª":10992,"Ġéº½":10993,"ĠéºŃ":10994,"Ġé¾¯":10995,"Ġé¾Ħ":10996,"Ġé¾Ĳ":10997,"Ġé¾ĵ":10998,"Ġé¾ĸ":10999,"Ġîĵ£":11000,"Ġîĵ«":11001,"Ġîĵİ":11002,"Ġîĵĳ":11003,"Ġãĳĥ":11004,"Ġãĵ¨":11005,"ĠãĵĮ":11006,"ĠãĵĽ":11007,"Ġâ£°":11008,"Ġâ£Ķ":11009,"Ġéı®":11010,"Ġéı¼":11011,"Ġéıħ":11012,"ĠéıĬ":11013,"ĠêĿŀ":11014,"Ġá¦§":11015,"Ġá¦¸":11016,"Ġá¦ļ":11017,"Ġç²¸":11018,"Ġç²¹":11019,"Ġç²ī":11020,"Ġç²ı":11021,"Ġç²Ķ":11022,"Ġç²ĺ":11023,"Ġç¿´":11024,"Ġç¿¼":11025,"Ġç¿½":11026,"Ġç¿Ī":11027,"Ġï¢¨":11028,"Ġï¢ª":11029,"Ġï¢º":11030,"Ġï¢ħ":11031,"Ġï¢Ĩ":11032,"Ġî´¬":11033,"ĠîĻ¬":11034,"ĠîĻ¾":11035,"Ġè£¡":11036,"Ġè£¦":11037,"Ġè£Ĳ":11038,"Ġè£ĳ":11039,"Ġè£ŀ":11040,"Ġâŀ¦":11041,"Ġâŀ¾":11042,"Ġâŀī":11043,"ĠîŃ¤":11044,"ĠîŃ³":11045,"ĠîŃ¹":11046,"ĠîŃĢ":11047,"ĠîŃĤ":11048,"ĠîŃĮ":11049,"ĠîŃķ":11050,"ĠîŃĽ":11051,"Ġéļ§":11052,"Ġéļ¬":11053,"Ġéļı":11054,"Ġâıĥ":11055,"Ġäİ¾":11056,"Ġäİħ":11057,"Ġäİĵ":11058,"Ġæķħ":11059,"ĠæķŃ":11060,"Ġäĥ¯":11061,"Ġäĥ¸":11062,"Ġîľ¤":11063,"Ġîľ²":11064,"ĠîľĿ":11065,"ĠäĬĬ":11066,"ĠäĬį":11067,"Ġå±¯":11068,"Ġå±Ń":11069,"Ġä¸ı":11070,"ĠäĤĮ":11071,"Ġäºĩ":11072,"Ġî£¥":11073,"Ġî£¿":11074,"Ġî£ĭ":11075,"Ġî£ĳ":11076,"Ġî£ķ":11077,"Ġé´·":11078,"Ġé´½":11079,"Ġç¯§":11080,"Ġç¯º":11081,"Ġç¯Ŀ":11082,"ĠêŃ¿":11083,"ĠäĮģ":11084,"ĠäĮŃ":11085,"Ġï»ģ":11086,"Ġï»ĭ":11087,"ĠâīĮ":11088,"Ġâīį":11089,"ĠâīĲ":11090,"Ġäģ±":11091,"Ġäģ³":11092,"ĠäģĤ":11093,"Ġîį¹":11094,"Ġîįķ":11095,"Ġé»·":11096,"ĠãĦ¹":11097,"ĠãĦ¾":11098,"ĠãĦĢ":11099,"Ġî§¦":11100,"Ġî§¯":11101,"Ġî§Į":11102,"Ġé·¨":11103,"Ġé·©":11104,"Ġé·µ":11105,"Ġé·Ĵ":11106,"Ġèĺ»":11107,"ĠèĺĦ":11108,"ĠèĺĽ":11109,"ĠãĶ©":11110,"ĠãĶ®":11111,"ĠãĶĲ":11112,"Ġâħ·":11113,"Ġâħ¹":11114,"Ġâħ½":11115,"Ġâħħ":11116,"Ġâħķ":11117,"Ġï¯Ľ":11118,"ĠèĿ«":11119,"ĠèĿ½":11120,"ĠèĿĮ":11121,"ĠèĿı":11122,"ĠèĿĴ":11123,"Ġç§Ĭ":11124,"Ġç§Ĵ":11125,"Ġç§ĺ":11126,"ĠèŁ¨":11127,"ĠèŁ³":11128,"ĠèŁ´":11129,"ĠèŁį":11130,"ĠèŁĿ":11131,"Ġè«¿":11132,"Ġé¸ĥ":11133,"Ġâļ§":11134,"Ġâļ¼":11135,"ĠâļĽ":11136,"Ġäķ§":11137,"ĠäķĮ":11138,"ĠäķĶ":11139,"ĠäķĿ":11140,"ĠçĮ¨":11141,"ĠçĮ¯":11142,"ĠçĮĥ":11143,"ĠçĮĽ":11144,"Ġé®¼":11145,"Ġé®¾":11146,"Ġé®Ĭ":11147,"Ġé®ł":11148,"Ġé¶·":11149,"Ġé¶į":11150,"Ġé¶ĳ":11151,"ĠïŁĵ":11152,"Ġäŀª":11153,"Ġäŀº":11154,"Ġäŀ½":11155,"ĠäĲ¹":11156,"ĠäĲĸ":11157,"ĠäĲĺ":11158,"ĠäĲŃ":11159,"ĠæħŃ":11160,"Ġã»±":11161,"Ġã»¼":11162,"Ġã»į":11163,"Ġâ¶©":11164,"Ġâ¶¾":11165,"Ġâ¶ĩ":11166,"Ġâ¶Ĭ":11167,"Ġâ¶Ń":11168,"Ġâĩ·":11169,"ĠâĩĦ":11170,"Ġâĩļ":11171,"Ġî¥³":11172,"Ġî¥¶":11173,"Ġî¥¾":11174,"Ġî¥¿":11175,"ĠæĢĬ":11176,"ĠæĢľ":11177,"ĠéĻĭ":11178,"Ġæ·¢":11179,"Ġæ·¦":11180,"Ġæ·¸":11181,"Ġæ·ł":11182,"Ġé¢²":11183,"Ġé¢ĭ":11184,"Ġã¸®":11185,"Ġã¸ĩ":11186,"Ġã¸Į":11187,"Ġã¦¬":11188,"Ġã¦¯":11189,"Ġã¦ĵ":11190,"Ġå»¿":11191,"Ġå»Ģ":11192,"Ġå»ĩ":11193,"Ġæĳ®":11194,"Ġæĳ±":11195,"Ġæĳ½":11196,"Ġæĳī":11197,"Ġæĳł":11198,"ĠïĬ´":11199,"ĠïĬĨ":11200,"ĠïĬķ":11201,"ĠïĬŃ":11202,"Ġï½ī":11203,"Ġï½ĵ":11204,"ĠïĴ«":11205,"ĠïĴĪ":11206,"ĠïĴĭ":11207,"Ġîŀ¦":11208,"Ġîŀ¯":11209,"Ġîŀĸ":11210,"ĠîŀĿ":11211,"Ġã¶±":11212,"Ġã¶į":11213,"Ġã¶ľ":11214,"Ġîķ¢":11215,"Ġîķ¥":11216,"Ġîķķ":11217,"Ġã¾ī":11218,"Ġã¾Ĺ":11219,"ĠæŁ£":11220,"ĠæŁļ":11221,"Ġî¯¥":11222,"Ġî¯İ":11223,"Ġî¯ĳ":11224,"Ġî¯ĸ":11225,"Ġî¯ļ":11226,"Ġâ»¯":11227,"Ġâ»·":11228,"Ġâ»ĭ":11229,"ĠïĤ´":11230,"ĠïĤĢ":11231,"ĠïĤĥ":11232,"ĠïĤį":11233,"ĠïĤŁ":11234,"ĠâĶ§":11235,"ĠâĶ²":11236,"ĠâĶ¶":11237,"ĠâĶĥ":11238,"ĠâĶı":11239,"ĠéµĿ":11240,"ĠéĮ¶":11241,"ĠéĮĲ":11242,"Ġåº£":11243,"Ġåº¯":11244,"Ġåº°":11245,"ĠåºĬ":11246,"Ġæ¸¹":11247,"Ġæ¸¼":11248,"ĠâĭĮ":11249,"Ġâĭį":11250,"Ġâĭı":11251,"ĠæĻ¶":11252,"ĠæĻ¸":11253,"ĠæĻł":11254,"ĠïĨ¢":11255,"ĠïĨ¼":11256,"ĠïĨ¾":11257,"ĠïĨĵ":11258,"ĠïĨŃ":11259,"Ġæ´±":11260,"Ġæ´¿":11261,"Ġæ´İ":11262,"Ġæ´ĳ":11263,"ĠæĲ²":11264,"ĠæĲ¶":11265,"ĠæĲį":11266,"ĠæĲĺ":11267,"ĠæĲŁ":11268,"Ġå¶Ĥ":11269,"Ġå¶Ļ":11270,"Ġå¶ŀ":11271,"Ġæ¾±":11272,"Ġæ¾¹":11273,"Ġæ¾Ļ":11274,"Ġî«»":11275,"Ġî«Ĵ":11276,"Ġî«Ł":11277,"Ġî«Ń":11278,"Ġåµ·":11279,"Ġåµ¾":11280,"Ġåµķ":11281,"ĠåµĻ":11282,"Ġêĵº":11283,"Ġêĵ¿":11284,"ĠêĵĴ":11285,"Ġâİ¶":11286,"Ġâİį":11287,"Ġæļª":11288,"ĠäĻ¨":11289,"ĠäĻ¬":11290,"Ġåķģ":11291,"Ġâ¹½":11292,"Ġäĺ»":11293,"ĠäĺĮ":11294,"ĠäĺĲ":11295,"ĠäĺĴ":11296,"ĠäĺĽ":11297,"Ġæŀ£":11298,"Ġæŀ®":11299,"Ġæŀ±":11300,"ĠæŀĮ":11301,"ĠæŀĽ":11302,"Ġåħ§":11303,"Ġåħ¨":11304,"ĠåħĢ":11305,"Ġä¨§":11306,"Ġä¨¿":11307,"Ġä¨Ĭ":11308,"Ġä¨ĸ":11309,"Ġä¨Ľ":11310,"Ġæµķ":11311,"Ġæ¹Ħ":11312,"Ġæ¹ľ":11313,"Ġæ¹ł":11314,"Ġæ»Ħ":11315,"Ġâº¦":11316,"Ġîİ§":11317,"Ġîİª":11318,"Ġîİ«":11319,"Ġîİ¿":11320,"Ġîİī":11321,"ĠîİĮ":11322,"Ġîİŀ":11323,"Ġéĥ´":11324,"Ġéĥł":11325,"Ġâ§´":11326,"Ġâ§¶":11327,"Ġïģĸ":11328,"Ġä¢¦":11329,"Ġä¢Ģ":11330,"Ġä¢İ":11331,"Ġèº¾":11332,"ĠâĲ£":11333,"ĠâĲ¥":11334,"ĠâĲ®":11335,"ĠâĲĪ":11336,"Ġè§°":11337,"Ġè§ŀ":11338,"Ġçĳ£":11339,"Ġçĳķ":11340,"Ġçľ£":11341,"Ġçľ¨":11342,"Ġçľį":11343,"Ġçľĵ":11344,"Ġè´¹":11345,"Ġè´º":11346,"Ġè´Ĳ":11347,"ĠêĸĶ":11348,"Ġáª¡":11349,"Ġáªį":11350,"ĠáªŁ":11351,"Ġî®¤":11352,"Ġî®§":11353,"Ġî®®":11354,"Ġî®ı":11355,"Ġî®ļ":11356,"Ġî®ľ":11357,"Ġå§ĳ":11358,"Ġêļ¥":11359,"Ġêļ®":11360,"Ġêļ¼":11361,"ĠêļĦ":11362,"ĠéĿ»":11363,"Ġâ¾¯":11364,"Ġâ¾ĩ":11365,"Ġâ¾İ":11366,"Ġæ£¡":11367,"Ġæ£±":11368,"Ġæ£º":11369,"Ġæ£Ķ":11370,"Ġèı£":11371,"Ġèıĩ":11372,"ĠèıĹ":11373,"Ġâµµ":11374,"ĠâµŃ":11375,"Ġåı¸":11376,"Ġåıģ":11377,"Ġåıĥ":11378,"ĠåıĪ":11379,"Ġä±¸":11380,"Ġä±º":11381,"Ġä±¾":11382,"Ġê®¡":11383,"Ġê®°":11384,"Ġê®¼":11385,"Ġê®¿":11386,"Ġâ´ľ":11387,"Ġâ´Ł":11388,"Ġâ´Ń":11389,"Ġî¡¦":11390,"Ġî¡¨":11391,"Ġî¡¼":11392,"Ġî¡ı":11393,"Ġè®ª":11394,"Ġè®«":11395,"Ġè®Ľ":11396,"Ġè®Ń":11397,"ĠèĶĨ":11398,"ĠèĶĬ":11399,"ĠèĶķ":11400,"ĠèĶĺ":11401,"Ġá²´":11402,"Ġá²Ķ":11403,"ĠãĮ¬":11404,"ĠãĮĳ":11405,"ĠãĮĴ":11406,"Ġî¿°":11407,"Ġî¿²":11408,"Ġî¿İ":11409,"Ġî¿ı":11410,"Ġî¿Ĳ":11411,"Ġè¶¤":11412,"Ġè¶±":11413,"Ġè¶¾":11414,"Ġè¶ĸ":11415,"Ġæıª":11416,"ĠæıŁ":11417,"Ġéģ²":11418,"Ġéģ´":11419,"Ġéģĵ":11420,"Ġæ³¦":11421,"Ġæ³ª":11422,"Ġæ³ĭ":11423,"Ġæ³İ":11424,"Ġæ³ł":11425,"ĠéªĦ":11426,"Ġéªĳ":11427,"Ġçĵ¨":11428,"ĠçĵĴ":11429,"Ġçĵĵ":11430,"Ġçļ¼":11431,"Ġçļ¾":11432,"ĠçļĢ":11433,"Ġèį£":11434,"Ġèįª":11435,"Ġá¯į":11436,"Ġå¯¥":11437,"Ġå¯¼":11438,"Ġå¯Ĵ":11439,"Ġá±¬":11440,"Ġá±¹":11441,"Ġá±ħ":11442,"Ġá±ĵ":11443,"Ġæ±¾":11444,"Ġæ±ĥ":11445,"Ġç¢¦":11446,"Ġç¢Ĥ":11447,"Ġæ¶´":11448,"Ġæ¶Ģ":11449,"Ġæ¶Ĥ":11450,"Ġæ¶Į":11451,"Ġæ¶ĵ":11452,"Ġæ¶ĸ":11453,"Ġæ¶Ŀ":11454,"ĠîĬĲ":11455,"ĠîĬĳ":11456,"ĠîĬĺ":11457,"ĠîĬļ":11458,"ĠîĬĽ":11459,"ĠêŁ£":11460,"ĠêŁ¹":11461,"ĠêŁº":11462,"ĠêŁ¿":11463,"Ġïī³":11464,"Ġáı¦":11465,"Ġáıª":11466,"Ġáı«":11467,"ĠáıĢ":11468,"ĠáıĬ":11469,"ĠáıŁ":11470,"Ġäªī":11471,"ĠäªĲ":11472,"Ġäªĸ":11473,"ĠèĤ¥":11474,"ĠèĤī":11475,"ĠèĤĹ":11476,"Ġî¤¼":11477,"Ġî¤ĭ":11478,"Ġî¤ı":11479,"Ġèª¬":11480,"Ġèª´":11481,"Ġèªĩ":11482,"ĠèªĮ":11483,"Ġâ¤ī":11484,"Ġâ¤Ĭ":11485,"Ġâ¤İ":11486,"Ġâ¤Ĺ":11487,"Ġä¤¡":11488,"Ġä¤¢":11489,"Ġä¤Ĥ":11490,"Ġîĳ¦":11491,"Ġîĳ·":11492,"Ġîĳİ":11493,"ĠîĳĴ":11494,"ĠîĶ¶":11495,"Ġè¥³":11496,"Ġè¥·":11497,"Ġè¥ł":11498,"Ġèł°":11499,"Ġê§¡":11500,"Ġê§·":11501,"Ġä»¬":11502,"Ġç¹¯":11503,"Ġç¹Ľ":11504,"Ġç¹ł":11505,"Ġç¹Ń":11506,"Ġå¿º":11507,"Ġå¿ĩ":11508,"Ġå¿ļ":11509,"Ġåįı":11510,"ĠæĤĺ":11511,"Ġç¶¹":11512,"Ġç¶ł":11513,"Ġâĳ¢":11514,"Ġâĳ§":11515,"Ġâĳį":11516,"Ġâ²¯":11517,"ĠîĢ¡":11518,"ĠîĢª":11519,"ĠîĢĵ":11520,"ĠîĢŁ":11521,"ĠîĤļ":11522,"Ġå¥º":11523,"Ġå¥ļ":11524,"Ġå²µ":11525,"Ġå²º":11526,"Ġå²ļ":11527,"ĠäĦĪ":11528,"ĠäĦĴ":11529,"Ġï®¨":11530,"Ġï®´":11531,"Ġï®¼":11532,"Ġï®½":11533,"Ġâ¡¸":11534,"Ġâ¡¿":11535,"Ġäļ£":11536,"Ġäļ¤":11537,"Ġäļ·":11538,"Ġäļº":11539,"Ġäļį":11540,"Ġäļĺ":11541,"Ġä£¨":11542,"Ġä£²":11543,"Ġçĥ§":11544,"Ġçĥ»":11545,"Ġâ±ª":11546,"Ġâ±¯":11547,"Ġä¥ª":11548,"Ġä¥«":11549,"Ġä¥¾":11550,"Ġä¥Ĥ":11551,"Ġæ§¦":11552,"Ġæ§¯":11553,"Ġæ§¿":11554,"Ġæ§ĸ":11555,"Ġîģĥ":11556,"ĠîģĬ":11557,"Ġîģł":11558,"Ġè©¢":11559,"Ġè©«":11560,"Ġè©¼":11561,"ĠèĻ©":11562,"ĠèĻĺ":11563,"Ġâª¶":11564,"Ġä¹¯":11565,"Ġä¹±":11566,"Ġä¹¹":11567,"Ġä¹¼":11568,"Ġä¹ĭ":11569,"Ġä¹ľ":11570,"Ġé¯Ģ":11571,"Ġé¯ģ":11572,"Ġâ¬³":11573,"Ġâ¬¶":11574,"Ġâ¬ĭ":11575,"Ġà¸¢":11576,"Ġè¯¿":11577,"Ġè¯ĥ":11578,"ĠâĽ¹":11579,"ĠâĽº":11580,"ĠâĽĮ":11581,"Ġä¬ĩ":11582,"Ġé¦§":11583,"Ġé¦Ĩ":11584,"ĠèħĤ":11585,"ĠèħĿ":11586,"ĠèħŃ":11587,"Ġå³į":11588,"Ġå³ĳ":11589,"Ġä§¯":11590,"Ġä§°":11591,"Ġä§¿":11592,"ĠäĢ«":11593,"Ġè¤¦":11594,"Ġè¤Ī":11595,"Ġêĺ»":11596,"ĠêĺĪ":11597,"Ġè±£":11598,"Ġè±¯":11599,"Ġè±±":11600,"Ġè±Ļ":11601,"Ġè±Ŀ":11602,"Ġè±Ń":11603,"Ġéĳģ":11604,"Ġä²Į":11605,"Ġä²Ł":11606,"ĠåĶ¹":11607,"ĠåĶı":11608,"ĠåĶĸ":11609,"ĠåĶļ":11610,"ĠêĬ¬":11611,"ĠêĬ¶":11612,"ĠêĬģ":11613,"ĠêĬĻ":11614,"ĠãĽĵ":11615,"ĠãĽĹ":11616,"ĠãĽļ":11617,"ĠèŃ©":11618,"ĠèŃ¾":11619,"Ġçķ£":11620,"Ġçķ´":11621,"Ġã¹ĩ":11622,"Ġã¹ł":11623,"Ġà´¬":11624,"Ġà´¯":11625,"Ġà´²":11626,"Ġà´Ĩ":11627,"Ġîĺī":11628,"Ġéł¥":11629,"ĠéłĻ":11630,"Ġçµ£":11631,"Ġçµ¼":11632,"ĠçµĬ":11633,"Ġâ°²":11634,"Ġâ°ĥ":11635,"Ġãµ²":11636,"Ġãµį":11637,"Ġàª¬":11638,"Ġàªŀ":11639,"ĠäĽı":11640,"ĠäĽĲ":11641,"Ġé½Ń":11642,"Ġè¾Ī":11643,"Ġä·¯":11644,"Ġä·±":11645,"ĠéĸĿ":11646,"ĠéĸŃ":11647,"Ġè·¬":11648,"Ġä°¾":11649,"Ġä°Ĥ":11650,"Ġä°ĥ":11651,"ĠãĿ¿":11652,"Ġêİ¸":11653,"ĠêİĦ":11654,"Ġêİĸ":11655,"Ġçªģ":11656,"ĠçªŃ":11657,"Ġå½Ħ":11658,"Ġå½ŀ":11659,"Ġïµ·":11660,"Ġïµı":11661,"Ġêĳ±":11662,"Ġêĳī":11663,"Ġä´°":11664,"Ġä´º":11665,"Ġè¨«":11666,"Ġè¨±":11667,"Ġè¨İ":11668,"Ġè¨Ĺ":11669,"Ġæ¥¸":11670,"Ġî±£":11671,"Ġî±Į":11672,"Ġé¹Ī":11673,"Ġâ½¿":11674,"Ġâ½Ł":11675,"Ġèģ¨":11676,"Ġèģİ":11677,"ĠèģĹ":11678,"Ġã±¥":11679,"Ġã±¦":11680,"Ġã±¿":11681,"Ġîłĥ":11682,"ĠîłĨ":11683,"Ġîłĩ":11684,"Ġèĵ¯":11685,"ĠãĤ¯":11686,"Ġèŀľ":11687,"ĠåĹĳ":11688,"Ġî¢³":11689,"Ġî¢¸":11690,"Ġçģ¯":11691,"Ġçģ¿":11692,"Ġæĭ¶":11693,"ĠéŃ¢":11694,"ĠéŃ¿":11695,"ĠêĹĩ":11696,"ĠêĹĸ":11697,"ĠêĹĽ":11698,"ĠáĽĽ":11699,"ĠáĽľ":11700,"ĠáĽŀ":11701,"Ġã´¦":11702,"Ġã´°":11703,"Ġæ¦į":11704,"Ġãħĳ":11705,"Ġãį½":11706,"Ġãį¾":11707,"Ġæ¡«":11708,"Ġæ¡±":11709,"Ġîħ³":11710,"ĠèĬ´":11711,"ĠåĿº":11712,"ĠåĿģ":11713,"Ġïķ®":11714,"Ġê¬ħ":11715,"Ġáµº":11716,"Ġáµĥ":11717,"ĠáµĿ":11718,"Ġè¡©":11719,"Ġè¡«":11720,"Ġêıµ":11721,"Ġêı»":11722,"Ġêıĸ":11723,"ĠïĸĨ":11724,"ĠïĸŁ":11725,"ĠèĦĤ":11726,"ĠèĦĬ":11727,"Ġâ³®":11728,"Ġâ³į":11729,"Ġâ³ŀ":11730,"Ġæ¨¸":11731,"Ġé°ī":11732,"Ġè¿º":11733,"Ġè¿Ĩ":11734,"Ġè¿Ŀ":11735,"Ġåª¢":11736,"Ġåªª":11737,"Ġåª·":11738,"Ġã©®":11739,"Ġã©¶":11740,"Ġã©Ĭ":11741,"Ġåĳ²":11742,"Ġåĳ¸":11743,"ĠåĬħ":11744,"ĠåĬİ":11745,"ĠåĬĽ":11746,"ĠêĮ¼":11747,"ĠêĮ¾":11748,"ĠêĮĬ":11749,"Ġêħĭ":11750,"ĠïĿ§":11751,"ĠïĿ¯":11752,"ĠïĿį":11753,"Ġäħ¦":11754,"Ġçį½":11755,"ĠèĲ¶":11756,"ĠèĲ¹":11757,"ĠèĲķ":11758,"Ġêĥĭ":11759,"Ġé¿¿":11760,"Ġé¿ļ":11761,"Ġéį¿":11762,"ĠèĢĭ":11763,"Ġå®¤":11764,"Ġå®¥":11765,"Ġå®³":11766,"Ġå®Ĭ":11767,"Ġå®Į":11768,"ĠæĨģ":11769,"ĠæĨĿ":11770,"ĠéľĬ":11771,"ĠéľŁ":11772,"Ġèļ¼":11773,"Ġèļ¾":11774,"Ġèļ¿":11775,"ĠèļĹ":11776,"ĠèļĽ":11777,"Ġê¡³":11778,"Ġê¡Ĩ":11779,"Ġâ¯ģ":11780,"Ġâ¯ħ":11781,"Ġâ¯Į":11782,"Ġâ¯Ŀ":11783,"ĠãĨ©":11784,"Ġà¨Ń":11785,"Ġä«ģ":11786,"Ġé¬Ĥ":11787,"Ġè¬¸":11788,"Ġè¬Ģ":11789,"Ġâ¦ĭ":11790,"Ġîĩ»":11791,"ĠîĩĻ":11792,"Ġà¹°":11793,"Ġà¹¶":11794,"Ġà¹¸":11795,"Ġà¹Ģ":11796,"Ġà¹ŀ":11797,"Ġî¬¨":11798,"Ġî¬¹":11799,"Ġî¬½":11800,"Ġéĩ°":11801,"Ġéĩ·":11802,"Ġéĩ»":11803,"Ġî©»":11804,"Ġî©¼":11805,"Ġï·ª":11806,"Ġï·»":11807,"Ġï·Ĥ":11808,"Ġï·ľ":11809,"Ġïĥ¾":11810,"Ġïĥİ":11811,"Ġî¦®":11812,"Ġî¦»":11813,"Ġî¦Ģ":11814,"Ġî¦ħ":11815,"Ġåľ»":11816,"Ġê¤¡":11817,"Ġê¤·":11818,"Ġê¤»":11819,"Ġê¤ħ":11820,"Ġê¤Ī":11821,"Ġê¤į":11822,"Ġê¤İ":11823,"Ġê¤ı":11824,"Ġï¼ī":11825,"Ġï¼ľ":11826,"ĠæŃĮ":11827,"ĠîīĤ":11828,"Ġîīĸ":11829,"ĠåĻ´":11830,"ĠåĻİ":11831,"Ġá¡º":11832,"Ġáķ»":11833,"ĠáķĻ":11834,"Ġî¼»":11835,"Ġî¼¾":11836,"Ġî¼İ":11837,"Ġî¼ĺ":11838,"Ġá´¿":11839,"Ġá´Ļ":11840,"Ġå¹·":11841,"ĠéĴķ":11842,"Ġâ¸¯":11843,"ĠáĶĨ":11844,"ĠáĶĮ":11845,"ĠáĶı":11846,"Ġæ½¥":11847,"Ġæ½¼":11848,"ĠêĶĤ":11849,"ĠêĶĺ":11850,"Ġä¶«":11851,"Ġãļ·":11852,"Ġè¦¢":11853,"Ġè¦ķ":11854,"Ġèīİ":11855,"Ġèīĳ":11856,"Ġäµ»":11857,"Ġäµĩ":11858,"ĠèĹ®":11859,"ĠäŃĳ":11860,"ĠæĮ¤":11861,"ĠæĮ±":11862,"ĠæĮĬ":11863,"Ġå´¶":11864,"Ġå´Ĳ":11865,"Ġå¼³":11866,"Ġå¼»":11867,"ĠéĹĽ":11868,"ĠêĦĴ":11869,"ĠêĦĵ":11870,"Ġà¶·":11871,"Ġà¶İ":11872,"Ġãľħ":11873,"Ġãľľ":11874,"ĠäīĦ":11875,"ĠäłĴ":11876,"Ġæ¼¹":11877,"Ġæ¼ī":11878,"Ġå·±":11879,"Ġïĳ½":11880,"Ġæĩ°":11881,"ĠèĮĶ":11882,"ĠåŁ¢":11883,"ĠåŁ¯":11884,"Ġîªı":11885,"Ġèµº":11886,"Ġåĺ©":11887,"ĠåĺĢ":11888,"ĠåĺĨ":11889,"Ġêª¥":11890,"Ġêª¬":11891,"Ġêª¯":11892,"Ġêªº":11893,"Ġêªĵ":11894,"Ġêªł":11895,"Ġè½¿":11896,"Ġè½Ľ":11897,"Ġèĩ¾":11898,"Ġèĩł":11899,"Ġâ©Ľ":11900,"Ġæī®":11901,"Ġæīĭ":11902,"Ġæīį":11903,"ĠîĮĩ":11904,"ĠîĮŁ":11905,"ĠæĦı":11906,"ĠåĭĹ":11907,"Ġãķ«":11908,"Ġãķ¯":11909,"Ġå¦¿":11910,"Ġå¦Ļ":11911,"Ġî³£":11912,"Ġîĥ¤":11913,"Ġîĥ§":11914,"Ġîĥ¸":11915,"Ġîĥł":11916,"ĠîĲģ":11917,"ĠîĲĥ":11918,"ĠåĽĺ":11919,"ĠêĽ¹":11920,"ĠêĽº":11921,"ĠêĽĦ":11922,"ĠêĽŁ":11923,"Ġæª¬":11924,"Ġç±¶":11925,"Ġç±ĸ":11926,"ĠïĮŁ":11927,"Ġç®Ł":11928,"Ġà¡¤":11929,"Ġà¡³":11930,"Ġà¡º":11931,"Ġà¡»":11932,"Ġà¡į":11933,"Ġç°¹":11934,"Ġåī°":11935,"Ġåīī":11936,"Ġï£¨":11937,"Ġï£³":11938,"Ġï£Ľ":11939,"Ġï£ł":11940,"Ġï²º":11941,"Ġâ¨»":11942,"Ġâ¨ĭ":11943,"Ġàº²":11944,"Ġàºĸ":11945,"Ġä¼§":11946,"Ġèĸ±":11947,"Ġèĸİ":11948,"Ġã¼ŀ":11949,"Ġî¨«":11950,"Ġî¨±":11951,"Ġç¡¼":11952,"Ġç¡¾":11953,"Ġç¡ħ":11954,"Ġê«¦":11955,"Ġê«ķ":11956,"Ġé£ķ":11957,"Ġéĭ¶":11958,"ĠéĭĴ":11959,"Ġç»Ļ":11960,"Ġèĥ£":11961,"ĠèĥĮ":11962,"Ġèĥı":11963,"Ġèĳ»":11964,"ĠåĢĹ":11965,"Ġà¦¢":11966,"Ġà¦¥":11967,"Ġä¯ŀ":11968,"ĠïĪŀ":11969,"ĠåĪ¸":11970,"Ġïł¨":11971,"Ġïł¶":11972,"ĠïłŁ":11973,"Ġà²¬":11974,"Ġà²Ĩ":11975,"ĠäĨ¶":11976,"ĠäĨģ":11977,"Ġè¸´":11978,"Ġè¸į":11979,"Ġä½¿":11980,"ĠçĿ§":11981,"ĠçĿ¸":11982,"ĠçĿł":11983,"ĠçĹ¼":11984,"ĠçĹĨ":11985,"Ġä¿Ĭ":11986,"Ġåĵ¤":11987,"Ġåĵ¶":11988,"Ġïħ£":11989,"Ġïħ¸":11990,"Ġïħ¾":11991,"Ġçīī":11992,"Ġï¶«":11993,"Ġï¶Ģ":11994,"Ġé¥Ĵ":11995,"Ġâ¢Ĭ":11996,"Ġâ®¿":11997,"Ġæ¿£":11998,"Ġæ¿Į":11999,"Ġæ¿Ĺ":12000,"Ġî¹¹":12001,"ĠéĨ©":12002,"ĠéĨº":12003,"Ġà»Ń":12004,"Ġç¸ĸ":12005,"Ġáĳĩ":12006,"Ġç¼¡":12007,"Ġç¼¤":12008,"Ġç¼º":12009,"Ġêī§":12010,"Ġêīĥ":12011,"Ġáĺ¹":12012,"Ġáĺĩ":12013,"ĠîĽĿ":12014,"Ġé¨ı":12015,"Ġé©¥":12016,"Ġé²®":12017,"Ġé²µ":12018,"Ġç¦£":12019,"ĠçĲ¤":12020,"ĠçĲ§":12021,"Ġï±¤":12022,"Ġï±±":12023,"Ġï±½":12024,"Ġï¹Ķ":12025,"Ġî¶ĸ":12026,"Ġãĭĵ":12027,"Ġî¾Ľ":12028,"Ġã³¶":12029,"Ġã³¿":12030,"Ġã³ī":12031,"ĠîĹª":12032,"ĠçĪ«":12033,"Ġê¥¤":12034,"Ġê¥ª":12035,"Ġê¥´":12036,"Ġê¥¸":12037,"Ġê¥º":12038,"Ġê¥¾":12039,"Ġê¥ħ":12040,"Ġê¥Ŀ":12041,"Ġã°Ļ":12042,"Ġà«ĵ":12043,"Ġé«¥":12044,"Ġé«Ģ":12045,"Ġé«Ĳ":12046,"ĠãĬİ":12047,"ĠãĬĶ":12048,"ĠãĬĹ":12049,"Ġå¡Ĩ":12050,"ĠéĬŃ":12051,"Ġê©¨":12052,"Ġê©¯":12053,"Ġê©°":12054,"Ġå°ī":12055,"Ġåİ«":12056,"ĠäĭĴ":12057,"ĠåŃİ":12058,"ĠáĲ¹":12059,"Ġç½¾":12060,"Ġç½ĩ":12061,"Ġç½ŀ":12062,"Ġæ¬²":12063,"Ġæ¬Ħ":12064,"Ġæ¬Ĵ":12065,"ĠæĶĵ":12066,"Ġå£«":12067,"Ġï³µ":12068,"Ġà¬¤":12069,"Ġà¬Ĳ":12070,"ĠêĨĭ":12071,"ĠêĨŀ":12072,"ĠáĬĴ":12073,"Ġéĺ¡":12074,"ĠïĲĦ":12075,"Ġà¢±":12076,"Ġà¢ŀ":12077,"Ġãĸ»":12078,"ĠãĸĴ":12079,"Ġãĸĺ":12080,"ĠîĪŁ":12081,"ĠäĸĤ":12082,"ĠêĪ¶":12083,"Ġã¤Ł":12084,"Ġè³¼":12085,"Ġè³ĳ":12086,"Ġç¥Ĳ":12087,"ĠïĦ´":12088,"Ġä¦Ļ":12089,"Ġäĩ¿":12090,"Ġæ°ĥ":12091,"Ġæł¼":12092,"Ġæłı":12093,"Ġî°²":12094,"Ġî°º":12095,"Ġáĩ§":12096,"Ġáĩ¾":12097,"Ġà®¡":12098,"Ġà®«":12099,"Ġà®®":12100,"Ġà®»":12101,"ĠãŃ¤":12102,"ĠãŃĢ":12103,"ĠåĤª":12104,"Ġé¡«":12105,"ĠïĢ®":12106,"ĠïĢ¿":12107,"ĠåĲ§":12108,"ĠåĲ©":12109,"ĠåĲ¯":12110,"ĠåĲı":12111,"Ġáįª":12112,"Ġáį¾":12113,"ĠáįĮ":12114,"Ġã¬®":12115,"Ġé³¼":12116,"Ġãīľ":12117,"Ġç¨Ĥ":12118,"Ġç¨ł":12119,"ĠåĴ«":12120,"Ġá£Ĭ":12121,"ĠéĲŁ":12122,"ĠåĨµ":12123,"ĠåĨ»":12124,"Ġã¨°":12125,"Ġã¨·":12126,"Ġã¨į":12127,"Ġãĩ¡":12128,"ĠãĩĦ":12129,"Ġãĩķ":12130,"ĠæĪ´":12131,"Ġîĭı":12132,"ĠåĮĲ":12133,"Ġç³§":12134,"ĠáĮĹ":12135,"Ġè¹§":12136,"Ġè¹į":12137,"ĠãĹģ":12138,"Ġîĸ´":12139,"ĠîĸĽ":12140,"Ġïľľ":12141,"ĠéĪ´":12142,"Ġç£ª":12143,"Ġå«Ŀ":12144,"ĠïĶ¢":12145,"Ġî²º":12146,"Ġàµ¹":12147,"ĠàµĿ":12148,"Ġä®ļ":12149,"Ġè²´":12150,"Ġè²Ħ":12151,"Ġè²ŀ":12152,"Ġè¼¯":12153,"ĠãĻĢ":12154,"ĠêĩĨ":12155,"Ġï¡·":12156,"ĠãĪĢ":12157,"Ġåģĺ":12158,"Ġãĺ±":12159,"Ġãĺı":12160,"ĠãĺŁ":12161,"Ġé¼«":12162,"Ġé¼¹":12163,"Ġåŀ³":12164,"ĠáĻ¶":12165,"ĠáĻĤ":12166,"ĠéĤį":12167,"ĠéĦģ":12168,"Ġå¨¤":12169,"Ġå¨ı":12170,"Ġã¥£":12171,"Ġã¥±":12172,"Ġá¥ŀ":12173,"Ġç«©":12174,"Ġâł¢":12175,"Ġá¨Ł":12176,"Ġá¨Ń":12177,"ĠáĹ³":12178,"Ġáł§":12179,"Ġç¬Ĥ":12180,"ĠáĿĳ":12181,"Ġçłŀ":12182,"Ġáħ¯":12183,"Ġáľĭ":12184,"ĠêĻģ":12185,"ĠêĻķ":12186,"ĠêĻŃ":12187,"Ġà¼¸":12188,"Ġà¼ĭ":12189,"ĠïŃ¦":12190,"ĠïŃĻ":12191,"Ġà³¾":12192,"Ġçĸ·":12193,"ĠïĻŁ":12194,"ĠçĺĨ":12195,"Ġáĥ¿":12196,"Ġà§¸":12197,"Ġà§ĵ":12198,"Ġáŀŀ":12199,"Ġà°ķ":12200,"Ġê¦Ŀ":12201,"ĠáĪ´":12202,"ĠàŃ¿":12203,"Ġà©·":12204,"Ġà©¿":12205,"ĠáŃ´":12206,"ĠáŃĳ":12207,"Ġà·º":12208,"Ġê£¾":12209,"Ġê£Į":12210,"Ġê£İ":12211,"Ġê¨Ĭ":12212,"Ġï¬¦":12213,"ĠáĦĨáħ¨áĨª":12214,"Ġà¥¨":12215,"Ġà±²":12216,"ĠáĤ¦":12217,"Ġá¤Ĥ":12218,"Ġá¬¬":12219,"Ġá¬ĳ":12220,"Ġà½Į":12221,"Ġï«µ":12222,"ĠáĦĨáħ©áĨ³":12223,"ĠáĦĨáħ©áĨ¾":12224,"Ġá°ĸ":12225,"ĠáĦĬáħ¯áĨ¸":12226,"ĠáĦħáħªáĨ¯":12227,"ĠáĢģ":12228,"ĠáĦĥáħ¨áĨ¶":12229,"Ġíŀ¤":12230,"Ġíŀ°":12231,"Ġíŀµ":12232,"Ġíŀ¾":12233,"ĠáĦĥáħ§áĨ¶":12234,"ĠáĦĥáħ§áĨ½":12235,"Ġá³Ĩ":12236,"Ġâ·ħ":12237,"Ġâ·Ĵ":12238,"ĠáŁ¡":12239,"ĠáĦĢáħ«áĨ©":12240,"ĠáĦħáħ«áĨ©":12241,"ĠáĦħáħ«áĨ«":12242,"ĠáĦģáħ£áĨ¼":12243,"ĠáĦĭáħ´áĨ±":12244,"ĠáĦĨáħ²áĨ¬":12245,"ĠáĦĨáħ²áĨ¯":12246,"ĠáĦĨáħ²áĨ´":12247,"ĠáĦħáħ¤áĨ´":12248,"ĠáĦĢáħ®áĨ«":12249,"ĠáĦĢáħ®áĨ®":12250,"ĠáĦĢáħ®áĨ²":12251,"ĠáĦĢáħ®áĨµ":12252,"ĠáĦĮáħŃáĨ«":12253,"ĠáĦĮáħŃáĨ·":12254,"ĠáĦĮáħŃáĨ¿":12255,"ĠáĦĳáħ§áĨ¨":12256,"ĠáĦĳáħ§áĨ¯":12257,"ĠáĦĥáħ©áĨ¯":12258,"ĠáĦĥáħ¦áĨ¹":12259,"ĠáĦĴáħ´áĨ³":12260,"ĠáĦĴáħ´áĨ·":12261,"ĠáĦįáħŃáĨ¯":12262,"ĠáĦĬáħ¥áĨ¨":12263,"ĠáĦĭáħ«áĨº":12264,"ĠáĦĮáħ®áĨª":12265,"ĠáĦĬáħ§áĨ±":12266,"Ġï¸¶":12267,"ĠáĦģáħ¤áĨ«":12268,"ĠáĦģáħ¤áĨ·":12269,"ĠáĦģáħ¦áĨ¬":12270,"ĠáĦģáħ¦áĨ¸":12271,"ĠáĦģáħ¦áĨ¾":12272,"ĠáĦĪáħ¦áĨ±":12273,"ĠáĦģáħ«áĨ±":12274,"ĠáĦģáħ«áĨ½":12275,"ĠáĦĮáħµáĨŃ":12276,"ĠáĦįáħ¯áĨ¨":12277,"ĠáĦįáħ¯áĨ±":12278,"ĠáĦįáħ¯áĨ·":12279,"ĠáĦįáħ¯áĨ¼":12280,"ĠáĦĨáħ±áĨª":12281,"ĠáĦĴáħ³áĨ¬":12282,"ĠáĦĴáħ³áĨ®":12283,"ĠáĦĮáħ¬áĨ´":12284,"ĠáĦĮáħ¬áĨ¹":12285,"ĠáĦĢáħ¥áĨª":12286,"ĠáĦĢáħ¥áĨ¯":12287,"ĠáĦĢáħ¥áĨ±":12288,"ĠáĦįáħ®áĨ¹":12289,"ĠáĦİáħ£áĨ©":12290,"ĠáĦİáħ£áĨ·":12291,"ĠáĦĮáħ¢áĨª":12292,"ĠáĦĮáħ¢áĨ¼":12293,"ĠáĦĬáħ¤áĨ¬":12294,"ĠáĦĭáħ¨áĨ²":12295,"ĠáĦĭáħ¨áĨ¸":12296,"ĠáĦįáħ±áĨ¬":12297,"ĠáĦįáħ±áĨ°":12298,"ĠáĦīáħ²áĨ¶":12299,"ĠáĦĥáħ¢áĨ¼":12300,"ĠáĦĦáħ°áĨ²":12301,"ĠáĦĦáħ°áĨ¼":12302,"ĠáĦĳáħŃáĨ°":12303,"ĠáĦħáħ¢áĨ¬":12304,"ĠáĦģáħªáĨµ":12305,"ĠáĦĭáħ®áĨ´":12306,"ĠáĦħáħ¬áĨª":12307,"ĠáĦģáħ¥áĨ²":12308,"ĠáĦģáħ¥áĨ¼":12309,"ĠáĦİáħªáĨ¿":12310,"ĠáĦīáħ¤áĨ²":12311,"ĠáĦĢáħµáĨ¯":12312,"ĠáĦĢáħµáĨ°":12313,"ĠáĦĢáħµáĨ³":12314,"ĠáĦĢáħ²áĨ°":12315,"ĠáĦĢáħ²áĨµ":12316,"ĠáĦįáħ²áĨŃ":12317,"ĠáĦİáħ¬áĨª":12318,"ĠáĦİáħ¬áĨ½":12319,"ĠáĦģáħ¢áĨµ":12320,"ĠáĦĨáħŃáĨ¶":12321,"ĠáĦĨáħŃáĨ·":12322,"ĠáĦĨáħŃáĨ¼":12323,"ĠáĦĥáħ¥áĨ¾":12324,"ĠáĦĩáħ´áĨ·":12325,"ĠáĦĦáħ®áĨ±":12326,"ĠáĦĦáħ®áĨµ":12327,"ĠáĦıáħ£áĨ·":12328,"ĠáĦįáħ«áĨ¹":12329,"ĠáĦİáħ±áĨ©":12330,"ĠáĦİáħ±áĨ¹":12331,"ĠáĦİáħ±áĨ»":12332,"ĠáĦĨáħ¤áĨ¯":12333,"ĠáĦĨáħ¤áĨ°":12334,"ĠáĦĨáħ¤áĨ·":12335,"ĠáĦģáħ¯áĨ»":12336,"ĠáĦĪáħ¬áĨ¬":12337,"ĠáĦĪáħ¬áĨ²":12338,"ĠáĦģáħ§áĨ¹":12339,"ĠáĦĭáħ¦áĨ®":12340,"ĠáĦĬáħ©áĨ¯":12341,"ĠáĦĬáħ©áĨ·":12342,"ĠáĦĪáħŃáĨ«":12343,"ĠáĦĪáħŃáĨ¯":12344,"ĠáĦĪáħŃáĨ¾":12345,"ĠáĦĪáħªáĨ³":12346,"ĠáĦĪáħªáĨ¼":12347,"ĠáĦıáħ©áĨ±":12348,"ĠáĦģáħ³áĨ¶":12349,"ĠáĦģáħ¬áĨª":12350,"ĠáĦģáħ¬áĨ´":12351,"ĠáĦģáħ¬áĨ½":12352,"ĠáĦĩáħ¢áĨº":12353,"ĠáĦģáħ¡áĨ¬":12354,"ĠáĦįáħ¬áĨ»":12355,"ĠáĦĢáħ©áĨ¼":12356,"ĠáĦİáħµáĨ´":12357,"Ġâĥ´":12358,"ĠáĦĮáħ£áĨ³":12359,"ĠáĦĭáħŃáĨ«":12360,"ĠáĦĭáħŃáĨ¹":12361,"ĠáĦĭáħŃáĨŃ":12362,"ĠáĦĩáħªáĨ½":12363,"ĠáĦĥáħ²áĨµ":12364,"ĠáĦĥáħ²áĨ·":12365,"ĠáĦĥáħ²áĨ¸":12366,"ĠáĦĳáħ±áĨ·":12367,"ĠáĦĳáħ±áĨ¿":12368,"ĠáĦĮáħ§áĨ½":12369,"ĠáĦģáħ©áĨ²":12370,"ĠáĦģáħ©áĨ¾":12371,"ĠáĦĦáħ±áĨ´":12372,"ĠáĦĦáħ±áĨ¹":12373,"ĠáĦĪáħ¢áĨ´":12374,"ĠáĦĳáħ³áĨ·":12375,"ĠáĦĦáħŃáĨ¬":12376,"Ġá©İ":12377,"ĠáĦĳáħ£áĨ´":12378,"ĠáĦİáħ§áĨ¯":12379,"ĠáĦİáħ§áĨ´":12380,"ĠáĦİáħ¯áĨ»":12381,"ĠáĦīáħ¢áĨ©":12382,"ĠáĦīáħ¢áĨ¾":12383,"ĠáĦĨáħ¯áĨº":12384,"ĠáĦĨáħ¯áĨ¼":12385,"ĠáĦĨáħ¥áĨ®":12386,"ĠáĦĮáħ´áĨ¼":12387,"ĠáĦĮáħ´áĨ¾":12388,"ĠáĦĢáħŃáĨ¯":12389,"ĠáĦīáħ§áĨŃ":12390,"ĠáĦĬáħ¬áĨ¸":12391,"ĠáĦĨáħ¢áĨ·":12392,"ĠáĦħáħ³áĨŃ":12393,"ĠáĦĪáħ£áĨ³":12394,"ĠáĦĩáħ£áĨ·":12395,"ĠáĦįáħ¦áĨº":12396,"ĠáĦĴáħ¢áĨ¯":12397,"ĠáĦĴáħ¢áĨ³":12398,"ĠáĦĢáħªáĨ¾":12399,"ĠáĦĮáħ±áĨ»":12400,"ĠáĦĮáħ±áĨ¾":12401,"ĠáĦĥáħ¡áĨ®":12402,"ĠáĦĴáħŃáĨ«":12403,"ĠáĦĴáħŃáĨ»":12404,"ĠáĦĴáħ°áĨ©":12405,"ĠáĦĴáħ°áĨº":12406,"ĠáĦĲáħ±áĨª":12407,"ĠáĦĬáħ¡áĨ¿":12408,"ĠáĦĭáħ¡áĨ©":12409,"ĠáĦīáħ©áĨ¨":12410,"ĠáĦīáħ©áĨ´":12411,"ĠáĦīáħªáĨ¬":12412,"ĠáĦĭáħ©áĨ¼":12413,"ĠáĦĭáħ©áĨ½":12414,"ĠáĦĭáħ¯áĨ»":12415,"ĠáĦĦáħ¨áĨ©":12416,"ĠáĦĦáħ¨áĨª":12417,"ĠáĦįáħ¡áĨ»":12418,"ĠáĦĪáħ¡áĨ³":12419,"ĠáĦĪáħ¡áĨ½":12420,"ĠáĦįáħ¤áĨ¬":12421,"ĠáĦįáħ¤áĨ¶":12422,"ĠáĦĩáħŃáĨ¾":12423,"ĠáĦģáħ¨áĨ½":12424,"ĠáĦĭáħ§áĨ©":12425,"ĠáĦĭáħ¤áĨ²":12426,"ĠáĦĭáħ¤áĨ´":12427,"ĠáĦĳáħ«áĨª":12428,"ĠáĦĳáħ«áĨ¼":12429,"ĠáĦĴáħ¥áĨª":12430,"ĠáĦħáħ¦áĨ½":12431,"ĠáĦħáħ¦áĨ¾":12432,"ĠáĦĴáħ¤áĨ²":12433,"ĠáĦĴáħ¤áĨ¼":12434,"ĠáĦıáħ°áĨ·":12435,"ĠáĦĲáħ¥áĨª":12436,"ĠáĦĲáħ¥áĨ»":12437,"ĠáĦĢáħ¤áĨ´":12438,"ĠáĦĦáħ³áĨ©":12439,"ĠáĦĩáħ®áĨŃ":12440,"ĠáĦīáħ¦áĨ¾":12441,"ĠáĦīáħ¨áĨ¶":12442,"ĠáĦĦáħ²áĨº":12443,"ĠáĦħáħ±áĨº":12444,"ĠáĦĳáħ¢áĨŃ":12445,"ĠáĦĩáħ¦áĨµ":12446,"ĠáĦĥáħ®áĨµ":12447,"ĠáĦīáħ¡áĨ·":12448,"ĠáĦĦáħ´áĨ´":12449,"ĠáĦĦáħ´áĨ¼":12450,"ĠáĦĮáħ°áĨ¼":12451,"ĠáĦįáħµáĨ©":12452,"ĠáĦįáħµáĨ´":12453,"ĠáĦĳáħ°áĨ²":12454,"ĠáĦİáħ³áĨ¯":12455,"ĠáĦĪáħ®áĨ¯":12456,"ĠáĦħáħ©áĨª":12457,"ĠáĦĢáħ£áĨ²":12458,"ĠáĦİáħ¥áĨ¸":12459,"ĠáĦĭáħ¥áĨ«":12460,"ĠáĦĮáħ¤áĨ¯":12461,"ĠáĦĮáħ¤áĨ°":12462,"ĠáĦĴáħ²áĨ²":12463,"ĠáĦĴáħ£áĨ³":12464,"ĠáĦĴáħ£áĨ½":12465,"ĠáĦĦáħ¢áĨ¬":12466,"ĠáĦİáħ¦áĨŃ":12467,"ĠáĦĪáħ±áĨ²":12468,"ĠáĦıáħ¥áĨ¿":12469,"ĠáĦĦáħ¤áĨ¬":12470,"ĠáĦĲáħ®áĨ°":12471,"ĠáĦıáħµáĨ«":12472,"ĠáĦıáħµáĨ¶":12473,"ĠáĦİáħ¤áĨ¿":12474,"ĠáĦİáħ²áĨ°":12475,"ĠáĦİáħ²áĨ¹":12476,"ĠáĦĥáħ¬áĨ»":12477,"ĠáĦĴáħ¯áĨ·":12478,"ĠáĦĲáħ´áĨ¾":12479,"ĠáĦİáħ°áĨ¾":12480,"ĠáĦĦáħ¡áĨ¼":12481,"ĠáĦĪáħ¤áĨ±":12482,"ĠáĦĳáħ´áĨ½":12483,"ĠáĦĤáħ±áĨ«":12484,"ĠáĦĲáħŃáĨ°":12485,"ĠáĦħáħ²áĨ´":12486,"ĠáĦĴáħ§áĨ²":12487,"ĠáĦĩáħ¥áĨ¾":12488,"ĠáĦģáħ²áĨ±":12489,"Ġð¤ĭ®":12490,"Ġá½İ":12491,"Ġá»¾":12492,"¡ª":12493,"¡¬":12494,"¢¶":12495,"¢ĺ":12496,"¤¦":12497,"¤¾":12498,"¥¥":12499,"¥ª":12500,"¥µ":12501,"¥»":12502,"¥¿":12503,"¥ħ":12504,"¥į":12505,"¦§":12506,"¦¨":12507,"¦²":12508,"¦ģ":12509,"¦Ĵ":12510,"§§":12511,"§®":12512,"¨²":12513,"¨ı":12514,"¨ĵ":12515,"©ĥ":12516,"ªŀ":12517,"«¢":12518,"«§":12519,"«·":12520,"¬Ĩ":12521,"¬Ŀ":12522,"®³":12523,"®ĩ":12524,"¯Ģ":12525,"¯Ŀ":12526,"°ł":12527,"±º":12528,"±Ĥ":12529,"±Ľ":12530,"²¯":12531,"²²":12532,"³©":12533,"³ª":12534,"³¹":12535,"³Ĥ":12536,"´±":12537,"´Ħ":12538,"´Ĵ":12539,"µ¡":12540,"µ®":12541,"µ³":12542,"µĥ":12543,"¶¢":12544,"¶©":12545,"·¿":12546,"·Ģ":12547,"·ı":12548,"·ķ":12549,"¸ĥ":12550,"¹£":12551,"º¢":12552,"ºħ":12553,"ºĶ":12554,"ºŁ":12555,"»ª":12556,"»Ĵ":12557,"»Ł":12558,"¼Ģ":12559,"½µ":12560,"½ī":12561,"¾¢":12562,"¾§":12563,"¾¯":12564,"¾°":12565,"¾¾":12566,"¾Ĭ":12567,"¾Ķ":12568,"¿½":12569,"¿Ģ":12570,"¿Ī":12571,"¿ļ":12572,"¿Ľ":12573,"¿Ń":12574,"Ģİ":12575,"ĢĶ":12576,"ģ¡":12577,"ģ¬":12578,"Ĥ¯":12579,"Ĥ¹":12580,"ĤĴ":12581,"Ĥķ":12582,"ĥļ":12583,"ĦĴ":12584,"ĦĽ":12585,"ħĲ":12586,"ħĳ":12587,"ħĸ":12588,"ħĽ":12589,"Ĩĵ":12590,"ĩĩ":12591,"Ī´":12592,"ĪĪ":12593,"ĪŃ":12594,"ī¯":12595,"īĻ":12596,"Ĭ¯":12597,"Ĭ²":12598,"Ĭ³":12599,"ĬĨ":12600,"ĬĮ":12601,"Ĭĸ":12602,"ĭµ":12603,"ĭĿ":12604,"Į¢":12605,"Į¬":12606,"Įĺ":12607,"į·":12608,"įĢ":12609,"įŃ":12610,"İ´":12611,"İĻ":12612,"ı£":12613,"ı¥":12614,"ıª":12615,"ıĹ":12616,"Ĳ¨":12617,"ĳ§":12618,"ĳĴ":12619,"Ķ¶":12620,"Ķī":12621,"Ķı":12622,"ķ´":12623,"ĸ¦":12624,"ĸĬ":12625,"ĸį":12626,"ĸĹ":12627,"Ĺİ":12628,"ĹĽ":12629,"ĺĤ":12630,"Ļ¹":12631,"ĻĦ":12632,"ļŀ":12633,"Ľķ":12634,"Ľļ":12635,"Ľŀ":12636,"ľ¿":12637,"ľİ":12638,"ľĳ":12639,"ľĹ":12640,"Ŀ¿":12641,"Ŀį":12642,"ĿĲ":12643,"ŀ£":12644,"ŀ¦":12645,"ŀĬ":12646,"ŀĶ":12647,"ŁĪ":12648,"ŁĶ":12649,"ŁŁ":12650,"ĠâĢ¡":12651,"ĠâĻ´":12652,"Ġà¤³":12653,"Ġà¤ĭ":12654,"Ġâĸª":12655,"Ġâĸ»":12656,"ĠáĦĨáħ¯":12657,"ĠáĦĨáħ°áĩĤ":12658,"ĠáĦĨáħ£áĩĤ":12659,"ĠáĦĬáħ´áĩĢ":12660,"ĠáĦĬáħ¨áĩĤ":12661,"ĠáĦĬáħªáĩģ":12662,"ĠáĦħáħ¯áĩĤ":12663,"ĠáĦģáħ¡":12664,"ĠáĦģáħ®":12665,"ĠáĦģáħ¡áĩģ":12666,"ĠáĦģáħ®áĩĤ":12667,"ĠáĦĭáħ´áĩĤ":12668,"ĠáĦĮáħ¨":12669,"ĠáĦĮáħ«":12670,"ĠáĦĮáħŃ":12671,"ĠáĦĮáħ¯áĩĤ":12672,"ĠáĦĥáħ±áĩĢ":12673,"ĠáĦĢáħ®":12674,"ĠáĦĢáħ£áĩģ":12675,"ĠáĦĢáħ²áĩģ":12676,"ĠáĦĢáħ¤áĩģ":12677,"ĠáĦĢáħ´áĩĤ":12678,"ĠáĦĢáħ¨áĩĤ":12679,"ĠáĦĢáħ¬áĩĢ":12680,"ĠáĦįáħ±":12681,"ĠáĦįáħ«áĩĢ":12682,"ĠáĦįáħ¤áĩģ":12683,"ĠáĦįáħ²áĩĢ":12684,"ĠáĦĳáħ¦áĩĤ":12685,"ĠáĦĳáħ¡áĩģ":12686,"ĠáĦĩáħ¡":12687,"ĠáĦĩáħ³":12688,"ĠáĦĩáħ´":12689,"ĠáĦĩáħ«áĩĤ":12690,"ĠáĦĩáħ¢áĩģ":12691,"ĠáĦĩáħ®áĩĤ":12692,"ĠáĦİáħ¡áĩģ":12693,"ĠáĦİáħªáĩĢ":12694,"ĠáĦİáħ´áĩĤ":12695,"ĠáĦİáħ¬áĩĢ":12696,"ĠáĦĴáħ¤áĩĤ":12697,"ĠáĦīáħ¯áĩģ":12698,"ĠáĦīáħ¢áĩģ":12699,"ĠáĦīáħ¬áĩĤ":12700,"ĠáĦĪáħ±áĩĢ":12701,"ĠáĦĪáħ¤áĩĤ":12702,"ĠáĦĪáħ²áĩĢ":12703,"ĠáĦıáħ¢":12704,"ĠáĦıáħ¢áĩĤ":12705,"ĠáĦıáħ§áĩĢ":12706,"ĠáĦıáħ¤áĩģ":12707,"ĠáĦıáħ¥áĩĤ":12708,"ĠáĦıáħ¦áĩĢ":12709,"ĠáĦĦáħµ":12710,"ĠáĦĦáħ¢áĩĤ":12711,"ĠáĦĦáħ´áĩĢ":12712,"ĠáĦĦáħ©áĩģ":12713,"ĠáĦĲáħ¡":12714,"ĠáĦĲáħ¡áĩĢ":12715,"ĠáĦĲáħµáĩģ":12716,"ĠáĦĤáħ¦áĩĤ":12717,"ĠâĪ°":12718,"ĠâĪķ":12719,"ĠâĦ¶":12720,"ĠâŁĩ":12721,"Ġâĺ¥":12722,"Ġâĺģ":12723,"Ġâģ«":12724,"Ġâģ¸":12725,"ĠâģŃ":12726,"Ġãıķ":12727,"Ġãıľ":12728,"Ġçı£":12729,"Ġçı¦":12730,"Ġçı·":12731,"Ġçı¸":12732,"ĠçıĴ":12733,"ĠâĿ¸":12734,"ĠâĿĴ":12735,"ĠâĿĿ":12736,"ĠãŁļ":12737,"Ġïİ¬":12738,"ĠïİŃ":12739,"Ġâľ£":12740,"ĠçŁĽ":12741,"ĠçŁŃ":12742,"Ġïı¦":12743,"Ġïıľ":12744,"Ġâ¥Ģ":12745,"Ġâ¥Ĺ":12746,"Ġâ¥ļ":12747,"ĠäĴ®":12748,"ĠäĴ¹":12749,"ĠäĴ»":12750,"ĠäĴĥ":12751,"Ġæĺĥ":12752,"ĠäĶ¨":12753,"ĠäĶµ":12754,"ĠäĶ¿":12755,"ĠäĶģ":12756,"ĠäĶĳ":12757,"ĠäĶĿ":12758,"ĠäĶŃ":12759,"Ġã§£":12760,"Ġã§ĭ":12761,"Ġã§ĸ":12762,"Ġã¢¥":12763,"Ġã¢¦":12764,"Ġã¢§":12765,"Ġã¢°":12766,"Ġã¢´":12767,"Ġã¢µ":12768,"ĠæĿ¢":12769,"ĠæĿ©":12770,"ĠæĿ°":12771,"ĠæĿµ":12772,"ĠæĿ½":12773,"ĠæĿķ":12774,"Ġäĵ¡":12775,"Ġäĵ¤":12776,"Ġäĵ½":12777,"ĠäĵĬ":12778,"Ġäĵĭ":12779,"Ġäĵĵ":12780,"Ġäĵĸ":12781,"Ġã·¹":12782,"ĠâĨİ":12783,"Ġã²¥":12784,"Ġã²²":12785,"Ġã²Ĩ":12786,"Ġã²ķ":12787,"Ġã²ŀ":12788,"Ġîıİ":12789,"Ġîıĳ":12790,"Ġîıĺ":12791,"Ġîıļ":12792,"Ġâį½":12793,"ĠâįĹ":12794,"Ġãª»":12795,"ĠãªĬ":12796,"ĠãªĻ":12797,"Ġéŀ¦":12798,"Ġéŀª":12799,"ĠéŀĢ":12800,"ĠéŀĤ":12801,"ĠîĴ¯":12802,"ĠîĴĪ":12803,"ĠîĴĲ":12804,"ĠíŁ£":12805,"ĠíŁ©":12806,"ĠíŁ¾":12807,"ĠäĿĬ":12808,"Ġçİµ":12809,"Ġçİ¸":12810,"ĠçİĢ":12811,"ĠçİĦ":12812,"Ġäľ¥":12813,"Ġäľ°":12814,"ĠäľĪ":12815,"Ġäľĳ":12816,"ĠæĴ¦":12817,"ĠæĴ¸":12818,"ĠæĴĲ":12819,"ĠæĴľ":12820,"Ġã¿¶":12821,"Ġã¿»":12822,"Ġã¿½":12823,"Ġã¿į":12824,"Ġã¿ĳ":12825,"Ġã¿ļ":12826,"Ġã¯¥":12827,"Ġã¯ª":12828,"Ġã¯Ī":12829,"Ġã¯Į":12830,"Ġã¯ł":12831,"ĠîŁİ":12832,"ĠäŁ»":12833,"ĠäŁĬ":12834,"ĠäŁĴ":12835,"ĠäŁĻ":12836,"Ġæį¸":12837,"ĠîĿ±":12838,"ĠîĿ¸":12839,"ĠîĿħ":12840,"Ġæľ¬":12841,"Ġæľ¶":12842,"ĠæľĦ":12843,"Ġæľİ":12844,"Ġãŀ¼":12845,"ĠãŀĤ":12846,"Ġãŀİ":12847,"Ġãº©":12848,"Ġãº°":12849,"Ġãºį":12850,"Ġéİ½":12851,"ĠéİĨ":12852,"Ġéİı":12853,"Ġãģ«":12854,"ĠãģĦ":12855,"Ġçº¦":12856,"Ġçº±":12857,"Ġçº¸":12858,"ĠçºĢ":12859,"Ġçºħ":12860,"Ġçºİ":12861,"Ġçºľ":12862,"ĠçºŃ":12863,"ĠéŁ¥":12864,"ĠéŁ¯":12865,"ĠéŁ³":12866,"ĠéŁĩ":12867,"ĠéŁĸ":12868,"ĠèĴ´":12869,"ĠèĴĽ":12870,"Ġïŀ¢":12871,"Ġïŀĥ":12872,"Ġäı£":12873,"Ġäı¹":12874,"ĠäıĤ":12875,"Ġäıį":12876,"Ġäıľ":12877,"ĠâĬ»":12878,"ĠâĬĿ":12879,"Ġæĵ®":12880,"Ġæĵ¹":12881,"Ġæĵ¿":12882,"Ġæĵİ":12883,"ĠæĵĴ":12884,"Ġæĵļ":12885,"ĠêĴ£":12886,"ĠêĴ²":12887,"ĠêĴµ":12888,"ĠêĴ¶":12889,"ĠêĴĬ":12890,"ĠêĴļ":12891,"ĠæĹ«":12892,"Ġäĳ§":12893,"Ġäĳµ":12894,"ĠäĳĤ":12895,"ĠäĳĴ":12896,"Ġâķµ":12897,"Ġâķį":12898,"ĠâķĿ":12899,"Ġäį¨":12900,"Ġäį½":12901,"Ġäįĥ":12902,"Ġäįĳ":12903,"ĠäįĶ":12904,"Ġäįł":12905,"ĠâĹ®":12906,"ĠâĹ´":12907,"ĠâĹĨ":12908,"ĠâĹĮ":12909,"Ġå¾¯":12910,"Ġá¢¡":12911,"Ġá¢¨":12912,"Ġá¢¬":12913,"Ġâĵ©":12914,"ĠçĦ¬":12915,"ĠçĦĨ":12916,"ĠçĦĳ":12917,"ĠçĦĿ":12918,"ĠçĶ¬":12919,"ĠçĶģ":12920,"ĠæĸĴ":12921,"Ġæĸĵ":12922,"ĠæĸĹ":12923,"Ġá§¨":12924,"Ġá§³":12925,"Ġá§Ĩ":12926,"Ġéº¤":12927,"Ġéº§":12928,"Ġéº®":12929,"Ġéº²":12930,"Ġéº¹":12931,"Ġéºĩ":12932,"Ġçŀ£":12933,"Ġçŀ¹":12934,"Ġçŀĥ":12935,"Ġçŀŀ":12936,"Ġé¾¸":12937,"Ġé¾º":12938,"Ġé¾Ľ":12939,"Ġé¾ł":12940,"Ġãİ¢":12941,"ĠãİĽ":12942,"Ġîĵµ":12943,"ĠîĵĦ":12944,"Ġîĵŀ":12945,"Ġãĳ®":12946,"ĠãĳĨ":12947,"ĠãĳĬ":12948,"Ġãĵ¤":12949,"ĠãĵĲ":12950,"Ġâ££":12951,"Ġâ£¶":12952,"Ġâ£ĳ":12953,"Ġâ£ŀ":12954,"Ġéı³":12955,"Ġéı·":12956,"ĠéıĦ":12957,"Ġéıĺ":12958,"ĠéıŃ":12959,"ĠêĿ³":12960,"ĠêĿĢ":12961,"ĠêĿĤ":12962,"ĠêĿį":12963,"ĠêĿŁ":12964,"Ġá¦º":12965,"Ġá¦½":12966,"Ġá¦ĥ":12967,"Ġá¦Ī":12968,"Ġá¦ķ":12969,"Ġá¦Ĺ":12970,"Ġá¦ŀ":12971,"Ġç²½":12972,"Ġç²¿":12973,"Ġç²ĭ":12974,"Ġç²Ĺ":12975,"Ġç²ł":12976,"Ġç¿©":12977,"Ġç¿³":12978,"Ġç¿·":12979,"Ġãĥ©":12980,"Ġï¢¤":12981,"Ġï¢¶":12982,"Ġï¢»":12983,"Ġï¢Ģ":12984,"Ġï¢ĸ":12985,"Ġî´¼":12986,"Ġî´¿":12987,"Ġî´Ļ":12988,"ĠîĻ¢":12989,"ĠîĻĮ":12990,"ĠîĻĲ":12991,"Ġè£³":12992,"Ġè£´":12993,"Ġè£Ĵ":12994,"Ġâŀ¨":12995,"Ġâŀ±":12996,"Ġâŀ¹":12997,"Ġâŀ¿":12998,"ĠâŀĬ":12999,"Ġâŀł":13000,"ĠîŃ¢":13001,"ĠîŃ¨":13002,"ĠîŃı":13003,"Ġéļļ":13004,"Ġéļľ":13005,"Ġâıĭ":13006,"Ġâıį":13007,"ĠâıĲ":13008,"Ġäİĥ":13009,"Ġæķª":13010,"Ġæķĳ":13011,"ĠæķĿ":13012,"Ġç¾ħ":13013,"Ġäĥ¥":13014,"Ġäĥ©":13015,"Ġäĥī":13016,"ĠäĥĬ":13017,"Ġäĥķ":13018,"Ġäĥľ":13019,"Ġîľ³":13020,"Ġîľħ":13021,"Ġîľİ":13022,"ĠîľĴ":13023,"Ġîľľ":13024,"ĠäĬĥ":13025,"Ġå±ª":13026,"Ġå±¼":13027,"Ġå±Ĥ":13028,"Ġå±ī":13029,"ĠäĤ®":13030,"ĠäĤº":13031,"Ġäº£":13032,"Ġäº¬":13033,"Ġäºº":13034,"ĠäºĻ":13035,"Ġî£¶":13036,"Ġî£º":13037,"Ġî£ĩ":13038,"Ġî£Ĭ":13039,"Ġé´º":13040,"Ġé´»":13041,"Ġé´¿":13042,"Ġé´Ģ":13043,"Ġé´Ĩ":13044,"Ġé´İ":13045,"Ġé´ļ":13046,"Ġé´ľ":13047,"Ġé´Ł":13048,"Ġç¯Ĭ":13049,"Ġç¯ĸ":13050,"Ġç¯Ń":13051,"ĠêŃª":13052,"ĠêŃ´":13053,"ĠêŃ¾":13054,"ĠêŃį":13055,"ĠäĮº":13056,"ĠäĮĥ":13057,"ĠäĮħ":13058,"ĠäĮķ":13059,"Ġï»²":13060,"Ġï»µ":13061,"Ġï»Ĺ":13062,"Ġï»Ľ":13063,"Ġï»ŀ":13064,"Ġâī§":13065,"Ġâīŀ":13066,"Ġîį£":13067,"Ġîįª":13068,"Ġîį¯":13069,"Ġîį»":13070,"ĠîįĬ":13071,"Ġîįİ":13072,"Ġé»©":13073,"Ġé»Ĭ":13074,"ĠãĦ©":13075,"ĠãĦ«":13076,"ĠãĦ±":13077,"ĠãĦ·":13078,"ĠãĦĨ":13079,"ĠãĦĲ":13080,"ĠãĦķ":13081,"Ġâ«¥":13082,"Ġâ«¶":13083,"Ġâ«Ļ":13084,"Ġïį¾":13085,"ĠïįŃ":13086,"Ġî§±":13087,"Ġî§¿":13088,"Ġî§Ĥ":13089,"Ġî§Ī":13090,"Ġî§ł":13091,"Ġé·Ĩ":13092,"Ġèĺ¤":13093,"Ġèĺº":13094,"Ġèĺħ":13095,"ĠèĺĪ":13096,"Ġæº¦":13097,"Ġæº©":13098,"Ġæº±":13099,"Ġæº²":13100,"Ġæº¸":13101,"Ġæº¿":13102,"ĠæºĮ":13103,"Ġæºĵ":13104,"ĠãĶ¬":13105,"ĠãĶĢ":13106,"ĠãĶĭ":13107,"ĠãĶł":13108,"Ġâħ¡":13109,"Ġâħ»":13110,"Ġâħī":13111,"Ġï¯¨":13112,"Ġï¯«":13113,"Ġï¯ĭ":13114,"Ġï¯Ń":13115,"ĠèĿ°":13116,"ĠèĿ¿":13117,"Ġç§¦":13118,"Ġç§İ":13119,"ĠèŁ½":13120,"ĠèŁĮ":13121,"Ġè«ģ":13122,"Ġé¸«":13123,"Ġé¸ģ":13124,"Ġé¸ħ":13125,"Ġâļ¦":13126,"Ġâļ¬":13127,"Ġâļ±":13128,"Ġâļĩ":13129,"ĠâļŁ":13130,"Ġäķ¯":13131,"Ġäķ²":13132,"Ġäķ³":13133,"Ġäķ¾":13134,"Ġäķķ":13135,"ĠçĮĢ":13136,"ĠçĮĨ":13137,"Ġé®£":13138,"Ġé®¤":13139,"Ġé®©":13140,"Ġé®ª":13141,"Ġé®³":13142,"Ġé®º":13143,"Ġé¶¥":13144,"Ġé¶¯":13145,"Ġé¶±":13146,"Ġé¶º":13147,"Ġé¶ĩ":13148,"Ġé¶ĭ":13149,"Ġé¶Ŀ":13150,"ĠïŁº":13151,"ĠïŁ½":13152,"ĠïŁĶ":13153,"Ġäŀ²":13154,"ĠäŀĽ":13155,"Ġäŀŀ":13156,"ĠäĲ²":13157,"ĠäĲ³":13158,"ĠäĲº":13159,"ĠäĲĮ":13160,"Ġæħ°":13161,"Ġæħ¸":13162,"Ġã»Į":13163,"Ġã»Ķ":13164,"Ġã»ŀ":13165,"Ġâ¶±":13166,"Ġâ¶³":13167,"Ġâ¶ķ":13168,"Ġâĩ¡":13169,"Ġâĩĳ":13170,"Ġâĩĵ":13171,"Ġî¥®":13172,"Ġî¥¯":13173,"Ġî¥»":13174,"Ġî¥ŀ":13175,"Ġêį¿":13176,"Ġêįħ":13177,"ĠêįĲ":13178,"ĠæĢ²":13179,"ĠæĢ·":13180,"ĠéĻ¹":13181,"ĠéĻĺ":13182,"ĠéĻĿ":13183,"Ġæ·³":13184,"Ġæ·»":13185,"Ġæ·¼":13186,"Ġæ·ĭ":13187,"Ġæ·į":13188,"Ġæ·ĸ":13189,"Ġæ·ŀ":13190,"Ġé¢ģ":13191,"Ġé¢Ĭ":13192,"Ġã¸¯":13193,"Ġã¸º":13194,"Ġã¸Ħ":13195,"Ġã¸į":13196,"Ġã¸Ń":13197,"Ġã¦³":13198,"Ġã¦Ī":13199,"Ġã¦ı":13200,"Ġã¦Ŀ":13201,"Ġå»¬":13202,"Ġæĳª":13203,"Ġæĳĩ":13204,"Ġæĳŀ":13205,"ĠïĬ¿":13206,"ĠïĬĥ":13207,"Ġï½£":13208,"Ġï½·":13209,"Ġï½¹":13210,"Ġï½Ĵ":13211,"Ġé§©":13212,"Ġé§®":13213,"ĠïĴ§":13214,"ĠïĴ½":13215,"ĠïĴį":13216,"ĠïĴı":13217,"ĠïĴĴ":13218,"ĠïĴķ":13219,"ĠïĴĽ":13220,"ĠïĴł":13221,"Ġîŀ·":13222,"Ġã¶°":13223,"Ġã¶²":13224,"Ġã¶»":13225,"Ġîķ¬":13226,"Ġîķ¾":13227,"Ġîķį":13228,"ĠîķĿ":13229,"Ġã¾³":13230,"Ġã¾¶":13231,"Ġã¾¸":13232,"Ġã¾Ħ":13233,"Ġã¾ľ":13234,"Ġã¾ł":13235,"ĠæŁ¦":13236,"Ġî¯§":13237,"Ġî¯®":13238,"Ġî¯µ":13239,"Ġî¯ĵ":13240,"Ġâ»§":13241,"Ġâ»¾":13242,"Ġâ»ī":13243,"Ġâ»Ĭ":13244,"Ġâ»ı":13245,"ĠïĤī":13246,"ĠïĤł":13247,"ĠâĶ¡":13248,"ĠâĶĪ":13249,"ĠâĶį":13250,"ĠâĶĻ":13251,"Ġéµµ":13252,"Ġéµĩ":13253,"Ġéµİ":13254,"Ġéµĸ":13255,"ĠéĮº":13256,"ĠéĮĮ":13257,"ĠéĮį":13258,"ĠéĮı":13259,"ĠçĽ¬":13260,"ĠçĽ¯":13261,"ĠçĽº":13262,"ĠçĽĮ":13263,"ĠçĽĻ":13264,"ĠçĽľ":13265,"Ġåº·":13266,"Ġåºº":13267,"Ġåº½":13268,"Ġåºħ":13269,"Ġæ¸¯":13270,"Ġæ¸µ":13271,"Ġæ¸ĳ":13272,"Ġâĭ¤":13273,"Ġâĭ¸":13274,"Ġâĭ¹":13275,"ĠâĭĲ":13276,"Ġâĭļ":13277,"ĠæĻ®":13278,"ĠæĻĬ":13279,"ĠïĨ°":13280,"ĠïĨĲ":13281,"Ġæ´Ģ":13282,"Ġæ´ĩ":13283,"Ġæ´ĺ":13284,"ĠæĲĨ":13285,"ĠæĲĿ":13286,"Ġå¶¢":13287,"Ġå¶°":13288,"Ġå¶±":13289,"Ġêľ¨":13290,"Ġêľķ":13291,"Ġæ¾£":13292,"Ġæ¾»":13293,"Ġæ¾¿":13294,"Ġæ¾Ĩ":13295,"Ġæ¾Ŀ":13296,"Ġæ¾Ń":13297,"Ġî«©":13298,"Ġî«²":13299,"Ġî«´":13300,"Ġî«Ĩ":13301,"Ġî«ķ":13302,"Ġåµ¼":13303,"ĠåµĴ":13304,"Ġêĵ©":13305,"ĠêĵĮ":13306,"ĠêĵĻ":13307,"Ġâİ¢":13308,"Ġâİ¥":13309,"Ġâİ§":13310,"Ġâİ©":13311,"Ġæļ½":13312,"ĠæļĽ":13313,"ĠäĻ§":13314,"ĠäĻĥ":13315,"ĠäĻĨ":13316,"Ġåķ¬":13317,"Ġâ¹Ī":13318,"Ġäĺ·":13319,"Ġäĺĸ":13320,"Ġæŀ§":13321,"Ġæŀ©":13322,"Ġæŀ«":13323,"Ġæŀĩ":13324,"Ġåħ®":13325,"ĠåħĮ":13326,"Ġä¨½":13327,"Ġä¨ĩ":13328,"Ġä¨į":13329,"Ġä¨ĳ":13330,"Ġä¨Ĺ":13331,"Ġæµ¡":13332,"Ġæµ·":13333,"Ġæµĸ":13334,"Ġæ¹¬":13335,"Ġæ¹į":13336,"Ġæ¹ķ":13337,"Ġæ»¡":13338,"Ġæ»§":13339,"Ġæ»µ":13340,"Ġâº¿":13341,"Ġîİ¹":13342,"ĠîİĬ":13343,"Ġéĥ¢":13344,"Ġéĥ¿":13345,"ĠéĥĲ":13346,"Ġïģ¡":13347,"Ġïģ¨":13348,"Ġïģ°":13349,"Ġïģ¹":13350,"Ġïģģ":13351,"Ġïģį":13352,"Ġïģı":13353,"ĠïģĲ":13354,"Ġïģĳ":13355,"Ġïģł":13356,"Ġä¢¡":13357,"Ġä¢©":13358,"Ġä¢Ĵ":13359,"Ġèº¬":13360,"ĠèºĮ":13361,"Ġèºı":13362,"ĠèºŁ":13363,"ĠâĲ³":13364,"ĠâĲı":13365,"ĠâĲĸ":13366,"Ġè§«":13367,"Ġçĳ¢":13368,"ĠçĳĤ":13369,"Ġçĳŀ":13370,"Ġçĳł":13371,"ĠçĳŃ":13372,"Ġçľ©":13373,"Ġçľ¯":13374,"Ġçľŀ":13375,"Ġè´¬":13376,"Ġè´¯":13377,"Ġè´į":13378,"Ġè´ı":13379,"Ġè´Ĵ":13380,"Ġêĸ¦":13381,"Ġêĸµ":13382,"Ġêĸ¸":13383,"Ġêĸĭ":13384,"Ġêĸı":13385,"ĠêĸŁ":13386,"Ġáªĩ":13387,"Ġáªĺ":13388,"Ġî®¯":13389,"Ġî®µ":13390,"Ġî®½":13391,"Ġî®ĥ":13392,"Ġå§¨":13393,"Ġå§ķ":13394,"Ġêļ¤":13395,"Ġêļĩ":13396,"Ġêļľ":13397,"ĠéĿ¡":13398,"ĠéĿ¤":13399,"ĠéĿ¸":13400,"Ġâ¾ª":13401,"Ġâ¾º":13402,"Ġâ¾ł":13403,"Ġæ£¢":13404,"Ġæ£§":13405,"Ġæ£¬":13406,"Ġæ£¯":13407,"Ġæ£½":13408,"Ġèıĭ":13409,"Ġèıľ":13410,"Ġâµª":13411,"Ġâµ¾":13412,"ĠâµĿ":13413,"Ġî½¾":13414,"Ġî½Ģ":13415,"Ġî½ĵ":13416,"Ġåı´":13417,"Ġåıı":13418,"ĠåıĲ":13419,"Ġä±Į":13420,"Ġê®ª":13421,"Ġê®º":13422,"Ġê®ł":13423,"Ġê®Ń":13424,"Ġâ´ª":13425,"Ġâ´³":13426,"Ġâ´¹":13427,"Ġâ´ı":13428,"Ġî¡¿":13429,"Ġî¡ģ":13430,"Ġî¡Ĭ":13431,"Ġêŀ¢":13432,"Ġêŀ£":13433,"Ġêŀĥ":13434,"Ġêŀİ":13435,"Ġêŀı":13436,"ĠêŀŃ":13437,"Ġêķ¦":13438,"Ġè®¿":13439,"Ġè®Ħ":13440,"Ġè®į":13441,"ĠèĶ·":13442,"ĠèĶł":13443,"Ġá²į":13444,"Ġá²ĸ":13445,"ĠãĮª":13446,"Ġî¿½":13447,"Ġî¿Ĵ":13448,"Ġè¶µ":13449,"Ġè¶·":13450,"Ġè¶Ľ":13451,"Ġè¶ľ":13452,"Ġéģ¼":13453,"Ġéģį":13454,"Ġéģľ":13455,"Ġç´½":13456,"Ġç´ı":13457,"Ġç´Ł":13458,"Ġæ³£":13459,"Ġæ³«":13460,"Ġæ³®":13461,"Ġæ³µ":13462,"Ġæ³¼":13463,"Ġæ³Ĩ":13464,"Ġéª¦":13465,"Ġéªª":13466,"Ġéªµ":13467,"Ġçĵ¬":13468,"Ġçĵ´":13469,"Ġçĵı":13470,"Ġçļ®":13471,"Ġçļ³":13472,"Ġçļħ":13473,"ĠçļŁ":13474,"Ġèį½":13475,"Ġá¯Ĩ":13476,"Ġá¯Ī":13477,"Ġá¯İ":13478,"Ġå¯¤":13479,"Ġå¯Ĥ":13480,"Ġå¯ķ":13481,"Ġá±ĩ":13482,"Ġá±ŀ":13483,"Ġæ±©":13484,"Ġæ±ł":13485,"Ġç¢ĭ":13486,"Ġæ¶±":13487,"Ġæ¶ĭ":13488,"Ġæ¶Ń":13489,"ĠîĬ¨":13490,"ĠîĬ©":13491,"ĠîĬµ":13492,"ĠîĬ¼":13493,"ĠêŁ±":13494,"ĠêŁı":13495,"ĠêŁĶ":13496,"ĠêŁŁ":13497,"Ġïī·":13498,"ĠïīĮ":13499,"Ġáı¶":13500,"Ġäªª":13501,"ĠèĤ©":13502,"ĠèĤĶ":13503,"Ġî¤¦":13504,"Ġî¤Ģ":13505,"Ġî¤Ĥ":13506,"Ġî¤Ĳ":13507,"Ġî¤ļ":13508,"Ġî¤Ł":13509,"Ġâ¤Ĳ":13510,"Ġâ¤ķ":13511,"Ġä¤«":13512,"Ġä¤Ĵ":13513,"Ġîĳª":13514,"Ġîĳĳ":13515,"ĠîĳŃ":13516,"ĠîĶ¬":13517,"ĠîĶĢ":13518,"ĠîĶĴ":13519,"ĠîĶĶ":13520,"Ġè¥¦":13521,"Ġè¥§":13522,"Ġè¥ĥ":13523,"Ġè¥Ĺ":13524,"Ġèł«":13525,"Ġèłį":13526,"Ġèłĸ":13527,"Ġê§¢":13528,"Ġê§¦":13529,"Ġê§Į":13530,"Ġä»±":13531,"Ġä»Ĩ":13532,"Ġä»Ĺ":13533,"Ġä»Ļ":13534,"Ġç¹Ŀ":13535,"Ġå¿¶":13536,"Ġå¿»":13537,"Ġå¿Ħ":13538,"Ġå¿ı":13539,"Ġå¿Ĵ":13540,"ĠåįĬ":13541,"ĠåįĽ":13542,"ĠæĤª":13543,"ĠæĤµ":13544,"ĠæĤ¶":13545,"ĠæĤķ":13546,"ĠîĦ±":13547,"ĠîĦİ":13548,"Ġâĳ»":13549,"ĠâĳĲ":13550,"Ġâ²®":13551,"Ġâ²¹":13552,"Ġâ²Ĳ":13553,"ĠîĢ¬":13554,"ĠîĢ±":13555,"ĠîĢ¾":13556,"ĠîĢı":13557,"ĠîĤĤ":13558,"ĠîĤĸ":13559,"Ġå¥½":13560,"Ġå¥Ķ":13561,"Ġå²¤":13562,"Ġå²Ĥ":13563,"ĠäĦ¬":13564,"ĠäĦ·":13565,"ĠäĦ»":13566,"ĠäĦı":13567,"ĠäĦķ":13568,"Ġï®ı":13569,"Ġï®ļ":13570,"Ġï®ľ":13571,"Ġï®Ń":13572,"Ġâ¡¹":13573,"Ġâ¡ĭ":13574,"Ġâ¡ĳ":13575,"Ġâ¡ĵ":13576,"Ġâ¡Ĺ":13577,"Ġäļ¹":13578,"ĠäļĮ":13579,"Ġä£¢":13580,"Ġä£¹":13581,"Ġä£¿":13582,"Ġçĥ©":13583,"Ġçĥª":13584,"Ġâ±µ":13585,"Ġâ±·":13586,"Ġâ±ĺ":13587,"Ġä¥°":13588,"Ġä¥Ħ":13589,"Ġæİ£":13590,"Ġæİª":13591,"Ġæİº":13592,"Ġæİŀ":13593,"ĠæİŃ":13594,"Ġîº«":13595,"Ġîºı":13596,"Ġæ§´":13597,"Ġæ§Ĵ":13598,"Ġîģ§":13599,"Ġîģ²":13600,"Ġîģ·":13601,"ĠîģĲ":13602,"Ġîģĳ":13603,"Ġè©µ":13604,"Ġè©º":13605,"Ġè©Ģ":13606,"Ġè©ĭ":13607,"Ġè©į":13608,"Ġè©ı":13609,"Ġèľ£":13610,"Ġèľ¥":13611,"Ġèľ¶":13612,"ĠèĻį":13613,"Ġâª¡":13614,"Ġâª²":13615,"Ġâª¸":13616,"Ġâª¿":13617,"Ġä¹¸":13618,"Ġä¹ī":13619,"Ġé¯Ļ":13620,"Ġé¯ŀ":13621,"Ġâ¬²":13622,"Ġâ¬ĸ":13623,"Ġà¸¬":13624,"Ġà¸®":13625,"Ġà¸ĵ":13626,"Ġà¸Ĺ":13627,"Ġà¸ŀ":13628,"Ġè¯¾":13629,"Ġè¯Ĵ":13630,"Ġè¯Ķ":13631,"Ġè¯Ń":13632,"ĠâĽª":13633,"ĠâĽģ":13634,"ĠâĽı":13635,"ĠâĽļ":13636,"Ġä¬«":13637,"Ġèħ¤":13638,"Ġèħĸ":13639,"Ġå³·":13640,"Ġå³ĥ":13641,"Ġå³ħ":13642,"Ġå³Ĵ":13643,"Ġå³Ļ":13644,"Ġå³ļ":13645,"Ġïļ¤":13646,"Ġïļ¬":13647,"ĠïļĨ":13648,"Ġä§·":13649,"ĠäĢ»":13650,"ĠäĢİ":13651,"ĠäĢĵ":13652,"ĠäĢķ":13653,"Ġè¤ĺ":13654,"Ġêĺ¢":13655,"Ġêĺµ":13656,"Ġêĺ·":13657,"Ġêĺº":13658,"Ġêĺī":13659,"Ġè±¿":13660,"Ġéĳ¥":13661,"ĠéĳĤ":13662,"Ġä²±":13663,"Ġä²º":13664,"Ġä²į":13665,"Ġä²Ļ":13666,"Ġä²ľ":13667,"ĠåĶ³":13668,"ĠåĶ·":13669,"ĠåĶ¾":13670,"ĠãĽĢ":13671,"ĠèŃ¯":13672,"ĠèŃ¸":13673,"ĠèŃĢ":13674,"ĠèŃĹ":13675,"ĠèŃĺ":13676,"Ġçķ³":13677,"Ġà´£":13678,"Ġà´´":13679,"Ġà´Ī":13680,"Ġà´ĭ":13681,"Ġà´İ":13682,"Ġà´Ļ":13683,"Ġà´ļ":13684,"Ġà´Ŀ":13685,"Ġîĺ¿":13686,"ĠîĺĶ":13687,"ĠîĺĻ":13688,"ĠîĺŁ":13689,"Ġéł®":13690,"Ġçµ±":13691,"Ġçµ»":13692,"Ġçµī":13693,"Ġâ°³":13694,"Ġâ°ĳ":13695,"Ġãµ¦":13696,"Ġãµ¯":13697,"Ġãµµ":13698,"ĠãµĮ":13699,"ĠãµŁ":13700,"Ġàªĸ":13701,"Ġàªľ":13702,"ĠäĽĿ":13703,"ĠäĽŁ":13704,"Ġé½±":13705,"Ġé½·":13706,"Ġé½»":13707,"Ġé½½":13708,"Ġé½ģ":13709,"Ġé½Ĭ":13710,"Ġé½ķ":13711,"Ġè¾«":13712,"Ġè¾Ŀ":13713,"Ġè¾Ń":13714,"Ġä·ĩ":13715,"Ġä·Ĺ":13716,"Ġä·ŀ":13717,"Ġéĸ¶":13718,"ĠéĸĨ":13719,"Ġéĸı":13720,"Ġè·¢":13721,"Ġè·ª":13722,"Ġä°¤":13723,"ĠãĿĦ":13724,"ĠãĿĮ":13725,"ĠãĿĻ":13726,"Ġêİ¢":13727,"Ġêİº":13728,"ĠêİĮ":13729,"Ġçª¡":13730,"Ġçªª":13731,"Ġçªĥ":13732,"Ġçªĩ":13733,"Ġçªĭ":13734,"Ġçªĸ":13735,"Ġå½ª":13736,"Ġå½³":13737,"Ġå½Ļ":13738,"Ġïµ¿":13739,"ĠïµĨ":13740,"Ġïµĳ":13741,"Ġêĳ²":13742,"Ġä´Ĵ":13743,"Ġä´Ļ":13744,"Ġè¨§":13745,"Ġè¨ª":13746,"Ġè¨°":13747,"Ġè¨Ĥ":13748,"Ġè¨Ń":13749,"Ġèİ§":13750,"Ġèİ³":13751,"ĠèİĮ":13752,"Ġèİİ":13753,"Ġèİł":13754,"Ġæ¥´":13755,"Ġæ¥»":13756,"Ġæ¥½":13757,"Ġæ¥ĵ":13758,"Ġî±¢":13759,"Ġî±«":13760,"Ġî±ł":13761,"Ġé¹¤":13762,"Ġé¹ĥ":13763,"Ġâ½¡":13764,"Ġâ½´":13765,"Ġâ½ĥ":13766,"Ġâ½ľ":13767,"Ġæ¤ª":13768,"Ġæ¤Ĭ":13769,"Ġæ¤ļ":13770,"Ġæ¤Ń":13771,"Ġã±¨":13772,"Ġã±Ľ":13773,"Ġîł¶":13774,"Ġîłļ":13775,"Ġèĵ³":13776,"ĠèĵĴ":13777,"Ġèĵł":13778,"ĠåĩĤ":13779,"Ġåĩĺ":13780,"Ġâ¼¬":13781,"Ġâ¼¯":13782,"Ġâ¼¶":13783,"Ġâ¼¸":13784,"Ġâ¼¹":13785,"Ġâ¿§":13786,"Ġâ¿ĥ":13787,"ĠãĤĩ":13788,"Ġèŀ¦":13789,"Ġèŀ©":13790,"Ġèŀ½":13791,"Ġèŀı":13792,"ĠèŀĲ":13793,"ĠèŀŃ":13794,"ĠåĹ¿":13795,"ĠåĹĵ":13796,"ĠåĹĿ":13797,"Ġî¢¹":13798,"Ġî¢»":13799,"Ġî¢ĸ":13800,"Ġçģ¥":13801,"ĠçģĤ":13802,"ĠçģĴ":13803,"Ġçģļ":13804,"Ġæĭµ":13805,"ĠæĭĪ":13806,"ĠæĭĬ":13807,"ĠéŃº":13808,"ĠêĹ¥":13809,"ĠêĹ«":13810,"ĠêĹĻ":13811,"ĠêĹļ":13812,"ĠáĽ±":13813,"Ġã´¨":13814,"Ġã´¹":13815,"Ġã´Ģ":13816,"Ġã´Ī":13817,"Ġæ¦Ħ":13818,"ĠæĽ¯":13819,"ĠæĽ¶":13820,"ĠæĽį":13821,"ĠæĽļ":13822,"Ġãħĭ":13823,"Ġãħł":13824,"Ġãį¯":13825,"Ġãįµ":13826,"ĠãįŃ":13827,"Ġæ²¾":13828,"Ġæ²ķ":13829,"Ġæ¡£":13830,"Ġîħ¤":13831,"Ġîħķ":13832,"Ġîħĸ":13833,"ĠèĬ¦":13834,"ĠèĬ·":13835,"ĠèĬĥ":13836,"ĠèĬĻ":13837,"ĠåĿ¯":13838,"ĠåĿĻ":13839,"Ġïķ»":13840,"Ġïķ¿":13841,"Ġïķĳ":13842,"Ġê¬¥":13843,"Ġê¬¬":13844,"Ġê¬´":13845,"Ġê¬»":13846,"Ġê¬ĸ":13847,"Ġê¬Ł":13848,"ĠáµĤ":13849,"Ġè¡Ŀ":13850,"ĠêıĨ":13851,"Ġêıĭ":13852,"Ġïĸ»":13853,"Ġïĸı":13854,"ĠïĸĴ":13855,"Ġé±»":13856,"ĠèĦ±":13857,"ĠèĦĳ":13858,"Ġâ³¸":13859,"Ġâ³¾":13860,"Ġâ³Ī":13861,"Ġâ³Į":13862,"Ġâ³Ŀ":13863,"Ġæ¨±":13864,"Ġæ¨¿":13865,"Ġæ¨ĩ":13866,"Ġæ¨Ĵ":13867,"Ġé°£":13868,"Ġé°į":13869,"Ġé°İ":13870,"Ġé°ķ":13871,"Ġè¿³":13872,"Ġè¿ĥ":13873,"ĠåªĤ":13874,"Ġï¾§":13875,"Ġï¾¼":13876,"Ġï¾¾":13877,"Ġã©Ī":13878,"Ġã©Ķ":13879,"Ġã©ł":13880,"Ġåĳģ":13881,"Ġä¾¹":13882,"Ġä¾º":13883,"ĠåĬ¨":13884,"ĠåĬ¬":13885,"ĠåĬ¹":13886,"ĠåĬĭ":13887,"ĠêĮ³":13888,"ĠêĮļ":13889,"Ġå¸¢":13890,"Ġå¸¾":13891,"Ġå¸ļ":13892,"Ġêħļ":13893,"ĠêħŁ":13894,"Ġäħ¡":13895,"Ġçį£":13896,"Ġçį²":13897,"ĠèĲ´":13898,"ĠèĲĦ":13899,"ĠèĲĮ":13900,"ĠèĲĲ":13901,"ĠèĲĴ":13902,"ĠâĮ´":13903,"ĠâĮį":13904,"ĠâĮİ":13905,"Ġæ«¦":13906,"Ġæ«¹":13907,"Ġæ«ĵ":13908,"Ġæ«ķ":13909,"Ġé¿³":13910,"Ġéįĭ":13911,"ĠèĢµ":13912,"ĠèĢĤ":13913,"Ġå©½":13914,"Ġå©ŀ":13915,"Ġå©ł":13916,"Ġå®£":13917,"Ġå®¿":13918,"ĠæĨ·":13919,"ĠæĨ¸":13920,"ĠæĨı":13921,"Ġéľ¶":13922,"ĠéľĢ":13923,"ĠéľĨ":13924,"Ġèļ«":13925,"Ġèļ¹":13926,"Ġê¡¡":13927,"Ġê¡¸":13928,"Ġâ¯¹":13929,"Ġâ¯»":13930,"Ġâ¯Ģ":13931,"Ġâ¯į":13932,"Ġâ¯Ĳ":13933,"ĠãĨ§":13934,"ĠãĨµ":13935,"ĠãĨº":13936,"ĠãĨ»":13937,"ĠãĨĺ":13938,"Ġîļª":13939,"Ġîļ³":13940,"ĠîļĤ":13941,"ĠîļĻ":13942,"Ġîļł":13943,"Ġà¨¨":13944,"Ġà¨°":13945,"Ġà¨»":13946,"Ġà¨ĵ":13947,"Ġä«ĭ":13948,"Ġè¬ª":13949,"Ġè¬Ħ":13950,"Ġâ¦¯":13951,"Ġîĩ«":13952,"Ġà¹ĸ":13953,"Ġî¬Į":13954,"Ġî¬ĳ":13955,"Ġéĩ±":13956,"Ġéĩº":13957,"Ġî©ĳ":13958,"Ġî©Ł":13959,"Ġï·¦":13960,"Ġï··":13961,"Ġï·Ĵ":13962,"Ġïĥ¢":13963,"Ġïĥ±":13964,"Ġïĥį":13965,"ĠïĥĿ":13966,"Ġåľ¦":13967,"Ġê¤ĺ":13968,"Ġê¤Ŀ":13969,"ĠæŃ¡":13970,"Ġîī¿":13971,"ĠîīĬ":13972,"Ġîīį":13973,"ĠîīŃ":13974,"ĠåĻ¾":13975,"Ġá¡Ļ":13976,"Ġá¡Ń":13977,"Ġáķª":13978,"ĠáķĶ":13979,"Ġî¼¦":13980,"Ġî¼Ĥ":13981,"Ġá´ĸ":13982,"Ġá´ŀ":13983,"Ġå¹¹":13984,"Ġâ¸º":13985,"Ġâ¸Ĭ":13986,"Ġâ¸Į":13987,"Ġâ¸Ł":13988,"ĠáĶħ":13989,"ĠáĶĩ":13990,"ĠáĶİ":13991,"ĠáĶķ":13992,"Ġî»ı":13993,"Ġî»Ł":13994,"Ġæ½ħ":13995,"ĠêĶ©":13996,"ĠêĶ¸":13997,"ĠêĶĢ":13998,"ĠêĶĨ":13999,"ĠêĶī":14000,"Ġä¶±":14001,"Ġä¶·":14002,"Ġãļģ":14003,"Ġãļĩ":14004,"Ġè¦ĵ":14005,"Ġè¦ŀ":14006,"Ġèī¤":14007,"Ġèī¶":14008,"Ġèīľ":14009,"Ġèīł":14010,"Ġä³±":14011,"Ġäµ¢":14012,"ĠèĹ¥":14013,"ĠèĹĸ":14014,"ĠäŃ®":14015,"ĠäŃ³":14016,"ĠäŃ´":14017,"ĠäŃ¾":14018,"ĠäŃĵ":14019,"ĠæĮĵ":14020,"Ġå´´":14021,"Ġå´ĩ":14022,"Ġå´Ĭ":14023,"Ġå´Ń":14024,"Ġå¼¸":14025,"ĠéĹ«":14026,"ĠéĹŀ":14027,"ĠéĽ¦":14028,"ĠéĽ¯":14029,"ĠêĦķ":14030,"Ġà¶±":14031,"Ġãľ¯":14032,"Ġãľº":14033,"Ġå¢İ":14034,"Ġäī¶":14035,"ĠäīŁ":14036,"Ġäł¨":14037,"ĠäłĮ":14038,"Ġäłĸ":14039,"Ġå··":14040,"Ġå·ĭ":14041,"Ġå·ĸ":14042,"Ġïĳ·":14043,"Ġïĳį":14044,"Ġæĩª":14045,"ĠèĮ¥":14046,"ĠèĮ·":14047,"ĠèĮ¸":14048,"ĠèĮĲ":14049,"ĠåŁŁ":14050,"Ġîª¹":14051,"Ġèµ¤":14052,"Ġêªª":14053,"ĠêªĪ":14054,"ĠâŃĬ":14055,"ĠâŃĽ":14056,"Ġè½¢":14057,"Ġè½©":14058,"Ġè½º":14059,"Ġè½Ł":14060,"Ġâ©¾":14061,"Ġâ©Ŀ":14062,"Ġæī»":14063,"Ġæī¿":14064,"Ġæīī":14065,"ĠîĮĬ":14066,"ĠæĦģ":14067,"ĠæĦĤ":14068,"ĠæĦķ":14069,"Ġç©¢":14070,"Ġç©¨":14071,"Ġç©ª":14072,"Ġç©«":14073,"Ġç©¯":14074,"Ġåĭ²":14075,"Ġåĭĭ":14076,"Ġãķ´":14077,"Ġãķ·":14078,"Ġãķħ":14079,"Ġãķł":14080,"Ġè°¸":14081,"Ġè°¹":14082,"Ġè°Ĭ":14083,"Ġè°ĭ":14084,"ĠäĪ¥":14085,"ĠäĪĦ":14086,"ĠäĪĮ":14087,"ĠäĪı":14088,"ĠäĪĸ":14089,"ĠäĪŁ":14090,"Ġå¦ĩ":14091,"Ġå¦Ŀ":14092,"Ġî³¢":14093,"Ġî³§":14094,"Ġî³¼":14095,"Ġî³ĺ":14096,"Ġî³ļ":14097,"Ġî³ľ":14098,"ĠîĲ¼":14099,"ĠåĽµ":14100,"ĠåĽº":14101,"ĠåĽĸ":14102,"ĠêĽĺ":14103,"ĠêĽł":14104,"ĠáİĶ":14105,"ĠáİĿ":14106,"Ġä¡»":14107,"Ġä¡Ĺ":14108,"Ġä¡Ľ":14109,"Ġä©²":14110,"Ġä©¶":14111,"Ġæª´":14112,"Ġæª¹":14113,"Ġæªİ":14114,"Ġæªľ":14115,"Ġæĥ´":14116,"Ġç±®":14117,"ĠïĮ´":14118,"ĠïĮĮ":14119,"ĠïĮĺ":14120,"Ġç®Ķ":14121,"Ġà¡¦":14122,"Ġà¡«":14123,"Ġà¡¸":14124,"Ġæ®ª":14125,"Ġæ®±":14126,"Ġæ®µ":14127,"Ġæ®·":14128,"Ġéħ¢":14129,"Ġéħ¥":14130,"Ġéħİ":14131,"Ġç°Ľ":14132,"Ġåī¦":14133,"Ġåī·":14134,"Ġåīĥ":14135,"ĠåīĮ":14136,"Ġåīį":14137,"ĠåīŃ":14138,"Ġá®ĵ":14139,"Ġá®Ŀ":14140,"Ġï²¢":14141,"Ġï²¶":14142,"Ġï²»":14143,"Ġàº¯":14144,"Ġàº½":14145,"Ġàºľ":14146,"ĠêĤģ":14147,"ĠêĤĪ":14148,"ĠêĤĮ":14149,"ĠêĤļ":14150,"ĠêĤŃ":14151,"Ġä¼ĥ":14152,"Ġèĸ¨":14153,"Ġèĸŀ":14154,"Ġã¼ĥ":14155,"Ġî¨³":14156,"Ġî¨Ĭ":14157,"Ġî¨Ŀ":14158,"Ġî·ª":14159,"Ġî·¼":14160,"Ġî·Ģ":14161,"Ġî·Ľ":14162,"Ġç¡ł":14163,"Ġê«¼":14164,"Ġê«¿":14165,"Ġé£³":14166,"Ġé£İ":14167,"Ġéĭ¢":14168,"Ġéĭ·":14169,"Ġéĭį":14170,"ĠéĭĻ":14171,"Ġç»¥":14172,"Ġç»°":14173,"Ġç»Ħ":14174,"Ġç»ĩ":14175,"Ġèĥ¡":14176,"Ġèĥ§":14177,"Ġèĥ¨":14178,"Ġèĳ³":14179,"ĠåĢ¨":14180,"Ġà¦Ĩ":14181,"Ġà¦Ī":14182,"Ġà¦Ĵ":14183,"Ġà¦Ŀ":14184,"Ġä¯¯":14185,"Ġä¯³":14186,"ĠïĪ±":14187,"ĠåĪĤ":14188,"ĠåĪĩ":14189,"Ġïłį":14190,"ĠïłĲ":14191,"Ġà²«":14192,"Ġà²İ":14193,"Ġà²ķ":14194,"Ġà²ľ":14195,"ĠäĨ»":14196,"ĠäĨĿ":14197,"ĠéĢ¢":14198,"ĠéĢ®":14199,"ĠéĢ´":14200,"ĠéĢĢ":14201,"ĠéĢĤ":14202,"Ġè¸Ħ":14203,"Ġè¸Ķ":14204,"Ġè»ª":14205,"Ġä½¤":14206,"Ġä½µ":14207,"Ġä½¹":14208,"ĠãĲĤ":14209,"ĠãĲĸ":14210,"ĠçĿµ":14211,"ĠçĿ¹":14212,"ĠçĿŁ":14213,"Ġèĭ¤":14214,"Ġèĭ¦":14215,"Ġèĭı":14216,"Ġèĭĵ":14217,"Ġï°Ļ":14218,"Ġï°ļ":14219,"ĠêĲ³":14220,"ĠêĲĥ":14221,"Ġåĵ·":14222,"Ġïħ¬":14223,"Ġïħ¹":14224,"Ġï¶°":14225,"Ġï¶Ī":14226,"Ġé¥±":14227,"Ġé¥ĩ":14228,"Ġé¥į":14229,"Ġé¥İ":14230,"Ġé¥Ľ":14231,"Ġâ¢Ľ":14232,"Ġâ¢Ŀ":14233,"Ġæ¿¡":14234,"Ġæ¿³":14235,"Ġæ¿Ń":14236,"Ġî¹Ĺ":14237,"ĠéĨĻ":14238,"ĠéĨŁ":14239,"ĠçĬ¹":14240,"ĠçĬĴ":14241,"Ġç¸»":14242,"Ġç¸¿":14243,"Ġç¸ĺ":14244,"Ġïºĩ":14245,"Ġïºķ":14246,"Ġáĳ¡":14247,"Ġáĳ¦":14248,"Ġáĳª":14249,"Ġáĳ«":14250,"Ġáĳģ":14251,"Ġáĳĥ":14252,"Ġç¼Ĳ":14253,"Ġç¼ĵ":14254,"Ġêī®":14255,"ĠêīĿ":14256,"Ġáĺ¦":14257,"Ġáĺº":14258,"Ġáĺĭ":14259,"ĠîĽ«":14260,"ĠîĽº":14261,"ĠîĽŁ":14262,"Ġé¨¿":14263,"Ġé¨Ĵ":14264,"Ġé¨ł":14265,"Ġé©¤":14266,"Ġé²º":14267,"Ġç¦§":14268,"ĠçĲĻ":14269,"Ġï±ī":14270,"Ġï¹·":14271,"Ġï¹Ĺ":14272,"Ġï¹ŀ":14273,"Ġî¶´":14274,"Ġî¶ħ":14275,"Ġî¶Ĳ":14276,"Ġãĭĩ":14277,"Ġãĭĸ":14278,"ĠãĴ¸":14279,"ĠãĴ»":14280,"ĠãĴı":14281,"ĠãĴŁ":14282,"Ġî¾¸":14283,"Ġî¾¹":14284,"Ġïĵ§":14285,"Ġïĵ¨":14286,"Ġïĵŀ":14287,"Ġã³ħ":14288,"ĠîĹ³":14289,"ĠçĪ®":14290,"ĠçĪľ":14291,"Ġê¥±":14292,"Ġê¥ĥ":14293,"Ġã°®":14294,"Ġã°¸":14295,"Ġã°ĥ":14296,"Ġã°Ĺ":14297,"Ġà«ĸ":14298,"Ġé«¸":14299,"Ġé«Ĩ":14300,"Ġé«Ķ":14301,"ĠãĬ°":14302,"Ġå¡ĥ":14303,"ĠéĬ¸":14304,"ĠéĬĲ":14305,"ĠéĬķ":14306,"Ġê©ĭ":14307,"Ġê©ĵ":14308,"Ġå°µ":14309,"Ġåİİ":14310,"ĠäĭĲ":14311,"Ġã¡¶":14312,"Ġçĭĥ":14313,"ĠåŃķ":14314,"Ġá«ī":14315,"ĠáĲİ":14316,"ĠæĶı":14317,"ĠæĶĺ":14318,"ĠçĨİ":14319,"Ġçĩ¯":14320,"Ġçĩ´":14321,"Ġçĩģ":14322,"Ġçĩĭ":14323,"Ġï³·":14324,"Ġà¬¬":14325,"Ġà¬ħ":14326,"Ġà¬Ĭ":14327,"Ġà¬Į":14328,"Ġà¬ŀ":14329,"ĠêĨ©":14330,"ĠêĨ¾":14331,"ĠáĬ¸":14332,"ĠèĽĦ":14333,"ĠèĽı":14334,"ĠïĲ±":14335,"Ġáĸ±":14336,"Ġáĸµ":14337,"ĠáĸĬ":14338,"Ġáĭ©":14339,"Ġáĵ©":14340,"Ġáĵĩ":14341,"Ġãĸº":14342,"Ġãĸķ":14343,"ĠîĪ¶":14344,"ĠîĪİ":14345,"Ġäĸ¾":14346,"Ġäĸĵ":14347,"ĠêĪģ":14348,"ĠäĹĵ":14349,"Ġã¤¤":14350,"Ġã¤·":14351,"Ġè³½":14352,"Ġè³ľ":14353,"Ġî¸»":14354,"Ġç¥¿":14355,"Ġç¥Ĥ":14356,"Ġç¥ŀ":14357,"ĠïĦ¿":14358,"ĠïĦī":14359,"ĠïĦĮ":14360,"Ġä¦Ģ":14361,"Ġäĩº":14362,"Ġäĩı":14363,"Ġäĩľ":14364,"Ġæ°ŀ":14365,"Ġæł·":14366,"Ġæł¹":14367,"Ġæłĳ":14368,"Ġæłĸ":14369,"Ġî°³":14370,"Ġî°ł":14371,"Ġêģ¡":14372,"Ġáĩª":14373,"Ġáĩ¯":14374,"Ġà®³":14375,"Ġà®ĭ":14376,"ĠãŃ¦":14377,"ĠåĤ³":14378,"Ġé¡ī":14379,"Ġé¡ŀ":14380,"ĠïĢ±":14381,"ĠïĢķ":14382,"ĠåĲĬ":14383,"Ġïĺ¯":14384,"Ġïĺ±":14385,"ĠïĺĮ":14386,"Ġå¬Ħ":14387,"Ġáį¬":14388,"Ġáį´":14389,"Ġáį¿":14390,"Ġã¬¤":14391,"Ġã¬ĵ":14392,"Ġåĥ·":14393,"ĠåĥĦ":14394,"Ġåĥŀ":14395,"Ġé³»":14396,"Ġé³¾":14397,"Ġé³ħ":14398,"Ġé³Ĳ":14399,"Ġãī¨":14400,"Ġá£ı":14401,"Ġá£Ļ":14402,"ĠéĲĻ":14403,"ĠéĲĽ":14404,"ĠåĨ·":14405,"ĠåĨĪ":14406,"ĠæĪķ":14407,"ĠæĪĸ":14408,"ĠæĪŁ":14409,"ĠãĢ¡":14410,"ĠãĢ£":14411,"Ġîĭĵ":14412,"Ġîĭļ":14413,"Ġåĸķ":14414,"Ġêĭ²":14415,"Ġêĭı":14416,"Ġç³£":14417,"Ġç³Ĩ":14418,"ĠáĮ¡":14419,"ĠáĮ¼":14420,"Ġè¹Ģ":14421,"Ġè¹İ":14422,"Ġè¹ĸ":14423,"Ġç£±":14424,"Ġå«¦":14425,"Ġå«¼":14426,"Ġå«ĩ":14427,"Ġî²Ľ":14428,"Ġêł¼":14429,"Ġàµ¯":14430,"Ġàµ¸":14431,"ĠèĨ¥":14432,"ĠèĨ°":14433,"ĠèĨ²":14434,"ĠèĨ»":14435,"Ġä®ĥ":14436,"Ġä®ĭ":14437,"Ġè²²":14438,"Ġè²»":14439,"Ġè²ĥ":14440,"ĠãĻĤ":14441,"Ġêĩª":14442,"Ġêĩ´":14443,"Ġêĩ·":14444,"Ġï¡¿":14445,"ĠãĪ¬":14446,"ĠãĪħ":14447,"ĠãĪı":14448,"ĠãĪĵ":14449,"Ġåģĵ":14450,"Ġé¼Ģ":14451,"ĠåŀĿ":14452,"ĠáĻ£":14453,"ĠáĻª":14454,"Ġà¿°":14455,"Ġà¿İ":14456,"Ġã«ģ":14457,"Ġã«Ī":14458,"ĠéĤ¸":14459,"Ġê¯ĭ":14460,"Ġáļ©":14461,"Ġã¥ī":14462,"ĠîĨ©":14463,"Ġá¥ı":14464,"Ġç«£":14465,"ĠâłĦ":14466,"ĠåĦ¿":14467,"ĠåĦŃ":14468,"Ġá¨¦":14469,"Ġá¨Ķ":14470,"ĠçĤ²":14471,"ĠçĤº":14472,"ĠçĤĦ":14473,"ĠçĤł":14474,"ĠçĻ©":14475,"ĠéĶ»":14476,"ĠéĶĺ":14477,"Ġáł¨":14478,"Ġáł©":14479,"Ġáł±":14480,"Ġáłİ":14481,"Ġç¬Ħ":14482,"ĠáĿ¹":14483,"ĠáĿĨ":14484,"Ġçł¸":14485,"Ġáħĵ":14486,"ĠáĨ¯":14487,"Ġáľ·":14488,"Ġáľı":14489,"ĠêĢ£":14490,"ĠêĻ¦":14491,"ĠêĻĵ":14492,"ĠêĻĻ":14493,"ĠèĪ£":14494,"Ġà¼¯":14495,"Ġà¼Ĩ":14496,"ĠïŃµ":14497,"ĠïŃ·":14498,"ĠïŃı":14499,"Ġãł¦":14500,"ĠéķĹ":14501,"ĠïĻĬ":14502,"ĠïĻı":14503,"Ġçĺı":14504,"Ġåłį":14505,"Ġåłı":14506,"Ġåļĳ":14507,"Ġáĥı":14508,"Ġà§¼":14509,"Ġáŀ¢":14510,"Ġáŀ²":14511,"Ġà°¹":14512,"Ġà°ľ":14513,"Ġê¦¤":14514,"Ġê¦©":14515,"Ġê¦®":14516,"Ġê¦ĳ":14517,"Ġê¦ļ":14518,"Ġê¢¢":14519,"Ġê¢§":14520,"ĠáĪľ":14521,"ĠàŃ´":14522,"ĠàŃĨ":14523,"Ġà©§":14524,"Ġà©¨":14525,"Ġà©´":14526,"Ġà©İ":14527,"Ġà¯¶":14528,"Ġà¯ĸ":14529,"Ġà·§":14530,"Ġà·İ":14531,"Ġê£¸":14532,"Ġê£Ļ":14533,"ĠçŃ¾":14534,"Ġï¬Ĭ":14535,"Ġï¬İ":14536,"ĠáĦĨáħ¨áĨ¹":14537,"Ġà¥«":14538,"Ġà¥°":14539,"Ġà¥Ĳ":14540,"Ġà±±":14541,"Ġà±»":14542,"ĠáĤĢ":14543,"Ġá¤į":14544,"Ġá¤Ķ":14545,"Ġá¤Ľ":14546,"ĠáĦĨáħ³áĨµ":14547,"ĠáĦĨáħ¡áĨ³":14548,"ĠáĦĨáħ¡áĨ½":14549,"ĠáĦĨáħ©áĨº":14550,"ĠáĦĨáħ©áĨ¼":14551,"Ġá°ĩ":14552,"Ġá°İ":14553,"Ġá°Ľ":14554,"Ġá°ł":14555,"ĠáĦħáħªáĨ±":14556,"ĠáĢ¡":14557,"ĠáĦĥáħ¨áĨ¨":14558,"Ġíŀ©":14559,"Ġâ·Ī":14560,"Ġâ·ĵ":14561,"ĠáŁ¿":14562,"ĠáŁł":14563,"ĠáĦĢáħ«áĨ¬":14564,"ĠáĦĢáħ«áĨ¾":14565,"ĠáĦħáħ«áĨµ":14566,"ĠáĦģáħ£áĨ¬":14567,"ĠáĦģáħ£áĨ¸":14568,"ĠáĦĭáħ´áĨ¬":14569,"ĠáĦĴáħµáĨµ":14570,"ĠáĦĳáħ¦áĨ»":14571,"ĠáĦģáħŃáĨ¬":14572,"ĠáĦģáħŃáĨ°":14573,"ĠáĦģáħŃáĨ¹":14574,"ĠáĦģáħŃáĨº":14575,"ĠáĦģáħŃáĨ½":14576,"ĠáĦĢáħ®áĨ¸":14577,"ĠáĦĮáħŃáĨ®":14578,"ĠáĦĮáħŃáĨŃ":14579,"ĠáĦĳáħ¨áĨ¬":14580,"ĠáĦĳáħ¨áĨ°":14581,"ĠáĦĳáħ§áĨ·":14582,"ĠáĦĳáħ§áĨº":14583,"ĠáĦĥáħ©áĨ±":14584,"ĠáĦĥáħ©áĨ¶":14585,"ĠáĦĥáħ©áĨ¼":14586,"ĠáĦĥáħ¦áĨ´":14587,"ĠáĦĴáħ´áĨ´":14588,"ĠáĦĴáħ´áĨ¿":14589,"ĠáĦĬáħ¨áĨ¶":14590,"ĠáĦĬáħ¨áĨ½":14591,"ĠáĦĬáħ¥áĨ¬":14592,"ĠáĦĬáħ¥áĨ±":14593,"ĠáĦĬáħ¥áĨ·":14594,"ĠáĦĬáħ¥áĨ¹":14595,"ĠáĦĬáħ²áĨ¯":14596,"ĠáĦĬáħ²áĨ°":14597,"ĠáĦĬáħ²áĨ²":14598,"ĠáĦĬáħ²áĨ³":14599,"ĠáĦĬáħ²áĨŃ":14600,"ĠáĦĮáħ®áĨ°":14601,"ĠáĦģáħ¤áĨ²":14602,"ĠáĦģáħ¤áĨº":14603,"ĠáĦħáħµáĨ®":14604,"ĠáĦĢáħ°áĨ¹":14605,"ĠáĦĩáħ«áĨ¶":14606,"ĠáĦĪáħ¦áĨ¯":14607,"ĠáĦĪáħ¦áĨ´":14608,"ĠáĦģáħ«áĨ¹":14609,"ĠáĦĮáħµáĨ·":14610,"ĠáĦĮáħµáĨ¼":14611,"ĠáĦįáħ¯áĨ³":14612,"ĠáĦįáħ¯áĨ¾":14613,"ĠáĦĨáħ±áĨ¯":14614,"ĠáĦĴáħ³áĨ¯":14615,"ĠáĦĴáħ³áĨ¾":14616,"ĠáĦĮáħ¬áĨª":14617,"ĠáĦĮáħ¬áĨ¯":14618,"ĠáĦĮáħ¬áĨ½":14619,"ĠáĦĢáħ¥áĨ©":14620,"ĠáĦĢáħ¥áĨ°":14621,"ĠáĦĢáħ¥áĨ¶":14622,"ĠáĦĢáħ¥áĨ½":14623,"ĠáĦįáħ®áĨ´":14624,"ĠáĦįáħ®áĨ¾":14625,"ĠáĦİáħ£áĨ³":14626,"ĠáĦħáħ´áĨ±":14627,"ĠáĦħáħ´áĨ²":14628,"ĠáĦĭáħ¨áĨµ":14629,"ĠáĦĮáħ²áĨ±":14630,"ĠáĦĮáħ²áĨ¿":14631,"ĠáĦħáħ£áĨ¯":14632,"ĠáĦħáħ£áĨº":14633,"ĠáĦįáħ±áĨ¶":14634,"ĠáĦĥáħ¢áĨ¶":14635,"ĠáĦĩáħ²áĨ¸":14636,"ĠáĦĦáħ°áĨ¯":14637,"ĠáĦĳáħŃáĨ¬":14638,"ĠáĦĳáħŃáĨ³":14639,"ĠáĦĳáħŃáĨ´":14640,"ĠáĦĳáħŃáĨ·":14641,"ĠáĦĨáħ´áĨ¶":14642,"ĠáĦģáħªáĨº":14643,"ĠáĦħáħ¬áĨ©":14644,"ĠòĴĸ":14645,"ĠáĦģáħ¥áĨ©":14646,"ĠáĦİáħªáĨ°":14647,"ĠáĦİáħªáĨ±":14648,"ĠáĦĨáħ«áĨ±":14649,"ĠáĦĨáħ«áĨº":14650,"ĠáĦĪáħµáĨ³":14651,"ĠáĦĪáħµáĨ·":14652,"ĠáĦıáħ¬áĨ®":14653,"ĠáĦıáħ¬áĨ±":14654,"ĠáĦıáħ¬áĨ³":14655,"ĠáĦıáħ¬áĨ¾":14656,"ĠáĦıáħ¬áĨŃ":14657,"ĠáĦĨáħµáĨ¶":14658,"ĠáĦĬáħ®áĨ¬":14659,"ĠáĦĬáħ®áĨ¸":14660,"ĠáĦĩáħ°áĨŃ":14661,"ĠáĦįáħ²áĨµ":14662,"ĠáĦįáħ²áĨ¹":14663,"ĠáĦįáħ²áĨº":14664,"ĠáĦİáħ¬áĨ²":14665,"ĠáĦİáħ¬áĨº":14666,"ĠáĦĨáħŃáĨ¹":14667,"ĠáĦĥáħ¥áĨ¹":14668,"ĠáĦĳáħ¥áĨ©":14669,"ĠáĦĳáħ¥áĨ²":14670,"ĠáĦĦáħ®áĨ¼":14671,"ĠáĦĮáħ¡áĨ¹":14672,"ĠáĦĮáħ¡áĨ¾":14673,"ĠáĦİáħ±áĨ¯":14674,"ĠáĦİáħ±áĨ¶":14675,"ĠáĦİáħ±áĨ¾":14676,"ĠáĦĨáħ°áĨ¶":14677,"ĠáĦģáħ¯áĨ¨":14678,"ĠáĦģáħ¯áĨ¯":14679,"ĠáĦĬáħ°áĨ³":14680,"ĠáĦĳáħ¤áĨª":14681,"ĠáĦĳáħ¤áĨ±":14682,"ĠáĦĬáħ©áĨ©":14683,"ĠáĦĬáħ©áĨ²":14684,"ĠáĦīáħ´áĨ´":14685,"ĠáĦīáħ´áĨ½":14686,"ĠáĦĪáħŃáĨ¨":14687,"ĠáĦĪáħŃáĨ²":14688,"ĠáĦĭáħ²áĨŃ":14689,"ĠáĦĥáħ³áĨª":14690,"ĠáĦĮáħ³áĨ¬":14691,"ĠáĦĥáħ£áĨ±":14692,"ĠáĦıáħ©áĨ¨":14693,"ĠáĦĩáħ¯áĨ³":14694,"ĠáĦĩáħ¯áĨ¼":14695,"ĠáĦģáħ¬áĨ¬":14696,"ĠáĦģáħ¬áĨ°":14697,"ĠáĦīáħ£áĨ·":14698,"ĠáĦģáħ¡áĨ³":14699,"ĠáĦĭáħ°áĨ©":14700,"ĠáĦĭáħ°áĨ¬":14701,"ĠáĦĴáħ±áĨ²":14702,"ĠáĦįáħ¬áĨª":14703,"ĠáĦĳáħ¡áĨº":14704,"ĠáĦĮáħ£áĨ±":14705,"ĠáĦĮáħ£áĨ²":14706,"ĠáĦĮáħ£áĨ¹":14707,"ĠáĦħáħ¥áĨ´":14708,"ĠáĦĭáħ±áĨ«":14709,"ĠáĦĭáħ±áĨ³":14710,"ĠáĦĭáħ±áĨ»":14711,"ĠáĦĩáħªáĨ¨":14712,"ĠáĦĩáħªáĨª":14713,"ĠáĦİáħ¡áĨ»":14714,"ĠáĦĥáħ²áĨª":14715,"ĠáĦĳáħ±áĨª":14716,"ĠáĦĳáħ±áĨ®":14717,"ĠáĦĳáħ±áĨµ":14718,"ĠáĦĮáħ§áĨ©":14719,"ĠáĦĮáħ§áĨ³":14720,"ĠáĦĮáħ§áĨµ":14721,"ĠáĦįáħ°áĨ©":14722,"ĠáĦįáħ°áĨ²":14723,"ĠáĦįáħ°áĨº":14724,"ĠáĦıáħ¡áĨ¬":14725,"ĠáĦıáħ¡áĨ°":14726,"ĠáĦıáħ¡áĨ±":14727,"ĠáĦıáħ¡áĨŃ":14728,"ĠáĦĪáħ´áĨ½":14729,"ĠáĦĪáħ´áĨ¿":14730,"ĠáĦĦáħ¯áĨ³":14731,"ĠáĦĦáħ±áĨ½":14732,"ĠáĦĳáħ©áĨª":14733,"ĠáĦĳáħ©áĨ·":14734,"ĠáĦĬáħ±áĨ³":14735,"ĠáĦįáħ³áĨ¬":14736,"ĠáĦĤáħ¢áĨ«":14737,"ĠáĦĤáħ¢áĨ¬":14738,"ĠáĦĤáħ¢áĨ½":14739,"ĠáĦĦáħŃáĨ©":14740,"ĠáĦĦáħŃáĨª":14741,"ĠáĦĦáħŃáĨ¼":14742,"Ġá©ĥ":14743,"ĠáĦĮáħ¯áĨ©":14744,"ĠáĦĳáħ£áĨ¼":14745,"ĠáĦĬáħŃáĨ¿":14746,"ĠáĦĥáħŃáĨ¼":14747,"ĠáĦİáħ¯áĨª":14748,"ĠáĦİáħ¯áĨ±":14749,"ĠáĦİáħ¯áĨ²":14750,"ĠáĦīáħ¢áĨ»":14751,"ĠáĦīáħ¢áĨ¿":14752,"ĠáĦĨáħ¯áĨ·":14753,"ĠáĦĨáħ¯áĨ½":14754,"ĠáĦĨáħ¥áĨ¬":14755,"ĠáĦĨáħ¥áĨ³":14756,"ĠáĦİáħŃáĨ©":14757,"ĠáĦİáħŃáĨª":14758,"ĠáĦİáħŃáĨ®":14759,"ĠáĦīáħ§áĨº":14760,"ĠáĦĮáħ©áĨ¨":14761,"ĠáĦĮáħ©áĨ«":14762,"ĠáĦĳáħ¬áĨ»":14763,"ĠáĦĪáħ£áĨ²":14764,"ĠáĦĪáħ£áĨ½":14765,"ĠáĦĢáħ¬áĨª":14766,"ĠáĦĢáħ¬áĨ±":14767,"ĠáĦĢáħ¬áĨ¾":14768,"ĠáĦĢáħ¬áĨŃ":14769,"ĠáĦĲáħ¬áĨ¸":14770,"ĠáĦĩáħ¤áĨ°":14771,"ĠáĦĩáħ¤áĨ¾":14772,"ĠáĦİáħ¨áĨ¿":14773,"ĠáĦĲáħ£áĨ¨":14774,"ĠáĦĮáħ¨áĨ»":14775,"ĠáĦĮáħ¨áĨ¾":14776,"ĠáĦĨáħ¦áĨ²":14777,"ĠáĦĨáħ¦áĨ¿":14778,"ĠáĦĢáħ³áĨ®":14779,"ĠáĦĢáħ³áĨ¼":14780,"ĠáĦįáħ¦áĨ±":14781,"ĠáĦħáħ°áĨ½":14782,"ĠáĦĢáħªáĨ±":14783,"ĠáĦĢáħªáĨ¿":14784,"ĠáĦĮáħ±áĨ¯":14785,"ĠáĦĢáħ´áĨ¨":14786,"ĠáĦĳáħ²áĨ¨":14787,"ĠáĦĴáħŃáĨ°":14788,"ĠáĦĴáħŃáĨ¾":14789,"ĠáĦĪáħ²áĨ·":14790,"ĠáĦĲáħ±áĨ¼":14791,"ĠáĦĬáħ¡áĨ¬":14792,"ĠáĦĬáħ¡áĨ»":14793,"ĠáĦīáħ©áĨ¹":14794,"ĠáĦīáħªáĨ¯":14795,"ĠáĦĪáħ¥áĨ¶":14796,"ĠáĦĪáħ¥áĨ·":14797,"ĠáĦĪáħ¥áĨ½":14798,"ĠáĦĪáħ¥áĨ¾":14799,"ĠáĦıáħŃáĨ¯":14800,"ĠáĦīáħ¬áĨ¯":14801,"ĠáĦĬáħ¢áĨ²":14802,"ĠáĦįáħ¡áĨ¾":14803,"ĠáĦİáħ¢áĨ²":14804,"ĠáĦİáħ¢áĨµ":14805,"ĠáĦĲáħ¡áĨ±":14806,"ĠáĦĲáħ¡áĨ²":14807,"ĠáĦĲáħªáĨº":14808,"ĠáĦįáħ¤áĨ°":14809,"ĠáĦıáħ«áĨº":14810,"ĠáĦįáħ´áĨ¶":14811,"ĠáĦĩáħŃáĨ°":14812,"ĠáĦĭáħ§áĨ¬":14813,"ĠáĦĤáħ´áĨ°":14814,"ĠáĦĤáħ´áĨ¸":14815,"ĠáĦĴáħ¥áĨ±":14816,"ĠáĦĮáħªáĨ´":14817,"ĠáĦĮáħ¦áĨµ":14818,"ĠáĦĤáħ³áĨ¶":14819,"ĠáĦĤáħ³áĨ¾":14820,"ĠáĦĥáħ«áĨ³":14821,"ĠáĦĴáħ¤áĨ¶":14822,"ĠáĦĴáħ¦áĨ·":14823,"ĠáĦĴáħ¦áĨ»":14824,"ĠáĦħáħ§áĨ·":14825,"ĠáĦħáħ§áĨ»":14826,"ĠáĦĲáħ¨áĨ©":14827,"ĠáĦĥáħ¤áĨ²":14828,"ĠáĦĥáħ¤áĨµ":14829,"ĠáĦĥáħ¤áĨº":14830,"ĠáĦĥáħ¤áĨ¼":14831,"ĠáĦįáħ©áĨ¨":14832,"ĠáĦıáħ°áĨ²":14833,"ĠáĦĲáħ¥áĨ³":14834,"ĠáĦĤáħ¤áĨµ":14835,"ĠáĦĤáħ¤áĨŃ":14836,"ĠáĦĦáħ³áĨ¹":14837,"ĠáĦĩáħ³áĨ©":14838,"ĠáĦĩáħ³áĨª":14839,"ĠáĦĩáħ³áĨ®":14840,"ĠáĦĴáħªáĨ±":14841,"ĠáĦĴáħªáĨ¸":14842,"ĠáĦīáħ¦áĨ®":14843,"ĠáĦīáħ¦áĨ¯":14844,"ĠáĦīáħ¦áĨ»":14845,"ĠáĦĭáħªáĨ¶":14846,"ĠáĦįáħ£áĨ°":14847,"ĠáĦįáħ£áĨµ":14848,"ĠáĦįáħ£áĨº":14849,"ĠáĦĪáħ«áĨ®":14850,"ĠáĦħáħ±áĨ½":14851,"ĠáĦĢáħ¡áĨº":14852,"ĠáĦįáħ¥áĨ¸":14853,"ĠáĦĦáħ«áĨ½":14854,"ĠáĦĦáħµáĨ¯":14855,"ĠáĦĦáħµáĨ´":14856,"ĠáĦĩáħ¦áĨ¾":14857,"ĠáĦĥáħ®áĨ»":14858,"ĠáĦįáħ¢áĨº":14859,"ĠáĦĦáħ´áĨ¹":14860,"ĠáĦįáħµáĨ¶":14861,"ĠáĦĳáħ°áĨ©":14862,"ĠáĦĳáħ°áĨº":14863,"ĠáĦĳáħ°áĨ½":14864,"ĠáĦĲáħ§áĨ¯":14865,"ĠáĦĲáħ§áĨ¼":14866,"ĠáĦĪáħ®áĨ°":14867,"ĠáĦĪáħ®áĨ¼":14868,"ĠáĦĴáħ«áĨ¯":14869,"ĠáĦıáħ¦áĨ½":14870,"ĠáĦįáħªáĨ±":14871,"ĠáĦĦáħ§áĨ©":14872,"ĠáĦĤáħ¨áĨ¶":14873,"ĠáĦĲáħ²áĨ´":14874,"ĠáĦĲáħ²áĨ¹":14875,"ĠáĦĮáħ«áĨª":14876,"ĠáĦİáħ¥áĨ±":14877,"ĠáĦĤáħ©áĨ¨":14878,"ĠáĦĤáħ©áĨ½":14879,"ĠáĦīáħµáĨ²":14880,"ĠáĦĦáħ©áĨª":14881,"ĠáĦĦáħ©áĨ¼":14882,"ĠáĦĦáħ¢áĨª":14883,"ĠáĦĦáħ¥áĨ¯":14884,"ĠáĦĦáħ¥áĨ¹":14885,"ĠáĦĦáħ¥áĨ¾":14886,"ĠáĦĬáħªáĨ¯":14887,"ĠáĦĳáħªáĨ¨":14888,"ĠáĦĲáħ®áĨ»":14889,"ĠáĦĩáħ¨áĨŃ":14890,"ĠáĦıáħµáĨ¾":14891,"ĠáĦĭáħ¬áĨº":14892,"ĠáĦıáħ§áĨ©":14893,"ĠáĦıáħ§áĨ»":14894,"ĠáĦĤáħ«áĨª":14895,"ĠáĦĥáħ¬áĨ«":14896,"ĠáĦĴáħ¯áĨ¾":14897,"ĠáĦıáħ³áĨ³":14898,"ĠáĦĲáħ¦áĨº":14899,"ĠáĦĥáħ±áĨ¾":14900,"ĠáĦĲáħ°áĨ¹":14901,"ĠáĦģáħ´áĨ³":14902,"ĠáĦģáħ´áĨ¾":14903,"ĠáĦıáħ´áĨº":14904,"ĠáĦħáħ¨áĨ½":14905,"ĠáĦĳáħµáĨ¿":14906,"ĠáĦĤáħŃáĨ°":14907,"ĠáĦĲáħ³áĨª":14908,"ĠáĦīáħ®áĨ±":14909,"ĠðĿĺ¦":14910,"Ġï¨ı":14911,"Ġáºŀ":14912,"Ġá¼Ł":14913,"ĠðŁİµ":14914,"¡¡":14915,"¡¤":14916,"¢Ł":14917,"£¦":14918,"£Ĩ":14919,"¤ģ":14920,"¥£":14921,"¥©":14922,"¥¬":14923,"¥®":14924,"¥·":14925,"¦®":14926,"¦µ":14927,"¦·":14928,"¦ĭ":14929,"§¶":14930,"§ĥ":14931,"§Ħ":14932,"§ľ":14933,"¨¨":14934,"¨¶":14935,"¨Į":14936,"©¬":14937,"©°":14938,"©µ":14939,"ª®":14940,"ªķ":14941,"ªŁ":14942,"««":14943,"«»":14944,"«¾":14945,"«Ģ":14946,"«ĸ":14947,"®¡":14948,"®°":14949,"®¹":14950,"®¾":14951,"®ģ":14952,"®ī":14953,"¯ķ":14954,"¯Ń":14955,"°¼":14956,"±ĥ":14957,"²ĩ":14958,"²ĸ":14959,"³£":14960,"³°":14961,"³·":14962,"³ĵ":14963,"µ±":14964,"µ¼":14965,"µ¿":14966,"µĲ":14967,"µŀ":14968,"¶¯":14969,"·²":14970,"·º":14971,"·»":14972,"·ī":14973,"¹¢":14974,"¹ı":14975,"¹Ń":14976,"º¦":14977,"º©":14978,"º¹":14979,"ºį":14980,"ºķ":14981,"»¬":14982,"»¶":14983,"¼·":14984,"¼¸":14985,"½£":14986,"½¨":14987,"½¿":14988,"½Ĩ":14989,"½ı":14990,"¾³":14991,"¾¼":14992,"¾ħ":14993,"¾ķ":14994,"¿«":14995,"¿®":14996,"¿³":14997,"¿»":14998,"¿Ĥ":14999,"¿Ĵ":15000,"¿ĵ":15001,"Ģ¢":15002,"Ģ¦":15003,"Ģľ":15004,"ĢŁ":15005,"ģĴ":15006,"ģŀ":15007,"Ĥ´":15008,"Ĥģ":15009,"Ĥŀ":15010,"ĥ¡":15011,"ĥ¸":15012,"ĥ¿":15013,"ĥĦ":15014,"ĥİ":15015,"ĦĨ":15016,"ħ§":15017,"ħ¹":15018,"Ĩ¼":15019,"Ĩĸ":15020,"ĩ»":15021,"ĩī":15022,"ĩķ":15023,"ĩĹ":15024,"ĩĻ":15025,"ĩļ":15026,"ĪĹ":15027,"ī´":15028,"ī¿":15029,"īı":15030,"īĴ":15031,"Ĭ¸":15032,"ĬĤ":15033,"Ĭĭ":15034,"Į¤":15035,"Į§":15036,"Į´":15037,"ĮĴ":15038,"į©":15039,"įī":15040,"įĹ":15041,"İĩ":15042,"İī":15043,"İı":15044,"İĴ":15045,"ı¨":15046,"ıĪ":15047,"ıĺ":15048,"Ĳª":15049,"Ĳº":15050,"ĲĮ":15051,"Ĳı":15052,"ĳĢ":15053,"Ĵ§":15054,"Ĵ¨":15055,"Ĵ»":15056,"ĴĬ":15057,"ĵĬ":15058,"ĵĶ":15059,"ĶŃ":15060,"ķµ":15061,"ķł":15062,"ĸ¥":15063,"ĸ§":15064,"ĸ¨":15065,"ĸ®":15066,"ĸ¾":15067,"ĸĨ":15068,"ĸĳ":15069,"ĸŀ":15070,"Ĺ©":15071,"ĹĪ":15072,"Ĺĸ":15073,"ĺĲ":15074,"ĺł":15075,"ĻĮ":15076,"Ļį":15077,"Ļľ":15078,"ļį":15079,"Ľĳ":15080,"ĽĹ":15081,"ľĨ":15082,"ľĴ":15083,"Ŀ¬":15084,"Ŀ¶":15085,"Ŀ¾":15086,"Ŀķ":15087,"ĿĹ":15088,"ŀ«":15089,"ŀ±":15090,"ŀº":15091,"ŀ¾":15092,"ŀĻ":15093,"ŁĨ":15094,"Łį":15095,"Łĺ":15096,"ŁĻ":15097,"ł¢":15098,"ł©":15099,"łĿ":15100,"łŁ":15101,"Ń¯":15102,"Ń±":15103,"Ń¾":15104,"Ġï¿©":15105,"Ġï¿»":15106,"Ġï¿Ń":15107,"ĠâĢ¸":15108,"ĠâĻĥ":15109,"ĠâĻĨ":15110,"ĠâĻī":15111,"ĠáĦ´":15112,"Ġâĸ·":15113,"ĠâĸĨ":15114,"ĠáĦĨáħ°":15115,"ĠáĦĨáħ³áĩĢ":15116,"ĠáĦĬáħ©":15117,"ĠáĦĬáħ±":15118,"ĠáĦĬáħ±áĩĢ":15119,"ĠáĦĬáħ¡áĩģ":15120,"ĠáĦĬáħµáĩģ":15121,"ĠáĦħáħ¤":15122,"ĠáĦħáħ¥":15123,"ĠáĦħáħ¦":15124,"ĠáĦħáħ©":15125,"ĠáĦħáħ´":15126,"ĠáĦħáħ¨áĩģ":15127,"ĠáĦħáħ£áĩĤ":15128,"ĠáĦħáħ©áĩĢ":15129,"ĠáĦģáħ¯áĩĢ":15130,"ĠáĦģáħ¤áĩĤ":15131,"ĠáĦģáħ¯áĩģ":15132,"ĠáĦĭáħ±áĩĤ":15133,"ĠáĦĭáħ£áĩĤ":15134,"ĠáĦĮáħ¢áĩĤ":15135,"ĠáĦĮáħ¯áĩĢ":15136,"ĠáĦĮáħ§áĩĢ":15137,"ĠáĦĮáħ°áĩĤ":15138,"ĠáĦĮáħ¬áĩĤ":15139,"ĠáĦĮáħ¬áĩģ":15140,"ĠáĦĥáħ«":15141,"ĠáĦĥáħ¡áĩĢ":15142,"ĠáĦĥáħªáĩĤ":15143,"ĠáĦĥáħŃáĩĤ":15144,"ĠáĦĥáħ²áĩģ":15145,"ĠáĦĥáħ§áĩģ":15146,"ĠáĦĢáħµ":15147,"ĠáĦĢáħªáĩĤ":15148,"ĠáĦĢáħŃáĩģ":15149,"ĠáĦĢáħ²áĩĤ":15150,"ĠáĦĢáħ«áĩĢ":15151,"ĠáĦĢáħ²áĩĢ":15152,"ĠáĦĢáħ¤áĩĢ":15153,"ĠáĦįáħ¡":15154,"ĠáĦįáħ¦":15155,"ĠáĦįáħ°áĩģ":15156,"ĠáĦįáħ³áĩĤ":15157,"ĠáĦįáħ¬áĩģ":15158,"ĠáĦĳáħ£áĩģ":15159,"ĠáĦĳáħªáĩĢ":15160,"ĠáĦĩáħ§":15161,"ĠáĦĩáħ¢áĩĤ":15162,"ĠáĦĩáħ§áĩĢ":15163,"ĠáĦĩáħ¡áĩĤ":15164,"ĠáĦİáħ¢áĩĢ":15165,"ĠáĦİáħ«áĩģ":15166,"ĠáĦİáħ©áĩģ":15167,"ĠáĦİáħ£áĩĢ":15168,"ĠáĦĴáħ¡áĩĢ":15169,"ĠáĦĴáħ´áĩĢ":15170,"ĠáĦīáħ¯áĩĤ":15171,"ĠáĦīáħ¨áĩģ":15172,"ĠáĦīáħµáĩģ":15173,"ĠáĦĪáħ³áĩģ":15174,"ĠáĦĪáħ¤áĩģ":15175,"ĠáĦĪáħ¥áĩĢ":15176,"ĠáĦĪáħ£áĩĤ":15177,"ĠáĦĪáħ©áĩĢ":15178,"ĠáĦıáħ«":15179,"ĠáĦıáħ³áĩģ":15180,"ĠáĦıáħ²áĩģ":15181,"ĠáĦıáħ¨áĩĤ":15182,"ĠáĦıáħ¥áĩģ":15183,"ĠáĦıáħ©áĩģ":15184,"ĠáĦĦáħ¨":15185,"ĠáĦĦáħ¯áĩĢ":15186,"ĠáĦĦáħ«áĩģ":15187,"ĠáĦĦáħ¦áĩĢ":15188,"ĠáĦĲáħ¦":15189,"ĠáĦĲáħ¢áĩĢ":15190,"ĠáĦĤáħ«":15191,"ĠâĤİ":15192,"ĠâĤŁ":15193,"ĠâĪ©":15194,"ĠâĪĿ":15195,"ĠâĦ´":15196,"ĠâĦĪ":15197,"ĠâĦĲ":15198,"ĠâĦĵ":15199,"Ġéĵ¯":15200,"ĠéĵĬ":15201,"ĠéĵĲ":15202,"ĠâĴ«":15203,"ĠâĴ²":15204,"ĠâĴĬ":15205,"ĠâĴį":15206,"ĠâŁ¬":15207,"ĠâŁ¾":15208,"ĠâŁĤ":15209,"ĠâŁī":15210,"ĠâŁĴ":15211,"Ġâĺ¤":15212,"Ġâģ¡":15213,"ĠâģĽ":15214,"Ġãıº":15215,"Ġçı¼":15216,"ĠçıĮ":15217,"ĠâĿ´":15218,"ĠâĿĹ":15219,"ĠãŁħ":15220,"ĠãŁŀ":15221,"Ġâľ¢":15222,"Ġâľ°":15223,"Ġâľ±":15224,"ĠçŁ«":15225,"ĠçŁĸ":15226,"Ġïı¶":15227,"Ġâ¥¬":15228,"Ġâ¥¹":15229,"Ġâ¥ģ":15230,"Ġâ¥Ĥ":15231,"Ġâ¥ĩ":15232,"Ġâ¥ķ":15233,"ĠäĴ«":15234,"ĠäĴĢ":15235,"Ġæĺ¨":15236,"Ġæĺ¸":15237,"Ġæĺ¹":15238,"ĠäĶ¡":15239,"ĠäĶ²":15240,"ĠäĶĢ":15241,"ĠäĶĥ":15242,"ĠäĶī":15243,"ĠäĶĭ":15244,"ĠäĶķ":15245,"Ġã§³":15246,"Ġã§´":15247,"Ġã§½":15248,"Ġã§Ĩ":15249,"Ġã§Į":15250,"Ġã§Ŀ":15251,"Ġã§ŀ":15252,"Ġã¢¬":15253,"Ġã¢¹":15254,"Ġã¢Ĺ":15255,"Ġã¢Ļ":15256,"ĠäĵĤ":15257,"ĠäĵĶ":15258,"Ġæģ¤":15259,"Ġæģ¹":15260,"ĠæģĹ":15261,"Ġã·®":15262,"Ġã·²":15263,"Ġã·ĵ":15264,"Ġã·ŀ":15265,"ĠâĨ´":15266,"ĠâĨī":15267,"Ġã²¨":15268,"Ġã²±":15269,"Ġã²Ĳ":15270,"Ġã²Ł":15271,"Ġîı£":15272,"Ġîı´":15273,"Ġîıħ":15274,"Ġâį¬":15275,"Ġâįľ":15276,"Ġãª°":15277,"Ġãª±":15278,"Ġãª¼":15279,"ĠãªĪ":15280,"ĠãªĮ":15281,"ĠãªĶ":15282,"Ġãªľ":15283,"Ġéŀ¤":15284,"Ġéŀ°":15285,"ĠéŀŃ":15286,"ĠîĴ¦":15287,"ĠîĴ¼":15288,"ĠîĴĳ":15289,"ĠíŁ¸":15290,"Ġç·¡":15291,"Ġç·¦":15292,"Ġç·»":15293,"Ġç·ľ":15294,"ĠäĿ¼":15295,"ĠäĿĻ":15296,"Ġçİ¨":15297,"Ġçİº":15298,"Ġçİĥ":15299,"ĠçİĪ":15300,"Ġäľ¦":15301,"ĠäľĦ":15302,"ĠäľĨ":15303,"Ġäľķ":15304,"Ġäľĸ":15305,"Ġäľļ":15306,"ĠæĴ·":15307,"ĠæĴĳ":15308,"Ġã¿¾":15309,"Ġã¿Ģ":15310,"Ġã¿ħ":15311,"Ġã¿ī":15312,"Ġã¯°":15313,"Ġã¯²":15314,"Ġã¯µ":15315,"Ġã¯İ":15316,"ĠîŁ§":15317,"ĠîŁ©":15318,"ĠîŁ³":15319,"ĠîŁĨ":15320,"ĠîŁĮ":15321,"ĠîŁĸ":15322,"ĠîŁĺ":15323,"ĠîŁľ":15324,"ĠäŁ®":15325,"ĠäŁ´":15326,"ĠäŁģ":15327,"ĠäŁĮ":15328,"ĠäŁķ":15329,"ĠäŁł":15330,"Ġæįµ":15331,"ĠæįĲ":15332,"ĠîĿ¥":15333,"ĠîĿĭ":15334,"ĠîĿĻ":15335,"ĠîĿļ":15336,"ĠîĿŀ":15337,"Ġæľ¢":15338,"ĠæľĤ":15339,"Ġæľĺ":15340,"Ġãŀ¤":15341,"ĠãŀĲ":15342,"Ġãº®":15343,"Ġãº¼":15344,"ĠãºĪ":15345,"Ġéİĭ":15346,"Ġçº«":15347,"Ġçºĵ":15348,"ĠçºŁ":15349,"ĠéŁ¤":15350,"ĠéŁ¼":15351,"ĠéŁĦ":15352,"ĠéŁĪ":15353,"ĠéŁĲ":15354,"ĠéŁĿ":15355,"ĠéŁł":15356,"ĠèĴĢ":15357,"ĠèĴĭ":15358,"Ġïŀ«":15359,"Ġïŀ½":15360,"ĠïŀĤ":15361,"Ġïŀł":15362,"Ġäı¼":15363,"ĠäıĮ":15364,"Ġäıĳ":15365,"Ġæĵ¾":15366,"ĠêĴ¦":15367,"ĠêĴª":15368,"ĠæĹ¡":15369,"ĠæĹ¯":15370,"ĠæĹ¿":15371,"ĠæĹĴ":15372,"ĠæĹŃ":15373,"Ġäĳ¡":15374,"Ġäĳ¢":15375,"Ġäĳ·":15376,"Ġäĳģ":15377,"Ġäĳĩ":15378,"ĠäĳĿ":15379,"Ġâķº":15380,"ĠâķĮ":15381,"ĠâķĴ":15382,"Ġäį±":15383,"ĠâĹ¡":15384,"ĠâĹ±":15385,"ĠâĹĥ":15386,"ĠâĹī":15387,"Ġå¾¢":15388,"Ġå¾»":15389,"Ġå¾Ĵ":15390,"Ġå¾ķ":15391,"Ġå¾ĸ":15392,"Ġå¾Ľ":15393,"Ġå¾Ŀ":15394,"Ġá¢º":15395,"Ġá¢į":15396,"Ġá¢ķ":15397,"Ġâĵ¼":15398,"ĠçĦ«":15399,"ĠçĦ´":15400,"ĠçĦ¹":15401,"ĠçĦĦ":15402,"ĠçĦĴ":15403,"ĠçĦĽ":15404,"ĠçĶ©":15405,"ĠçĶ´":15406,"ĠçĶ·":15407,"ĠçĶ¹":15408,"ĠçĶİ":15409,"Ġæĸ£":15410,"Ġæĸ·":15411,"ĠæĸĪ":15412,"Ġæĸī":15413,"Ġæĸĺ":15414,"Ġá§©":15415,"Ġá§¯":15416,"Ġá§Ļ":15417,"Ġéº«":15418,"Ġéº¼":15419,"ĠéºĶ":15420,"ĠéºĽ":15421,"Ġçŀ¬":15422,"ĠçŀŁ":15423,"Ġé¾¥":15424,"Ġãİ£":15425,"Ġîĵ¶":15426,"Ġîĵĭ":15427,"Ġîĵĵ":15428,"Ġãĳĵ":15429,"Ġãĳļ":15430,"Ġãĵ¢":15431,"Ġãĵ·":15432,"ĠãĵĢ":15433,"Ġâ£ļ":15434,"Ġâ£Ł":15435,"Ġéı¾":15436,"ĠéıĤ":15437,"Ġéıł":15438,"ĠêĿ¬":15439,"ĠêĿ¸":15440,"ĠêĿ½":15441,"ĠêĿĨ":15442,"ĠêĿĭ":15443,"Ġá¦¯":15444,"Ġá¦°":15445,"Ġá¦ģ":15446,"Ġá¦Ĭ":15447,"Ġç²¶":15448,"Ġç²Ĥ":15449,"Ġç²Ĳ":15450,"Ġç²ĵ":15451,"Ġç¿ĩ":15452,"Ġç¿Į":15453,"Ġãĥ°":15454,"Ġï¢¢":15455,"Ġï¢µ":15456,"Ġï¢¾":15457,"Ġï¢ŀ":15458,"Ġî´£":15459,"Ġî´½":15460,"Ġî´Ľ":15461,"ĠîĻ¨":15462,"ĠîĻ©":15463,"Ġè££":15464,"Ġè£®":15465,"Ġè£Ĥ":15466,"Ġè£ĸ":15467,"Ġè£Ł":15468,"Ġâŀ£":15469,"Ġâŀ«":15470,"Ġâŀ¼":15471,"Ġâŀģ":15472,"Ġâŀħ":15473,"Ġâŀı":15474,"ĠâŀĿ":15475,"ĠâŀŃ":15476,"ĠîŃ®":15477,"ĠîŃ½":15478,"ĠîŃĪ":15479,"ĠîŃĭ":15480,"ĠîŃİ":15481,"ĠîŃĲ":15482,"Ġéļ«":15483,"ĠéļĦ":15484,"Ġéļį":15485,"Ġéļİ":15486,"Ġéļĳ":15487,"Ġéļĸ":15488,"Ġâıª":15489,"Ġâı¹":15490,"Ġâı½":15491,"Ġäİ©":15492,"Ġäİĺ":15493,"Ġäİļ":15494,"Ġæķµ":15495,"ĠæķĮ":15496,"Ġç¾¨":15497,"Ġç¾©":15498,"Ġç¾°":15499,"Ġç¾º":15500,"Ġäĥ¤":15501,"Ġäĥ´":15502,"Ġîľ¦":15503,"Ġîľģ":15504,"ĠäĬ¼":15505,"ĠäĬĭ":15506,"ĠäĬŀ":15507,"Ġå±±":15508,"Ġå±ĥ":15509,"Ġå±Ķ":15510,"Ġä¸¹":15511,"Ġä¸İ":15512,"Ġä¸ĸ":15513,"Ġä¸Ľ":15514,"ĠäĤ¼":15515,"ĠäĤģ":15516,"ĠäĤĴ":15517,"Ġäº³":15518,"Ġäº·":15519,"Ġäºĥ":15520,"ĠäºĪ":15521,"Ġäºĵ":15522,"ĠäºĹ":15523,"Ġäºļ":15524,"Ġäºľ":15525,"ĠäºŁ":15526,"Ġî£³":15527,"Ġî£Ĥ":15528,"Ġî£Ĩ":15529,"Ġî£Ĵ":15530,"Ġé´¸":15531,"Ġé´ĭ":15532,"Ġé´ı":15533,"Ġç¯¥":15534,"ĠêŃ¥":15535,"ĠêŃ§":15536,"ĠêŃ²":15537,"ĠêŃ»":15538,"ĠêŃħ":15539,"ĠêŃĭ":15540,"ĠêŃŃ":15541,"ĠäĮ©":15542,"Ġï»½":15543,"Ġâīĥ":15544,"Ġâīı":15545,"ĠâīĽ":15546,"Ġäģģ":15547,"ĠäģĨ":15548,"Ġîįµ":15549,"Ġîįĭ":15550,"ĠîįĽ":15551,"Ġîįľ":15552,"Ġé»¬":15553,"Ġé»¹":15554,"Ġé»½":15555,"Ġé»ĵ":15556,"Ġé»ł":15557,"ĠãĦ¡":15558,"ĠãĦĮ":15559,"Ġâ«¡":15560,"Ġâ«¬":15561,"Ġâ«®":15562,"Ġâ«³":15563,"Ġâ«¸":15564,"Ġâ«Ĵ":15565,"Ġâ«Ľ":15566,"Ġïįµ":15567,"Ġïį¼":15568,"Ġïįħ":15569,"Ġïįł":15570,"Ġî§¨":15571,"Ġî§®":15572,"Ġî§°":15573,"Ġî§µ":15574,"Ġî§½":15575,"Ġî§Ń":15576,"Ġé·§":15577,"Ġé·²":15578,"Ġé·¾":15579,"Ġé·ĵ":15580,"Ġèĺ·":15581,"Ġèĺĥ":15582,"ĠèĺĻ":15583,"ĠèĺŁ":15584,"Ġæº·":15585,"ĠæºĨ":15586,"Ġæºī":15587,"ĠæºŃ":15588,"ĠãĶ¸":15589,"ĠãĶ¿":15590,"ĠãĶĥ":15591,"ĠãĶĨ":15592,"ĠâħĻ":15593,"ĠâħŃ":15594,"Ġï¯¡":15595,"Ġï¯Ĺ":15596,"Ġï¯ļ":15597,"ĠèĿ¢":15598,"ĠèĿ£":15599,"ĠèĿ±":15600,"ĠèĿ²":15601,"ĠèĿŀ":15602,"Ġç§ĵ":15603,"ĠèŁ¶":15604,"Ġè«½":15605,"Ġè«ĵ":15606,"Ġè«Ĺ":15607,"Ġé¸¢":15608,"Ġé¸®":15609,"Ġâļ¯":15610,"ĠâļĿ":15611,"Ġäķ¥":15612,"Ġäķ¬":15613,"Ġäķ°":15614,"Ġäķ»":15615,"Ġäķħ":15616,"ĠäķĨ":15617,"Ġäķĩ":15618,"ĠäķĽ":15619,"ĠäķŁ":15620,"Ġäķł":15621,"ĠçĮ§":15622,
[...]
