#version: 0.2
Ġ e
Ġ t
Ġ o
Ġ a
Ġ i
Ġ n
Ġ s
Ġ ï
Ġï ¿
Ġï¿ ½
Ġ r
Ġ h
Ġ l
Ġ d
Ġ u
Ġ c
Ġ m
Ġ y
Ġ g
Ġ w
Ġ f
Ġ p
Ġ b
Ġ k
Ġ v
Ġ .
Ġ I
Ġ '
Ġ Ċ
Ġ ,
Ġ E
Ġ T
Ġ A
Ġ S
Ġ O
Ġ N
Ġ R
Ġ H
Ġ L
Ġ C
Ġ D
Ġ 0
Ġ x
Ġ j
Ġ M
Ġ -
Ġ W
Ġ U
Ġ P
Ġ B
Ġ Y
Ġ G
Ġ >
Ġ F
Ġ 1
Ġ q
Ġ 2
Ġ z
Ġ ?
Ġ K
Ġ 5
Ġ V
Ġ 3
Ġ J
Ġ 4
Ġ (
Ġ 6
Ġ :
Ġ 9
Ġ )
Ġ [
Ġ 8
Ġ ]
Ġ 7
Ġ ;
Ġ "
Ġ $
Ġ ġ
Ġ â
Ġ Ĕ
Ġ Q
Ġ X
Ġ ā
Ġ @
Ġ /
Ġ _
Ġ Ă
Ġ |
Ġ %
Ġ ~
Ġ Z
Ġ ą
Ġ ^
Ġ !
Ġ *
Ġ =
Ġ ď
Ġ ć
Ġ ă
Ġ &
Ġ Â
Ġ #
Ġ {
Ġ }
Ġ Ď
Ġ Ą
Ġ ě
Ġ Ć
Ġ \
Ġ Ě
Ġ +
Ġâ Ģ
Ġ Ē
Ġ Ĉ
Ġ ē
Ġ <
Ġ Ę
Ġ đ
Ġ ę
Ġ ĕ
Ġ `
Ġ Đ
Ġ Ė
Ġ ė
ĠÂ ł
Ġ Î
Ġ Ï
ĠâĢ Ļ
Ġ Ð
Ġ Ñ
Ġ Ê
Ġ Ô
Ġ ×
Ġ Ú
Ġ Æ
Ġ ß
Ġ Õ
Ġ Ë
Ġ É
Ġ Ý
Ġ Ò
Ġ á
ĠâĢ Ķ
Ġ Þ
Ġ Ü
Ġ Û
Ġâ Ļ
Ġ Ø
ĠâĻ ª
Ġ Ù
Ġá Ħ
á ħ
Ġ Ó
á Ĩ
ĠâĢ ľ
ĠâĢ Ŀ
Ġ à
Ġ Ç
ĠÎ ±
ĠÎ ¹
Ġà ¤
ĠÎ ¿
Ġ È
Ġ Ã
ĠÎ µ
Ġ Ö
Ġ ä
Ġ ã
Ġ æ
Ġ î
Ġ é
Ġ ç
Ġ è
Ġ å
ĠÎ ½
Ġ Í
ĠÏ Ħ
ĠÏ ħ
Ġ ê
Ġ Å
Ġ Ä
ĠâĢ ĵ
ĠÎ ·
ĠÏ ī
ĠÏ Ĥ
ĠÏ ģ
ĠÎ º
ĠÎ »
ĠÎ ¼
ĠÏ ĥ
ĠÏ Ģ
ĠâĢ ĺ
ĠÐ ¸
ĠÑ ĥ
ĠâĢ ¢
ĠÐ £
ĠÂ «
ĠÐ ĺ
ĠÐ ¾
ĠÐ µ
ĠÎ ´
á ĩ
ĠØ §
ĠÂ »
ĠÎ ³
Ġ ò
Ġ ñ
ĠâĢ ¦
ĠÐ °
ĠÂ °
Ġ ó
ĠÐ ķ
ĠÂ £
Ġâ ĸ
ĠÏ ĩ
Ġ ð
ĠÎ Ļ
ĠÎ ¥
ĠÏ Ĵ
ĠÎ Ł
Ġâĸ ł
ĠÐ ¶
ĠÐ Ĳ
ĠÂ ¬
ĠÃ ¦
ĠÃ Ĩ
ĠÐ ĸ
ĠÐ ·
ĠáĦ Ĩ
ĠáĦĨ áħ
ĠÎ ¸
Ġà¤ ķ
ĠÃ ¸
ĠáĦ Ĭ
ĠáĦĬ áħ
ĠÏ Ĩ
ĠáĦ ħ
ĠáĦħ áħ
ĠáĦ ģ
ĠáĦģ áħ
ĠÎ ©
ĠÓ ¨
ĠÂ §
ĠáĦ ĭ
ĠáĦĭ áħ
ĠáĦ Į
ĠáĦĮ áħ
ĠáĦ ĥ
ĠáĦĥ áħ
ĠáĦ Ģ
ĠáĦĢ áħ
ĠÃ ĺ
ĠÑ ĩ
ĠáĦ į
ĠáĦį áħ
ĠáĦ ĳ
ĠáĦĳ áħ
ĠÐ º
ĠáĦ ĩ
ĠÎ ĳ
ĠáĦĩ áħ
ĠÂ Ģ
ĠáĦ İ
ĠáĦİ áħ
ĠáĦ Ĵ
ĠáĦĴ áħ
ĠáĦ ī
ĠÎ Ĺ
ĠáĦī áħ
ĠÂ ·
ĠÐ ŀ
ĠÙ Ĭ
ĠÐ §
ĠáĦ Ī
ĠáĦĪ áħ
ĠÑ µ
ĠÓ ©
Ġà¤ °
Ġ× º
ĠÑ ĭ
ĠÊ Ĵ
ĠÙ Ī
Ġ× ²
ĠáĦ ı
ĠáĦı áħ
ĠÐ «
ĠÑ ´
ĠÛ Ĵ
ĠáĦ Ħ
ĠáĦĦ áħ
ĠÂ ©
Ġ× ·
ĠÎ ķ
ĠÛ ģ
Ġ× ¿
ĠÑ į
ĠÛ ķ
ĠÓ ¡
ĠÐ Ĺ
ĠáĦ Ĳ
ĠáĦĲ áħ
ĠÆ ·
ĠÐ Ń
ĠÓ ĺ
ĠÐ ³
ĠÒ ¿
ĠÎ ²
ĠáĦ Ĥ
ĠáĦĤ áħ
ĠÊ ¹
ĠÇ ĩ
ĠÓ Ļ
ĠÐ ĵ
¨ áĨ
ĠÓ ·
« áĨ
ĠÂ ¨
³ áĨ
ĠÐ ļ
Ń áĨ
² áĨ
© áĨ
ĠÏ ĳ
£ áĨ
Ġ× Ł
¢ áĨ
¡ áĨ
ª áĨ
§ áĨ
¯ áĨ
´ áĨ
Ġ× ı
¦ áĨ
ĠÑ ĸ
¬ áĨ
± áĨ
¤ áĨ
¥ áĨ
µ áĨ
ĠÎ ¾
° áĨ
ĠÐ Ĩ
ĠÑ Ĥ
® áĨ
ĠÐ ½
ĠÏ ´
ĠÛ ·
Ġß ı
ĠÒ Ģ
ĠÓ ¿
ĠÇ ·
ĠÏ ı
ĠÑ ģ
ĠÏ Ł
áĩ Ĥ
ĠÅ ¿
Ġà¤ ¨
ĠÓ ı
ĠÝ »
ĠÝ ¿
ĠÃ ·
ĠÂ ®
ĠÆ Ł
ĠÝ §
ĠÓ º
ĠÑ Ģ
ĠÎ Ŀ
áĩ ģ
Ġß Ĭ
ĠÛ ¯
áĩ Ģ
ĠÝ ¯
ĠÆ ¿
ĠÎ £
ĠÂ ¢
ĠÛ »
ĠÛ ı
ĠÏ Ĺ
Ġß ¿
Ġß Ĥ
ĠÜ Ł
ĠÐ ¼
ĠÐ »
ĠÛ ¿
ĠÖ Ģ
ĠÐ ²
Ġß Ł
ĠÏ ·
ĠÎ §
ĠÊ Ģ
ĠÃ Ł
Ġß ħ
ĠÏ ¾
Ġ× Ķ
ĠÜ ¤
ĠÚ Ģ
ĠÛ ´
Ġà¤ ¸
ĠÆ ĥ
ĠÐ ¨
ĠÐ ´
ĠÏ ¿
ĠÚ ¸
ĠÛ ¸
ĠÒ ģ
ĠÝ º
ĠÞ ĺ
ĠÜ ľ
ĠÝ ł
Ġß §
ĠÇ ²
ĠÝ ·
ĠÔ ¤
Ġ× İ
ĠÎ ¶
ĠÞ Ł
ĠÐ ¿
ĠÙ Ħ
ĠÚ ħ
Ġß ĩ
ĠÝ ©
ĠÜ Ĵ
ĠÞ Ŀ
ĠÛ ©
ĠÜ Ŀ
Ġß »
ĠÞ Ģ
ĠÂ ±
ĠÙ ³
ĠÄ ±
ĠÏ §
ĠÛ İ
ĠÞ Ľ
ĠÔ ķ
ĠÑ ¯
ĠÔ Ł
ĠÑ §
Ġß ·
ĠÓ İ
Ġ× ķ
ĠÇ Ĥ
ĠÝ ¢
ĠÏ Ī
ĠÛ ¶
ĠÎ ľ
ĠÇ Ĭ
ĠÞ Ļ
ĠÂ Ń
ĠÎ ŀ
Ġ× ŀ
ĠÜ ĵ
ĠÝ ¼
Ġß ½
ĠÚ Ŀ
ĠÞ ¤
ĠÞ ľ
ĠÑ ı
ĠË ı
Ġß ĳ
ĠÞ ł
ĠÉ ·
ĠÚ ¤
ĠÔ ©
ĠÔ Ń
Ġ× ¯
ĠÝ ª
ĠÒ ĺ
ĠÑ °
ĠÖ ģ
ĠÎ Ĵ
ĠÊ Ĳ
ĠÜ §
ĠÜ Ľ
ĠÑ ¿
Ġß Ģ
ĠÜ Ĳ
ĠÔ ĵ
ĠÔ ¨
ĠÊ ĭ
ĠØ ±
ĠÊ ĵ
ĠÛ µ
Ġß Į
ĠÈ ¤
ĠÊ ģ
ĠÚ Ł
ĠÝ ´
ĠÞ £
Ġß ī
ĠË ·
ĠÔ ŀ
ĠÞ ŀ
ĠÊ ·
ĠÓ Ķ
ĠÚ ĺ
ĠÝ ı
ĠÛ ¹
ĠÎ ł
ĠÜ ŀ
ĠÓ Ħ
ĠÞ ½
ĠÂ ı
ĠÜ ı
ĠÜ ¢
ĠÓ ¼
Ġß ģ
ĠÞ Ĳ
ĠÎ ¡
ĠÔ ı
ĠÈ ł
ĠÈ ·
ĠÞ ģ
ĠÔ Ŀ
ĠÏ ¯
ĠÆ Ŀ
ĠÆ ħ
ĠÞ ¢
ĠÂ µ
ĠÔ §
ĠÜ ł
ĠÚ ģ
ĠÑ º
ĠÒ Ĳ
ĠÝ ¸
ĠÓ ł
Ġâ Ĥ
ĠÜ ¦
ĠÝ ¡
ĠÝ İ
ĠÛ º
ĠÂ ģ
ĠÆ §
Ġß ¢
ĠÕ ¿
ĠÑ »
ĠÙ ¯
ĠÜ Ĥ
ĠÔ ´
ĠÝ £
ĠÏ ļ
Ġ× ļ
ĠÛ ŀ
ĠÆ ©
ĠÊ ĥ
ĠÞ ĳ
ĠØ Ł
Ġß ´
ĠÝ ½
ĠÆ ī
ĠÜ ĺ
ĠÒ Ĵ
Ġß Ĵ
ĠÃ ¾
ĠÔ ¦
ĠÎ ļ
ĠÏ ¥
Ġß ¼
ĠÔ Ĵ
ĠÆ ĩ
ĠË Ł
ĠÛ Į
ĠØ ¨
ĠÙ ł
Ġ× ´
Ġß Ķ
ĠÊ Į
ĠÜ Ļ
ĠÓ »
ĠÏ µ
ĠÊ ĳ
ĠÆ ½
Ġß ķ
ĠÂ Ĳ
ĠÔ ¬
Ġß ¾
ĠÂ ¥
Ġ× ®
Ġß Ĩ
ĠØ ª
ĠÑ Į
ĠÜ £
ĠÆ ª
ĠÝ ¨
ĠÅ Ĥ
ĠÕ µ
ĠÝ ¾
Ġ× ¾
ĠÆ ŀ
Ġß ©
ĠÔ ®
ĠÝ ¤
ĠÐ Ĵ
ĠÇ ¶
ĠÏ »
ĠÆ Ģ
ĠÔ İ
ĠÆ ļ
ĠÚ ŀ
ĠÚ Ľ
Ġß Ħ
ĠÑ £
ĠÚ µ
ĠÍ º
ĠÂ ĵ
ĠÐ ±
ĠÚ į
ĠÖ Ĳ
ĠÆ ¾
ĠÎ ¤
Ġ× µ
ĠÆ £
ĠË ´
ĠÜ Į
ĠÕ ¼
ĠÙ ħ
Ġß ª
Ġß º
ĠÜ ģ
ĠÜ ļ
ĠÐ Ŀ
ĠÂ ĥ
ĠÔ Ģ
ĠÎ ĥ
ĠÉ ł
Ġß İ
ĠÓ ķ
Ġ× §
ĠÆ ľ
ĠÒ ´
ĠÛ ²
ĠÞ ¡
ĠÏ Ń
Ġ× ¶
Ġ× ¹
Ġß Ĺ
ĠÆ º
Ġß ¹
ĠË »
ĠÍ ¿
ĠÔ ļ
Ġß Ľ
ĠÙ §
Ġß ĵ
ĠÃ ŀ
ĠÜ ¥
ĠÑ ¨
ĠÜ Ģ
ĠØ ©
ĠÐ Ł
ĠÝ Į
ĠÛ ½
ĠÙ »
ĠÛ ³
ĠÖ į
ĠÕ ´
ĠÊ Ľ
ĠÜ İ
ĠÆ ĳ
ĠÙ ·
ĠÞ ¥
Ġß µ
ĠÆ ģ
ĠÊ ²
ĠÔ «
ĠÄ ĳ
ĠÕ §
Ġ× ±
ĠÕ «
ĠÒ µ
ĠÏ ŀ
ĠÉ ı
ĠÔ µ
ĠÚ ¦
ĠÑ ł
ĠÞ Ķ
ĠÏ ©
ĠÚ ı
ĠÙ ©
ĠÑ ¸
Ġ× ĳ
ĠØ Ľ
Ġà¤ ¤
ĠÜ ª
ĠË ²
Ġà¤ ¹
Ġß ļ
ĠÑ İ
ĠÚ Ķ
ĠÐ ¤
ĠÑ ¢
ĠÚ ½
ĠÜ ¨
ĠÆ į
ĠÑ ¼
ĠØ ¹
Ġß ł
ĠÒ ¤
ĠË º
ĠÔ ¶
Ġ× ¸
ĠÓ ¾
ĠÚ ľ
ĠÝ ¹
ĠÇ ¥
ĠÊ ¬
ĠÊ ī
ĠÔ ģ
ĠÕ º
ĠÎ ĵ
ĠÔ ¢
ĠØ Ŀ
ĠÏ º
Ġß ¥
ĠÏ ¹
ĠÚ ¬
ĠÍ »
ĠÚ £
ĠÚ »
ĠÙ Ĩ
ĠÞ ļ
ĠÑ ³
ĠÝ ³
ĠÕ ®
ĠÔ Ķ
ĠÝ Ł
ĠÑ ¬
ĠË ¿
ĠÓ Ĭ
ĠÒ ¥
ĠÇ Ħ
ĠÝ ĵ
ĠÜ ħ
ĠË ¸
ĠÒ Ń
ĠÞ ¹
ĠÐ ı
ĠÕ »
ĠÑ ©
ĠÆ ¼
Ġ× ĵ
ĠÜ Ĩ
ĠÜ ķ
Ġß ¸
ĠÏ ½
ĠÔ ł
Ġ× ¼
ĠÚ Ĵ
ĠÆ Ĭ
ĠÞ »
ĠÚ §
ĠÎ ¨
ĠÊ ķ
ĠÓ ¶
ĠÕ Ľ
ĠÊ ¤
ĠÊ «
ĠÝ µ
ĠØ ŀ
ĠÒ ¼
ĠÏ ¨
ĠÊ į
ĠË İ
ĠÜ ©
ĠÏ ¸
ĠÊ ı
Ġ× Ĭ
Ġß Ŀ
ĠÜ Ĭ
ĠÞ Ĵ
ĠÑ ħ
ĠÛ Ŀ
ĠÑ ª
ĠÊ ±
ĠÞ ¼
ĠÞ ĵ
ĠÂ İ
ĠÊ ª
ĠÆ ±
ĠÚ ł
Ġß ŀ
ĠÝ ®
ĠÒ Ŀ
ĠÊ ³
ĠÂ ĭ
ĠÝ ¦
Ġß Ĳ
ĠÓ Į
ĠÆ ĵ
ĠÞ ķ
ĠÜ į
ĠÄ Ĳ
ĠÆ ³
ĠÕ ı
ĠÒ Ł
ĠÚ Ĳ
ĠÛ į
ĠÙ ¿
ĠÛ ±
ĠÛ ĭ
ĠÛ Ķ
ĠÔ ¡
ĠÊ Ń
ĠÓ ħ
ĠÕ Ń
ĠÛ Ĭ
ĠÖ ¾
ĠÚ Ļ
ĠÇ ±
ĠÝ Ľ
ĠÆ ¥
ĠÊ Ŀ
ĠÛ ĳ
ĠÚ İ
ĠØ Į
ĠË ľ
ĠÂ Ľ
ĠÊ £
ĠÏ ²
ĠÓ ĥ
ĠÕ ¾
ĠÝ ¬
ĠÚ ´
ĠÚ ļ
ĠÇ Į
ĠÙ ¸
ĠÎ Ľ
Ġß ¨
ĠÛ ¦
ĠÊ Ī
ĠÔ ·
ĠÔ ĥ
ĠÔ Ľ
ĠË Į
ĠÜ «
ĠÚ ķ
ĠÉ İ
ĠÜ ¬
ĠÛ ¾
ĠÑ ¡
ĠØ ¯
Ġß ¤
Ġ× į
ĠÞ ¿
ĠÊ §
Ġ× ©
ĠÛ ĥ
ĠÇ ģ
ĠÔ ±
ĠÙ ®
Ġ× °
Ġ× Ń
ĠÝ Ĳ
ĠÝ Ŀ
ĠÖ ı
ĠÊ ŀ
ĠÚ ©
ĠÊ ľ
ĠÝ Ĵ
ĠÛ Ĩ
ĠÉ §
ĠÏ «
ĠØ ³
ĠÏ ¦
ĠÒ º
ĠÜ ĸ
ĠË ŀ
ĠÔ £
ĠÆ «
ĠÊ »
ĠÖ Ĩ
ĠÚ ¢
ĠÍ µ
ĠÓ ½
ĠÊ İ
ĠÝ į
ĠÕ ¯
ĠË µ
ĠÜ ĥ
ĠÕ ·
ĠË §
ĠÒ ¬
ĠÞ ĩ
Ġ× »
ĠÕ ¤
ĠÔ ª
ĠÉ °
ĠÈ ¥
ĠÕ ³
ĠÍ ·
Ġ× ½
ĠÚ Ħ
ĠÛ °
ĠÕ ª
ĠÂ ĳ
ĠÑ Ĩ
ĠØ İ
ĠÇ Ĩ
ĠÊ ħ
Ġ× Ŀ
ĠÚ Ń
ĠÜ ĭ
ĠØ ı
ĠØ Ń
ĠÐ ł
ĠÉ ĵ
ĠÞ ĸ
ĠÛ ¼
ĠÂ Ĵ
ĠÊ ¶
ĠÊ ĺ
ĠÞ Ĺ
ĠÎ Ķ
Ġß £
ĠÑ ¤
ĠÚ ¥
ĠÊ ¯
ĠË ĸ
ĠÈ Ŀ
ĠÝ ľ
ĠÚ ¹
ĠÝ ļ
ĠÜ Ķ
ĠÔ ĳ
ĠÉ ŀ
ĠÝ ķ
Ġ× Ĵ
ĠÚ ·
ĠÙ ĥ
ĠÛ Ħ
ĠÂ ĸ
ĠÚ ĵ
ĠÏ ®
ĠÆ Ī
ĠÜ ¡
ĠÑ ±
Ġß į
ĠÕ Ł
ĠÜ ®
ĠÊ º
ĠÔ Ĳ
ĠÔ ¾
ĠÊ ¥
ĠÕ ½
ĠÞ ı
ĠÙ ¢
ĠÎ ģ
ĠÚ ĳ
ĠÆ ¹
ĠÍ ½
ĠÏ ¼
ĠÉ ¹
ĠÒ £
ĠÙ ģ
Ġ× Ģ
ĠÚ ¿
Ġß Ī
ĠÔ ĺ
ĠÒ Ķ
ĠÄ §
ĠÆ ²
ĠÕ ¬
Ġá ¾
ĠÞ ´
ĠÙ ¡
ĠÊ ®
ĠÔ Ĩ
ĠÊ Ł
ĠË Ĺ
ĠÒ į
ĠÜ Ī
ĠÔ ¿
Ġ× ĥ
ĠÉ Ĵ
ĠÔ ľ
ĠÕ ¶
ĠÑ Ł
ĠÛ ¥
ĠØ ł
Ġ× ¦
ĠÔ ¥
Ġß ĭ
ĠÏ ¶
ĠÝ ±
ĠâĢ ŀ
ĠÕ Ŀ
ĠÊ ½
ĠË ¹
ĠÆ ¤
ĠÇ Ģ
ĠÔ ¯
ĠÑ ¹
ĠÑ Ń
ĠÍ ¼
Ġß ĥ
ĠÊ ¾
ĠÆ ĸ
ĠË ¶
ĠÝ Ķ
ĠØ «
ĠÙ ¤
ĠÊ ĸ
ĠÜ Ħ
ĠÏ °
ĠÞ ĭ
ĠÔ º
ĠÝ Ń
ĠÒ Ļ
ĠÜ Ń
ĠÛ Ĳ
ĠÃ Ĳ
ĠÐ ©
ĠÛ ħ
ĠØ ®
ĠÙ ¨
ĠÏ ³
ĠÉ Ł
ĠÇ Ī
ĠÕ ķ
ĠË Ĵ
ĠÎ Ģ
ĠÇ ī
ĠÔ į
ĠÛ ĩ
ĠÖ ĩ
ĠÝ ĳ
ĠÞ Ī
ĠÙ ª
ĠÏ ĸ
ĠÑ «
ĠÒ ĸ
ĠÊ ł
Ġ× Į
ĠÞ µ
ĠÕ Ĩ
ĠÝ °
ĠÕ į
ĠÕ ¦
ĠÑ ®
ĠÙ µ
Ġ× Ĳ
Ġ× ł
ĠÕ İ
ĠÞ Ħ
ĠÑ ²
ĠÍ ¹
ĠÛ ®
ĠÒ ®
ĠÓ į
ĠÔ ĸ
ĠÚ ĭ
ĠÕ ĸ
ĠÞ į
ĠÈ £
ĠÇ ĥ
ĠÂ ĺ
ĠÆ ı
ĠÒ ¢
ĠÃ Ĺ
ĠØ Ģ
ĠÂ Į
ĠÚ ®
ĠË ļ
ĠÙ ½
ĠÝ ¶
ĠÜ ĩ
ĠÊ Ĭ
ĠÔ Į
ĠÉ į
ĠÝ ŀ
ĠÞ ħ
ĠÚ «
ĠË «
ĠÆ Ĳ
Ġ× ī
ĠÑ ¾
ĠÆ Ĺ
ĠÓ Ĩ
Ġ ô
ĠÚ ¨
ĠÚ ĸ
ĠÕ ¥
ĠÚ ¶
ĠÊ ¿
ĠÕ £
ĠÕ ļ
ĠÊ ļ
ĠÆ ¨
ĠÐ ľ
ĠÚ ¯
ĠÎ Ħ
ĠÙ £
ĠÉ µ
ĠÆ Ľ
ĠÞ ¸
ĠÛ ī
ĠÐ ¦
ĠÚ Ĥ
ĠÕ ĩ
ĠÂ ¯
ĠË į
ĠÉ ¦
ĠÍ ¸
ĠÔ ¼
ĠÇ ĭ
ĠÃ °
ĠÒ ¸
ĠÑ ī
ĠÙ ¬
ĠÇ Ŀ
ĠÒ ¾
ĠÒ ł
ĠË Ŀ
Ġ× ¥
Ġß ¡
ĠÊ °
ĠØ ģ
ĠÊ ©
ĠÂ º
ĠØ ¬
Ġ× ¨
ĠË ¨
ĠÇ ħ
ĠÊ Ħ
ĠÙ ´
ĠÔ Ĭ
ĠÔ Ļ
ĠÉ ¿
ĠÏ ¬
ĠÚ ª
ĠÒ ·
ĠÐ ¡
ĠÐ ®
ĠÕ Ļ
ĠÜ Ĺ
ĠÎ į
Ġ× ³
ĠÜ ¯
ĠÈ ¡
ĠÔ Ħ
ĠË Ĩ
ĠÐ Ĭ
ĠÐ ¢
ĠÙ ±
ĠÖ İ
ĠÖ ĭ
Ġß ĸ
ĠØ į
ĠÊ ¦
Ġ× ľ
ĠÙ ¹
ĠÉ ª
ĠÒ ½
ĠÒ ŀ
ĠÊ µ
ĠÉ ¤
ĠÉ ©
ĠÝ ĭ
ĠÕ ¢
ĠØ ĥ
ĠÈ ¸
ĠÞ ĥ
ĠØ ¡
ĠØ ²
ĠÚ Ĩ
Ġß ľ
ĠÊ Ĩ
ĠÕ ĺ
ĠË ¾
ĠÉ ¥
ĠÉ Ģ
ĠÊ ¸
ĠÒ ı
ĠÙ ĩ
ĠÆ Ĩ
ĠÔ Ĥ
ĠÚ Ī
ĠÔ ½
ĠÒ °
ĠÂ ¿
ĠÕ Ĵ
ĠÂ ¶
ĠÊ Ļ
Ġ× Ļ
ĠÆ Ń
ĠÉ Ŀ
ĠØ ¸
ĠÞ ¾
ĠÂ ŀ
ĠÊ ¡
ĠÔ ³
ĠÕ ©
ĠÒ ľ
ĠÇ ³
Ġß ¦
ĠÞ Ĭ
ĠØ ´
ĠÐ ¬
ĠÉ »
ĠÞ ī
ĠÄ ²
ĠÉ ²
ĠÞ Ĩ
ĠØ »
ĠÂ Ĥ
ĠÒ ļ
ĠÛ Ī
Ġß ĺ
ĠÕ Ĭ
ĠØ Ĥ
ĠÝ «
ĠÉ ĥ
ĠÑ ¦
Ġ× Ĺ
ĠÚ Ĭ
ĠÚ Ĺ
ĠÆ »
ĠÎ ¦
ĠÒ ²
ĠÜ ī
ĠË Ĳ
ĠÅ ĭ
ĠÏ ł
ĠË ĥ
ĠÂ ²
ĠÔ »
ĠÈ ¹
ĠÐ ĳ
ĠÔ ħ
ĠÕ ¡
ĠÒ ĳ
ĠØ ľ
ĠÊ ¨
ĠÒ ª
Ġ× ĺ
ĠË Ķ
ĠÂ ī
ĠÐ ħ
ĠÕ ¸
ĠÚ ĥ
ĠË ½
ĠÉ ¸
ĠÙ ¶
ĠÄ ¦
ĠÔ ĭ
ĠÕ ł
ĠÝ ĸ
Ġ× ¡
ĠÅ Ģ
ĠÉ ¯
ĠÞ Ĥ
ĠÏ ±
ĠË ¼
ĠÉ £
ĠÒ ĭ
ĠÉ ´
ĠÕ ²
ĠÑ ķ
ĠÕ ŀ
ĠË ĭ
ĠÊ ¼
ĠÊ ¢
ĠÊ ´
ĠÙ ī
ĠÉ ¶
ĠÐ ª
ĠÑ Ī
ĠË ª
ĠÚ Į
ĠÕ ĭ
ĠÚ º
ĠÚ ¼
ĠË ©
ĠË Ħ
ĠÓ ĩ
ĠÚ ĩ
ĠÞ Į
ĠÚ ī
ĠË ¯
ĠÉ Ń
ĠÉ ľ
ĠÚ ¾
ĠÍ ¶
Ġ× ĸ
ĠÆ ®
ĠÞ ³
ĠÊ Ķ
ĠÓ Ģ
ĠÒ »
ĠÂ Ĭ
ĠÕ ĵ
ĠÈ ¿
ĠÕ ĳ
ĠÅ ģ
ĠÑ ½
ĠÑ Ļ
ĠÕ Ĺ
ĠÂ ½
ĠË ±
ĠÔ Ĺ
ĠÆ Ĵ
ĠÒ Ľ
ĠÒ ĵ
ĠÒ ķ
ĠÕ °
ĠÂ Ł
ĠÏ Ļ
ĠÒ ¦
ĠÙ Ĥ
ĠË ķ
ĠÊ Ĥ
ĠÖ ĥ
ĠÊ ĩ
ĠË ĵ
ĠÈ ¢
ĠÄ ¸
ĠÐ Ľ
ĠÊ Ĺ
ĠÆ ¦
ĠÂ ľ
ĠÏ ľ
ĠÔ ²
Ġ× Ī
ĠÒ ¯
ĠÂ ¹
ĠÕ ¨
ĠÕ ±
ĠÉ ī
ĠÝ ĺ
ĠÉ ĳ
ĠÒ ¹
Ġ× ĭ
ĠÒ ¶
ĠË ĳ
ĠÙ ²
Ġß Ļ
ĠÞ º
ĠÏ ¤
ĠÏ ķ
ĠÝ Ĺ
ĠÐ Ķ
ĠÅ §
ĠÑ Ľ
ĠÂ Ī
ĠÞ ·
ĠÐ ¯
ĠÆ İ
ĠÙ Ń
ĠÝ ¥
ĠÈ ´
ĠÚ ³
ĠØ ½
ĠË ¥
ĠÒ §
ĠÔ Ī
ĠÆ ĭ
ĠÉ ¨
ĠÞ ±
ĠÈ »
ĠÏ ª
ĠÕ Į
ĠÍ ³
ĠÂ Ŀ
ĠÉ ½
ĠÝ ²
ĠØ µ
ĠÙ «
ĠÑ Ĵ
ĠÉ ļ
ĠÏ ĺ
ĠË ĩ
ĠË ¦
ĠÙ ¦
ĠØ ĭ
ĠÂ ļ
ĠÏ £
ĠÉ ®
ĠÎ ĭ
ĠÔ °
ĠÉ ģ
ĠÕ ľ
ĠÉ º
ĠÄ ³
Ġß ¶
ĠÈ µ
ĠÉ Ĳ
ĠÒ «
ĠÉ ¾
ĠØ °
ĠÚ ²
ĠÉ ³
Ġ× ¤
ĠØ ħ
ĠÉ Ī
ĠÒ İ
Ġ× Ĩ
ĠÂ ķ
Ġ× ª
ĠË Ĭ
ĠØ ·
ĠÈ ¼
ĠÄ ¿
ĠÂ į
ĠÐ ¥
ĠÔ ¸
ĠÕ ī
ĠË ¢
ĠÚ ¡
ĠÕ Ī
ĠÉ ¢
Ġ× ¢
ĠÆ ¶
Ġà¤ ª
ĠØ Ĭ
ĠÒ ³
ĠÞ ²
ĠÝ Ļ
ĠÖ Ĥ
ĠÏ ¡
ĠÐ Ĥ
Ġ× Ľ
ĠÕ Ķ
ĠË £
ĠÔ ī
ĠË Ľ
ĠÆ ķ
ĠÅ ¦
ĠÔ ĩ
ĠÒ Ĥ
ĠØ ¼
ĠÂ ª
ĠÆ Ļ
ĠÓ ī
ĠÆ ¢
ĠË Ī
ĠÈ ¶
ĠÂ ³
ĠÏ Ĳ
ĠÉ Ķ
ĠÆ ĺ
Ġ× ¬
ĠË Ģ
ĠÉ ±
ĠÒ Į
ĠÙ ¼
ĠÒ ¨
Ġà¤ ²
ĠË ī
ĠË ¤
ĠË ģ
ĠÂ Ķ
ĠÒ ©
ĠÒ Ĭ
ĠË ħ
ĠÙ Ģ
ĠÒ Ĺ
ĠÈ ½
ĠÎ ¢
ĠÕ ¹
ĠÉ Ħ
ĠÕ Ĳ
ĠÖ Ī
ĠÅ ī
ĠÕ ģ
ĠÂ Ĩ
ĠÎ ĸ
ĠË °
ĠÚ ±
ĠÐ ī
ĠØ ¿
ĠÉ ¡
ĠÞ İ
ĠÑ Ħ
ĠØ Ĩ
ĠÒ ±
ĠÎ ĺ
ĠÂ ¤
ĠÙ º
ĠÅ Ĭ
ĠÉ ħ
ĠØ Ħ
ĠÇ ¤
ĠÔ ¹
ĠØ ¶
ĠÆ ¸
ĠË ³
ĠÕ ĥ
ĠÒ ¡
ĠË Ĥ
ĠÓ Ī
Ġ× £
ĠÉ «
ĠÑ Ķ
ĠË ł
ĠÍ °
ĠÉ Ļ
ĠÂ ¡
ĠÉ ķ
ĠÏ ¢
ĠË ¡
ĠÂ Ĺ
ĠÂ ¾
ĠÙ ¾
ĠÑ ļ
ĠÞ ¶
ĠÈ ľ
Ġà¤ ¯
ĠÑ ¥
ĠÆ ´
ĠÖ ħ
ĠÂ ´
ĠÆ Ĥ
ĠÏ Ľ
ĠË ĺ
ĠÅ ĵ
ĠÉ ¬
ĠË Ļ
ĠÉ Į
ĠÐ Ī
ĠÆ ¬
ĠÓ ĭ
ĠÆ µ
ĠÆ Į
ĠÙ ¥
ĠÖ Ĭ
ĠÏ Ŀ
ĠË ¬
ĠÉ ĺ
ĠÉ Ĭ
ĠÍ ²
ĠØ º
ĠÖ ī
ĠÍ ±
Ġ× «
ĠØ Ī
ĠÆ Ħ
ĠÉ ¼
ĠÑ Ĭ
ĠÕ Ģ
ĠÖ Į
ĠÂ ¦
ĠÂ ĩ
ĠË Ń
ĠÑ ĺ
ĠÕ ħ
ĠØ ī
ĠÂ Ļ
ĠÕ Ħ
ĠØ ¾
ĠÂ ¼
ĠÉ ĩ
ĠÂ ¸
ĠÈ ¾
ĠÈ º
ĠÖ Ħ
ĠÉ Ĥ
ĠÉ ĭ
ĠÐ ĭ
ĠØ ĩ
ĠË ®
ĠÎ Ĥ
ĠÉ Ĩ
ĠÅ Ĵ
ĠÐ Ħ
ĠÉ ĸ
ĠÉ Ľ
Ġà¤ ®
ĠÂ Ħ
ĠÚ °
ĠÉ Ĺ
ĠÕ Ĥ
ĠâĤ ¬
ĠÆ Ķ
Ġâ Ī
Ġà¤ µ
Ġá¾ ½
ĠâĢ ĭ
Ġà¤ Ł
Ġâ Ħ
Ġ í
Ġà¤ ¬
Ġà¤ ľ
Ġé ĵ
Ġâ Ĵ
Ġâ Ł
Ġâ ĺ
Ġà¤ ¦
Ġà¤ Ĺ
Ġâ ģ
Ġã ı
Ġç ı
Ġâ Ŀ
Ġã Ł
Ġï İ
Ġâ ľ
Ġá¾ ¿
Ġç Ł
Ġï ı
Ġâ ¥
Ġä Ĵ
Ġæ ĺ
Ġä Ķ
Ġã §
Ġã ¢
Ġæ Ŀ
Ġä ĵ
Ġæ ģ
Ġã ·
Ġâ Ĩ
Ġã ²
Ġî ı
Ġâ į
Ġã ª
Ġé ŀ
Ġî Ĵ
Ġà¤ ı
Ġí Ł
Ġç ·
Ġä Ŀ
Ġç İ
Ġä ľ
Ġæ Ĵ
Ġã ¿
Ġã ¯
Ġî Ł
Ġà¤ ħ
Ġä Ł
Ġæ į
Ġî Ŀ
Ġæ ľ
Ġã ŀ
Ġã º
Ġé İ
Ġã ģ
Ġç º
Ġé Ł
Ġè Ĵ
Ġï ŀ
Ġä ı
Ġâ Ĭ
Ġæ ĵ
Ġê Ĵ
Ġæ Ĺ
Ġä ĳ
Ġâ ķ
Ġä į
Ġâ Ĺ
Ġå ¾
Ġá ¢
Ġâ ĵ
Ġç Ħ
Ġç Ķ
Ġæ ĸ
Ġá §
Ġé º
Ġç ŀ
Ġé ¾
Ġã İ
Ġî ĵ
Ġã ĳ
Ġã ĵ
Ġâ £
Ġé ı
Ġê Ŀ
Ġá ¦
Ġç ²
Ġç ¿
Ġã ĥ
Ġï ¢
Ġî ´
Ġî Ļ
Ġè £
Ġâ ŀ
Ġî Ń
Ġé ļ
Ġâ ı
Ġä İ
Ġæ ķ
Ġç ¾
Ġä ĥ
Ġî ľ
Ġä Ĭ
Ġå ±
Ġä ¸
Ġä Ĥ
Ġä º
Ġî £
Ġé ´
Ġç ¯
Ġê Ń
Ġà¤ ī
Ġä Į
Ġï »
Ġâ ī
Ġä ģ
Ġî į
Ġé »
Ġã Ħ
Ġâ «
Ġï į
Ġî §
Ġé ·
Ġè ĺ
Ġæ º
Ġã Ķ
Ġâ ħ
Ġï ¯
Ġè Ŀ
Ġç §
Ġè Ł
Ġè «
Ġé ¸
Ġâ ļ
Ġä ķ
Ġç Į
Ġé ®
Ġé ¶
Ġï Ł
Ġã ®
Ġà¤ ¡
Ġä ŀ
Ġä Ĳ
Ġæ ħ
Ġã »
Ġâ ¶
Ġâ ĩ
Ġî ¥
Ġê į
Ġæ Ģ
Ġé Ļ
Ġæ ·
Ġé ¢
Ġã ¸
Ġã ¦
Ġå »
Ġæ ĳ
Ġï Ĭ
Ġï ½
Ġé §
Ġï Ĵ
Ġî ŀ
Ġã ¶
Ġî ķ
Ġè ¢
Ġã ¾
Ġæ Ł
Ġî ¯
Ġâ »
Ġï Ĥ
Ġâ Ķ
Ġé µ
Ġé Į
Ġç Ľ
Ġå º
Ġæ ¸
Ġâ ĭ
Ġæ Ļ
Ġï Ĩ
Ġæ ´
Ġæ Ĳ
Ġå ¶
Ġê ľ
Ġæ ¾
Ġî «
Ġå µ
Ġê ĵ
Ġâ İ
Ġæ ļ
Ġä Ļ
Ġå ķ
Ġâ ¹
Ġä ĺ
Ġæ ŀ
Ġå ħ
Ġä ¨
Ġæ µ
Ġæ ¹
Ġæ »
Ġâ º
Ġî İ
Ġé ĥ
Ġâ §
Ġï ģ
Ġä ¢
Ġè º
Ġâ Ĳ
Ġè §
Ġç ĳ
Ġç ľ
Ġè ´
Ġê ĸ
Ġá ª
Ġî ®
Ġå §
Ġê ļ
Ġé Ŀ
Ġâ ¾
Ġæ £
Ġè ı
Ġâ µ
Ġî ½
Ġå ı
Ġä ±
Ġê ®
Ġâ ´
Ġî ¡
Ġê ŀ
Ġð Ŀ
Ġê ķ
Ġè ®
Ġè Ķ
Ġá ²
Ġã Į
Ġî ¿
Ġè ¶
Ġæ ı
Ġé ģ
Ġç ´
Ġæ ³
Ġé ª
Ġç ĵ
Ġç ļ
Ġè į
Ġá ¯
Ġç ħ
Ġå ¯
Ġá ±
Ġæ ±
Ġç ¢
Ġæ ¶
Ġî Ĭ
Ġê Ł
Ġï ī
Ġá ı
Ġä ª
Ġè Ĥ
Ġî ¤
Ġè ª
Ġâ ¤
Ġä ¤
Ġî ĳ
Ġî Ķ
Ġè ¥
Ġè ł
Ġê §
Ġï ĩ
Ġä »
Ġç ¹
Ġå ¿
Ġå į
Ġæ Ĥ
Ġî Ħ
Ġç ¶
Ġâ ĳ
Ġâ ²
Ġî Ģ
Ġî Ĥ
Ġå ¥
Ġå ²
Ġä Ħ
Ġï ®
Ġâ ¡
Ġä ļ
Ġä £
Ġç ĥ
Ġâ ±
Ġä ¥
Ġæ İ
Ġî º
Ġæ §
Ġî ģ
Ġè ©
Ġè ľ
Ġè Ļ
Ġâ ª
Ġä ¹
Ġé ¯
Ġâ ¬
Ġà ¸
Ġè ¯
Ġâ Ľ
Ġä ¬
Ġé ¦
Ġè ħ
Ġå ³
Ġï ļ
Ġä §
Ġä Ģ
Ġè ¤
Ġê ĺ
Ġè ±
Ġé ĳ
Ġä ²
Ġå Ķ
Ġê Ĭ
Ġã Ľ
Ġè Ń
Ġç ķ
Ġã ¹
Ġà ´
Ġî ĺ
Ġè ķ
Ġé ł
Ġç µ
Ġâ °
Ġã µ
Ġà ª
Ġä Ľ
Ġé ½
Ġè ¾
Ġä ·
Ġé ĸ
Ġè ·
Ġä °
Ġã Ŀ
Ġæ Ĭ
Ġê İ
Ġé ¤
Ġç ª
Ġå ½
Ġï µ
Ġê ĳ
Ġä ´
Ġè ¨
Ġè İ
Ġæ ¥
Ġî ±
Ġé ¹
Ġâ ½
Ġæ ¤
Ġè ģ
Ġã ±
Ġî ł
Ġè ĵ
Ġå ĩ
Ġâ ¼
Ġâ ¿
Ġá ¶
Ġã Ĥ
Ġè ŀ
Ġå ¤
Ġå Ĺ
Ġî ¢
Ġç ģ
Ġæ ĭ
Ġé Ń
Ġê Ĺ
Ġá Ľ
Ġã ´
Ġæ ¦
Ġæ Ľ
Ġã ħ
Ġã į
Ġæ ²
ĠâĦ ¢
Ġæ ¡
Ġî ħ
Ġè Ĭ
Ġå Ŀ
Ġï ķ
Ġê ¬
Ġá µ
Ġè ¡
Ġê ı
Ġï ĸ
Ġé ±
Ġè Ħ
Ġâ ³
Ġæ ¨
Ġé °
Ġè ¿
Ġå ª
Ġï ¾
Ġã ©
Ġå ĳ
Ġä ¾
Ġå Ĭ
Ġê Į
Ġå ¸
Ġê ħ
Ġï Ŀ
Ġä ħ
Ġç į
Ġè Ĳ
Ġê ĥ
Ġâ Į
Ġæ «
Ġé ¿
Ġé į
Ġè Ģ
Ġå ©
Ġå ®
Ġà¤ ¶
Ġæ Ĩ
Ġé ľ
Ġè ļ
Ġê ¡
Ġâ ¯
Ġà¤ Ń
Ġã Ĩ
Ġî ļ
Ġà ¨
Ġä «
Ġé ¬
Ġè ¬
Ġâ ¦
Ġî ĩ
Ġà ¹
Ġî ¬
Ġé ĩ
Ġî ©
Ġï ·
Ġï ĥ
Ġà¤ ļ
Ġî ¦
Ġå ľ
Ġê ¤
Ġï ¼
Ġæ Ń
Ġî ī
Ġå Ļ
Ġá ¡
Ġá ķ
Ġî ¼
Ġá ´
Ġå ¹
Ġé Ĵ
Ġâ ¸
Ġá Ķ
Ġî »
Ġæ ½
Ġê Ķ
Ġä ¶
Ġã ļ
Ġè ¦
Ġè ī
Ġä ³
Ġä µ
Ġè Ĺ
Ġä Ń
Ġæ Į
Ġå ´
Ġå ¼
Ġé Ĺ
Ġé Ľ
Ġê Ħ
Ġà ¶
Ġã ľ
Ġå ¢
Ġä ī
Ġä ł
Ġæ ¼
Ġå ·
Ġï ĳ
Ġæ ĩ
Ġè Į
Ġå Ł
Ġî ª
Ġè µ
Ġå ĺ
Ġê ª
Ġâ Ń
Ġè ½
Ġè ĩ
Ġâ ©
Ġæ ī
Ġî Į
Ġæ Ħ
Ġç ©
Ġå ĭ
Ġã ķ
Ġè °
Ġä Ī
Ġå ¦
Ġî ³
Ġî ĥ
Ġî Ĳ
Ġå Ľ
Ġê Ľ
Ġï Ĺ
Ġá İ
Ġä ¡
Ġä ©
Ġæ ª
Ġæ ĥ
Ġç ±
Ġï Į
Ġç ®
Ġà ¡
Ġæ ®
Ġé ħ
Ġç °
Ġç Ĵ
Ġå ī
Ġá ®
Ġï £
Ġï ²
Ġâ ¨
Ġà º
Ġê Ĥ
Ġä ¼
Ġè ĸ
Ġã ¼
Ġî ¨
Ġî ·
Ġç ¡
Ġê «
Ġé £
Ġé ĭ
Ġç »
Ġè ĥ
Ġè ĳ
Ġå Ģ
Ġà ¦
Ġä ¯
Ġï Ī
Ġå Ī
Ġï ł
Ġà ²
Ġä Ĩ
Ġé Ģ
Ġè ¸
Ġè »
Ġä ½
Ġã Ĳ
Ġç Ŀ
Ġè ĭ
Ġï °
Ġã ½
Ġç Ĺ
Ġê Ĳ
Ġä ¿
Ġå ĵ
Ġï ħ
Ġî µ
Ġç ī
Ġï ¶
Ġé ¥
Ġâ ¢
Ġâ ®
Ġæ ¿
Ġî ¹
Ġé Ĩ
Ġç Ĭ
Ġà »
Ġæ ©
Ġç ¸
Ġà¤ §
Ġï º
Ġá ĳ
Ġç ¼
Ġê ī
Ġá ĺ
Ġî Ľ
Ġé ¨
Ġé ©
Ġé ²
Ġç ¦
Ġç Ĳ
Ġï ±
Ġï ¹
Ġà¤ Ķ
Ġî ¶
Ġç Ģ
Ġã ĭ
Ġã Ĵ
Ġî ¾
Ġï ĵ
Ġã ³
Ġî Ĺ
Ġç Ī
Ġê ¥
Ġã °
Ġà «
Ġé «
Ġã Ĭ
Ġå ¡
Ġé Ĭ
Ġê ©
Ġå °
Ġå İ
Ġä ĭ
Ġã ¡
Ġç ĭ
Ġå Ń
Ġá «
Ġá Ĳ
Ġç ½
Ġæ ¬
Ġæ Ķ
Ġç Ĩ
Ġå £
Ġç ĩ
Ġï ³
Ġà ¬
Ġê Ĩ
Ġá Ĭ
Ġé ĺ
Ġè Ľ
Ġï Ĳ
Ġá ĸ
Ġá ĭ
Ġá ĵ
Ġà ¢
Ġã ĸ
Ġî Ī
Ġä ĸ
Ġê Ī
Ġä Ĺ
Ġã ¤
Ġè ³
Ġî ¸
Ġç ¥
Ġï Ħ
Ġä ¦
Ġä ĩ
Ġæ °
Ġæ ł
Ġî °
Ġê ģ
Ġá ĩ
Ġà ®
Ġã Ń
Ġå Ĥ
Ġé ¡
Ġï Ģ
Ġå Ĳ
Ġï ´
Ġï ĺ
Ġå ¬
Ġá į
Ġã ¬
Ġå ĥ
Ġé ³
Ġã ī
Ġç ¨
Ġå Ĵ
Ġá £
Ġé Ĳ
Ġå Ĩ
Ġã ¨
Ġã ĩ
Ġæ Ī
Ġã Ģ
Ġî ĭ
Ġå Į
Ġå ĸ
Ġê ĭ
Ġç ³
Ġá Į
Ġè ¹
Ġã Ĺ
Ġî ĸ
Ġï ľ
Ġé Ī
Ġç £
Ġå «
Ġï Ķ
Ġã £
Ġî ²
Ġê ł
Ġà µ
Ġè Ĩ
Ġä ®
Ġé ī
Ġè ²
ĠâĪ Ĵ
Ġæ ¢
Ġè ¼
Ġã Ļ
Ġê ĩ
Ġï ¡
Ġã Ī
Ġå ģ
Ġã ĺ
Ġé ¼
Ġå ŀ
Ġá Ļ
Ġà ¿
Ġã «
Ġé Ĥ
Ġé Ħ
Ġê ¯
Ġá ļ
Ġå ¨
Ġá ī
Ġã ¥
Ġî Ĩ
Ġá ¥
Ġç «
Ġâ ł
Ġå Ħ
Ġá ¨
Ġç Ĥ
Ġç Ļ
Ġá Ĺ
Ġé Ķ
Ġá ł
Ġæ ¯
Ġç ¬
Ġá Ŀ
Ġç ł
Ġï ĭ
Ġá ħ
Ġá Ĩ
Ġá ľ
Ġê Ģ
Ġê Ļ
Ġç ¤
Ġè Ī
Ġà ¼
Ġï Ń
Ġã ł
Ġï Ľ
Ġà ³
ĠâĻ «
Ġé ķ
Ġç ĸ
Ġï Ļ
Ġç ĺ
Ġå ł
Ġå ļ
Ġá ĥ
Ġà §
Ġá ŀ
Ġà °
Ġê ¦
Ġê ¢
Ġá Ī
Ġà Ń
Ġà ©
Ġà ¯
Ġà¤ ĩ
Ġá Ĵ
Ġá Ń
Ġà ·
Ġê £
Ġà¤ ·
Ġê ¨
Ġç Ń
Ġï ¬
Ġà¤ ¥
Ġð Ł
ĠáĦĨáħ ¨áĨ
Ġà ¥
Ġà ±
Ġá Ĥ
Ġá ¤
ĠáĦĨáħ ³áĨ
Ġá ¬
ĠáĦĨáħ ¡áĨ
Ġà ½
Ġéĵ ¤
Ġï «
ĠáĦĨáħ ©áĨ
ĠâĪ £
Ġá °
ĠáĦĬáħ ¯áĨ
ĠáĦħáħ ªáĨ
Ġá Ģ
Ġà ł
Ġá ģ
ĠáĦĥáħ ¨áĨ
Ġà¤ ĸ
Ġí ŀ
ĠâĻ ¦
ĠáĦĥáħ §áĨ
Ġá ³
Ġâ ·
Ġá Ł
ĠáĦĢáħ «áĨ
ĠáĦħáħ «áĨ
ĠáĦģáħ £áĨ
ĠáĦĭáħ ´áĨ
ĠáĦĴáħ µáĨ
ĠáĦĨáħ ²áĨ
ĠáĦĳáħ ¦áĨ
ĠâĻ ©
ĠáĦħáħ ¤áĨ
ĠáĦĭáħ ³áĨ
ĠáĦģáħ ŃáĨ
ĠáĦĢáħ ®áĨ
ĠáĦĮáħ ŃáĨ
ĠáĦĳáħ ¨áĨ
ĠáĦĳáħ §áĨ
ĠâŁ ©
ĠáĦĥáħ ©áĨ
ĠáĦĥáħ ¦áĨ
ĠáĦĴáħ ´áĨ
ĠáĦĬáħ ¨áĨ
ĠáĦįáħ ŃáĨ
ĠðĿ ķ
ĠáĦĬáħ ¥áĨ
ĠáĦĬáħ ²áĨ
ĠáĦĭáħ «áĨ
ĠáĦĮáħ ®áĨ
ĠáĦĬáħ §áĨ
Ġï ¸
ĠáĦģáħ ¤áĨ
ĠáĦħáħ µáĨ
ĠáĦĢáħ °áĨ
ĠáĦģáħ ¦áĨ
ĠáĦĩáħ «áĨ
ĠáĦĪáħ ¦áĨ
Ġà¤ Ĩ
ĠáĦħáħ ¡áĨ
ĠáĦģáħ «áĨ
ĠáĦĮáħ µáĨ
ĠáĦįáħ ¯áĨ
ĠáĦĨáħ ±áĨ
ĠáĦĥáħ ªáĨ
ĠáĦĴáħ ³áĨ
ĠáĦĮáħ ¬áĨ
ĠáĦĢáħ ¥áĨ
ĠáĦįáħ ®áĨ
ĠáĦİáħ £áĨ
ĠáĦĮáħ ¢áĨ
ĠáĦĬáħ ¤áĨ
ĠáĦħáħ ´áĨ
ĠáĦĭáħ µáĨ
ĠáĦĨáħ §áĨ
ĠáĦĭáħ ¨áĨ
ĠáĦĮáħ ²áĨ
ĠáĦĢáħ ¯áĨ
ĠáĦħáħ £áĨ
ĠáĦįáħ ±áĨ
ĠáĦīáħ ²áĨ
ĠáĦĬáħ ³áĨ
ĠáĦĥáħ ¢áĨ
ĠáĦĩáħ ²áĨ
ĠáĦĦáħ °áĨ
ĠáĦĳáħ ŃáĨ
ĠáĦħáħ ¢áĨ
ĠáĦĨáħ ´áĨ
ĠáĦĩáħ ±áĨ
ĠáĦģáħ ªáĨ
ĠáĦĭáħ ®áĨ
ĠáĦħáħ ¬áĨ
ĠáĦİáħ ©áĨ
Ġò Ĵ
ĠáĦģáħ ¥áĨ
ĠáĦİáħ ªáĨ
ĠáĦĨáħ «áĨ
ĠáĦĭáħ ¢áĨ
ĠáĦīáħ ¤áĨ
ĠáĦĪáħ µáĨ
ĠáĦĬáħ «áĨ
ĠáĦıáħ ¬áĨ
ĠáĦĨáħ µáĨ
ĠáĦĬáħ ®áĨ
ĠáĦĢáħ µáĨ
ĠáĦĩáħ °áĨ
ĠáĦĢáħ ²áĨ
ĠáĦįáħ ²áĨ
ĠáĦİáħ ¬áĨ
ĠáĦĴáħ ¬áĨ
ĠáĦģáħ ¢áĨ
ĠáĦĨáħ ŃáĨ
ĠáĦĥáħ ¥áĨ
ĠáĦĳáħ ¥áĨ
ĠáĦĩáħ ´áĨ
ĠáĦĦáħ ®áĨ
ĠáĦĬáħ ¦áĨ
ĠáĦĮáħ ¡áĨ
ĠáĦıáħ £áĨ
Ġð Ĵ
ĠáĦįáħ «áĨ
ĠáĦİáħ ±áĨ
ĠáĦĨáħ ¤áĨ
ĠáĦĨáħ °áĨ
ĠáĦģáħ ¯áĨ
ĠáĦĬáħ °áĨ
Ġà¤ £
ĠáĦĪáħ ¬áĨ
ĠáĦģáħ §áĨ
ĠáĦĭáħ ¦áĨ
ĠáĦĳáħ ¤áĨ
ĠáĦĬáħ ©áĨ
ĠáĦīáħ ´áĨ
ĠáĦĪáħ ŃáĨ
ĠáĦĭáħ ²áĨ
ĠáĦĭáħ £áĨ
ĠáĦĥáħ ³áĨ
ĠáĦĪáħ ªáĨ
ĠáĦĮáħ ³áĨ
ĠáĦĥáħ £áĨ
ĠáĦĩáħ ©áĨ
ĠáĦıáħ ©áĨ
ĠáĦģáħ ³áĨ
ĠáĦĩáħ ¯áĨ
ĠáĦĲáħ ¢áĨ
ĠáĦĮáħ ¥áĨ
ĠáĦģáħ ¬áĨ
ĠáĦĩáħ ¢áĨ
ĠáĦīáħ £áĨ
ĠáĦģáħ ¡áĨ
ĠáĦĭáħ °áĨ
ĠáĦĴáħ ±áĨ
ĠáĦįáħ ¬áĨ
ĠáĦĳáħ ¡áĨ
ĠáĦĢáħ ©áĨ
ĠáĦİáħ µáĨ
Ġâ ĥ
ĠáĦģáħ ®áĨ
ĠáĦĮáħ £áĨ
ĠáĦħáħ ¥áĨ
ĠáĦĭáħ ŃáĨ
ĠáĦĭáħ ±áĨ
ĠáĦĩáħ ªáĨ
ĠáĦİáħ ¡áĨ
ĠáĦĥáħ ²áĨ
ĠáĦĳáħ ±áĨ
Ġð ¥
ĠáĦĮáħ §áĨ
ĠáĦįáħ °áĨ
ĠáĦıáħ ¡áĨ
ĠáĦģáħ ©áĨ
ĠáĦĪáħ ´áĨ
ĠáĦĦáħ ¯áĨ
ĠáĦĦáħ ±áĨ
ĠáĦĳáħ ©áĨ
ĠáĦĪáħ ¢áĨ
ĠáĦĬáħ ±áĨ
ĠáĦįáħ ³áĨ
ĠáĦĤáħ ¢áĨ
ĠáĦģáħ °áĨ
ĠáĦĳáħ ³áĨ
ĠáĦĦáħ ŃáĨ
§ áĩĤ
Ġá ©
ĠáĦĮáħ ¯áĨ
ĠáĦĳáħ £áĨ
ĠáĦīáħ ±áĨ
ĠáĦĬáħ ŃáĨ
ĠáĦĥáħ ŃáĨ
ĠáĦİáħ §áĨ
ĠáĦİáħ ¯áĨ
ĠáĦīáħ ¢áĨ
Ġñ ¯
ĠáĦĨáħ ¯áĨ
ĠáĦĨáħ ¥áĨ
ĠáĦĮáħ ´áĨ
ĠáĦĢáħ ŃáĨ
ĠáĦİáħ ŃáĨ
ĠáĦīáħ §áĨ
ĠáĦıáħ ¨áĨ
Ġà¤ «
ĠáĦĬáħ ¬áĨ
ĠáĦįáħ §áĨ
ĠáĦĨáħ ¢áĨ
ĠáĦħáħ ³áĨ
ĠáĦĮáħ ©áĨ
ĠáĦĳáħ ¬áĨ
ĠáĦĪáħ £áĨ
ĠáĦĢáħ ¬áĨ
ĠáĦĢáħ ±áĨ
ĠáĦĲáħ ¬áĨ
ĠáĦĩáħ ¤áĨ
ĠáĦİáħ ¨áĨ
ĠáĦīáħ °áĨ
ĠáĦĲáħ £áĨ
ĠáĦĮáħ ¨áĨ
ĠáĦĩáħ £áĨ
ĠáĦĨáħ ¦áĨ
ĠáĦĢáħ ³áĨ
ĠáĦįáħ ¦áĨ
ĠáĦĴáħ ¢áĨ
ĠáĦħáħ °áĨ
ĠáĦĢáħ ªáĨ
Ġà £
ĠáĦĮáħ ±áĨ
ĠáĦĥáħ ¡áĨ
ĠáĦĢáħ ´áĨ
ĠáĦĳáħ ²áĨ
ĠáĦĴáħ ŃáĨ
ĠáĦĪáħ ²áĨ
ĠáĦĪáħ ¯áĨ
ĠáĦıáħ ²áĨ
ĠáĦĨáħ ®áĨ
ĠáĦĴáħ °áĨ
ĠáĦĲáħ ±áĨ
ĠáĦĬáħ ¡áĨ
ĠáĦĭáħ ¡áĨ
ĠáĦīáħ ©áĨ
ĠáĦīáħ ªáĨ
ĠáĦīáħ ¥áĨ
ĠáĦĪáħ ¥áĨ
ĠáĦıáħ ŃáĨ
ĠáĦĭáħ ©áĨ
ĠáĦĭáħ ¯áĨ
ĠáĦįáħ ¨áĨ
ĠáĦīáħ ¬áĨ
ĠáĦĬáħ ¢áĨ
ĠáĦĦáħ ¨áĨ
Ġò Ł
ĠáĦįáħ ¡áĨ
ĠáĦİáħ ¢áĨ
ĠáĦĪáħ ¡áĨ
ĠáĦĲáħ ¡áĨ
ĠáĦĲáħ ªáĨ
ĠáĦĬáħ ´áĨ
ĠáĦįáħ ¤áĨ
ĠáĦĪáħ ¨áĨ
ĠáĦıáħ «áĨ
ĠáĦįáħ ´áĨ
ĠáĦĩáħ ŃáĨ
ĠáĦĨáħ £áĨ
ĠáĦħáħ ¯áĨ
ĠáĦģáħ ¨áĨ
ĠáĦĭáħ §áĨ
ĠáĦĭáħ ¤áĨ
ĠáĦĳáħ ¯áĨ
ĠáĦĤáħ ´áĨ
Ġð ķ
ĠáĦĳáħ «áĨ
ĠáĦİáħ «áĨ
ĠáĦĴáħ ¥áĨ
° áĩģ
ĠáĦħáħ ¦áĨ
ĠáĦĮáħ ªáĨ
ĠáĦĮáħ ¦áĨ
ĠáĦĤáħ ³áĨ
ĠáĦĥáħ «áĨ
ĠáĦĢáħ §áĨ
ĠáĦĩáħ ¡áĨ
ĠáĦĴáħ ¤áĨ
ĠáĦīáħ ³áĨ
ĠáĦĴáħ ¦áĨ
ĠáĦīáħ «áĨ
ĠáĦħáħ §áĨ
ĠáĦıáħ ¢áĨ
ĠáĦıáħ ªáĨ
ĠáĦĲáħ ¨áĨ
ĠáĦĥáħ ¤áĨ
ĠáĦįáħ ©áĨ
ĠáĦıáħ °áĨ
ĠáĦĲáħ ¥áĨ
ĠáĦĤáħ ¤áĨ
³ áĩģ
ĠáĦĢáħ ¢áĨ
ĠáĦĢáħ ¤áĨ
ĠáĦĦáħ ³áĨ
Ġà¤ Ī
ĠáĦĨáħ ªáĨ
ĠáĦĬáħ £áĨ
ĠáĦĩáħ ³áĨ
ĠáĦĩáħ ®áĨ
ĠáĦĴáħ ªáĨ
ĠáĦīáħ ¦áĨ
¡ áĩĢ
ª áĩĤ
ĠáĦħáħ ®áĨ
ĠáĦĭáħ ªáĨ
ĠáĦįáħ £áĨ
ĠáĦīáħ ¨áĨ
ĠáĦīáħ ¯áĨ
ĠáĦĪáħ «áĨ
ĠáĦĦáħ ²áĨ
ĠáĦħáħ ±áĨ
ĠáĦĢáħ ¡áĨ
ĠáĦįáħ ¥áĨ
ĠáĦĦáħ «áĨ
ĠáĦĦáħ µáĨ
± áĩĢ
ĠáĦĢáħ ¨áĨ
ĠáĦĳáħ ¢áĨ
ĠáĦĩáħ ¦áĨ
ĠáĦĥáħ ®áĨ
ĠáĦįáħ ¢áĨ
ĠáĦīáħ ¡áĨ
ĠáĦĦáħ ´áĨ
ĠáĦĤáħ ²áĨ
ĠáĦĤáħ £áĨ
¢ áĩĤ
« áĩĤ
Ġò ı
ĠáĦĮáħ °áĨ
ĠáĦįáħ µáĨ
ĠáĦĳáħ °áĨ
ĠáĦĪáħ ©áĨ
ĠáĦĲáħ §áĨ
ĠáĦİáħ ³áĨ
ĠáĦĪáħ ®áĨ
ĠáĦħáħ ©áĨ
ĠáĦĴáħ «áĨ
ĠáĦıáħ ¦áĨ
³ áĩĤ
ĠáĦĢáħ £áĨ
ĠáĦįáħ ªáĨ
ĠáĦĩáħ ¬áĨ
ĠáĦĦáħ §áĨ
ĠáĦĤáħ ¨áĨ
ĠáĦĨáħ ¬áĨ
ĠáĦĴáħ ¡áĨ
ĠáĦĲáħ ²áĨ
ĠáĦĮáħ «áĨ
ĠáĦİáħ ¥áĨ
ĠáĦĤáħ ©áĨ
ĠáĦĭáħ ¥áĨ
ĠáĦĮáħ ¤áĨ
ĠáĦĴáħ ²áĨ
ĠáĦīáħ µáĨ
ĠáĦĲáħ µáĨ
ĠáĦĤáħ ¡áĨ
Ġð µ
ĠáĦĴáħ £áĨ
ĠáĦĦáħ ©áĨ
ĠáĦĦáħ ¢áĨ
ĠáĦĦáħ ¥áĨ
Ġà¤ ĺ
Ġñ Ł
ĠáĦĢáħ ¦áĨ
ĠáĦİáħ ¦áĨ
ĠáĦĦáħ £áĨ
¦ áĩĤ
Ġó ı
ĠáĦĬáħ ªáĨ
ĠáĦĳáħ ªáĨ
ĠáĦĪáħ ±áĨ
ĠáĦıáħ ¥áĨ
Ġñ ŀ
Ġó İ
ĠáĦİáħ ´áĨ
ĠáĦĪáħ §áĨ
ĠáĦĦáħ ¦áĨ
ĠáĦĦáħ ¤áĨ
ĠáĦĲáħ ®áĨ
ĠáĦĩáħ ¨áĨ
ĠáĦıáħ µáĨ
ĠáĦĦáħ ªáĨ
Ń áĩĢ
Ġñ ¦
Ġñ ı
ĠáĦģáħ µáĨ
ĠáĦİáħ ¤áĨ
ĠâĨ Ĵ
¯ áĩĢ
Ń áĩģ
ĠáĦĭáħ ¬áĨ
ĠáĦİáħ ²áĨ
ĠáĦıáħ §áĨ
ĠáĦĤáħ «áĨ
¯ áĩĤ
µ áĩĤ
Ġò §
Ġð ŀ
ĠáĦĥáħ ¬áĨ
ĠáĦĴáħ ¯áĨ
ĠáĦıáħ ³áĨ
ĠáĦĲáħ ´áĨ
ĠáĦĲáħ ¦áĨ
Ġô İ
Ġò ¦
ĠáĦİáħ °áĨ
ĠáĦĦáħ ¡áĨ
ĠáĦĪáħ ¤áĨ
§ áĩĢ
ĠáĦħáħ ŃáĨ
ĠáĦĥáħ °áĨ
ĠáĦĳáħ ´áĨ
ĠáĦīáħ ŃáĨ
ĠáĦıáħ ®áĨ
ĠáĦĲáħ ¤áĨ
ĠáĦĤáħ ±áĨ
¤ áĩĤ
¯ áĩģ
´ áĩĢ
Ġð Ń
ĠáĦĥáħ ±áĨ
ĠáĦĲáħ °áĨ
° áĩĤ
ĠáĦĥáħ ¯áĨ
ĠáĦĴáħ ©áĨ
² áĩĤ
ĠáĦĲáħ ŃáĨ
® áĩĢ
Ń áĩĤ
Ġð ¾
ĠáĦģáħ ´áĨ
ĠáĦĴáħ ®áĨ
ĠáĦıáħ ´áĨ
Ġò Ķ
ĠáĦħáħ ²áĨ
ĠáĦĴáħ §áĨ
ĠáĦĤáħ °áĨ
¢ áĩģ
£ áĩģ
ĠáĦħáħ ¨áĨ
ĠáĦĳáħ µáĨ
ĠáĦĲáħ ©áĨ
ĠáĦĤáħ ŃáĨ
ĠáĦĤáħ µáĨ
Ġò ķ
² áĩģ
Ġñ ·
ĠáĦıáħ ±áĨ
ĠáĦĲáħ ³áĨ
ĠáĦĥáħ ´áĨ
¢ áĩĢ
« áĩĢ
Ġó ¯
ĠáĦĦáħ ¬áĨ
Ġò Ŀ
ĠáĦĩáħ ¥áĨ
¤ áĩģ
Ġó §
ĠáĦģáħ ±áĨ
ĠáĦĩáħ §áĨ
ĠáĦĲáħ «áĨ
ĠáĦĲáħ ¯áĨ
ĠáĦĤáħ ªáĨ
¬ áĩĤ
¬ áĩģ
Ġò ¨
ĠáĦıáħ ¤áĨ
ĠáĦĬáħ µáĨ
ĠáĦİáħ ®áĨ
ĠáĦĴáħ ¨áĨ
ĠáĦĤáħ ®áĨ
© áĩĤ
Ġó Ł
ĠáĦģáħ ²áĨ
ĠáĦıáħ ¯áĨ
§ áĩģ
Ġñ »
Ġñ İ
ĠáĦĤáħ ¥áĨ
± áĩģ
Ġò ĺ
Ġð ®
Ġò «
ĠáĦĩáħ µáĨ
¡ áĩģ
² áĩĢ
³ áĩĢ
Ġò ĵ
Ġô ı
Ġó ª
° áĩĢ
Ġò ¤
Ġò ľ
« áĩģ
ª áĩĢ
´ áĩĤ
Ġò Ĭ
Ġð ·
ĠáĦĪáħ ³áĨ
¨ áĩĤ
Ġò £
ĠáĦīáħ ®áĨ
ĠáĦĤáħ ¬áĨ
Ġò Į
Ġñ ®
ĠáĦĤáħ ¯áĨ
ĠáĦĤáħ ¦áĨ
Ġð ĺ
Ġò ©
¥ áĩĢ
Ġò ħ
¨ áĩĢ
± áĩĤ
´ áĩģ
Ġñ ½
Ġñ Ŀ
Ġó ¢
Ġô Ĩ
¨ áĩģ
µ áĩģ
Ġñ ĳ
Ġó ¿
£ áĩĤ
Ġó ³
ĠáĦĳáħ ®áĨ
¦ áĩģ
Ġò ¢
Ġò ª
Ġò Ń
Ġñ §
Ġð Ķ
¤ áĩĢ
¬ áĩĢ
Ġó Ķ
¥ áĩģ
Ġð ½
ª áĩģ
Ġñ į
Ġð «
Ġð »
ĠáĦĥáħ µáĨ
® áĩģ
Ġñ ħ
Ġó »
Ġð Ľ
Ġñ ¹
Ġñ Ķ
Ġð ¶
© áĩģ
© áĩĢ
Ġñ ¥
Ġó ´
Ġó ŀ
Ġð º
Ġñ ³
Ġñ ¾
ĠáĦĤáħ §áĨ
Ġô ĩ
Ġô ĭ
Ġò ¾
Ġñ ķ
Ġð ¤
¡ áĩĤ
Ġñ ²
Ġð ĸ
Ġô Į
Ġñ ¢
Ġñ °
Ġð ¯
Ġð ľ
¥ áĩĤ
® áĩĤ
Ġò »
Ġò ½
Ġò İ
Ġó ĳ
Ġð ¦
Ġñ ¿
Ġð ¬
Ġô Ĥ
Ġò ¡
Ġò ´
Ġñ ĥ
Ġñ ª
Ġñ ´
Ġó «
Ġò ł
Ġó ®
Ġò ®
Ġò ī
Ġñ º
Ġó ¸
Ġñ ĸ
Ġó ¤
Ġó ľ
Ġð £
ĠâŁ ¨
Ġò Ĥ
Ġñ Ģ
Ġó Ħ
Ġó Ŀ
Ġó ¦
Ġð ´
µ áĩĢ
Ġò ²
ĠáĦĪáħ °áĨ
¦ áĩĢ
Ġò ³
Ġó ĵ
Ġó Ļ
Ġó £
Ġó ¼
Ġó Į
Ġò º
Ġñ ĭ
Ġò ¥
Ġò µ
Ġò ¹
Ġó ·
Ġó ģ
Ġð ¢
Ġò Ľ
Ġó º
Ġð ±
Ġò į
Ġñ ¤
Ġñ Ĺ
Ġó ²
Ġó į
Ġð ³
Ġð ¸
Ġò ĥ
Ġò ŀ
Ġñ Ĩ
Ġò ¬
Ġò Ħ
Ġð ¡
Ġô Ĭ
Ġò ¯
Ġñ Ļ
Ġô ī
£ áĩĢ
Ġò ·
Ġñ ¸
Ġó ¬
Ġò ĳ
Ġñ ī
Ġñ Į
Ġó Ĭ
Ġó ĭ
Ġð ¹
Ġò Ĳ
Ġñ µ
Ġó Ĥ
Ġó Ĩ
Ġð Ļ
Ġó ¨
Ġó µ
Ġó Ĵ
Ġò ¼
Ġò ģ
Ġñ Ĵ
Ġó ½
Ġó ĥ
Ġð ¨
Ġð ĵ
Ġò Ĺ
Ġñ ¼
Ġñ Ń
Ġñ £
Ġó ¡
Ġñ Ĳ
Ġò ļ
Ġñ Ĭ
Ġó Ľ
Ġð ¼
Ġô į
Ġñ ±
Ġñ ĵ
ĠâĢ ²
Ġñ «
Ġñ Ĥ
Ġð Ĳ
Ġð Ĺ
Ġô ģ
Ġñ ¶
Ġó Ń
Ġñ ©
Ġð ¿
Ġð ł
Ġò Ļ
Ġñ ¡
Ġñ ł
Ġó Ĺ
Ġá ¿
Ġò ĸ
Ġñ ľ
Ġó ĸ
Ġô Ħ
Ġà¤ Ľ
Ġò ĩ
Ġó ¥
Ġó ħ
Ġñ ģ
Ġñ Ħ
Ġð °
Ġô ĥ
Ġò ±
Ġñ ĩ
Ġñ ļ
Ġò °
Ġó ¹
Ġó Ĳ
Ġð ª
Ġð ĳ
Ġó ¶
Ġô Ģ
Ġó ¾
Ġô ħ
Ġó ķ
Ġô Ī
Ġó ĺ
Ġó ©
Ġð ©
Ġò Ģ
Ġâĸ Ī
Ġñ ¬
Ġó ł
Ġò ¸
Ġò ¿
Ġó °
Ġó ī
Ġò ĭ
Ġñ ĺ
Ġó ļ
Ġò Ī
Ġó ±
Ġð ļ
Ġñ Ī
Ġð §
Ġñ ¨
Ġò ¶
Ġò Ĩ
Ġð ²
Ġó Ī
Ġá ½
ĠðĿ ĺ
Ġó ĩ
ĠâĨ ©
Ġó Ģ
Ġï ¨
Ġâ¥ Ĩ
Ġéĵ ¦
Ġà¤ ĵ
Ġñ Ľ
Ġè¢ Ĭ
ĠâĢ ķ
ĠâĤ ¹
Ġà¤ Ĳ
Ġà ¾
Ġï» ¿
Ġá »
Ġà¤ Ŀ
ĠâĴ ĸ
ĠâĤ Ĥ
ĠâĢ º
ĠáĦĢáħ«áĨ ®
Ġâĸ º
ı ´
Ġá ·
ĠâĢ ł
Ġà¤ ł
Ġïİ ĩ
Ġçı »
Ġî´ Ł
ĠâĢ ĳ
ĠâĴ Ĺ
Ġâį Ģ
Ġâı İ
Ġâľ Ĥ
ĠâĬ Ĺ
ĠçŁ »
ĠâĪ Ļ
ĠâĴ Ķ
Ġá º
ĠâĢ ±
ĠâĪ ¼
Ġà¤ ¢
ĠéĻ ļ
Ġä± ĳ
Ġâī ¥
ĠáĦĦáħ°áĨ «
Ġä° ĳ
Ġæį Ģ
ĠèĴ ĸ
Ġãĥ ı
Ġî¶ Ĭ
Ġã§ ĩ
ĠéĻ Ľ
ĠîĴ ĸ
Ġâĸ ¡
ĠâĴ ĺ
Ġîı ¹
ĠáĦħáħ ªáĩĤ
Ġçı Ł
ĠãŁ Ĺ
ĠâĨ Ĳ
Ġâİ ĩ
Ġâ¦ »
ĠáĦĨáħ¡áĨ ±
Ġéŀ Ł
Ġã· ı
ĠâĢ İ
ĠîĴ Ķ
ĠæĴ ĸ
ĠáĦĥáħ¨áĨ ¾
Ġïı ı
Ġçİ Ķ
Ġçŀ Ķ
Ġãĥ İ
Ġâı ı
ĠæĢ ±
ĠâĢ ¹
Ġãı ¯
Ġá® Ł
ĠæŁ ł
Ġè§ ĭ
ĠáĦĨáħ¡áĨ ¹
Ġá¿ ¾
ĠâĴ ©
Ġâľ į
ĠáĦĨáħ³áĨ ©
ĠâĻ Ń
Ġá¦ »
Ġè« ¾
Ġé¢ ¥
ĠâĴ Ļ
Ġãı ¿
ĠâĿ º
Ġã¿ ĩ
Ġãģ Ł
ĠáĦĨáħ³áĨ ¹
ĠáĦħáħµáĨ ½
Ġâģ ł
Ġãı »
Ġçı ¿
ĠâĿ Ń
Ġïı ¿
ĠæĴ Ķ
Ġé¾ ľ
Ġá¯ Ł
ĠèĢ ħ
Ġâĺ ħ
Ġãı Ĺ
Ġã§ Ł
ĠîĴ Ĺ
Ġçİ ĩ
Ġçŀ ´
Ġãİ ½
Ġãĥ Ĵ
Ġãĥ Ľ
ĠæĢ Ĵ
Ġâĭ ħ
Ġä¤ ¥
Ġãħ ±
ĠâĻ ®
Ġâĺ º
Ġâĺ ī
Ġâĺ į
ĠãŁ »
ĠçŁ ¿
ĠäĴ Ķ
Ġîı ł
Ġãŀ ´
Ġæĸ ĩ
Ġé§ Ł
Ġá¯ Ĥ
ĠâĢ Ĳ
ĠáĦĦáħ °áĩģ
Ġïİ Ł
ĠæĹ ł
ĠáĦĨáħ¨áĨ ®
ĠâĻ ¬
Ġãı §
ĠçŁ ¹
ĠäĴ Ĺ
ĠíŁ »
Ġãģ ı
ĠâĹ ı
Ġá§ Ĭ
Ġâī ¤
Ġç§ ¿
ĠâĴ Ń
ĠæĿ ¬
ĠîĴ ĺ
Ġã¯ Ĺ
ĠäŁ §
ĠâĹ ĭ
Ġä¸ į
ĠãĽ İ
ĠáĦĬáħ¯áĨ ½
ĠáĦħáħ´áĨ ¶
ĠáĦĨáħ §áĩĤ
Ġïı İ
Ġäĵ İ
ĠæĴ Ĺ
ĠèĴ Ļ
ĠêĴ Ķ
Ġâķ ©
Ġâī Ī
ĠáĦĨáħ³áĨ ±
ĠáĦĬáħ¯áĨ ¿
ĠáĦĨáħµáĨ ®
ĠâĢ ¨
ĠâĴ ķ
ĠçŁ ¯
ĠäĴ ĺ
Ġæģ ľ
Ġã¯ ĩ
ĠêĴ ĸ
ĠçĦ Ķ
Ġç¿ ı
Ġç¯ Ģ
Ġá¯ ı
Ġæĩ ²
Ġï¶ Ĭ
ĠçĪ Ľ
ĠáĦĨáħ¡áĨ ¾
ĠáĦĬáħ¯áĨ »
ĠáĦħáħªáĨ º
Ġá ¼
Ġà¤ ĳ
Ġâĺ ¸
Ġâĺ Ī
Ġâģ ĭ
Ġïı ¾
Ġç· Ĥ
Ġãģ į
ĠèĴ Ĺ
Ġçŀ §
ĠäĬ ĸ
Ġç¶ ª
ĠåĬ ī
ĠðŁ İ
ĠáĦĨáħ³áĨ ¶
ĠáĦĨáħ¡áĨ ¶
¤ ¥
Ķ Ĵ
Ġâģ İ
ĠâĿ ®
ĠçŁ §
ĠçŁ Ł
Ġïı »
Ġïı ½
Ġäĵ ľ
Ġéŀ ¿
Ġç· ´
Ġãģ ²
Ġãģ Ŀ
ĠéŁ ¿
ĠêĴ Ĺ
Ġá§ ı
Ġç¿ Ĥ
Ġá¯ ĩ
Ġá¯ Ĭ
ĠéĨ Ħ
ĠáĦĬáħ¯áĨ ¾
Ġâģ ĳ
ĠâĿ ¤
ĠãŁ ¯
Ġïİ £
ĠäĴ ĸ
Ġã¢ ĵ
Ġâį ¥
Ġç· ı
ĠéŁ »
ĠéŁ Ľ
ĠèĴ ĺ
Ġïŀ ¿
ĠêĴ ĺ
Ġäį £
Ġéı Ľ
Ġé» ¿
ĠçĮ ª
Ġî« ½
Ġçļ Ħ
Ġèª ª
Ġé¦ Ł
Ġé½ ĥ
Ġæ® º
ĠáĦĢáħ«áĨ ´
ĠáĦĬáħ´áĨ ¯
Ļ Ĥ
Ġï¿ Ĭ
ĠâĢ °
ĠâĴ ´
ĠâŁ ł
Ġãı ½
Ġïİ Ŀ
Ġã§ Ĭ
Ġç· ĩ
ĠäĿ Ń
Ġãŀ Ļ
Ġãģ µ
Ġãģ ¸
ĠâĹ ł
Ġá§ Ĺ
Ġã® Ł
ĠæĢ ¹
Ġæı ¹
Ġç´ ¿
Ġä¤ ¦
Ġïº Ĭ
ĠáĦĨáħ³áĨ ¾
ĠáĦĥáħ©áĨ º
ĠâĦ ı
Ġâĺ Ŀ
Ġâģ Ĵ
Ġçı §
Ġçı ½
ĠâĿ ¬
Ġïİ ¿
ĠçŁ Ĺ
Ġæĺ Ŀ
Ġã§ Ĺ
Ġã¯ Ĥ
ĠäŁ ¯
ĠêĴ Ļ
ĠæĹ Ĳ
Ġãİ Ł
Ġá¦ Ł
Ġãĥ ķ
ĠèŁ Ĥ
Ġâĩ §
Ġæ» Ń
Ġéł »
Ġéł ĭ
ĠáĽ ¾
ĠéĴ Ķ
ĠéĦ Ħ
Ġà¥ ·
ĠáĦĨáħ³áĨ ®
Ġíŀ ´
Ġð¢ ¡
§ ¢
ĠâĴ µ
Ġâĺ Ļ
Ġçı ı
ĠäĴ Ļ
Ġã· ĩ
Ġâį Ĩ
ĠíŁ Ĭ
Ġç· §
Ġæį Ĩ
Ġãģ ĭ
Ġãģ Ľ
ĠâĬ ĸ
Ġá¢ ĭ
ĠâĶ Ķ
ĠçĽ ŀ
Ġçħ ®
Ġîĩ ĩ
ĠãĢ Ĥ
Ġê¢ ©
ĠáĦĨáħ±áĨ ¾
ĠáĦĨáħ´áĨ ª
ĠáĦĨáħ ²áĩĤ
ĠãŁ §
Ġïİ ´
Ġã§ Ĥ
ĠíŁ ½
ĠäĿ ®
Ġãģ ģ
ĠâĬ ¨
Ġá¢ ĵ
Ġâĵ Ľ
Ġá§ Ł
Ġã¦ Ł
Ġèį Ĵ
Ġå¥ ĳ
Ġçķ ¥
Ġæ¨ Ĥ
ĠæĨ İ
Ġè¬ ¹
ĠáĦħáħªáĨ ¿
ĠáĦĥáħ§áĨ ¯
ĠáĦĴáħµáĨ ¾
ĠáĦĳáħ¦áĨ ®
ĠáĦĦáħ¯áĨ ¬
ĠâĢ į
ĠáĦĨáħ ³áĩģ
Ġâģ ı
Ġçı ļ
Ġã· Ł
ĠíŁ ¼
ĠäĿ £
ĠäĿ Ĳ
ĠæĴ ĺ
Ġã¿ Ĥ
Ġéİ ¿
ĠâĬ Ļ
ĠçĶ Ķ
Ġâ£ »
Ġéı Ĺ
Ġéļ Ŀ
Ġé» İ
Ġï¯ ĩ
Ġæħ ¨
Ġç¹ ģ
Ġè± ¡
ĠáĦĨáħ¨áĨ ¬
ĠáĦĥáħ¨áĨ ³
ĠáĦĥáħ§áĨ ¾
ĠáĦħáħ«áĨ ®
ĠáĦħáħ £
Ġâģ ľ
Ġçı ĩ
ĠãŁ Ķ
Ġâľ ·
ĠçŁ ¥
Ġâ¥ ©
ĠäĶ º
Ġäĵ Į
Ġã¿ ¥
Ġã¯ Ł
Ġæį ĥ
ĠâĹ Ĳ
Ġè£ ı
Ġæķ ©
ĠäĬ ĺ
Ġäº Ĩ
Ġâ« µ
Ġâħ ĵ
Ġï¯ Ĥ
ĠæĻ ´
Ġèĵ ¼
ĠáĦĨáħ¡áĨ ©
ĠáĦĭáħ³áĨ ²
ĠðĿķ Ĵ
ĠáĦĪáħ¦áĨ ¨
Ŀ §
Ġï¿ §
ĠâĢ Ĵ
ĠâĻ £
ĠáĦĭáħ ±áĩĢ
ĠâĤ Ļ
ĠâĪ ŀ
Ġâĺ »
Ġçı ¯
ĠâĿ §
ĠãŁ ı
Ġïı ¯
Ġïı ĩ
Ġïı Ĺ
Ġïı Ł
Ġæĺ į
Ġæģ Ĭ
Ġãª ĵ
Ġéŀ ´
ĠîĴ ´
Ġç· Ĭ
Ġéİ Ł
Ġãģ ¦
ĠèĴ Ķ
Ġâĵ Ŀ
Ġãİ ¼
Ġä¸ Ń
Ġç¯ ¿
Ġé¸ ŀ
Ġé§ Ĺ
Ġã¶ ¿
ĠâĶ Ĭ
ĠçĽ Ľ
Ġå¯ §
Ġâ³ º
Ġãļ İ
Ġæł Ĺ
Ġåĸ Ŀ
Ġè² ¡
ĠáĦĥáħ§áĨ ³
ĠáĦĥáħ§áĨ º
ĠáĦĨáħ°áĨ ²
ĠáĦıáħ°áĨ ¯
ĭ ®
ĠáĦħáħ ¢
Ġãı Ń
Ġæĺ ·
Ġã¢ ĥ
Ġéŀ ĩ
Ġéŀ Ŀ
Ġæį ħ
Ġãģ »
ĠæĹ ĺ
Ġãĥ ĺ
Ġéļ µ
Ġîľ »
Ġäº Ĥ
Ġé· ª
Ġï¯ Ł
Ġâļ ¥
Ġæħ ł
Ġè¢ Ģ
Ġéµ ¿
ĠçĽ Ĭ
Ġå§ Ł
Ġá¯ Ĺ
Ġï® Ł
Ġé¬ Ĵ
Ġç° ¾
Ġà³ º
ĠáĦħáħªáĨ ¸
ĠáĦħáħ¤áĨ ²
ĠðĿķ ĸ
Ł Į
ĠâĢ ³
ĠâŁ Ħ
Ġãı Ł
ĠæĿ »
Ġã· Ħ
Ġîı ı
Ġâį Ħ
Ġéŀ £
Ġéŀ Ķ
Ġã¿ Ĺ
ĠîŁ »
Ġæį Ħ
Ġãģ ¨
ĠâĬ µ
Ġå¾ Ń
Ġãĥ Ī
Ġæķ ĸ
Ġé´ ĵ
Ġâī ²
ĠãĦ Ķ
Ġè« ¸
Ġâĩ ł
ĠæŁ Ĳ
ĠïĤ «
Ġäĺ Ŀ
Ġæµ ģ
Ġéĥ ½
Ġéĥ ŀ
Ġâ´ º
Ġéģ ı
Ġï¾ ³
ĠâĮ Ĭ
Ġè¦ Ĩ
ĠèĹ į
Ġç® Ľ
Ġçĩ İ
ĠïĦ ¼
Ġåĥ §
ĠáĦĥáħ¨áĨ ·
Ġíŀ ¿
ĠáĦĨáħ²áĨ ¼
ĠáĦĬáħ¨áĨ ¨
ĠáĦĦáħ®áĨ ¹
® Ľ
ĩ Ĭ
Ġâĸ Ĭ
ĠáĦĨáħ ²áĩĢ
Ġâĺ ¶
Ġâĺ ĺ
Ġâģ ī
Ġâģ Ķ
Ġâģ Ļ
Ġçı ¥
ĠâĿ ¢
ĠãŁ ½
ĠãŁ ¿
ĠãŁ Ĵ
Ġâľ º
ĠäĴ ´
ĠäĶ ¢
ĠäĶ ³
ĠäĶ ł
Ġæģ Ĵ
Ġâį ©
Ġâį ¶
Ġçİ ´
Ġã¯ ·
Ġã¯ Ĭ
Ġã¯ ı
Ġéİ £
Ġéİ §
Ġéİ ´
Ġãģ ĵ
ĠéŁ Ĺ
Ġïŀ Ļ
Ġâķ Ģ
Ġâĵ Į
Ġâĵ İ
Ġçŀ ¸
Ġãĳ ŀ
ĠäĤ Ļ
Ġâ« Ŀ
Ġïį ¹
Ġé· ļ
Ġç§ Ł
Ġè« ¥
ĠéĻ į
Ġã¦ ¿
Ġêľ ¶
Ġéģ ŀ
ĠæĤ Ķ
Ġâ² º
Ġé¯ Ł
Ġî± ©
Ġçģ ľ
ĠïĿ ¹
ĠãĨ ģ
Ġè° ¡
Ġá® ¿
ĠçĢ ŀ
ĠãĢ Ī
ĠáĦĭáħ´áĨ ²
ĠáĦħáħ¡áĨ ¿
ĠáĦĨáħ§áĨ ¿
ĠáĦĥáħ¢áĨ ³
ĠáĦĬáħ°áĨ ´
ĠáĦĥáħ£áĨ ª
Ġï¿ ¯
Ġà¤ Ĭ
ĠáĦģáħ ³áĩĤ
ĠâĤ ĸ
Ġâģ ĵ
Ġãı ¥
Ġãı ĩ
ĠâĿ ¾
ĠâĿ Ģ
Ġïİ ¸
Ġïİ ŀ
Ġâľ ¶
ĠäĴ µ
ĠäĶ Ķ
ĠæĿ ®
ĠæĿ ¾
Ġã· ·
Ġã· Ĭ
Ġã· İ
Ġâį ħ
Ġéŀ ĥ
ĠäĿ º
ĠæĴ ©
ĠîŁ ¥
ĠîŁ ĩ
ĠäŁ ĺ
Ġãŀ Ł
Ġãģ Ĺ
ĠâĬ Ĩ
ĠêĴ ķ
ĠæĹ ħ
ĠçĦ Ĭ
Ġá§ Ĥ
Ġá§ ĩ
Ġãİ ¸
Ġãİ Ķ
Ġç¿ Ĭ
Ġç¾ ½
Ġå± ¥
Ġäķ ª
ĠïŁ Ł
Ġã¶ Ł
ĠæŁ ĺ
Ġæ¸ ļ
ĠïĨ ¿
Ġâİ Ĥ
Ġåķ Ĵ
Ġè´ Ī
ĠîĦ Ķ
Ġâ² ²
Ġé¦ ¿
Ġè¤ Ĳ
Ġè¤ Ĵ
Ġèķ ©
Ġèģ ¯
ĠåĬ £
ĠèĢ «
Ġà¨ ¸
Ġà¨ Ĺ
Ġç¸ ·
Ġå¡ ŀ
ĠåĮ Ĺ
ĠðŁ ĩ
ĠáĦĨáħ¨áĨ «
ĠáĦĨáħ¨áĨ ¶
Ġà¥ »
ĠáĦħáħ«áĨ ¬
ĠáĦĬáħ¥áĨ ¼
ĠáĦĨáħ§áĨ º
ĠáĦīáħ²áĨ ¸
ĠáĦĦáħ©áĨ ´
ĳ ī
Ķ Ķ
ļ Ģ
ĠâĻ ¥
ĠâĻ §
ĠâĻ İ
Ġâĺ İ
Ġãı Ķ
Ġâľ Ŀ
ĠçŁ ¼
Ġïı ¹
Ġâ¥ ·
Ġæĺ ¶
ĠæĿ §
Ġæģ İ
Ġã² Ģ
Ġã² ĺ
ĠîĴ Ļ
ĠíŁ ¿
Ġç· ¿
ĠäĿ §
ĠæĴ Ļ
Ġã¿ Ĭ
Ġã¯ ¿
Ġãŀ Ŀ
Ġéİ ¼
Ġãģ ¯
Ġãģ ĳ
Ġïŀ ¹
Ġïŀ Ł
Ġäı º
Ġæĵ Ħ
ĠæĹ ¨
Ġå¾ ©
Ġâĵ Ĩ
Ġá§ ģ
Ġãİ ´
Ġãĳ ľ
Ġãĥ ģ
Ġè£ ¸
Ġïį ¿
Ġèĺ ¿
Ġé¸ ¦
ĠçĮ Ł
Ġã® Ŀ
Ġäŀ §
ĠæĢ °
ĠæŁ ¨
Ġæļ Ī
Ġáª ĭ
Ġç´ Ĳ
Ġçĵ Ģ
Ġáı Ī
ĠîĶ Ĥ
Ġæ§ ¨
Ġéĳ Į
ĠæĬ ĺ
Ġèĵ ®
ĠãĤ ¦
ĠãĤ ģ
Ġæ² Ŀ
Ġè¿ ´
ĠïĹ Ĭ
Ġèĭ ¥
Ġå° ¿
Ġîĸ į
ĠáĦĨáħ¨áĨ ©
ĠáĦĳáħ¦áĨ ¨
ĠðĿķ ¥
ĠáĦħáħµáĨ º
ĠáĦħáħ¥áĨ ¶
Ġá· ·
© ¯
» »
Ł §
ĠáĦĬáħ ¯áĩĢ
ĠâĦ Ķ
Ġâĺ °
Ġâĺ Ģ
Ġâĺ Ĩ
Ġâģ į
Ġâģ ĸ
Ġçı ¹
ĠâĿ İ
ĠçŁ Ĵ
Ġâ¥ »
ĠäĴ ķ
ĠäĴ Ń
ĠäĶ ±
Ġã§ §
ĠæĿ Ń
Ġæģ ĭ
Ġæģ į
Ġãª ĥ
Ġã¿ Ł
ĠîŁ Ĭ
ĠîŁ Ĵ
ĠîĿ £
Ġæľ ´
Ġæľ Ĺ
Ġãº ĵ
Ġäı ĩ
Ġäı ĺ
ĠâĬ ĺ
ĠæĹ ¥
ĠçĶ ľ
Ġãĥ ¯
Ġãĥ ²
Ġîľ į
Ġâī ¡
Ġâī ¶
Ġâħ ł
Ġã® ¿
Ġå» Ļ
ĠâĶ Ĥ
Ġæ´ º
Ġçľ ģ
Ġâµ º
Ġçĵ §
Ġïĩ Ĭ
ĠäĦ Ĭ
Ġä£ º
Ġèľ Ļ
Ġâª »
Ġåĩ Į
ĠãĤ ¹
ĠéŃ ¯
Ġï¼ Į
ĠåĻ ¨
Ġèī ¹
Ġèĩ ¨
ĠîĮ ¶
Ġæĥ ¡
ĠêĤ ĸ
ĠéĢ ¸
Ġçĭ ¼
Ġç« ĭ
ĠïŃ ½
Ġçĺ Ł
ĠðŁ ĺ
ĠðŁ ĻĤ
Ġá¬ ī
ĠáĦĨáħ©áĨ ¶
ĠáĦĬáħ¯áĨ ¼
ĠáĦħáħªáĨ ²
ĠáĦĨáħ²áĨ Ń
ĠáĦħáħ¤áĨ ®
ĠáĦĢáħ®áĨ ¨
ĠáĦĥáħ©áĨ ·
ĠáĦĥáħ¦áĨ ¾
ĠáĦĬáħ¨áĨ º
ĠðĿķ ļ
ĠáĦĭáħ«áĨ ¸
ĠáĦĮáħ®áĨ ½
ĠáĦģáħ¦áĨ ½
ĠáĦĩáħ«áĨ ¼
ĠáĦģáħ«áĨ °
ĠáĦĭáħµáĨ Ń
ĠáĦĥáħ¥áĨ º
Ġá» ¼
¹ ³
¿ ı
ī Ī
ı ı
ĵ ²
ĵ ļ
Ĺ Ĭ
Ł Ĺ
ĠáĦĥáħ §áĩĤ
ĠáĦıáħ ¤
Ġâģ ħ
Ġãı ı
Ġçı Ĺ
ĠâĿ ¦
ĠãŁ ĩ
Ġïİ §
Ġïİ «
Ġïİ Ķ
Ġâľ ħ
Ġæĺ ¾
Ġã§ Ĵ
Ġã¢ İ
ĠæĿ Ĥ
Ġæģ ĺ
Ġã· Ĺ
Ġã² µ
Ġã² ĭ
Ġéŀ Ļ
ĠîĴ µ
ĠíŁ Ĥ
ĠíŁ Ĺ
ĠäĿ ¤
Ġçİ ¿
Ġäľ Ĵ
ĠæĴ ´
Ġã¿ ¯
ĠîŁ ¡
ĠäŁ Ń
Ġæį ¶
Ġæľ ī
Ġãº ı
Ġçº ·
ĠèĴ ķ
Ġäı §
Ġäı ¯
Ġäĳ Ł
Ġâķ ĥ
Ġå¾ §
Ġå¾ Ł
ĠêĿ §
Ġá¦ ¿
Ġç² Ĵ
Ġç¿ Ł
Ġéļ ¦
Ġéļ ·
Ġéļ Ĩ
Ġæķ ı
ĠäĬ Ļ
ĠäĤ Ń
Ġç¯ ¯
ĠêŃ ¹
ĠäĮ Ĥ
Ġâī ĳ
Ġäģ Į
ĠèŁ ı
Ġäŀ ĥ
Ġâĩ °
Ġâĩ Ĵ
Ġæĳ Ĵ
Ġâ» į
Ġæ´ Ľ
ĠäĻ Ń
Ġåħ ħ
Ġéĥ ·
ĠâĲ ĩ
Ġâµ İ
Ġê® «
Ġêķ ©
Ġç´ ¯
Ġïī µ
ĠæĤ Ļ
Ġç¶ Ł
ĠîĤ Ķ
Ġä¥ ı
Ġèľ ĺ
Ġå³ ľ
Ġä¾ ĭ
Ġå¹ ´
Ġä³ º
Ġç± ł
Ġà² ²
Ġà² º
Ġçī ¢
Ġáĳ ĸ
ĠæĶ Ĭ
Ġè¼ ¸
Ġçł ł
ĠáĦĨáħ¨áĨ °
Ġà¥ ´
ĠáĦĨáħ¡áĨ ®
ĠáĦĴáħµáĨ ¼
ĠáĦĴáħ´áĨ ¾
ĠðĿķ Ł
ĠðĿķ ł
ĠáĦİáħªáĨ ¾
ĠáĦĭáħ²áĨ ½
ĠáĦĭáħ±áĨ °
ĠáĦĤáħ²áĨ µ
ķ Ĩ
Ł ĩ
ĠáĦĨáħ §áĩĢ
ĠáĦĮáħ ŃáĩĢ
ĠâĤ Ĺ
ĠâĤ Ń
Ġéĵ §
ĠâĴ ¬
Ġâĺ ĳ
Ġâģ Ħ
ĠâĿ £
ĠãŁ ¥
Ġïı º
ĠæĿ ¤
Ġæģ ĸ
Ġîı ¥
Ġãª ĭ
Ġçİ Ļ
ĠîŁ Ĺ
ĠîŁ Ł
ĠäŁ ¥
ĠäŁ ĩ
Ġæį ĩ
ĠîĿ ¤
ĠîĿ Ń
Ġäı Ķ
Ġäı Ĺ
ĠêĴ Ń
ĠçĦ µ
Ġá§ Ĵ
Ġéº ¦
Ġî´ Ŀ
Ġç¾ Ł
Ġå± ©
Ġä¸ ²
Ġä¸ ¸
Ġç¯ Ĺ
Ġâī ·
Ġäģ ľ
Ġé» ¯
Ġî§ ¸
Ġé· º
Ġèĺ Ĵ
Ġæº İ
Ġç§ ·
ĠçĮ İ
Ġé® ¿
ĠäĲ ¤
Ġî¥ ·
Ġé§ ±
Ġîķ ©
Ġåº ¦
Ġæ´ ŀ
ĠæĲ ľ
Ġêľ ¦
Ġåµ Ĳ
Ġæ¹ ı
Ġïģ ¸
Ġä¢ ¥
ĠâĲ İ
Ġå§ ĩ
Ġâµ ±
Ġê® ®
ĠèĶ Ķ
Ġá± ±
Ġïī ½
Ġäļ °
Ġèľ Ĭ
Ġè¤ ¤
Ġéĳ ļ
Ġéĳ Ł
Ġçķ Ļ
Ġà´ ±
Ġé½ ı
Ġéĸ ·
Ġêİ ®
Ġé¤ ¥
Ġèİ ¬
Ġæ¥ ¶
Ġé¹ ¿
ĠåĹ Ģ
Ġæĭ ī
ĠáĽ µ
Ġâ³ ²
Ġè¬ ģ
Ġéĩ ĳ
Ġïĳ ¸
Ġç± »
Ġç° ĳ
Ġà¦ ¯
Ġà¦ »
ĠçĿ Ĭ
Ġã½ ¥
Ġïº ī
Ġç¼ ¾
Ġå¡ ļ
Ġç¥ ī
Ġäĩ ½
ĠæĪ ®
Ġç£ »
Ġà¼ ĥ
ĠáĦĨáħ©áĨ ¬
ĠáĦħáħªáĨ ¼
ĠáĦĴáħµáĨ »
ĠáĦĨáħ²áĨ »
ĠáĦĳáħ¦áĨ ²
ĠáĦĳáħ§áĨ ²
ĠáĦĮáħ®áĨ ¹
ĠáĦĪáħ¦áĨ ¬
ĠáĦĭáħµáĨ ±
ĠáĦĩáħ²áĨ ¶
ĠáĦĳáħ¥áĨ ¿
Ĥ Ĥ
ī ī
Ł Ĭ
ĠâĻ º
ĠâĻ į
ĠâĻ ļ
ĠáĦħáħ «áĩĢ
ĠâĤ ĺ
Ġâĺ ´
Ġâĺ ·
Ġâĺ Ħ
Ġâĺ Į
Ġâģ ķ
Ġâģ ļ
Ġâģ ŀ
Ġçı Ķ
Ġçı ĺ
ĠâĿ ¯
ĠãŁ ©
Ġïİ ½
Ġâľ Ģ
Ġâ¥ ¸
ĠäĶ ¤
ĠäĶ ¸
Ġã§ ·
Ġã§ ı
Ġã¢ Ĩ
ĠæĿ ĸ
Ġæģ Į
Ġéŀ ķ
ĠîĴ ©
ĠíŁ Ń
Ġç· Ł
Ġäľ »
Ġäľ ŀ
ĠæĴ Ń
Ġã¯ Ĵ
ĠîŁ Ĥ
Ġæľ į
Ġãŀ Ķ
Ġãº ĥ
Ġãģ Ĩ
ĠèĴ ©
ĠèĴ Ń
ĠâĬ ĳ
Ġæĵ ¯
Ġäĳ ĺ
Ġâķ ¥
Ġãİ ¹
Ġîĵ ´
Ġãĳ ģ
Ġâ£ ¸
Ġç² į
Ġç¿ §
Ġç¿ ¯
Ġæķ ¯
Ġäĥ ¡
Ġäĥ §
Ġäĥ İ
ĠäĤ ĸ
Ġî£ ·
ĠêŃ İ
ĠäĮ Į
Ġï» ı
Ġâī ¼
Ġäģ ĳ
Ġè« ĸ
Ġâ¶ º
Ġâĩ Ĳ
ĠæĢ µ
Ġå» Ĵ
Ġé§ ļ
Ġæ¸ İ
Ġâĭ ģ
Ġåķ ķ
Ġäĺ Ī
Ġæŀ ¦
Ġæ» ĭ
Ġâº İ
Ġïģ Ł
Ġáª ĸ
Ġæ£ ¶
Ġêŀ ĭ
Ġçħ ī
ĠîĬ Ķ
Ġïī ¿
Ġè¥ ģ
Ġè¥ ī
Ġïĩ Ĺ
Ġç¶ ¿
ĠîĤ ©
ĠäĦ Ķ
Ġé¦ ĥ
ĠäĢ ¹
Ġîĺ º
Ġè¨ ½
Ġèĵ ¢
Ġâ¿ Ĩ
Ġâ¿ ĩ
ĠèĬ Ĺ
Ġéľ ŀ
Ġê¤ ¤
ĠéĴ Ļ
Ġæĩ ı
Ġç© Ģ
Ġåĭ ĩ
Ġåĭ ŀ
ĠïĹ Ł
Ġä¼ ĳ
Ġéĭ §
Ġî¶ ¸
Ġéĺ °
Ġæ¢ ħ
Ġà¿ ļ
ĠéĤ ı
Ġê¨ ¢
Ġà¥ ¸
Ġà½ Ĥ
Ġï« Ľ
ĠáĦĨáħ©áĨ ±
ĠáĦĥáħ¨áĨ ¬
ĠáĦĴáħµáĨ ¸
ĠáĦĥáħ©áĨ ¾
ĠáĦĥáħ¦áĨ º
ĠáĦĴáħ´áĨ ¸
ĠáĦĴáħ´áĨ º
ĠáĦĬáħ³áĨ «
ĠáĦħáħ¢áĨ ®
ĠáĦĨáħ´áĨ ´
ĠðĴ ĺ
ĠáĦĬáħ°áĨ ¸
µ µ
į į
Ġï¿ ·
ĠâĻ ¢
ĠâĻ ¯
Ġâĸ ³
ĠáĦĭáħ ®áĩĢ
ĠáĦĮáħ ŃáĩĤ
ĠáĦĳáħ §áĩĤ
ĠáĦĩáħ ¯áĩĤ
ĠáĦīáħ ¤áĩĤ
ĠâĦ Ĭ
Ġéĵ ł
Ġâĺ ¼
Ġãı ¼
Ġãı Ĭ
ĠâĿ Į
ĠâĿ į
ĠâĿ Ĳ
ĠãŁ Ĥ
Ġïİ Ļ
Ġâľ Ĩ
ĠçŁ ı
Ġâ¥ °
Ġâ¥ ¶
Ġæĺ Ī
ĠäĶ ¶
Ġã¢ ı
Ġã¢ Ĳ
Ġã¢ Ľ
ĠæĿ º
Ġäĵ ı
Ġã² ī
Ġîı Ĭ
Ġéŀ §
ĠîĴ ļ
ĠîĴ Ń
ĠíŁ ¥
Ġç· ļ
ĠäĿ ¢
ĠäĿ ĩ
Ġçİ §
Ġäľ ·
Ġäľ į
Ġäľ ĵ
Ġäľ Ļ
ĠäŁ ©
Ġæį Ĥ
ĠîĿ ¿
Ġæľ ¸
Ġãŀ ½
Ġãŀ ĥ
Ġãº Ĥ
Ġãº ī
Ġéİ ľ
Ġïŀ ¸
ĠâĬ ©
Ġá¢ Ī
ĠçĶ Ĥ
Ġé¾ ®
Ġîĵ Ł
Ġãĵ ŀ
Ġç² ±
ĠîĻ º
ĠîĻ ĥ
Ġäİ §
ĠäĤ Ķ
ĠäĤ ķ
ĠäĤ ĺ
Ġç¯ Ł
ĠêŃ ¶
ĠäĮ ľ
Ġîį ı
Ġîį Ĳ
ĠãĶ Ĥ
ĠãĶ ī
ĠãĶ Ķ
ĠèĿ ¹
Ġç§ ¥
Ġè« Ń
Ġäķ ©
ĠçĮ ŀ
Ġé¶ ´
ĠïŁ Ĭ
ĠïŁ Ĺ
Ġã» ¿
Ġâĩ ĩ
Ġæ· ķ
Ġã¶ ¼
Ġã¾ Ł
Ġéµ ª
ĠéĮ Ħ
ĠçĽ ®
ĠïĨ Ł
Ġå¶ º
Ġåħ į
Ġæµ ª
Ġâ§ »
Ġçľ Ł
Ġâ´ ±
Ġá² ĺ
Ġæı ĩ
Ġá¯ ī
Ġå¯ ı
Ġæ¶ ¾
Ġïĩ ¾
Ġç¶ ¼
Ġæ§ ©
Ġè¯ ¤
ĠäĢ ĺ
Ġêĺ ®
Ġè± Ī
ĠêĬ Ń
Ġè¾ °
Ġæ¤ ¥
ĠãĤ ¿
Ġçģ ŀ
Ġå® Ł
Ġéľ Ĵ
ĠèĹ ´
ĠéĹ ª
Ġà¶ ¦
Ġå¢ Ŀ
Ġå· Ł
Ġï² ¨
Ġàº ı
Ġç¦ ®
ĠçĨ į
Ġéĺ ²
ĠåĴ ¢
Ġåĸ ĩ
ĠãĹ ¹
Ġàµ º
Ġï¬ ģ
Ġà± º
ĠáĦħáħªáĨ ½
Ġáģ ¿
ĠáĦĥáħ§áĨ ¸
Ġá³ ·
ĠáĦĭáħ´áĨ µ
ĠáĦĭáħ´áĨ ¼
ĠáĦĴáħ´áĨ ¨
ĠáĦįáħŃáĨ ²
ĠáĦĨáħ±áĨ ¨
ĠáĦĴáħ³áĨ ±
ĠáĦħáħ£áĨ «
ĠáĦħáħ£áĨ ¬
ĠáĦīáħ²áĨ ·
ĠáĦĢáħ²áĨ ©
ĠáĦĴáħ¬áĨ ¹
ĠáĦĬáħ°áĨ ¿
ĠáĦĮáħ³áĨ Ń
ĠáĦĥáħŃáĨ ¿
ĠáĦĬáħ¡áĨ ±
ĠáĦĨáħªáĨ ·
ĠáĦĤáħ²áĨ ¿
® Ŀ
³ Ĳ
´ »
º §
º ®
½ ¼
¿ ķ
ĥ ĵ
İ ª
ı »
ŀ §
ĠáĦħáħ «áĩĤ
ĠáĦħáħ µáĩĤ
ĠáĦģáħ £áĩģ
ĠâĴ Ĵ
ĠâŁ Ĳ
Ġâģ Ĭ
Ġãı ¹
Ġçı ŀ
Ġçı Ń
ĠâĿ µ
ĠâĿ ħ
ĠãŁ ¹
Ġâľ Ī
Ġâľ Ĳ
ĠçŁ ¨
ĠçŁ ĩ
Ġïı ¥
Ġïı Ĭ
Ġïı Ĵ
Ġâ¥ ´
Ġæĺ º
Ġæĺ ½
Ġæĺ ī
Ġæĺ ĳ
Ġæĺ Ļ
Ġã§ ¯
Ġã§ ¿
Ġã§ ļ
Ġã¢ ®
Ġã¢ ķ
Ġã¢ ĺ
ĠæĿ ¿
ĠæĿ İ
Ġäĵ Ĩ
Ġäĵ ŀ
Ġæģ Ļ
Ġã· Ĥ
Ġã· Ĵ
Ġã² ģ
Ġã² ĥ
Ġã² Ń
Ġîı ¸
Ġîı Į
Ġîı ĸ
Ġâį µ
Ġâį ·
Ġâį ĩ
Ġâį ķ
Ġãª Ĳ
Ġéŀ ¹
Ġéŀ ¾
ĠíŁ ¹
ĠäĿ ¾
Ġçİ £
Ġçİ ¼
Ġçİ Ŀ
Ġäľ Ģ
ĠæĴ ķ
ĠäŁ ¿
Ġæį »
Ġæľ Ŀ
Ġãŀ ¿
Ġãŀ ľ
Ġãŀ ŀ
ĠâĬ ´
ĠâĬ Ĵ
ĠâĬ Ķ
ĠæĹ ©
ĠæĹ Ĺ
ĠâĹ §
ĠâĹ ĺ
Ġå¾ £
Ġâĵ ¬
Ġçŀ Ļ
Ġçŀ ľ
Ġé¾ İ
Ġãİ µ
Ġãĵ §
Ġãĵ Ł
Ġâ£ Ľ
Ġá¦ ¤
Ġãĥ Į
Ġäİ Ļ
Ġç¾ ĵ
Ġäĥ ģ
ĠäĬ ©
Ġå± Į
Ġä¸ Ģ
Ġä¸ ķ
Ġäº ®
Ġé´ Ľ
ĠêŃ Ľ
ĠäĮ ŀ
Ġâī ħ
ĠãĦ Ĭ
Ġïį ¸
Ġé· Ĺ
Ġæº Ľ
ĠèŁ ģ
Ġâļ ª
Ġâļ ¿
Ġâļ ķ
Ġâļ ļ
Ġã® £
Ġã® ī
Ġæħ ¦
Ġî¥ İ
Ġã¸ ł
Ġã¦ ©
Ġå» µ
Ġå» Ĭ
Ġæĳ ¨
Ġé§ ı
Ġîŀ £
ĠæĻ £
Ġæ¾ ·
Ġêĵ Ŀ
Ġæ¹ Ł
Ġâº ı
ĠâĲ Ĵ
Ġçĳ §
Ġè´ Ł
Ġêĸ ĸ
Ġáª ©
Ġáª Ľ
Ġâ¾ £
Ġèı Ł
Ġî½ ¿
Ġåı ¥
Ġè® ¬
Ġè® Ĭ
Ġè¶ º
Ġçĵ Į
Ġå¯ ®
Ġå¯ Ĺ
Ġç¢ Į
Ġç¢ ĳ
ĠîĬ Ĩ
Ġïī ±
ĠèĤ ĭ
Ġèª ¦
Ġèª ¿
Ġâ¤ ł
ĠîĶ Ĭ
Ġèł ĵ
Ġê§ ¸
Ġïĩ Ł
ĠæĤ İ
Ġçĥ ĥ
Ġâ± ²
Ġâ± ´
Ġæİ ¢
ĠèĻ Ń
Ġé¯ ı
Ġä¬ Ĭ
Ġé¦ Ĵ
Ġèħ »
ĠäĢ £
ĠêĬ ©
ĠãĽ Ľ
Ġéł Ń
Ġâ° ®
Ġâ° Ń
ĠæĬ ļ
Ġêİ ĵ
Ġçª ±
Ġé¹ ¦
Ġâ¼ Ĥ
ĠåĹ ¢
Ġæ¡ ļ
ĠåĿ ¸
Ġáµ ¢
Ġè¡ »
Ġïĸ Ĳ
Ġçį ¯
ĠèĲ ı
ĠâĮ Ĩ
Ġæ« º
Ġê¡ £
Ġä« Į
Ġê¤ ī
ĠæŃ ¹
ĠåĻ ı
Ġïĳ §
Ġèĩ ĺ
ĠæĦ Ī
Ġà¡ ¶
Ġàº ¾
Ġç¡ ¡
Ġç¡ «
Ġèĥ ©
ĠïĪ µ
Ġã¡ į
Ġçĭ Ģ
ĠáĲ °
Ġè³ ĵ
ĠåĴ ½
Ġêł ı
Ġå¨ ¶
Ġà· ±
Ġà¥ ¾
ĠáĦĨáħ©áĨ ¯
ĠáĦħáħªáĨ ´
ĠáĦħáħªáĨ ·
ĠáĦĥáħ¨áĨ ¼
Ġá³ İ
ĠáĦģáħ£áĨ ±
ĠáĦĴáħµáĨ ½
ĠáĦĳáħ§áĨ «
ĠáĦįáħŃáĨ ©
ĠáĦĬáħ²áĨ ®
ĠáĦħáħ¡áĨ ¨
ĠáĦħáħ¡áĨ ²
ĠáĦĢáħ¥áĨ ¨
ĠáĦĮáħ²áĨ ¶
ĠáĦħáħ£áĨ ²
ĠáĦĩáħ²áĨ Ń
ĠáĦħáħ¬áĨ ¨
ĠáĦħáħ¬áĨ ²
ĠòĴ ĺ
ĠáĦĳáħ¥áĨ ¨
ĠáĦıáħ£áĨ º
ĠáĦģáħ³áĨ ½
ĠáĦĩáħ¢áĨ ©
ĠáĦĩáħªáĨ ³
ĠáĦĦáħ±áĨ ²
ĠáĦĬáħ±áĨ ½
Ġá© ı
ĠáĦīáħ¬áĨ ½
ĠáĦĤáħŃáĨ ±
¤ Ĵ
¦ Ľ
§ ķ
© ®
¼ Ī
¿ Ŀ
ĩ ı
İ Ł
ı Ĭ
ı ļ
Ķ ¹
Ļ ¤
Ŀ Ŀ
Ġï¿ İ
ĠâĻ ¾
ĠâĻ ĸ
Ġà¤ ŀ
ĠáĦģáħ «áĩĤ
ĠáĦĭáħ ¥
ĠáĦīáħ °áĩģ
ĠáĦıáħ ¡áĩĢ
ĠâĦ ·
ĠâĦ Ĥ
ĠâĴ ¨
ĠâĴ ¸
ĠâĴ Ĩ
ĠâĴ Ľ
ĠâĴ ŀ
ĠâŁ ĺ
Ġâģ Ŀ
Ġãı Ī
ĠâĿ ¿
ĠãŁ £
ĠãŁ ¨
ĠãŁ Ľ
Ġïİ ¯
Ġâľ ¸
Ġâľ Ħ
Ġïı Ķ
Ġâ¥ ¿
ĠäĴ £
ĠäĶ Ĳ
Ġã¢ ¨
Ġã¢ ĭ
Ġã¢ ĸ
ĠæĿ ¶
ĠæĿ Ħ
Ġäĵ Ł
Ġæģ ħ
Ġæģ ĵ
Ġã· ļ
Ġã² ĳ
Ġîı Ĺ
Ġîı Ļ
Ġéŀ ½
ĠíŁ ¢
ĠíŁ ķ
Ġç· Ĵ
Ġçİ ¡
Ġçİ ¾
Ġäľ Ł
Ġã¿ İ
Ġã¿ ı
Ġã¯ ļ
ĠäŁ Ķ
ĠîĿ §
ĠîĿ º
Ġæľ ¤
Ġæľ Ľ
Ġãŀ Ģ
Ġãº µ
Ġéİ ¸
Ġéİ ¹
Ġéİ Ķ
ĠéŁ ĺ
Ġïŀ ¦
Ġïŀ Ŀ
ĠâĬ Ĥ
Ġæĵ §
Ġâķ Ĩ
Ġäį Ĥ
Ġäį Ĵ
Ġâĵ ½
Ġâĵ ı
Ġæĸ Ĭ
Ġæĸ Ŀ
Ġæĸ ŀ
Ġéº Ĩ
Ġéº Ĺ
Ġçŀ ¤
Ġé¾ ¿
Ġãİ §
Ġîĵ ¦
Ġîĵ Ŀ
Ġá¦ £
Ġãĥ Ħ
Ġãĥ Ĭ
ĠîŃ ·
Ġéļ ŀ
Ġâı Į
Ġäİ ¿
Ġäİ ĩ
Ġäĥ Ĳ
Ġîľ ·
ĠäĬ Ķ
Ġå± ®
Ġî£ »
Ġç¯ ı
ĠêŃ µ
ĠêŃ ·
Ġï» ·
Ġâī º
Ġïį Ł
Ġèĺ ¶
Ġèĺ ĺ
Ġâħ Ķ
Ġï¯ ¯
ĠèĿ ®
ĠèŁ »
Ġè« ĭ
Ġé¸ İ
Ġã® ŀ
ĠäĲ ł
Ġâĩ ¸
Ġâĩ Ķ
Ġã¦ ģ
Ġæĳ ©
ĠïĬ ĵ
Ġï½ Ł
Ġé§ Ĭ
Ġîķ «
Ġã¾ ¿
ĠïĤ ĭ
Ġéµ ı
ĠïĨ ¦
Ġå¶ ĸ
Ġêľ Ī
Ġâ¹ ¹
Ġæ¹ ¤
Ġâº Ľ
Ġîİ »
Ġéĥ İ
Ġä¢ ®
Ġè´ ´
Ġáª Į
Ġå§ Ĺ
Ġî½ »
Ġä± ½
Ġâ´ ½
ĠãĮ ģ
ĠãĮ İ
Ġî¿ ³
Ġéª ·
Ġçĵ İ
Ġå¯ ļ
Ġä¤ ł
Ġïĩ ĩ
Ġïĩ ı
ĠæĤ Ĺ
Ġç¶ ¶
ĠîĤ Ĺ
Ġå² °
ĠäĦ Ĳ
Ġçĥ Į
Ġâ± º
Ġâ± ¾
Ġä¥ ·
Ġä¥ Ĭ
Ġîº ī
Ġà¸ İ
ĠâĽ ¢
ĠäĢ §
Ġçµ Ľ
Ġâ° º
Ġè¾ ¶
Ġè· «
ĠæĬ ª
Ġîł º
ĠãĤ ¢
Ġçģ §
Ġæĭ ħ
ĠéŃ ©
ĠåĿ ı
Ġïķ ł
Ġè¡ ¶
Ġïĸ ł
Ġé± ķ
Ġæ¨ ĵ
Ġã© ¢
Ġä¾ ³
Ġêħ ©
Ġêĥ ¯
ĠâĮ Ĳ
ĠâĮ Ķ
Ġéľ ĳ
Ġà¨ ²
Ġà¨ ĸ
Ġä« ĳ
Ġà¹ ¡
Ġî¬ Ł
Ġï· ´
Ġä³ »
Ġä³ ¾
ĠéĽ ¢
ĠéĽ ·
ĠæĦ Ĭ
ĠæĦ Ķ
ĠäĪ Ĵ
Ġîĥ Ł
Ġä© ±
Ġà¡ °
Ġá® ³
Ġï£ §
Ġç» ı
Ġèĳ ī
Ġçī Ł
Ġæ¿ ¾
ĠçĬ ¯
Ġà» ¿
Ġà» ı
Ġà« ·
ĠåŃ ¦
ĠçĨ ¾
ĠèĽ Ķ
ĠïĲ µ
Ġç¨ ¡
ĠéĲ ¬
Ġæ¢ ¨
Ġà§ İ
Ġà© ¶
Ġï¬ ĳ
ĠáĦĨáħ¨áĨ ±
Ġà¥ ¤
Ġï« ¾
ĠáĦĨáħ©áĨ ª
ĠáĢ ¥
Ġá³ ª
ĠáĦĭáħ´áĨ ½
ĠáĦĴáħ´áĨ ½
ĠáĦĭáħ«áĨ ¹
ĠáĦĬáħ§áĨ ¶
ĠáĦĩáħ«áĨ ²
ĠáĦħáħ¡áĨ ª
ĠáĦĥáħªáĨ ®
ĠáĦįáħ®áĨ µ
ĠáĦĬáħ¤áĨ ¨
ĠáĦĩáħ±áĨ º
ĠáĦĭáħ¢áĨ µ
ĠáĦĬáħ«áĨ °
ĠáĦĴáħ¬áĨ ¨
ĠáĦĲáħ¢áĨ »
ĠáĦĲáħ¢áĨ ½
ĠáĦīáħ£áĨ ²
ĠáĦīáħ±áĨ ¹
ĠáĦĥáħ¡áĨ «
ĠáĦĭáħ©áĨ º
¥ Ļ
´ ¸
µ Ľ
º ·
» ³
» ·
» ¾
ĥ ĥ
Į Ł
Ĺ Ķ
Ł ı
Ġï¿ ĳ
ĠâĻ ¤
ĠáĦĬáħ ªáĩĤ
ĠáĦħáħ ¬
ĠáĦħáħ ¡áĩĢ
ĠáĦģáħ ³áĩģ
ĠáĦĥáħ ªáĩģ
ĠáĦĦáħ ¦áĩĤ
ĠâĤ ģ
ĠâĤ Ķ
ĠâĪ Ī
Ġéĵ ´
ĠâĴ ĳ
ĠâŁ Ī
ĠâŁ Ł
Ġâĺ Ĥ
Ġâĺ Ĳ
Ġâĺ Ł
Ġâģ Ī
Ġãı Ļ
ĠâĿ ¶
ĠâĿ Ĥ
Ġïİ µ
Ġïİ ¾
Ġâľ ³
Ġâľ ´
ĠçŁ ¡
Ġæĺ ħ
Ġæĺ ŀ
ĠäĶ ´
ĠäĶ Ĭ
Ġã§ ¨
Ġã¢ Ī
ĠæĿ ł
Ġäĵ ¸
Ġäĵ ģ
Ġæģ ı
Ġã· į
Ġã² ĸ
Ġã² Ľ
Ġîı Ĥ
Ġîı Ĵ
Ġãª ³
Ġãª µ
Ġãª Ľ
Ġç· ·
ĠäĿ ł
Ġçİ ²
Ġçİ ľ
Ġäľ ´
Ġäľ ĺ
ĠæĴ Ĭ
ĠæĴ ļ
ĠîŁ ¹
ĠîŁ ¿
ĠäŁ ½
Ġæį °
ĠîĿ ·
Ġæľ Ļ
Ġãŀ µ
Ġãŀ ¸
Ġãº ĭ
Ġãº Ń
Ġãģ ķ
Ġïŀ ŀ
Ġäı ¥
Ġæĵ «
Ġæĵ Ľ
Ġæĵ Ŀ
Ġæĵ ł
ĠâĹ ª
Ġå¾ ´
Ġå¾ ĭ
Ġá¢ Ŀ
Ġâĵ µ
ĠçĦ Ń
Ġæĸ Ļ
Ġæĸ Ł
Ġéº Ł
Ġçŀ ½
Ġçŀ Ģ
Ġé¾ ³
Ġãİ ¿
Ġãİ ł
Ġîĵ Į
Ġãĵ Ĵ
Ġéı »
ĠêĿ ¯
Ġá¦ ĩ
Ġç² »
Ġç² ĸ
Ġç¿ Ĺ
Ġç¿ ļ
Ġï¢ ĵ
Ġî´ ±
Ġî´ »
ĠîĻ Ń
Ġè£ »
Ġâŀ ¶
Ġâŀ Ľ
ĠîŃ §
ĠîŃ µ
Ġéļ £
Ġâı ī
Ġâı Ĭ
Ġäİ £
Ġäİ ¤
Ġäİ ´
Ġäİ Ŀ
Ġç¾ ļ
Ġäĥ ĥ
Ġå± ¢
Ġé´ ŀ
Ġç¯ ĩ
ĠäĮ ĳ
ĠäĮ Ķ
ĠäĮ Ł
Ġï» Ł
Ġâī »
Ġäģ Ģ
Ġäģ Ĵ
Ġîį ©
Ġîį Ŀ
Ġîį ł
ĠãĦ ļ
Ġæº ¶
Ġæº ľ
ĠãĶ ¶
Ġï¯ §
Ġï¯ ĺ
Ġï¯ ł
Ġç§ ¯
ĠèŁ ¥
Ġé¸ ¯
Ġé¸ ¿
Ġäķ Ģ
ĠçĮ Ĵ
Ġé® Ł
Ġé¶ Ĵ
ĠïŁ ı
Ġäŀ ¼
Ġã» ·
Ġã» ı
ĠæĢ ¸
ĠéĻ ¼
Ġé¢ £
Ġã¸ Ĩ
Ġå» ĵ
ĠïĬ İ
ĠïĴ Ł
Ġîŀ ´
Ġã¾ ®
ĠïĤ ĵ
ĠçĽ Ł
Ġâĭ ĭ
ĠæĻ §
ĠæĻ Ń
ĠæĲ ĳ
Ġêľ º
Ġêľ į
Ġâİ ĸ
Ġæļ §
Ġäĺ º
Ġæŀ ¢
Ġæµ ®
Ġæ» ¨
Ġæ» ı
Ġçľ Ĥ
Ġêĸ ©
Ġêĸ ¶
Ġáª Ĳ
Ġáª ĵ
ĠéĿ §
Ġî¡ ¾
Ġêŀ ·
Ġêķ ¼
ĠèĶ Ĵ
Ġéģ Ł
Ġç´ ¢
Ġçĵ Ł
Ġçļ ½
Ġå¯ Ł
Ġæ± Ļ
Ġæ¶ º
ĠîĬ ¶
ĠèĤ Ľ
Ġè¥ º
Ġèł Ł
Ġê§ £
Ġïĩ ¼
Ġïĩ Ĥ
ĠîĢ Ŀ
Ġä£ »
Ġçĥ Ļ
Ġâ± ³
Ġä¥ ¸
Ġîº Ĩ
Ġîģ ¯
ĠèĻ ĥ
Ġâª ¾
Ġé¯ ĩ
Ġé¯ Ĵ
Ġâ¬ ļ
Ġà¸ ²
Ġå³ Ģ
Ġïļ µ
Ġêĺ ĺ
Ġè± º
ĠêĬ ĸ
ĠãĽ ĭ
Ġã¹ ®
Ġéł ¿
Ġàª »
Ġä· ¶
Ġå½ ©
Ġä´ Ĳ
Ġèģ ¢
ĠãĤ ·
Ġæ¦ ¦
Ġæ² ±
Ġê¬ ¶
Ġè¡ Į
Ġè¿ ¯
Ġï¾ ŀ
Ġåĳ Ĥ
Ġä¾ ®
ĠåĬ ©
ĠèĲ ½
Ġâ¯ ī
Ġé¬ ĸ
Ġà¹ ¿
ĠæŃ £
Ġáķ Ĩ
ĠèĹ ¸
ĠéĽ £
Ġæ¼ £
Ġèµ į
Ġêª »
ĠæĦ ¿
Ġå¦ Ł
ĠïĹ İ
Ġæĥ ĺ
ĠïĮ »
Ġá® °
Ġá® ķ
Ġê« §
Ġïł Ĺ
Ġè¸ ¨
Ġåĵ ı
Ġîµ Ń
Ġà» Ł
Ġé¨ °
ĠçĲ ī
Ġî¶ ī
Ġã³ ·
Ġäĭ ĭ
ĠáĲ ŀ
Ġå£ Ł
Ġäĸ Ĵ
Ġæ° Ń
Ġà® ¬
Ġïĺ ½
Ġå¬ ¨
Ġãĩ ĩ
ĠæĪ ĳ
ĠãĢ ī
Ġç³ º
Ġà¿ ħ
Ġçł Ĺ
Ġà³ ²
ĠðŁ Ķ
ĠáĦĨáħ¨áĨ ½
ĠáĦĨáħ©áĨ ©
ĠáĦħáħªáĨ °
ĠáĦħáħªáĨ »
ĠáĦĥáħ¨áĨ ¸
ĠáĦĨáħ²áĨ ¿
ĠáĦĭáħ³áĨ ´
ĠáĦĭáħ³áĨ ¸
ĠáĦģáħŃáĨ ¯
ĠáĦģáħŃáĨ ¸
ĠáĦĳáħ¨áĨ «
ĠáĦĳáħ¨áĨ ±
ĠáĦĳáħ¨áĨ ¶
ĠáĦĬáħ¨áĨ ²
ĠáĦįáħŃáĨ ±
ĠðĿķ £
ĠáĦĬáħ²áĨ º
ĠáĦĢáħ°áĨ ±
ĠáĦĩáħ«áĨ «
ĠáĦģáħ«áĨ ¼
ĠáĦĮáħµáĨ µ
ĠáĦĮáħµáĨ ¹
ĠáĦįáħ¯áĨ °
ĠáĦĭáħ¨áĨ ¬
ĠáĦĢáħ¯áĨ ¹
ĠáĦįáħ±áĨ ·
ĠáĦīáħ²áĨ ±
ĠáĦīáħ²áĨ ³
ĠáĦĬáħ³áĨ ¬
ĠáĦĦáħ°áĨ ©
ĠáĦĳáħŃáĨ º
ĠáĦīáħ¤áĨ ©
ĠáĦĪáħµáĨ °
ĠáĦĨáħµáĨ ª
ĠáĦĬáħ®áĨ º
ĠáĦįáħ«áĨ ¨
ĠáĦĪáħ¬áĨ ¾
ĠáĦīáħ´áĨ ¹
ĠáĦĴáħ±áĨ Ń
ĠáĦįáħ¬áĨ ¶
ĠáĦİáħµáĨ ¼
ĠáĦģáħ®áĨ ±
ĠáĦĤáħ¢áĨ ¶
ĠáĦĤáħ¢áĨ ¿
ĠáĦĬáħŃáĨ ±
ĠáĦīáħ§áĨ ¬
ĠáĦĮáħ©áĨ ·
ĠáĦĢáħ³áĨ Ń
ĠáĦĬáħ¢áĨ ±
ĠáĦĥáħ«áĨ ¨
ĠáĦĩáħ¡áĨ ±
ĠáĦĴáħ£áĨ ¶
ĠáĦģáħµáĨ Ń
³ ¾
¶ ¶
¸ ·
» §
» ¿
» ı
¼ ŀ
¾ į
¿ ¶
¿ ĩ
ģ ¹
Ħ Ķ
į ı
ļ ļ
ŀ Ĺ
Ł ¿
ł ĳ
ĠâĻ ł
Ġâĸ ģ
ĠáĦĬáħ §áĩĤ
ĠáĦħáħ ´áĩĢ
ĠáĦģáħ ©áĩĤ
ĠáĦĳáħ §
ĠáĦĴáħ ´áĩĤ
ĠáĦĦáħ ²
ĠáĦĦáħ µáĩĤ
ĠáĦĤáħ ¢áĩģ
ĠâĤ Ŀ
ĠâĪ ¥
ĠâĪ ĥ
ĠâĪ ļ
Ġéĵ Ĵ
ĠâŁ ħ
Ġâĺ ¬
Ġâĺ ®
Ġâĺ ³
Ġâĺ ĭ
Ġâĺ ı
Ġâĺ Ĵ
Ġâĺ ŀ
Ġâģ Ĺ
Ġãı ¨
Ġãı Ĥ
Ġãı Ĵ
ĠâĿ ĥ
ĠâĿ ł
Ġïİ ¹
Ġïİ ¼
Ġïİ ĥ
Ġïİ Ľ
Ġâľ »
Ġâľ ĵ
Ġïı Ĥ
Ġâ¥ º
Ġâ¥ ī
Ġæĺ Ģ
Ġæĺ Ħ
Ġæĺ ĩ
Ġæĺ ĵ
ĠäĶ §
ĠäĶ ¹
Ġã¢ ħ
Ġã¢ ŀ
Ġäĵ ļ
Ġæģ µ
Ġã· »
Ġã· Ļ
ĠâĨ Ķ
Ġã² »
Ġã² İ
Ġîı ½
Ġîı ĩ
Ġâį ĥ
Ġâį ĵ
Ġãª ¡
Ġç· Ĺ
ĠäĿ İ
Ġäľ ĥ
ĠæĴ ĵ
ĠæĴ ŀ
Ġã¿ ·
Ġã¿ Ĵ
Ġã¯ §
ĠîŁ ļ
ĠäŁ Ĥ
ĠîĿ į
ĠîĿ İ
Ġæľ ¥
Ġãŀ ĺ
Ġãģ ¡
Ġãģ ¤
Ġçº ĳ
Ġïŀ £
Ġïŀ ĵ
Ġäı ½
Ġæĵ ı
Ġâķ Ħ
Ġäį Ń
Ġá¢ »
Ġá¢ ¾
Ġá¢ ĥ
Ġâĵ ´
ĠçĦ ¢
ĠçĶ ĥ
ĠçĶ Ĵ
Ġéº ħ
Ġçŀ Ŀ
Ġé¾ ¤
Ġãİ Ŀ
Ġîĵ ı
Ġãĳ ı
Ġãĵ ĵ
Ġâ£ ´
Ġéı ¦
Ġéı Ĳ
Ġéı Ł
ĠêĿ ¦
ĠêĿ ļ
Ġç¿ Ĵ
Ġãĥ Ĩ
Ġï¢ §
Ġî´ ¸
ĠîĻ §
Ġâŀ ĳ
ĠîŃ ŀ
Ġéļ ¸
Ġæķ °
Ġæķ ĩ
Ġç¾ ¾
Ġäĥ Ģ
Ġîľ Ĥ
Ġîľ ĵ
Ġîľ ŀ
ĠäĬ ļ
Ġå± ¤
Ġå± ³
Ġå± ķ
Ġå± Ł
ĠäĤ ĭ
Ġäº İ
Ġé´ Ī
Ġç¯ ½
ĠêŃ ¤
ĠäĮ Ŀ
Ġï» º
Ġâī ½
Ġäģ ı
Ġé» ı
ĠãĦ Ĥ
Ġïį £
Ġïį ½
Ġé· ·
Ġèĺ £
Ġèĺ Ń
Ġæº º
Ġâħ ĳ
ĠèĿ ¦
Ġç§ °
Ġç§ Ĺ
Ġâļ ¸
ĠçĮ ĵ
Ġé® ¨
Ġé¶ ¦
ĠïŁ ĩ
ĠïŁ Ĵ
Ġã® §
Ġäŀ ĺ
Ġã» º
Ġã» Ł
Ġâĩ º
Ġî¥ °
Ġî¥ Ł
Ġêį ©
Ġêį ł
ĠæĢ ¿
Ġæ· §
Ġã¸ Ĥ
Ġã¦ ŀ
Ġæĳ ¡
Ġï½ ¼
Ġï½ Ķ
ĠïĴ ®
Ġîķ ¦
Ġî¯ ·
Ġî¯ Į
Ġâ» ¿
Ġâ» Ī
Ġéµ Ĭ
ĠçĽ ´
Ġæ¸ Ĵ
Ġâĭ Ĩ
Ġâĭ ī
Ġæ´ ¾
ĠæĲ ĸ
Ġåµ ±
Ġåµ Ģ
Ġæļ ĳ
ĠäĻ º
Ġâ¹ Ł
Ġäĺ ģ
Ġäĺ į
Ġæŀ Ŀ
Ġä¨ ·
Ġæ¹ º
Ġæ¹ İ
Ġæ» ĳ
Ġæ» Ľ
Ġâº ¯
Ġâ§ ·
Ġïģ µ
Ġä¢ ķ
Ġè§ Ģ
Ġçĳ ±
Ġçľ ľ
Ġáª ģ
Ġî® ª
Ġêļ ¶
Ġèı Ĥ
Ġî½ ©
Ġåı ĳ
Ġåı Ĺ
Ġåı Ľ
Ġê® ī
Ġêķ ½
Ġêķ ľ
Ġá² ĳ
ĠãĮ ĵ
Ġî¿ į
Ġç´ £
Ġçĵ ¯
Ġçļ ŀ
Ġá± §
Ġá± Ĳ
ĠîĬ ®
ĠîĬ º
ĠêŁ ĳ
Ġïī ¥
Ġäª Ĵ
Ġî¤ £
Ġä» ¤
Ġä» İ
Ġä» ĸ
ĠîĦ Ĥ
ĠîĦ Ĭ
Ġâĳ İ
ĠîĢ ļ
ĠîĤ Ļ
Ġå¥ Ī
Ġâ¡ º
Ġè© ¿
Ġâª ¹
Ġâª Ĭ
Ġà¸ Ĥ
ĠâĽ Ī
Ġä² ¯
Ġîĺ į
Ġãµ ł
Ġàª °
Ġàª ¶
Ġéĸ º
Ġä° Ĵ
Ġé¤ ¦
Ġé¤ ©
Ġïµ Ļ
Ġè¨ ©
Ġèİ ¨
Ġî± Ĭ
Ġåĩ ľ
Ġâ¿ ı
Ġá¶ ĸ
Ġèŀ º
Ġæĭ Ģ
ĠêĹ ·
Ġæ¦ İ
Ġãį ¤
Ġæ² º
Ġîħ ı
ĠåĿ Ĩ
Ġêı Ĭ
Ġé° ¿
Ġï¾ ¢
Ġéľ Į
Ġà¹ ¾
Ġî¦ İ
Ġåľ ľ
ĠæŃ ·
Ġá¡ ¨
Ġå¹ ¤
ĠèĹ Ī
ĠæĮ Ĥ
ĠéĹ Ĺ
Ġå¢ ¨
Ġäī Ī
Ġäī į
Ġäł İ
Ġæĩ ¶
Ġâ© ¸
ĠîĮ İ
Ġåĭ ¤
Ġå¦ «
Ġî³ ¿
ĠïĹ ¤
ĠïĹ Ĺ
Ġá® ĥ
Ġï£ ¯
Ġàº Į
ĠêĤ Ĥ
ĠêĤ ĺ
Ġä¼ Ĳ
Ġèĸ Ĭ
Ġê« »
Ġèĥ »
Ġèĳ £
ĠåĢ «
Ġä¯ ¼
Ġä½ Ĩ
Ġï° ¤
ĠçĹ Ļ
Ġà» ³
Ġé² ½
Ġà« º
Ġà« »
Ġæ¬ º
Ġæ¬ Ĳ
ĠçĨ °
ĠáĬ ħ
ĠèĽ ¹
Ġáĭ »
Ġà¢ ¥
Ġäĸ ŀ
Ġç¥ Ŀ
ĠåĤ ľ
Ġç¨ £
Ġî² ²
Ġè¼ ª
Ġåŀ ¿
Ġç« ·
ĠêĻ §
ĠêĻ ļ
ĠèĪ ĺ
Ġçĸ ´
Ġê£ ¶
Ġê£ ĳ
ĠáĤ ĵ
Ġá¤ Ĳ
ĠáĦĨáħ¡áĨ »
Ġà½ Ģ
Ġà½ ĸ
ĠáĦĨáħ©áĨ ®
ĠáĦĨáħ©áĨ °
ĠáĦĨáħ©áĨ ¸
Ġá³ ı
ĠáĦĢáħ«áĨ ¿
ĠáĦħáħ«áĨ ¨
ĠáĦģáħ£áĨ ¿
ĠáĦħáħ¤áĨ ¾
ĠáĦĢáħ®áĨ º
ĠáĦĳáħ§áĨ µ
ĠáĦĬáħ¨áĨ Ń
ĠáĦĢáħ°áĨ ¾
ĠáĦģáħ«áĨ ¸
ĠáĦĥáħªáĨ ¨
ĠáĦĥáħªáĨ ¬
ĠáĦħáħ´áĨ ¾
ĠáĦĨáħ§áĨ ¸
ĠáĦĭáħ¨áĨ ¼
ĠáĦĮáħ²áĨ ²
ĠáĦĬáħ³áĨ ¹
ĠáĦĥáħ¢áĨ ¹
ĠáĦħáħ¢áĨ «
ĠáĦĩáħ±áĨ ³
ĠáĦĩáħ±áĨ »
ĠáĦħáħ¬áĨ ¬
ĠáĦģáħ¥áĨ ³
ĠáĦĨáħ«áĨ Ń
ĠáĦīáħ¤áĨ ±
ĠáĦĢáħµáĨ ¬
ĠáĦĢáħµáĨ Ń
ĠáĦĩáħ°áĨ ¾
ĠáĦİáħ¬áĨ ¸
ĠáĦģáħ¢áĨ ¿
ĠáĦĨáħŃáĨ ¸
ĠðĴ ĸ
ĠáĦģáħ§áĨ Ń
ĠáĦĥáħ³áĨ ²
ĠáĦĮáħ³áĨ ´
ĠáĦĩáħ©áĨ ·
ĠáĦĢáħ©áĨ ¾
ĠáĦĮáħ£áĨ ®
ĠáĦĭáħŃáĨ ¾
ĠáĦĢáħŃáĨ ¶
ĠáĦĮáħ±áĨ ·
ĠáĦĲáħ±áĨ ¶
ĠáĦįáħ¡áĨ ©
ĠáĦįáħ´áĨ ·
ĠáĦĤáħ³áĨ µ
ĠáĦīáħ³áĨ ¬
ĠáĦĤáħ£áĨ º
ĠáĦıáħµáĨ ¹
ĠáĦĦáħªáĨ ®
§ º
© «
¬ ¬
³ ´
´ ¶
¸ º
¿ ŀ
ģ Į
ģ Ł
Ĭ ī
Į ĳ
ı Ĥ
ķ ¯
Ĺ ļ
Ļ ı
ŀ ¿
Ł ¹
Ł ½
Ł Ĥ
Ġï¿ ´
Ġâĸ ¹
Ġâĸ Ĳ
Ġâĸ Ŀ
ĠáĦĨáħ ¨
ĠáĦĨáħ ±
ĠáĦĨáħ «áĩĤ
ĠáĦĬáħ «
ĠáĦħáħ ªáĩĢ
ĠáĦĭáħ ³áĩĢ
ĠáĦĮáħ Ńáĩģ
ĠáĦĮáħ ¢áĩĢ
ĠáĦĥáħ ¢áĩĤ
ĠáĦįáħ §áĩĢ
ĠáĦįáħ ³áĩĢ
ĠáĦĪáħ ¡áĩĢ
ĠâĤ ĳ
ĠâĪ ĳ
Ġéĵ ¢
ĠâĴ İ
Ġâĺ ¾
Ġâĺ ĥ
Ġâģ £
Ġâģ ¥
Ġçı ¡
ĠâĿ ģ
ĠãŁ º
ĠãŁ ľ
ĠãŁ Ń
Ġïİ ¦
Ġâľ ī
Ġâľ Ł
Ġïı §
ĠäĴ ¬
ĠäĴ º
Ġæĺ ²
ĠäĶ £
ĠäĶ »
Ġã¢ ĳ
Ġã¢ Ń
ĠæĿ £
Ġäĵ Ī
Ġäĵ Ĵ
Ġæģ £
ĠâĨ ĳ
Ġã² ¶
Ġã² ĵ
Ġîı Ń
Ġâį ´
Ġâį ģ
Ġãª ¶
ĠîĴ º
ĠîĴ ķ
ĠîĴ ŀ
ĠíŁ ¯
ĠäĿ ½
Ġçİ ½
Ġçİ Ł
Ġäľ ī
Ġäľ İ
Ġäľ ľ
ĠæĴ µ
Ġã¿ §
Ġã¯ ¡
Ġã¯ Ń
ĠîŁ ı
ĠîŁ ķ
ĠäŁ Ŀ
Ġæį ©
Ġæį ®
ĠîĿ ©
ĠîĿ ®
ĠîĿ ¯
ĠîĿ ¶
Ġæľ £
Ġãŀ §
Ġãº ·
Ġéİ ī
Ġéİ Ļ
Ġçº µ
Ġçº ½
Ġçº ĭ
Ġçº Į
Ġçº ı
ĠèĴ ¸
Ġïŀ Ľ
Ġäı ©
Ġäı ¸
Ġäı Ł
ĠâĬ ¢
Ġæĵ Ł
Ġäĳ ¸
Ġäĳ ĳ
Ġäĳ ŀ
Ġâķ ª
Ġäį §
Ġäį İ
Ġâĵ Ħ
Ġá§ ·
Ġá§ º
Ġéº Ħ
Ġçŀ ¿
Ġçŀ ł
Ġé¾ ¡
Ġãİ Ļ
Ġîĵ Ĩ
Ġãĳ £
Ġãĳ ¯
Ġãĳ Į
Ġãĵ Ĭ
Ġãĵ ı
Ġâ£ ³
Ġâ£ ·
Ġâ£ º
ĠêĿ ¿
Ġç² ®
Ġç¿ ¦
Ġãĥ »
Ġãĥ ¼
Ġãĥ ŀ
Ġï¢ ĭ
Ġï¢ ł
Ġî´ ¨
Ġè£ Ļ
ĠîŃ Ń
Ġéļ Ķ
Ġäİ ľ
Ġæķ ¬
Ġç¾ ±
Ġîľ ¶
Ġä¸ «
ĠäĤ ·
ĠäĤ Ĭ
Ġäº Ħ
Ġäº ħ
Ġäº Ľ
Ġç¯ ·
ĠäĮ Ĭ
Ġï» ĥ
Ġï» İ
Ġäģ ¿
Ġîį ¶
Ġîį ¿
Ġé» ¤
ĠãĦ ª
ĠãĦ ģ
Ġâ« «
Ġâ« Ĥ
Ġïį ľ
Ġî§ Ļ
Ġî§ ļ
Ġé· ĸ
Ġèĺ ¹
Ġèĺ ¾
Ġèĺ ĭ
Ġæº ı
ĠãĶ ¢
ĠãĶ Ĵ
Ġâħ ¨
Ġï¯ ı
ĠèĿ ¸
Ġç§ ±
Ġç§ ĩ
Ġè« Ĵ
Ġäķ £
Ġäķ ĸ
ĠçĮ ľ
ĠïŁ »
Ġã® ¾
ĠäĲ ¬
Ġæħ ©
Ġæħ İ
Ġâ¶ ļ
Ġâĩ ķ
ĠæĢ ¨
ĠéĻ µ
Ġé¢ Ī
Ġã¸ »
Ġã¸ Ł
Ġã¦ º
Ġã¦ ĥ
Ġã¦ ĳ
Ġå» ·
Ġæĳ ¯
Ġæĳ µ
ĠïĬ Į
ĠïĬ ĸ
Ġï½ ¿
Ġï½ į
ĠïĴ ĵ
Ġîŀ »
Ġîķ Ĥ
Ġè¢ ¤
Ġè¢ ģ
Ġã¾ ²
ĠæŁ «
ĠæŁ Ĺ
Ġâ» Ł
ĠïĤ ¶
ĠïĤ ĸ
ĠïĤ ľ
ĠéĮ ³
ĠéĮ İ
ĠéĮ Ł
ĠçĽ §
Ġåº ¶
Ġæ¸ ı
ĠæĻ ¾
Ġæ´ »
ĠæĲ Ĵ
Ġå¶ £
Ġêľ »
Ġêľ ı
Ġåµ Ĥ
Ġêĵ Ľ
Ġâİ ĥ
Ġâİ ł
Ġæļ ¤
ĠäĻ £
ĠäĻ ®
ĠäĻ µ
ĠäĻ ĺ
Ġâ¹ ¯
Ġâ¹ ¶
Ġâ¹ ¿
Ġäĺ ¸
Ġæŀ ¿
Ġæŀ Ĩ
Ġåħ Ń
Ġä¨ ¸
Ġæ¹ Ľ
Ġæ» ®
Ġâ§ §
Ġâ§ ĥ
Ġä¢ ĸ
Ġä¢ Ľ
ĠâĲ ¼
Ġçĳ ©
Ġçĳ ľ
Ġáª ¬
Ġáª ĥ
Ġáª ī
Ġáª ĳ
Ġî® ŀ
Ġêļ º
Ġêļ Ŀ
ĠéĿ £
ĠéĿ ¿
ĠéĿ Ī
ĠéĿ ĸ
Ġâ¾ ¢
Ġâ¾ ¤
Ġî½ į
Ġâ´ ©
Ġêŀ Į
Ġè® °
ĠãĮ į
ĠãĮ Ł
Ġî¿ »
Ġæı Ħ
Ġç´ Ŀ
Ġçħ ±
Ġæ¶ ·
ĠêŁ ³
Ġïī °
Ġïī Ĳ
Ġèª µ
Ġâ¤ Ĥ
ĠîĶ ļ
Ġê§ ĳ
Ġç¹ ª
Ġå¿ ī
Ġåį µ
Ġåį ĭ
Ġåį ĳ
Ġç¶ ©
Ġâĳ ª
Ġâĳ ³
Ġâĳ Ĵ
ĠîĤ £
ĠîĤ İ
Ġå² Ģ
Ġå² ĸ
Ġâ¡ »
Ġä£ ¶
Ġçĥ İ
Ġçĥ ı
Ġä¥ ©
Ġæİ Ĥ
Ġæİ Ĺ
Ġîº ª
ĠèĻ ľ
Ġâª ·
Ġâ¬ »
Ġà¸ ĥ
Ġéĳ ľ
ĠåĶ ĳ
ĠèŃ µ
Ġçķ ¾
Ġã¹ į
Ġîĺ Ŀ
Ġèķ ¤
Ġèķ ı
Ġéł ł
Ġãµ İ
ĠäĽ Ľ
Ġè¾ §
Ġè· Ł
ĠæĬ Ķ
ĠæĬ ĸ
Ġé¤ ¨
Ġé¤ Ĩ
Ġé¤ Ĵ
Ġå½ ¸
Ġêĳ ľ
Ġé¹ ¹
Ġèģ »
Ġã± Ĭ
Ġã± ĭ
Ġèĵ ľ
Ġåĩ Ļ
Ġâ¿ ħ
ĠãĤ Ń
Ġå¤ ĥ
ĠåĹ ®
Ġçģ ı
Ġæ² Ī
ĠèĬ ¥
Ġïķ ¹
Ġïķ Ĭ
Ġáµ Ĭ
Ġè¡ ĩ
Ġé± µ
Ġé± Ĺ
Ġã© ħ
Ġä¾ °
Ġä¾ Ľ
ĠêĮ Ķ
ĠêĮ Ń
Ġå¸ ¦
ĠâĮ Ĥ
Ġéį ±
Ġéį ģ
Ġå© ±
ĠæĨ Ĳ
Ġèļ ¦
ĠãĨ Ĳ
ĠãĨ Ŀ
Ġà¨ «
Ġà¨ ľ
Ġîĩ ²
Ġïĥ §
Ġê¤ Į
Ġï¼ ²
Ġîī İ
ĠåĻ Ŀ
Ġá¡ ļ
Ġî¼ Ń
Ġæ½ ©
Ġæ½ Ĭ
ĠêĶ Ķ
Ġä¶ ĸ
Ġèī į
Ġäµ º
Ġäµ ģ
Ġå´ Ĵ
Ġå´ Ļ
Ġäł ¥
Ġæ¼ ¢
Ġæ¼ ¼
Ġïĳ ¹
Ġæĩ Ł
ĠèĮ ¶
ĠåŁ ¼
Ġèµ ģ
Ġåĺ ¶
Ġåĺ Ĵ
Ġêª ¤
Ġêª Ħ
ĠâŃ ±
Ġåĭ Ĵ
Ġãķ µ
ĠåĽ ¹
Ġä¡ º
Ġæª ³
Ġæĥ į
Ġéħ ª
Ġéħ į
Ġá® ī
Ġï² Ĭ
Ġàº İ
Ġàº ŀ
ĠêĤ Ķ
Ġä¼ ¸
Ġèĸ ³
Ġèĸ º
Ġã¼ Ł
Ġî¨ ´
Ġî· Ŀ
Ġç¡ £
Ġç» ¿
Ġà¦ ¡
ĠåĪ º
ĠéĢ Ħ
ĠçĿ Ģ
Ġã½ ĸ
ĠêĲ ĭ
Ġîµ Ľ
Ġé¥ ®
Ġæ¿ ı
Ġç¼ ·
Ġêī Ħ
Ġãĭ Ł
ĠîĹ ¨
ĠîĹ ĩ
Ġåİ ©
Ġäĭ ·
Ġã¡ ł
ĠåŃ ľ
ĠæĶ Ĥ
ĠáĬ ½
Ġéĺ »
Ġáĵ »
ĠîĪ ¯
Ġè³ Į
Ġä¦ Ħ
Ġé¡ Ŀ
Ġã¬ Ł
Ġç¨ ľ
Ġã¨ ©
Ġãĩ İ
Ġåĸ Ļ
Ġîĸ £
ĠéĪ į
ĠéĪ Ŀ
Ġã£ Ń
Ġêł ĸ
Ġàµ ¬
Ġã« İ
Ġá¥ Ł
ĠéĶ Ĳ
Ġáł Ł
Ġáľ °
Ġç¤ ª
Ġà³ Ŀ
Ġåł ½
Ġà§ ©
Ġà° ¸
Ġà° º
Ġê¦ Ń
Ġê¢ ł
ĠàŃ µ
Ġà· ·
Ġê£ ²
Ġê¨ ¥
Ġï¬ ·
Ġï¬ ¿
ĠáĦĨáħ¨áĨ ¸
Ġà¥ §
Ġá¤ ĳ
Ġá¤ Ł
Ġà½ ģ
ĠáĦĨáħ©áĨ ¨
ĠáĦĨáħ©áĨ ²
ĠáĦĬáħ¯áĨ ¹
ĠáĦĬáħ¯áĨ Ń
ĠáĦĥáħ¨áĨ ½
Ġíŀ §
ĠáĦĥáħ§áĨ °
ĠáĦĥáħ§áĨ ¹
Ġá³ Ħ
ĠáĦħáħ«áĨ ¼
ĠáĦĭáħ´áĨ ´
ĠáĦĨáħ²áĨ «
ĠáĦħáħ¤áĨ ¯
ĠáĦĭáħ³áĨ ±
ĠáĦĮáħŃáĨ ¹
ĠáĦĳáħ¨áĨ ®
ĠáĦĥáħ¦áĨ ²
ĠáĦĥáħ¦áĨ ³
ĠáĦįáħŃáĨ ·
ĠáĦĬáħ¥áĨ ¾
ĠáĦĬáħ²áĨ ¹
ĠáĦĭáħ«áĨ «
ĠáĦĪáħ¦áĨ º
ĠáĦĨáħ±áĨ »
ĠáĦĥáħªáĨ ¶
ĠáĦĥáħªáĨ »
ĠáĦįáħ®áĨ º
ĠáĦĮáħ¢áĨ ±
ĠáĦĭáħ¨áĨ ½
ĠáĦĮáħ²áĨ ³
ĠáĦħáħ£áĨ ±
ĠáĦĬáħ³áĨ ´
ĠáĦĳáħŃáĨ ª
ĠáĦģáħªáĨ ·
ĠáĦĭáħ®áĨ º
ĠáĦĪáħµáĨ ®
ĠáĦĬáħ«áĨ ¿
ĠáĦĢáħ²áĨ ½
ĠáĦİáħ¬áĨ ¼
ĠáĦİáħ¬áĨ ¾
ĠáĦĴáħ¬áĨ º
ĠáĦĥáħ¥áĨ ¸
ĠáĦĳáħ¥áĨ ±
ĠáĦĬáħ¦áĨ ¾
ĠáĦĨáħ°áĨ °
ĠáĦģáħ¯áĨ ¶
ĠáĦĪáħ¬áĨ ³
ĠáĦĩáħ©áĨ ¿
ĠáĦĭáħ°áĨ ´
ĠáĦĭáħ°áĨ ¼
ĠáĦģáħ®áĨ ¼
ĠáĦĭáħŃáĨ ®
ĠáĦİáħ¡áĨ µ
ĠáĦĳáħ©áĨ ¶
ĠáĦģáħ°áĨ ²
ĠáĦīáħ±áĨ Ń
ĠáĦįáħ§áĨ º
ĠáĦĨáħ¦áĨ ª
ĠáĦĢáħ³áĨ ½
ĠáĦĴáħ¢áĨ ¬
ĠáĦħáħ°áĨ ®
ĠáĦĪáħ¥áĨ Ń
ĠáĦĭáħ©áĨ ¾
ĠáĦĪáħ¨áĨ ²
ĠáĦĩáħŃáĨ ½
ĠáĦĨáħ£áĨ ´
ĠáĦħáħ¯áĨ µ
ĠáĦĴáħ¦áĨ µ
ĠáĦĢáħ¢áĨ ¾
ĠáĦĭáħªáĨ ª
ĠáĦīáħ¨áĨ »
ĠáĦħáħ±áĨ ª
ĠáĦĪáħ§áĨ °
ĠáĦĦáħ¤áĨ ½
ĠáĦĲáħ¦áĨ ¶
ĠáĦĥáħ¯áĨ º
Ġò´ ŁĮ
Ġá½ ĩ
Ġð¢¡ Ĭ
© ±
ª ª
ª ĥ
« ħ
¬ ®
¯ ¯
² ©
µ ħ
¶ Ł
· ·
º İ
» £
¾ ¡
¿ Ĺ
ģ Ŀ
ħ ±
ĩ §
ĭ ¶
İ §
ı Ģ
ı Ķ
Ĳ ī
ĳ İ
Ĵ µ
Ĵ Ī
ĵ ĵ
ķ ¦
ĺ µ
Ľ µ
Ľ Ī
ľ §
ľ ¬
Ŀ ³
Ŀ º
ŀ Ł
Ł ¨
Ł ©
Ġï¿ ¿
Ġï¿ ĩ
Ġï¿ ķ
ĠâĻ ĳ
ĠâĻ Ļ
ĠáĦģáħ ¢áĩĢ
ĠáĦĭáħ ³
ĠáĦĥáħ £
ĠáĦĥáħ Ńáĩģ
ĠáĦĳáħ ¥áĩĢ
ĠáĦĴáħ ¬áĩĤ
ĠáĦīáħ §áĩĢ
ĠáĦīáħ ¥áĩģ
ĠáĦĪáħ µáĩĢ
ĠáĦĲáħ ¬
ĠâĤ ĭ
ĠâĪ Ĥ
ĠâĴ ª
ĠâŁ İ
Ġâĺ ĩ
Ġâģ Ģ
Ġçı Ĭ
Ġçı Ļ
ĠâĿ ı
ĠãŁ ĺ
Ġïİ ¥
Ġïİ ľ
Ġâľ ²
Ġâľ Ļ
ĠçŁ ¢
ĠçŁ ½
Ġâ¥ ¨
Ġâ¥ ½
ĠäĴ ©
ĠäĴ ĭ
Ġæĺ Ĵ
ĠäĶ ļ
Ġã§ ł
Ġã¢ Ģ
Ġã¢ ģ
ĠæĿ ĺ
Ġäĵ §
Ġäĵ µ
Ġäĵ Ŀ
Ġæģ ¯
Ġæģ ļ
Ġã· Ĩ
Ġã² ħ
Ġîı ¦
Ġîı Ł
Ġâį «
Ġãª Ģ
Ġãª ī
Ġãª Ŀ
Ġãª ŀ
Ġãª Ł
Ġéŀ Ħ
ĠîĴ ³
ĠîĴ ĭ
Ġç· ¯
Ġç· Į
ĠäĿ ¦
ĠäĿ °
Ġçİ ª
Ġçİ ĭ
Ġäľ ©
Ġäľ Ĳ
ĠæĴ Ĥ
Ġã¿ Ŀ
Ġã¯ ĳ
Ġã¯ ĸ
ĠäŁ ¦
ĠäŁ Ľ
ĠîĿ ³
ĠîĿ ¾
ĠîĿ ĥ
ĠîĿ ĩ
Ġæľ °
Ġæľ ·
Ġæľ º
Ġæľ ı
Ġãŀ ¹
Ġéİ ł
Ġãģ Ļ
Ġçº ³
Ġçº ĥ
ĠéŁ ¦
ĠéŁ Ĭ
ĠéŁ Ł
Ġïŀ Ķ
Ġäı ·
Ġäı »
Ġäı ļ
Ġäı Ń
ĠâĬ ²
ĠâĬ Ĭ
Ġæĵ ©
Ġæĵ ±
ĠêĴ º
ĠæĹ ®
Ġäĳ ¤
Ġäĳ ¨
Ġäĳ °
Ġâķ Ĥ
Ġâķ ĩ
ĠâĹ Ĺ
Ġå¾ ¦
Ġå¾ ³
Ġá¢ ĩ
Ġá¢ Ľ
ĠçĦ Ī
ĠçĦ ī
ĠçĶ ī
ĠçĶ Ĳ
ĠçĶ ķ
Ġæĸ ¢
Ġæĸ Ģ
Ġá§ ļ
Ġéº ĸ
Ġçŀ ¼
Ġîĵ ª
Ġîĵ Ľ
Ġãĳ ©
Ġãĳ ¸
Ġãĳ ĳ
Ġãĳ Ĵ
Ġãĳ Ŀ
Ġãĵ ľ
Ġâ£ ¿
Ġéı ı
Ġéı ĸ
Ġç² ĥ
Ġç¿ ¸
Ġãĥ ¡
Ġî´ ´
ĠîĻ ¦
ĠîĻ ¯
ĠîĻ ·
Ġè£ ©
Ġè£ ģ
Ġâŀ ¡
Ġâŀ ĭ
Ġâı º
Ġâı ĩ
Ġäİ ¼
Ġäİ Ħ
Ġäİ ĭ
Ġäİ ŀ
Ġæķ ¸
Ġæķ Ģ
Ġç¾ ²
Ġç¾ »
Ġäĥ £
Ġäĥ ¶
Ġäĥ ·
ĠäĬ µ
ĠäĬ Ĺ
ĠäĤ Ī
ĠäĤ ĳ
ĠäĤ Ĺ
Ġäº ¯
Ġî£ ¸
Ġî£ ı
Ġî£ ĸ
Ġé´ į
Ġç¯ ¦
Ġç¯ ®
Ġç¯ µ
Ġç¯ ¶
ĠêŃ ®
ĠêŃ ¼
Ġï» »
Ġï» Ĳ
Ġâī Ĵ
Ġäģ ŀ
Ġîį ¥
Ġé» ¨
Ġé» ĳ
Ġé» ŀ
Ġâ« º
Ġâ« ĭ
Ġâ« ŀ
Ġïį ģ
Ġïį į
Ġî§ ´
Ġî§ į
Ġé· Ł
Ġèĺ ³
ĠèĿ §
ĠèĿ ķ
Ġç§ ª
Ġç§ Ń
ĠèŁ ħ
ĠèŁ ŀ
Ġè« µ
Ġè« Ĩ
Ġé¸ °
Ġäķ ¶
Ġäķ Ħ
ĠçĮ ı
Ġé® ®
Ġé¶ ³
ĠïŁ §
ĠïŁ ¯
ĠäĲ ¸
ĠäĲ Ĵ
Ġæħ £
Ġæħ ħ
Ġã» Ħ
Ġâ¶ ¶
Ġâ¶ ı
Ġâĩ ´
Ġâĩ Ī
Ġâĩ ľ
Ġêį ¥
Ġêį §
Ġæ· ª
Ġé¢ ĵ
Ġã¸ ĸ
Ġã¦ £
Ġå» ı
Ġï½ ©
Ġï½ ´
Ġï½ µ
Ġï½ ģ
Ġîŀ ¾
Ġîŀ Ĺ
Ġîŀ ľ
Ġîŀ ŀ
Ġã¶ µ
Ġã¶ ½
Ġîķ µ
Ġã¾ §
Ġã¾ ©
Ġã¾ º
Ġã¾ ¼
ĠæŁ ³
Ġî¯ ¾
Ġâ» ±
Ġéµ ¶
Ġéµ ĥ
Ġéµ į
ĠéĮ ŀ
Ġåº ª
Ġåº ĥ
Ġåº Ł
Ġâĭ ¿
ĠæĻ ¦
ĠïĨ ŀ
Ġæ´ µ
Ġå¶ ·
Ġå¶ Ĭ
Ġêľ Ŀ
Ġæ¾ «
Ġî« į
Ġåµ µ
Ġêĵ ½
Ġêĵ ī
Ġêĵ İ
Ġæļ »
ĠäĻ ¾
Ġåħ ©
Ġä¨ İ
Ġä¨ ĵ
Ġæµ º
Ġæµ ŀ
Ġæ¹ ¢
Ġæ¹ Ļ
Ġâº Ĩ
Ġéĥ °
Ġä¢ ı
Ġèº ¼
Ġèº Ĩ
Ġèº į
ĠâĲ °
Ġè§ §
Ġè§ ·
Ġçĳ »
Ġçĳ ı
Ġçľ İ
Ġçľ ĳ
Ġè´ Ĭ
Ġáª Ī
Ġáª ķ
Ġî® ±
Ġæ£ Ļ
Ġèı ¯
Ġèı Ī
Ġèı ī
Ġèı Ĭ
Ġâµ į
Ġä± ²
Ġê® ¶
Ġê® Ľ
Ġâ´ Ļ
Ġî¡ §
Ġî¡ ·
ĠðĿ Ĳ
ĠðĿ ĵ²
Ġêķ ¶
Ġêķ ¹
ĠèĶ Ĥ
Ġá² ĭ
Ġá² ļ
ĠãĮ ı
ĠãĮ ŀ
Ġî¿ µ
Ġî¿ Ħ
Ġè¶ ļ
Ġéģ Ŀ
Ġæ³ Į
Ġæ³ į
Ġçĵ ľ
Ġá¯ Ģ
Ġçħ Ĺ
Ġá± ª
Ġá± ľ
Ġæ± §
ĠîĬ ¦
ĠêŁ ¢
Ġäª Į
ĠèĤ Ĥ
ĠèĤ ĸ
ĠèĤ Ń
Ġî¤ Ĵ
Ġî¤ Ń
Ġèª ŀ
Ġâ¤ ¢
Ġâ¤ ĵ
Ġä¤ Ģ
Ġîĳ ĥ
Ġèł Ŀ
Ġê§ §
Ġê§ Ĵ
Ġê§ Ł
Ġê§ ł
Ġä» ķ
Ġå¿ ¬
Ġå¿ ®
Ġåį ķ
ĠîĦ į
Ġâĳ ¶
Ġâ² ľ
Ġå¥ ŀ
ĠäĦ ŀ
Ġï® ¯
Ġçĥ ´
Ġæİ ¥
Ġæİ Ĭ
Ġæİ ĸ
Ġæİ ļ
Ġîº Ĭ
Ġîº Ŀ
Ġîº Ń
Ġè© Į
Ġèľ ·
Ġâ¬ ·
Ġà¸ ¿
Ġé¦ ľ
Ġä§ º
Ġä§ ĭ
ĠäĢ ł
Ġêĺ ¸
Ġéĳ Ĭ
ĠåĶ ©
ĠãĽ ľ
ĠèŃ ´
Ġçķ °
Ġà´ °
Ġà´ º
Ġçµ º
Ġâ° Ģ
Ġãµ Ĵ
Ġéĸ ¯
Ġéĸ Ĵ
Ġè· Ĥ
ĠãĿ ¤
ĠãĿ ¦
ĠãĿ »
Ġé¤ Ŀ
Ġïµ ī
Ġêĳ ¨
Ġêĳ ³
Ġä´ ģ
Ġè¨ ´
Ġæ¥ µ
Ġî± ·
Ġî± ĥ
Ġé¹ ĩ
Ġâ½ ĭ
Ġæ¤ ¦
Ġèģ Ĩ
ĠãĤ ¤
Ġèŀ «
Ġå¤ ©
Ġæĭ ı
ĠéŃ ī
ĠêĹ ¨
Ġãį Ŀ
Ġæ¡ ¸
Ġæ¡ »
ĠèĬ ĸ
ĠåĿ Ķ
Ġê¬ ¡
Ġïĸ Ħ
Ġé° º
Ġè¿ Ĳ
Ġè¿ ľ
Ġï¾ ¡
Ġä¾ ¿
ĠêĮ ¤
Ġêħ ¢
ĠïĿ ¾
ĠïĿ Ĭ
Ġäħ Ľ
Ġçį ¡
Ġçį ¼
Ġæ« ĸ
Ġæ« Ĺ
Ġéį Ĭ
ĠèĢ ¦
Ġå© ļ
Ġéľ į
Ġéľ İ
Ġéľ Ŀ
Ġèļ ³
Ġèļ Ķ
Ġê¡ ²
Ġîļ ®
Ġé¬ ¢
Ġà¹ ¦
Ġà¹ ı
Ġéĩ §
Ġéĩ ı
Ġï· ¯
Ġï· ¿
Ġïĥ ¼
Ġî¦ ³
Ġê¤ ŀ
Ġá´ ´
Ġá´ Ģ
Ġá´ Ŀ
Ġâ¸ µ
ĠáĶ Ģ
Ġî» ¥
Ġî» ³
Ġè¦ ĸ
ĠèĹ ļ
Ġå´ ¿
Ġå¼ ±
Ġå¢ ª
Ġäł ¦
Ġæ¼ ı
Ġïĳ ŀ
ĠåŁ Ĩ
Ġåĺ ŀ
Ġêª £
Ġêª ®
Ġæī Ĵ
ĠîĮ ĥ
ĠîĮ Ķ
Ġåĭ º
Ġåĭ ī
Ġå¦ ¾
Ġîĥ Ĵ
ĠêĽ ¨
Ġæª ±
ĠïĮ İ
Ġç® ¿
Ġæ® ®
Ġåī Ĵ
Ġá® ŀ
Ġä¼ Į
Ġä¼ ı
Ġã¼ ·
Ġã¼ Ļ
Ġî¨ ¹
Ġê« ¤
Ġé£ ¼
Ġç» ĺ
Ġà¦ į
ĠïĪ ·
ĠåĪ ©
Ġã½ ¶
Ġã½ ĭ
ĠçĹ Ĭ
Ġä¿ ķ
Ġåĵ ľ
Ġïħ ¿
Ġçī ¾
Ġçī Ħ
Ġï¶ ī
Ġé¥ Ĺ
ĠéĨ ī
ĠçĬ ¬
ĠçĬ Ŀ
Ġæ© «
Ġç¸ ī
Ġç¸ Ł
Ġïº ±
Ġé© ©
Ġãĭ ģ
Ġãĭ Ľ
Ġïĵ Ĩ
Ġã³ Ĭ
Ġã³ ı
Ġà« ¿
ĠãĬ Ŀ
Ġå¡ Ģ
Ġå° Ĳ
Ġå£ ¹
ĠïĲ ¹
Ġà¢ ĥ
Ġäĸ ¨
Ġã¤ ª
Ġè³ Ĥ
Ġî¸ ª
Ġî¸ ¼
Ġäĩ ·
Ġáį ¼
ĠåĴ Į
ĠåĴ Ĺ
ĠåĮ ¿
ĠåĮ Į
Ġêĭ Ķ
Ġã£ ¯
Ġã£ ĵ
Ġàµ Ĳ
Ġæ¢ ŀ
ĠãĻ ĸ
Ġãĺ Į
Ġé¼ Ī
Ġà¿ ²
ĠçĤ §
ĠçĻ ³
ĠçĻ Ĥ
ĠáĨ ±
ĠáĨ Ļ
Ġç¤ ¼
ĠïĽ ¿
ĠïĻ ħ
Ġáŀ Ł
ĠáĪ µ
ĠáŃ ¤
ĠðŁ ĳ
ĠáĦĨáħ¨áĨ ´
Ġà¥ ¶
Ġà± ¸
Ġá¤ ı
Ġá¬ ±
ĠáĦħáħªáĨ µ
Ġàł ĥ
ĠáĦĥáħ¨áĨ »
Ġíŀ ¼
ĠáĦĥáħ§áĨ ´
ĠáĦĥáħ§áĨ ¿
Ġâ· Ķ
ĠáĦħáħ«áĨ °
ĠáĦħáħ«áĨ ±
ĠáĦģáħ£áĨ ²
ĠáĦĭáħ´áĨ »
ĠáĦĴáħµáĨ ³
ĠáĦĴáħµáĨ ·
ĠáĦĨáħ²áĨ ®
ĠáĦĳáħ¦áĨ ¬
ĠáĦĢáħ®áĨ ¹
ĠáĦĮáħŃáĨ ¼
ĠáĦĥáħ©áĨ °
ĠáĦĬáħ¨áĨ »
ĠáĦĭáħ«áĨ ®
ĠáĦĮáħ®áĨ ·
ĠáĦĬáħ§áĨ ¹
ĠáĦĬáħ§áĨ ¾
Ġï¸ ¿
ĠáĦħáħµáĨ ¹
ĠáĦĢáħ°áĨ º
ĠáĦģáħ¦áĨ ±
ĠáĦģáħ¦áĨ ¶
ĠáĦĪáħ¦áĨ ª
ĠáĦĪáħ¦áĨ °
ĠáĦħáħ¡áĨ ¯
ĠáĦģáħ«áĨ ²
ĠáĦģáħ«áĨ ¾
ĠáĦįáħ¯áĨ ¸
ĠáĦĥáħªáĨ Ń
ĠáĦĴáħ³áĨ «
ĠáĦĮáħ¬áĨ ¶
ĠáĦĮáħ¢áĨ º
ĠáĦĬáħ¤áĨ ¸
ĠáĦĨáħ§áĨ ·
ĠáĦĢáħ¯áĨ ¬
ĠáĦĢáħ¯áĨ µ
ĠáĦīáħ²áĨ ½
ĠáĦĥáħ¢áĨ ©
ĠáĦĥáħ¢áĨ ±
ĠáĦĳáħŃáĨ ©
ĠáĦħáħ¢áĨ ¨
ĠáĦĨáħ´áĨ º
ĠáĦĭáħ®áĨ ®
ĠáĦĭáħ®áĨ ²
ĠáĦĭáħ®áĨ Ń
ĠáĦİáħ©áĨ º
ĠáĦģáħ¥áĨ ´
ĠáĦģáħ¥áĨ ¶
ĠáĦİáħªáĨ ½
ĠáĦĭáħ¢áĨ ¯
ĠáĦīáħ¤áĨ ·
ĠáĦıáħ¬áĨ ©
ĠáĦįáħ²áĨ ·
ĠáĦģáħ¢áĨ ¼
ĠáĦĬáħ¦áĨ º
ĠáĦĭáħ£áĨ ¬
ĠáĦĪáħªáĨ °
ĠáĦģáħ³áĨ ¿
ĠáĦĩáħ¯áĨ ´
ĠáĦĩáħ¯áĨ ¸
ĠáĦĮáħ¥áĨ º
ĠáĦģáħ¬áĨ ¿
ĠáĦĪáħ´áĨ ®
ĠáĦĪáħ´áĨ Ń
Ġá© Ĳ
Ġá© Ł
ĠáĦīáħ±áĨ ²
ĠáĦĥáħŃáĨ ¸
ĠáĦĥáħŃáĨ ½
ĠáĦīáħ§áĨ ¼
ĠáĦĢáħ±áĨ ·
ĠáĦĲáħ¬áĨ ¾
ĠáĦĲáħ£áĨ º
Ġà£ ĳ
ĠáĦĥáħ¡áĨ ª
ĠáĦĪáħ²áĨ ±
ĠáĦıáħ²áĨ ¾
ĠáĦīáħ¬áĨ ¿
ĠòŁ ļ
ĠáĦįáħ¡áĨ ¼
ĠáĦĲáħªáĨ ©
ĠáĦĪáħ¨áĨ ´
ĠáĦıáħ«áĨ »
ĠáĦĳáħ¯áĨ ½
ĠáĦĢáħ¢áĨ »
ĠáĦĥáħ®áĨ ¶
ĠáĦĤáħ¡áĨ ¬
ĠáĦĭáħ¬áĨ Ń
ĠáĦħáħŃáĨ ½
ĠáĦĦáħ¬áĨ º
Ġá¿ ħ
¤ Ĩ
¤ İ
¦ ³
§ ¿
© ¥
© ©
ª į
¬ º
¯ ı
° ĵ
± ¹
´ Ĩ
µ ´
· ¨
· ¬
¸ ¿
¹ ¹
º Ĭ
º ĺ
¼ į
½ »
½ ŀ
ģ §
ģ ©
ģ ´
ģ µ
Ĥ ĵ
ĥ ¥
ĥ ¹
Ħ ¢
Ĩ º
Ĭ ĵ
ĭ «
Į ĥ
Į ĸ
į ¿
ı º
ı Ľ
ĳ ·
ĳ º
Ĵ ©
Ĵ ¬
ĵ ł
ĵ Ń
Ķ ĳ
ĸ ĵ
Ĺ ¨
Ĺ Ĺ
Ľ ı
ŀ ¥
ŀ Ľ
Ł ®
Ń ©
Ġï¿ Ľ
ĠâĻ Ħ
ĠâĻ ŀ
Ġâĸ ĳ
Ġâĸ Ļ
ĠáĦĨáħ ²áĩģ
ĠáĦĨáħ ¨áĩĤ
ĠáĦĨáħ ¨áĩĢ
ĠáĦĨáħ ±áĩĤ
ĠáĦĬáħ ¢
ĠáĦĬáħ °
ĠáĦĬáħ Ńáĩģ
ĠáĦĬáħ ¤áĩĤ
ĠáĦĬáħ °áĩĢ
ĠáĦħáħ «
ĠáĦħáħ £áĩģ
ĠáĦĭáħ ²áĩĤ
ĠáĦĢáħ ©áĩģ
ĠáĦĳáħ ŃáĩĢ
ĠáĦĳáħ ¬áĩģ
ĠáĦĴáħ µáĩĤ
ĠáĦīáħ ³áĩĤ
ĠáĦĪáħ ²áĩĤ
ĠáĦĪáħ ¬áĩĤ
ĠáĦıáħ ±
ĠáĦĤáħ ¢áĩĤ
ĠâĤ ª
ĠâĤ ´
ĠâĤ ¿
ĠâĦ ł
Ġéĵ ¨
Ġéĵ ª
Ġéĵ ¶
Ġéĵ Į
Ġéĵ Ł
ĠâĴ ¿
ĠâĴ ħ
ĠâĴ Ī
ĠâĴ Ŀ
ĠâŁ Ķ
Ġâģ ¤
Ġãı ¡
Ġãı ©
Ġãı ·
Ġãı Ħ
Ġãı ļ
Ġçı Ŀ
Ġçı ł
ĠâĿ Ħ
ĠãŁ ¡
Ġïİ ±
Ġïİ ļ
Ġâľ ¦
Ġâľ ¿
Ġâľ Ĵ
ĠçŁ Ĳ
Ġïı Ĳ
Ġïı ļ
Ġâ¥ ³
Ġâ¥ ¼
Ġæĺ ¬
Ġæĺ ´
Ġæĺ µ
Ġæĺ ¼
Ġæĺ Ĥ
Ġæĺ Ĩ
Ġæĺ ĭ
Ġæĺ İ
ĠäĶ ¦
ĠäĶ ®
ĠäĶ ·
ĠäĶ Ĥ
Ġã§ Ģ
Ġã§ Ń
ĠæĿ ħ
ĠæĿ ĩ
Ġäĵ ¥
Ġäĵ ´
Ġæģ ¢
Ġæģ ī
Ġæģ ĳ
Ġæģ Ķ
Ġæģ ŀ
Ġã· §
Ġã· Ķ
ĠâĨ ¬
Ġã² Ĥ
Ġã² ı
Ġîı »
Ġãª ©
Ġãª «
Ġãª ·
Ġãª İ
Ġãª ĳ
Ġéŀ ¼
Ġéŀ Ĩ
Ġéŀ ŀ
ĠîĴ Ĵ
ĠíŁ §
ĠíŁ ı
ĠíŁ Ĵ
Ġç· ¥
Ġç· ½
Ġç· Ń
Ġçİ ķ
Ġäľ ¶
Ġã¿ °
Ġã¿ ľ
ĠîŁ £
ĠîŁ ¸
Ġæľ »
Ġæľ Ĩ
Ġãº §
Ġãº Ĺ
Ġéİ ¤
Ġçº §
Ġçº ¿
Ġçº Ī
Ġçº Ĳ
Ġçº Ľ
ĠéŁ ĵ
ĠèĴ ĳ
ĠèĴ Ĵ
Ġäı ¡
Ġäı ı
Ġæĵ ª
Ġæĵ ¬
Ġæĵ Ī
ĠêĴ ĵ
ĠæĹ ·
ĠæĹ ĸ
ĠæĹ ļ
Ġäĳ ©
Ġäĳ ¾
Ġäĳ ĵ
Ġâķ ¢
Ġâķ ¤
Ġâķ ¦
Ġâķ ķ
Ġäį ¤
Ġäį ´
Ġäį ¹
Ġäį ħ
Ġäį Ĩ
ĠâĹ ¥
ĠâĹ ¨
ĠâĹ ļ
Ġå¾ ¥
Ġá¢ «
Ġâĵ Ĭ
ĠçĦ ¾
ĠçĦ ĭ
ĠçĶ Ģ
ĠçĶ ĭ
Ġæĸ »
Ġæĸ Į
Ġéº į
Ġéº Ĵ
Ġéº ľ
Ġçŀ ¢
Ġçŀ ¾
Ġé¾ ¢
Ġé¾ ±
Ġé¾ Ĺ
Ġãİ ĺ
Ġãİ ľ
Ġãİ ŀ
Ġîĵ ¤
Ġîĵ Ģ
Ġîĵ ģ
Ġãĳ »
Ġãĳ Ĥ
Ġãĳ ķ
Ġãĵ ¥
Ġãĵ ²
Ġãĵ į
Ġãĵ ł
Ġâ£ ¯
Ġâ£ ½
Ġâ£ ¾
Ġâ£ ķ
Ġéı ļ
ĠêĿ ¾
ĠêĿ ĥ
Ġá¦ ©
Ġá¦ ī
Ġç² Į
Ġç² ĳ
Ġç¿ µ
Ġãĥ ±
Ġî´ °
Ġî´ º
ĠîĻ ®
ĠîĻ İ
ĠîĻ ĸ
Ġè£ «
Ġè£ ¹
Ġè£ ĵ
ĠîŃ £
ĠîŃ ĸ
Ġéļ ģ
Ġâı Ľ
Ġäİ ¸
Ġäİ ī
Ġäİ Ł
Ġç¾ ³
Ġç¾ ·
Ġäĥ ŀ
Ġîľ Ĳ
Ġîľ ł
ĠäĬ Ĥ
Ġå± ·
Ġå± ŀ
Ġä¸ ĳ
Ġä¸ Ĵ
ĠäĤ ©
Ġäº ½
Ġî£ ©
Ġî£ ª
Ġî£ į
Ġî£ İ
Ġé´ Ŀ
ĠäĮ ¢
ĠäĮ İ
Ġï» ¶
Ġäģ ©
Ġäģ İ
Ġäģ ĸ
Ġîį ĥ
ĠãĦ ²
ĠãĦ ľ
Ġâ« ±
Ġâ« »
Ġâ« ĳ
Ġî§ ¥
Ġé· ¿
Ġé· į
Ġé· ľ
Ġèĺ ¸
Ġèĺ į
Ġæº Ĺ
Ġæº ļ
ĠãĶ ½
ĠãĶ ģ
ĠãĶ Ĭ
ĠãĶ ļ
Ġâħ ¦
Ġâħ ª
Ġâħ ¸
Ġï¯ Ĵ
Ġï¯ ĸ
Ġç§ µ
Ġç§ ı
ĠèŁ º
Ġé¸ º
Ġé¸ Į
Ġé¸ į
Ġé¸ ĵ
Ġé¸ Ł
Ġâļ º
ĠçĮ ģ
Ġé® ī
Ġé¶ ¶
ĠïŁ Į
ĠïŁ ĺ
Ġã® º
Ġã® ĭ
Ġã® ļ
Ġäŀ ³
Ġäŀ ¿
Ġäŀ Ĩ
ĠäĲ »
ĠäĲ Ķ
Ġæħ ª
Ġæħ Ħ
Ġæħ Ŀ
Ġã» ¸
Ġã» ĵ
Ġâ¶ ·
Ġâ¶ ĸ
Ġêį £
Ġêį ³
Ġêį ½
Ġêį Ļ
ĠæĢ ł
Ġã¦ »
Ġã¦ ī
Ġå» Ľ
ĠïĬ ¥
ĠïĬ ª
ĠïĬ ½
ĠïĬ ģ
Ġï½ ½
Ġé§ ¿
Ġé§ Ĩ
Ġé§ ĩ
ĠïĴ Ģ
ĠïĴ ģ
Ġã¶ ¾
ĠæŁ ¤
ĠæŁ ½
Ġâ» ¨
ĠïĤ ħ
Ġéµ º
Ġéµ ħ
Ġéµ Ł
ĠéĮ £
ĠéĮ Ģ
ĠçĽ ĭ
Ġæ¸ ·
Ġæ¸ Ĳ
Ġæ¸ Ł
Ġâĭ ±
Ġâĭ »
ĠæĻ Į
ĠæĻ Ļ
ĠïĨ ¯
Ġæ´ ¸
Ġæ´ ı
ĠæĲ ı
Ġæ¾ ¦
Ġæ¾ §
Ġî« ¹
Ġåµ ľ
Ġêĵ ª
Ġêĵ µ
Ġâİ ŀ
Ġæļ Ħ
ĠäĻ ¢
Ġåķ Ĺ
Ġäĺ Ł
Ġæŀ Ĺ
Ġæµ ¾
Ġæµ ı
Ġæ» į
Ġéĥ §
Ġâ§ ¸
Ġâ§ į
Ġïģ ½
Ġèº £
Ġèº ¯
Ġè§ ¦
Ġè§ ´
Ġè´ ĩ
Ġêĸ º
Ġêĸ İ
Ġáª ¨
Ġáª ª
Ġêļ ¦
ĠéĿ ¯
ĠéĿ Ĵ
ĠéĿ Ń
Ġâ¾ ²
Ġèı Ģ
Ġèı ļ
Ġâµ Ĩ
Ġî½ ±
Ġî½ Ń
Ġä± Ŀ
Ġä± ŀ
Ġê® Ĭ
Ġê® ı
Ġî¡ ¸
Ġêķ ĩ
Ġè® ®
Ġè® ²
Ġá² »
ĠãĮ ¶
ĠãĮ Į
ĠãĮ ľ
Ġî¿ ±
Ġî¿ ·
Ġî¿ ĳ
Ġè¶ ¶
Ġéģ ł
Ġæ³ ¿
Ġæ³ Ł
Ġéª ¯
Ġéª ı
Ġéª ĵ
Ġéª ķ
Ġèį »
Ġèį ĵ
Ġèį Ķ
Ġá¯ ĥ
Ġá¯ Į
Ġçħ £
Ġçħ ©
Ġçħ ³
Ġçħ ¼
Ġå¯ Ĭ
Ġá± ¸
Ġá± Į
Ġá± ĸ
Ġæ± ®
Ġç¢ İ
ĠêŁ İ
Ġïī ĵ
Ġïī Ń
Ġáı ¡
Ġáı ®
Ġáı ĭ
ĠèĤ ®
ĠèĤ ĩ
Ġèª Ĵ
Ġâ¤ Ĵ
Ġèł ¬
Ġä» Ĵ
Ġç¹ ¢
Ġç¹ £
Ġåį ĥ
Ġç¶ ¾
Ġç¶ İ
Ġâĳ ¬
Ġâĳ ģ
ĠîĤ Ģ
Ġå¥ ¿
Ġå² ŀ
ĠäĦ «
ĠäĦ Ĥ
ĠäĦ ħ
Ġâ¡ ´
Ġâ¡ ģ
Ġäļ ¦
Ġä£ ·
Ġä£ ĵ
Ġçĥ Ī
Ġçĥ Ĭ
Ġä¥ ´
Ġæİ Ģ
Ġæİ ł
Ġîº Ĵ
ĠèĻ ¾
ĠèĻ Ĳ
Ġä¹ ·
Ġé¯ ļ
Ġâ¬ ĳ
Ġà¸ ª
Ġà¸ Ł
Ġè¯ ¯
ĠâĽ «
Ġä¬ µ
Ġèħ ĩ
Ġå³ ¯
Ġå³ º
Ġïļ ĭ
Ġïļ Ĺ
Ġïļ Ń
Ġä§ §
Ġä§ ¼
ĠäĢ ¤
Ġè¤ Į
Ġè± ĺ
Ġä² Ľ
ĠêĬ ĺ
ĠêĬ ľ
ĠãĽ ·
ĠèŃ ¥
Ġçķ Į
Ġã¹ ³
Ġã¹ Į
Ġà´ Į
Ġîĺ ·
Ġèķ ¢
Ġèķ Ģ
Ġèķ ŀ
Ġâ° ĸ
Ġãµ ¶
Ġãµ º
Ġàª ·
ĠäĽ ģ
Ġé½ ¥
Ġé½ ĩ
Ġé½ Ī
Ġè¾ £
Ġä· ¾
Ġéĸ į
Ġè· ¯
Ġä° ³
ĠãĿ Ŀ
ĠæĬ ´
ĠæĬ ı
ĠæĬ Ĺ
Ġå½ ¼
Ġêĳ ´
Ġä´ ©
Ġèİ «
Ġâ½ °
Ġâ½ ·
Ġèģ Ķ
Ġã± ¤
Ġîł ¨
Ġîł ·
Ġâ¼ ·
Ġâ¼ Ĵ
Ġá¶ ¡
Ġá¶ µ
ĠãĤ ±
ĠãĤ µ
ĠãĤ ½
ĠãĤ ł
Ġèŀ ·
Ġèŀ Ŀ
Ġçģ ¢
Ġæĭ ģ
ĠéŃ ķ
ĠêĹ ²
ĠêĹ Ĵ
ĠêĹ Ĺ
Ġã´ ®
ĠæĽ §
ĠæĽ ª
ĠæĽ Ĩ
Ġãħ £
Ġãį ¸
Ġæ² ²
Ġïķ ĺ
Ġê¬ Ń
Ġáµ ¶
Ġêı ¾
Ġé± Ń
ĠèĦ ¢
ĠèĦ ·
Ġâ³ ´
Ġâ³ »
Ġï¾ ·
Ġã© İ
Ġä¾ ª
ĠêĮ ĳ
Ġå¸ Ĵ
Ġêħ ł
ĠïĿ ¿
Ġäħ ©
Ġäħ Ĳ
Ġçį ľ
ĠâĮ Ĵ
Ġéį §
Ġéį ª
Ġå© ¢
Ġê¡ ¨
Ġâ¯ ļ
ĠãĨ į
Ġîļ Ľ
Ġä« Ĵ
Ġé¬ §
Ġîĩ Ľ
Ġà¹ º
Ġî¬ ĵ
Ġïĥ ·
Ġïĥ ľ
Ġî¦ ģ
Ġåľ ¬
Ġê¤ Ĩ
Ġï¼ ·
Ġå¹ ¸
ĠéĴ ¶
Ġâ¸ §
Ġâ¸ Ķ
Ġä¶ ¦
Ġãļ Ħ
Ġèī »
Ġäµ ¾
ĠäŃ ¿
ĠäŃ Ŀ
ĠæĮ ¯
Ġå´ ĳ
Ġå´ ļ
Ġà¶ º
Ġãľ Ĳ
Ġãľ ĵ
Ġäī Ģ
Ġäł Ĭ
Ġæ¼ ®
Ġïĳ ĵ
Ġîª º
Ġîª Į
Ġèĩ Ń
Ġæī Ŀ
Ġç© ł
ĠäĪ į
ĠîĲ ł
ĠêĽ ½
Ġáİ Ł
Ġä© İ
Ġç± º
Ġç® ¼
Ġç® ķ
Ġç° ł
ĠçĴ ĺ
Ġá® ĳ
Ġá® Ĵ
Ġàº ĩ
ĠêĤ Ĺ
Ġî· §
Ġé£ µ
Ġé£ ¿
Ġèĥ Ľ
ĠåĢ ¥
ĠåĢ Ł
Ġà¦ ¤
Ġä¯ ĸ
ĠåĪ Ĺ
ĠéĢ £
Ġè» ¶
ĠçĹ ¥
ĠêĲ į
ĠêĲ ı
Ġä¿ Ķ
Ġåĵ ĵ
Ġâ® ĥ
Ġî¹ ©
Ġî¹ Į
ĠéĨ ´
ĠéĨ ı
ĠçĬ ¸
Ġæ© ĵ
Ġïº ®
Ġáĺ Ī
ĠîĽ ª
Ġé© µ
Ġé© ½
Ġç¦ į
Ġç¦ İ
Ġï¹ °
ĠçĢ ¼
Ġî¾ ±
Ġïĵ Ł
Ġã³ Ģ
ĠçĪ µ
Ġê¥ £
Ġé« ¿
Ġê© ¦
Ġê© §
Ġê© ¸
Ġã¡ ¤
Ġçĭ ĭ
Ġà¬ ²
ĠïĲ ·
ĠïĲ ½
Ġà¢ Ĥ
Ġãĸ ¦
Ġãĸ ļ
ĠêĪ Ŀ
Ġæ° º
Ġî° ·
Ġêģ ļ
Ġêģ ľ
Ġáĩ ĩ
Ġïĺ ³
Ġïĺ ·
Ġå¬ ¡
Ġã¬ Ĵ
Ġãī ¦
Ġãī İ
Ġç¨ ¨
Ġç¨ ĵ
Ġãĩ ĸ
ĠæĪ Ģ
ĠåĮ ı
ĠéĪ Ķ
Ġã£ £
Ġã£ ¹
Ġî² Ń
Ġêł ¸
Ġêł Į
Ġêł Ł
Ġàµ ¨
Ġä® ¶
Ġéī İ
Ġè² µ
Ġåŀ ŀ
Ġáļ ı
ĠåĦ Ĵ
ĠçĻ ŀ
Ġáł ı
ĠáĨ Ł
Ġáľ Ĳ
ĠêĻ £
ĠïŃ ¯
ĠïŃ ¾
Ġà³ Ļ
Ġçĸ ¯
Ġà§ ĳ
Ġê¦ ķ
ĠáĪ ®
Ġà¯ ±
ĠáĴ Ł
Ġê£ ³
Ġê£ ´
Ġê£ Ĳ
Ġê¨ ĥ
ĠðŁ Ĵ
ĠáĦĨáħ¨áĨ ³
ĠáĦĨáħ¨áĨ ¿
Ġà¥ Ń
ĠáĤ º
ĠáĤ Ĳ
Ġá¤ ī
Ġá¤ İ
ĠáĦĨáħ³áĨ ³
Ġà½ ĳ
Ġà½ Ľ
Ġï« Ł
ĠáĦĬáħ¯áĨ ©
Ġáģ ľ
Ġíŀ ¹
ĠáĦĥáħ§áĨ »
Ġâ· Ĭ
ĠáĦģáħ£áĨ µ
ĠáĦģáħ£áĨ »
ĠáĦĳáħ¦áĨ °
ĠáĦħáħ¤áĨ ¶
ĠáĦĢáħ®áĨ ¬
ĠáĦĮáħŃáĨ ´
ĠáĦĳáħ§áĨ ´
ĠáĦĥáħ¦áĨ ¶
ĠáĦĴáħ´áĨ ª
ĠáĦįáħŃáĨ ª
ĠáĦĬáħ²áĨ µ
ĠáĦĬáħ²áĨ ½
ĠáĦĭáħ«áĨ ²
ĠáĦģáħ¤áĨ ´
ĠáĦģáħ¤áĨ ½
ĠáĦĢáħ°áĨ ½
ĠáĦģáħ¦áĨ ²
ĠáĦĩáħ«áĨ º
ĠáĦĩáħ«áĨ »
ĠáĦĪáħ¦áĨ ¸
ĠáĦħáħ¡áĨ ®
ĠáĦĮáħµáĨ ©
ĠáĦĨáħ±áĨ ½
ĠáĦĴáħ³áĨ ¼
ĠáĦĮáħ¬áĨ ³
ĠáĦĮáħ¬áĨ Ń
ĠáĦĢáħ¥áĨ ¬
ĠáĦįáħ®áĨ ®
ĠáĦİáħ£áĨ ´
ĠáĦİáħ£áĨ º
ĠáĦĬáħ¤áĨ «
ĠáĦĭáħ¨áĨ ¨
ĠáĦĭáħ¨áĨ Ń
ĠáĦĢáħ¯áĨ º
ĠáĦħáħ£áĨ ®
ĠáĦĬáħ³áĨ ¼
ĠáĦĥáħ¢áĨ º
ĠáĦĩáħ²áĨ ®
ĠáĦħáħ¢áĨ ³
ĠáĦĩáħ±áĨ ¼
ĠáĦĭáħ®áĨ ³
ĠáĦĭáħ®áĨ »
ĠáĦħáħ¬áĨ ®
ĠáĦİáħ©áĨ ¶
ĠáĦģáħ¥áĨ ¹
ĠáĦĨáħ«áĨ ¯
ĠáĦĭáħ¢áĨ °
ĠáĦīáħ¤áĨ «
ĠáĦīáħ¤áĨ ¹
ĠáĦĬáħ®áĨ ¶
ĠáĦįáħ²áĨ ¾
ĠáĦĨáħŃáĨ ®
ĠáĦĩáħ´áĨ º
ĠáĦĮáħ¡áĨ ±
ĠáĦıáħ£áĨ ª
ĠáĦįáħ«áĨ ª
ĠáĦįáħ«áĨ ½
ĠáĦįáħ«áĨ ¿
ĠáĦİáħ±áĨ ½
ĠáĦĭáħ£áĨ ´
ĠáĦĭáħ£áĨ ¸
ĠáĦĥáħ³áĨ ©
ĠáĦĪáħªáĨ ¸
ĠáĦĩáħ©áĨ ±
ĠáĦıáħ©áĨ ²
ĠáĦıáħ©áĨ ¸
ĠáĦģáħ³áĨ °
ĠáĦģáħ³áĨ ±
ĠáĦģáħ³áĨ Ń
ĠáĦĩáħ¢áĨ ±
ĠáĦģáħ¡áĨ ¿
ĠáĦĭáħ°áĨ ¿
ĠáĦĢáħ©áĨ ¸
Ġâĥ Ī
ĠáĦĥáħ²áĨ »
ĠáĦįáħ°áĨ ¸
ĠáĦĪáħ´áĨ ³
ĠáĦĪáħ¢áĨ ¹
ĠáĦįáħ³áĨ ¸
ĠáĦĳáħ£áĨ ¶
ĠáĦİáħ¯áĨ ©
ĠáĦĬáħ¬áĨ ²
ĠáĦįáħ§áĨ ´
ĠáĦĨáħ¢áĨ ¬
ĠáĦħáħ³áĨ ¶
ĠáĦĳáħ¬áĨ ¸
ĠáĦĢáħ±áĨ Ń
ĠáĦĲáħ¬áĨ Ń
ĠáĦīáħ°áĨ º
ĠáĦĲáħ£áĨ ¯
ĠáĦĩáħ£áĨ º
ĠáĦĴáħ¢áĨ °
Ġà£ Ĩ
ĠáĦĢáħ´áĨ ¬
ĠáĦĢáħ´áĨ ±
ĠáĦĨáħ®áĨ ®
ĠáĦĬáħ¡áĨ ½
ĠáĦīáħ©áĨ ¸
ĠáĦīáħªáĨ »
ĠáĦīáħ¥áĨ µ
ĠáĦĪáħ¥áĨ ³
ĠáĦĭáħ©áĨ ¹
ĠáĦĦáħ¨áĨ Ń
ĠáĦĬáħ´áĨ ©
ĠáĦĭáħ¤áĨ ©
ĠáĦĮáħªáĨ Ń
ĠáĦĮáħ¦áĨ ·
ĠáĦĮáħ¦áĨ Ń
ĠáĦĥáħ«áĨ ´
ĠáĦıáħ¢áĨ °
ĠáĦıáħ¢áĨ ¶
ĠáĦĲáħ¨áĨ ¸
ĠáĦįáħ©áĨ º
ĠáĦĨáħªáĨ ¾
ĠáĦĴáħªáĨ ·
ĠáĦĦáħ²áĨ ·
ĠáĦĤáħ£áĨ ±
ĠáĦĪáħ©áĨ µ
ĠáĦĨáħ¬áĨ º
ĠáĦĢáħ¦áĨ «
ĠáĦĦáħ¤áĨ º
ĠáĦĦáħªáĨ ´
ĠáĦĪáħ¤áĨ °
ĠáĦħáħ¨áĨ ±
ĠáĦĲáħ©áĨ ¯
ĠáĦıáħ±áĨ °
Ġá¿ Ģ
Ġò° ¼Ī
Ġá½ ¿
Ġáº Ŀ
Ġáº Ł
¡ º
£ Ī
£ ļ
¤ ¹
§ İ
¬ Ĵ
® ¯
¯ ®
µ ¤
µ ·
¶ ª
¶ Ĺ
· ¦
· į
¹ Ĩ
º ģ
º Ĩ
º Ŀ
» ŀ
¼ ļ
½ ±
¾ µ
¾ ĥ
¿ ¥
¿ §
ĥ ¨
ĥ ª
Ĩ ¹
Ĩ ¿
Ĩ Ł
ĩ ¹
ĩ º
ĩ İ
Ī ŀ
ī ¤
Ĭ Ĭ
ĭ Ĳ
į ¼
į ¾
İ ½
İ ¾
İ İ
İ ĵ
İ ľ
ı ©
ı ¶
ı ķ
ı ŀ
ĳ ¤
ĳ ¿
ĳ Ĳ
Ĵ ±
Ķ ®
Ķ ĺ
ķ £
ĸ İ
Ĺ ³
ĺ ¯
ļ ½
ľ Ģ
ŀ ®
ŀ ¯
Ł «
Ł »
Ł ī
Ł ķ
Ł Ŀ
Ń ¼
Ń Ŀ
Ġï¿ ³
Ġï¿ ľ
Ġï¿ ł
ĠâĻ °
ĠâĻ ¶
Ġâĸ ½
Ġâĸ ¿
Ġâĸ ī
ĠáĦĬáħ ³áĩģ
ĠáĦģáħ §áĩģ
ĠáĦģáħ £áĩĢ
ĠáĦĭáħ ¦áĩģ
ĠáĦĮáħ ¡áĩģ
ĠáĦĥáħ ª
ĠáĦĥáħ ³áĩĤ
ĠáĦĢáħ ¥
ĠáĦįáħ ¯áĩĢ
ĠáĦĳáħ ±áĩĤ
ĠáĦĩáħ ¯áĩģ
ĠáĦİáħ ¨áĩĢ
ĠáĦĴáħ ®áĩĢ
ĠáĦıáħ ¦áĩĤ
ĠáĦıáħ «áĩĢ
ĠáĦĦáħ °áĩĤ
ĠáĦĦáħ £áĩģ
ĠáĦĲáħ «
ĠáĦĤáħ ±áĩģ
ĠâĤ ©
ĠâĤ Ĵ
ĠâĪ ¶
ĠâĪ ĭ
ĠâĪ Ĺ
ĠâĦ Ĵ
ĠâĦ Ĺ
Ġéĵ ĵ
Ġéĵ ŀ
ĠâĴ ¶
ĠâĴ º
ĠâĴ ĥ
ĠâĴ ī
ĠâĴ Ĳ
ĠâŁ ı
Ġâĺ ¿
Ġâĺ Ĭ
Ġâĺ ĸ
Ġâĺ Ń
Ġâģ Ĩ
Ġâģ Į
Ġâģ Ĳ
Ġãı µ
Ġãı ł
ĠâĿ ķ
ĠâĿ ļ
ĠãŁ Ħ
ĠãŁ ł
Ġïİ ķ
Ġïİ ł
Ġâľ ¨
Ġâľ ¾
ĠçŁ £
ĠçŁ Ĭ
Ġâ¥ İ
ĠäĴ ¢
ĠäĴ Ĭ
ĠäĴ Ŀ
Ġæĺ Ĭ
Ġæĺ Ł
ĠäĶ ¥
ĠäĶ °
ĠäĶ Ĵ
Ġã§ ¤
Ġã¢ ª
Ġã¢ Į
ĠæĿ ´
ĠæĿ ī
ĠæĿ Į
Ġäĵ ¢
Ġäĵ ©
Ġäĵ ĥ
Ġäĵ ĺ
Ġäĵ Ľ
Ġäĵ ł
Ġæģ ©
Ġæģ ģ
Ġæģ ķ
Ġã· µ
Ġã· ¶
ĠâĨ ª
Ġã² ¯
Ġã² ³
Ġã² ¸
Ġã² Ļ
Ġîı ¯
Ġîı Ĳ
Ġâį Ĥ
Ġâį Ĭ
Ġãª ı
ĠíŁ ĩ
ĠíŁ Ķ
ĠíŁ Ł
Ġç· ¼
ĠäĿ ¡
ĠäĿ ¯
ĠäĿ »
Ġäľ ĭ
Ġäľ Į
ĠæĴ ®
Ġã¿ Ĩ
Ġã¯ ī
ĠîŁ ŀ
ĠäŁ ¨
ĠäŁ İ
ĠäŁ Ĺ
Ġæį ½
Ġæį Ń
ĠîĿ ¦
ĠîĿ ĸ
Ġæľ ®
Ġæľ Ģ
Ġæľ Ł
Ġãº ²
Ġãº ¶
Ġãº Ĩ
Ġãº Ĳ
Ġãº ĳ
Ġéİ ©
Ġéİ ĺ
Ġéİ ŀ
Ġçº º
Ġçº ķ
Ġçº Ŀ
ĠéŁ ©
ĠéŁ Ĵ
ĠéŁ Ķ
Ġïŀ ®
Ġïŀ Ģ
Ġäı ¿
Ġäı Ĳ
ĠâĬ ³
ĠâĬ ĥ
ĠâĬ ĩ
ĠâĬ ķ
Ġæĵ µ
Ġæĵ Ģ
Ġæĵ Į
Ġæĵ ľ
ĠêĴ ©
ĠæĹ §
ĠæĹ µ
ĠæĹ ĳ
ĠæĹ Ł
Ġäĳ Ĳ
Ġâķ ¡
Ġâķ ¸
Ġâķ Ń
Ġäį ¢
Ġäį ®
Ġäį ¸
Ġäį ¼
Ġäį ı
ĠâĹ Ł
Ġá¢ µ
Ġá¢ Ĳ
Ġâĵ ĩ
Ġâĵ Ļ
ĠçĦ Ģ
ĠçĦ ģ
ĠçĦ ĥ
ĠçĶ «
ĠçĶ ¶
Ġæĸ §
Ġæĸ ľ
Ġá§ »
Ġá§ İ
Ġçŀ ĩ
Ġçŀ ĺ
Ġé¾ ¼
Ġé¾ ı
Ġîĵ Ĺ
Ġãĳ ´
Ġãĳ İ
Ġãĵ ª
Ġãĵ ĥ
Ġãĵ ĩ
Ġâ£ «
Ġâ£ ī
Ġéı ¯
Ġéı ½
ĠêĿ ¡
ĠêĿ ¢
ĠêĿ £
ĠêĿ ®
ĠêĿ ²
ĠêĿ İ
ĠêĿ ı
ĠêĿ Ń
Ġá¦ ¾
Ġç² Ľ
Ġãĥ ĥ
Ġãĥ į
Ġï¢ ¸
Ġï¢ ĳ
Ġï¢ Ľ
Ġï¢ Ŀ
Ġî´ «
ĠîĻ £
ĠîĻ ¤
ĠîĻ ¶
ĠîĻ ¹
Ġâŀ ³
Ġâŀ º
Ġâŀ Ĩ
Ġâŀ Ł
ĠîŃ ¸
ĠîŃ ¾
ĠîŃ ĥ
Ġéļ ĵ
Ġâı Ĩ
Ġäİ ½
Ġç¾ ¯
Ġç¾ ¹
Ġç¾ ¼
Ġç¾ ¿
Ġç¾ Ĭ
Ġç¾ ľ
Ġç¾ Ń
Ġäĥ ³
Ġäĥ ¿
Ġäĥ Į
Ġîľ ´
Ġîľ ī
Ġîľ ı
ĠäĬ ´
ĠäĬ Į
ĠäĬ Ĵ
Ġå± µ
Ġå± Ģ
Ġå± Ĺ
Ġä¸ ¦
Ġäº ¾
Ġäº Ĭ
Ġî£ ¼
Ġî£ ł
Ġé´ µ
Ġé´ ¹
Ġç¯ ¨
ĠäĮ ¤
ĠäĮ ±
ĠäĮ ¶
ĠäĮ ĵ
Ġâī ķ
Ġäģ §
Ġäģ ĵ
Ġäģ Ł
Ġîį ³
Ġîį ·
Ġé» §
ĠãĦ ł
Ġâ« ·
Ġïį ¡
Ġïį ³
Ġïį »
Ġî§ §
Ġî§ ĭ
Ġî§ ĳ
Ġî§ Ł
Ġèĺ Ŀ
Ġæº ®
ĠãĶ ķ
Ġâħ ¥
Ġâħ ¿
Ġï¯ ©
Ġï¯ Ĭ
ĠèĿ ¯
ĠèĿ º
Ġç§ ¨
Ġç§ ©
Ġç§ ¶
Ġè« ¦
Ġè« Ŀ
Ġè« Ł
Ġé¸ ¸
Ġé¸ ī
Ġâļ ĸ
Ġâļ ł
Ġäķ Ń
ĠçĮ ¼
Ġé® ¯
Ġé® ĩ
Ġé® ŀ
Ġé¶ £
Ġé¶ Ń
ĠïŁ ķ
Ġã® ®
Ġã® ĳ
ĠäĲ ¼
Ġæħ ¤
Ġæħ ĳ
Ġã» °
Ġã» ²
Ġâ¶ §
Ġâ¶ ¼
Ġâĩ ¨
Ġî¥ £
Ġî¥ ´
Ġî¥ Ĥ
Ġêį ¦
Ġêį ª
Ġæ· ļ
Ġé¢ ¦
Ġé¢ Ĵ
Ġã¸ ½
Ġã¸ ģ
Ġã¸ Ŀ
Ġå» ĸ
Ġå» Ŀ
Ġæĳ §
Ġæĳ °
ĠïĬ ¶
ĠïĬ ĭ
Ġï½ Ģ
Ġï½ ĥ
Ġé§ ´
ĠïĴ ¢
ĠïĴ Ĳ
Ġîŀ Ķ
Ġîķ £
Ġîķ ª
Ġã¾ ´
Ġã¾ ¾
Ġã¾ Ĭ
ĠæŁ ¥
ĠæŁ ı
ĠæŁ Ł
Ġî¯ ı
ĠïĤ ±
ĠïĤ ı
ĠïĤ ŀ
ĠâĶ ·
ĠâĶ ķ
Ġéµ ¾
ĠéĮ Ĥ
ĠéĮ ĸ
ĠçĽ ĩ
Ġæ¸ ¾
Ġæ¸ Ģ
Ġæ¸ ŀ
Ġâĭ Ģ
Ġâĭ Ħ
Ġâĭ Ī
ĠïĨ «
Ġæ´ ´
Ġæ´ Ł
ĠæĲ ī
Ġå¶ Ģ
Ġêľ ³
Ġêľ Ĳ
Ġæ¾ ³
Ġæ¾ ¸
Ġæ¾ Ĺ
Ġî« Ĺ
Ġåµ ł
Ġêĵ ł
Ġâİ Ļ
Ġæļ ¦
Ġæļ ¹
Ġæļ ¿
Ġæļ ĥ
ĠäĻ ¦
ĠäĻ ¶
Ġåķ ´
Ġâ¹ ¬
Ġâ¹ ľ
Ġâ¹ ł
Ġæŀ ª
Ġæŀ ¶
Ġæŀ »
Ġæŀ Ħ
Ġåħ µ
Ġåħ ¸
Ġåħ ¿
Ġæµ ±
Ġæµ ¼
Ġæ¹ ĸ
Ġâº ¼
Ġâº ĭ
Ġâº ļ
Ġîİ ¸
Ġîİ Ģ
Ġîİ ĥ
Ġîİ Ń
Ġéĥ ¯
Ġéĥ »
Ġéĥ ľ
Ġâ§ ®
Ġâ§ °
Ġâ§ Ĩ
Ġâ§ ı
Ġâ§ Ķ
Ġïģ Ħ
Ġä¢ £
Ġèº ¦
ĠâĲ ī
ĠâĲ Ĭ
ĠâĲ ĳ
ĠâĲ Ļ
Ġè§ ³
Ġè§ į
Ġè§ ľ
Ġè§ Ł
Ġçĳ ¨
Ġçĳ İ
Ġçĳ ĳ
Ġçĳ Ł
Ġçľ Ģ
Ġçľ ĭ
Ġçľ ķ
Ġè´ ĳ
Ġêĸ §
Ġáª Ń
Ġå§ §
Ġå§ ¯
Ġå§ ļ
Ġêļ »
Ġêļ ķ
Ġêļ Ĺ
ĠéĿ ¥
ĠéĿ Ł
Ġâ¾ µ
Ġæ£ °
Ġèı ı
Ġâµ Ļ
Ġî½ £
Ġî½ ī
Ġä± ĥ
Ġî¡ ´
Ġî¡ İ
Ġêŀ ¨
Ġêŀ µ
Ġêŀ º
Ġêŀ ¿
Ġêŀ ĸ
Ġêŀ Ľ
Ġêķ ¥
Ġè® ¨
ĠèĶ ¤
ĠèĶ ¯
Ġá² º
Ġî¿ ī
Ġè¶ ®
Ġè¶ Ń
Ġéģ ¯
Ġç´ ·
Ġç´ Ĭ
Ġéª ´
Ġéª ŀ
Ġçĵ ŀ
Ġçļ ±
Ġçļ Ŀ
Ġá¯ Ħ
Ġá¯ Ĵ
Ġç¢ ı
Ġç¢ ķ
Ġæ¶ Ĵ
ĠêŁ ¥
ĠêŁ »
Ġáı ĩ
Ġáı ī
Ġáı ŀ
Ġäª §
Ġäª Ĩ
ĠèĤ ª
Ġî¤ ¶
Ġî¤ ģ
Ġî¤ ĳ
Ġî¤ ĸ
Ġèª ®
Ġèª ł
Ġâ¤ ³
Ġä¤ Ħ
Ġîĳ Ģ
Ġîĳ ļ
ĠîĶ Ĩ
ĠîĶ ĭ
Ġè¥ ¤
Ġè¥ ¶
Ġèł ©
Ġèł Ĥ
Ġèł ŀ
Ġê§ ±
Ġïĩ ¹
Ġä» ¦
Ġä» Ģ
Ġç¹ ¦
Ġç¹ ĳ
Ġå¿ ±
Ġå¿ ¼
ĠæĤ ĸ
ĠîĦ ĭ
ĠîĦ Ĵ
Ġâĳ °
ĠîĤ ł
Ġå¥ ³
Ġå² ģ
ĠäĦ ĩ
Ġâ¡ ²
Ġäļ ¯
Ġçĥ ¯
Ġâ± ®
Ġä¥ ģ
Ġä¥ ķ
Ġæİ ·
Ġæİ ģ
Ġîº ¬
Ġîº ®
Ġîº ľ
Ġæ§ °
Ġæ§ Ĭ
Ġîģ Ĺ
Ġè© ³
Ġèľ ¹
Ġèľ Ħ
Ġâª ĵ
Ġâª ĺ
Ġä¹ Ĭ
Ġä¹ Ł
Ġâ¬ º
ĠâĽ ´
ĠâĽ ¾
ĠâĽ Ħ
Ġä¬ ¤
Ġä¬ ¦
Ġé¦ ¾
Ġïļ «
Ġè¤ ŀ
Ġêĺ į
Ġêĺ Ļ
Ġéĳ ¢
Ġéĳ İ
Ġéĳ ĳ
Ġä² ©
ĠåĶ ĩ
ĠêĬ §
ĠêĬ Ĺ
ĠãĽ ī
ĠèŃ ¬
ĠèŃ į
Ġã¹ £
Ġã¹ Ĳ
Ġîĺ »
Ġâ° £
Ġãµ ³
Ġàª ª
Ġàª Ģ
Ġàª Ĭ
ĠäĽ İ
Ġé½ ³
Ġé½ Ĺ
Ġä· Ĵ
Ġéĸ ĸ
ĠãĿ ¹
ĠãĿ ¼
ĠãĿ ģ
ĠæĬ Ń
Ġêİ Ĭ
Ġêİ Ń
Ġé¤ ¤
Ġé¤ Ĭ
Ġé¤ į
Ġå½ ¾
Ġå½ ¿
Ġïµ º
Ġêĳ µ
Ġè¨ £
Ġè¨ ³
Ġèİ ·
Ġèİ Ĺ
Ġâ½ ¸
Ġèģ ¾
Ġîł ł
Ġåĩ ħ
Ġâ¿ ª
Ġâ¿ ·
Ġâ¿ ĺ
Ġá¶ ŀ
ĠãĤ ³
Ġå¤ Ĭ
Ġî¢ ¶
Ġî¢ Ĺ
Ġçģ Ł
Ġæĭ ¾
ĠéŃ Ĥ
ĠéŃ Ń
ĠêĹ º
Ġã´ ī
Ġã´ ı
Ġæ¦ £
Ġæ¦ Ī
Ġãħ °
Ġãį §
Ġãį ³
Ġæ² «
Ġæ¡ ¤
Ġæ¡ ´
Ġîħ ª
Ġîħ »
ĠèĬ Ķ
Ġïķ Ń
Ġáµ ²
Ġè¡ Ī
Ġïĸ «
Ġé± ¸
Ġé± Ļ
Ġâ³ µ
Ġè¿ «
Ġåª ¡
Ġåª ©
Ġåª ĵ
Ġã© ¤
Ġã© ī
Ġã© ı
Ġåĳ Ĺ
Ġä¾ ·
Ġå¸ ¿
Ġêħ ħ
Ġêħ Ŀ
Ġäħ «
Ġäħ ¾
Ġçį µ
Ġçį ¿
Ġêĥ ´
Ġæ« µ
Ġé¿ ¥
Ġéį ¾
ĠèĢ ģ
Ġå® ı
ĠæĨ °
ĠæĨ ĩ
Ġéľ ²
Ġéľ ı
Ġèļ ¢
Ġèļ ħ
Ġê¡ ·
Ġâ¯ ĩ
Ġà¨ µ
Ġà¨ ·
Ġé¬ ¯
Ġé¬ µ
Ġé¬ Ł
Ġè¬ ¢
Ġè¬ ³
Ġâ¦ ·
Ġà¹ ®
Ġà¹ ¼
Ġî¬ §
Ġî¬ ĸ
Ġéĩ ¶
Ġî© µ
Ġî¦ ¯
Ġåľ ¨
Ġåľ Ŀ
Ġê¤ ¥
Ġê¤ Ľ
Ġï¼ ¿
ĠæŃ ©
Ġîī Ĩ
Ġá¡ ©
Ġî¼ ĥ
Ġá´ ĥ
ĠáĶ ĵ
Ġî» °
Ġî» Ń
Ġæ½ ®
ĠêĶ ¤
ĠêĶ ģ
Ġä¶ ģ
Ġè¦ ©
Ġè¦ Ŀ
ĠèĹ ł
Ġå¼ Ħ
ĠéĽ ¶
ĠêĦ Ĥ
Ġà¶ Ĩ
Ġãľ ı
Ġãľ ĳ
Ġãľ ļ
Ġå¢ ı
Ġå¢ ŀ
Ġäī İ
Ġäī Ń
Ġäł «
Ġäł ķ
Ġæ¼ ¾
Ġå· ®
Ġïĳ ı
ĠèĮ »
ĠåŁ ½
ĠåŁ Ľ
Ġîª »
Ġîª İ
Ġîª ŀ
Ġèµ Ľ
Ġè½ ½
Ġèĩ Ł
Ġç© ©
Ġãķ ¦
Ġãķ ±
Ġãķ ī
Ġî³ °
Ġî³ ·
Ġîĥ ŀ
ĠåĽ ī
ĠåĽ Į
Ġæª £
Ġæª µ
Ġæĥ ¨
Ġæĥ ł
Ġç® Ģ
Ġéħ ĸ
ĠçĴ ¸
Ġá® Ĭ
Ġá® ı
Ġá® Ĳ
Ġâ¨ Ĩ
Ġèĸ ·
Ġî¨ Ń
Ġî· º
Ġî· į
Ġê« Ĩ
Ġç» Ĺ
Ġèĥ ¢
Ġèĳ ¨
Ġèĳ ·
Ġèĳ ł
ĠåĢ Ģ
ĠåĢ ļ
Ġà¦ ©
Ġà¦ ĺ
Ġä¯ ¿
ĠåĪ Ī
Ġà² ³
ĠäĨ ´
ĠäĨ ī
ĠéĢ ¤
ĠéĢ §
Ġè¸ ·
Ġè» °
Ġè» ½
Ġä½ ĭ
ĠãĲ £
Ġã½ ·
ĠçĹ ĺ
Ġä¿ ´
Ġîµ ¥
Ġîµ ¿
Ġâ® ¸
Ġâ® »
Ġà» Ĵ
Ġæ© ı
Ġáĳ Ĳ
Ġç¼ ģ
Ġç¼ ĩ
Ġêī ļ
Ġêī Ł
Ġáĺ µ
ĠîĽ ¦
ĠîĽ ¯
Ġé¨ Ļ
Ġç¦ ¿
Ġç¦ ī
ĠçĲ ħ
ĠçĲ Ĩ
Ġï± ¿
Ġï¹ ¦
Ġï¹ ı
ĠçĢ į
Ġãĭ ĭ
Ġî¾ ¯
Ġî¾ ³
Ġê¥ ³
Ġê¥ ¶
Ġà« ¡
Ġà« ¹
Ġà« ¼
Ġà« ľ
Ġé« ¤
Ġå¡ ¡
Ġå¡ º
ĠéĬ ¤
Ġåİ Ŀ
Ġäĭ ¶
Ġçĭ Ĥ
Ġá« Ľ
ĠáĲ Ĵ
ĠæĶ ±
ĠçĨ ·
Ġï³ ®
Ġà¬ Ł
ĠáĬ Ĩ
Ġéĺ ³
Ġéĺ ¾
ĠèĽ ²
Ġáĸ ·
Ġáĭ ľ
Ġáĵ ½
ĠäĹ Ķ
Ġè³ Ī
Ġè³ ī
Ġç¥ Ī
Ġä¦ Ī
Ġä¦ Ķ
Ġäĩ »
Ġäĩ ĺ
Ġæ° ¹
Ġî° ¸
Ġî° Ŀ
Ġà® ¹
ĠåĤ Ĥ
Ġé¡ į
ĠïĢ ı
ĠåĲ ¢
Ġï´ «
Ġï´ Ī
Ġå¬ ĳ
Ġã¬ ¨
Ġåĥ £
Ġåĥ ²
ĠéĲ Ĩ
ĠéĲ į
Ġåĸ ¥
Ġåĸ ĸ
ĠáĮ µ
ĠáĮ Ĳ
Ġè¹ ¦
ĠéĪ ı
Ġç£ Ĭ
Ġå« Ĥ
ĠïĶ Ĥ
Ġàµ ±
Ġàµ ³
Ġàµ Ķ
Ġä® £
Ġï¡ ľ
Ġãĺ ¸
Ġê¯ ¶
Ġáī ŀ
Ġá¥ Ń
Ġâł ¨
Ġâł ĸ
ĠçĤ ¼
ĠçĤ Ļ
ĠáĹ ĭ
Ġçł ¦
ĠáĨ ¿
ĠêĢ ³
ĠêĢ ĸ
ĠêĻ ī
ĠèĪ į
ĠïŃ ¥
ĠïŃ »
ĠïŃ Ń
Ġãł ¯
Ġãł ł
Ġà³ ľ
Ġçĸ İ
Ġåł Ħ
Ġà§ ķ
Ġáŀ Ħ
Ġê¦ ł
Ġà© »
Ġà© Ĳ
Ġà¯ °
ĠáŃ µ
Ġà· ¥
Ġà· °
Ġà· į
ĠáĦĨáħ¨áĨ ¾
Ġà¥ ¼
Ġá¬ ħ
Ġá¬ ĭ
Ġá¬ ĵ
Ġï« ½
ĠáĢ ĵ
Ġíŀ ¥
Ġíŀ ª
Ġíŀ ¸
Ġâ· İ
ĠáĦħáħ«áĨ ½
ĠáĦģáħ£áĨ ©
ĠáĦģáħ£áĨ ¯
ĠáĦģáħ£áĨ ¹
ĠáĦģáħ£áĨ Ń
ĠáĦĭáħ´áĨ ©
ĠáĦĭáħ´áĨ º
ĠáĦĨáħ²áĨ °
ĠáĦĨáħ²áĨ ½
ĠáĦĳáħ¦áĨ ³
ĠáĦĳáħ¦áĨ Ń
ĠáĦĭáħ³áĨ ®
ĠáĦĭáħ³áĨ °
ĠáĦĭáħ³áĨ ¹
ĠáĦģáħŃáĨ ª
ĠáĦģáħŃáĨ ²
ĠáĦģáħŃáĨ ¶
ĠáĦĢáħ®áĨ ª
ĠáĦĮáħŃáĨ ¾
ĠáĦĳáħ¨áĨ ¼
ĠáĦĳáħ§áĨ ½
ĠáĦĬáħ¨áĨ µ
ĠáĦįáħŃáĨ ¨
ĠáĦįáħŃáĨ ¶
ĠáĦĬáħ²áĨ ¿
ĠáĦĭáħ«áĨ ±
ĠáĦĬáħ§áĨ ³
ĠáĦħáħµáĨ °
ĠáĦĢáħ°áĨ ®
ĠáĦĥáħªáĨ ´
ĠáĦĴáħ³áĨ ´
ĠáĦĮáħ¬áĨ ²
ĠáĦįáħ®áĨ ¬
ĠáĦįáħ®áĨ ¸
ĠáĦİáħ£áĨ ¹
ĠáĦİáħ£áĨ ¿
ĠáĦĮáħ¢áĨ «
ĠáĦĮáħ¢áĨ ®
ĠáĦĬáħ¤áĨ ½
ĠáĦĭáħµáĨ ¯
ĠáĦĭáħµáĨ ²
ĠáĦħáħ£áĨ °
ĠáĦįáħ±áĨ ®
ĠáĦĩáħ²áĨ ±
ĠáĦĩáħ±áĨ ½
ĠáĦģáħªáĨ ¬
ĠáĦģáħªáĨ ³
ĠáĦİáħ©áĨ ®
ĠáĦĨáħ«áĨ ¶
ĠáĦīáħ¤áĨ »
ĠáĦĬáħ«áĨ ©
ĠáĦĬáħ«áĨ «
ĠáĦĬáħ«áĨ ¯
ĠáĦıáħ¬áĨ ¶
ĠáĦĨáħµáĨ ¨
ĠáĦĩáħ°áĨ ®
ĠáĦĢáħ²áĨ ¯
ĠáĦįáħ²áĨ ª
ĠáĦģáħ¢áĨ ±
ĠáĦĩáħ´áĨ ½
ĠáĦĬáħ¦áĨ «
ĠáĦĬáħ¦áĨ Ń
ĠáĦĮáħ¡áĨ ²
ĠáĦıáħ£áĨ ¸
ĠáĦģáħ¯áĨ «
ĠáĦģáħ¯áĨ ½
ĠáĦĬáħ°áĨ ©
ĠáĦĪáħ¬áĨ ®
ĠáĦĥáħ³áĨ ³
ĠáĦĪáħªáĨ «
ĠáĦĮáħ³áĨ ³
ĠáĦĥáħ£áĨ ©
ĠáĦıáħ©áĨ ª
ĠáĦģáħ³áĨ ¯
ĠáĦĲáħ¢áĨ ¿
ĠáĦĮáħ¥áĨ ·
ĠáĦģáħ¬áĨ µ
ĠáĦģáħ¬áĨ ¸
ĠáĦĩáħ¢áĨ «
ĠáĦģáħ¡áĨ ·
ĠáĦĴáħ±áĨ «
ĠáĦĳáħ¡áĨ ·
Ġâĥ ĥ
ĠáĦĩáħªáĨ ¿
ĠáĦĮáħ§áĨ ¾
ĠáĦģáħ©áĨ ³
ĠáĦĳáħ©áĨ ¹
ĠáĦĬáħ±áĨ »
ĠáĦįáħ³áĨ ¾
ĠáĦģáħ°áĨ «
ĠáĦģáħ°áĨ ±
ĠáĦĳáħ³áĨ ¯
ĠáĦĦáħŃáĨ »
ĠáĦĬáħŃáĨ ©
ĠáĦĬáħŃáĨ «
ĠáĦĬáħŃáĨ ®
ĠáĦĥáħŃáĨ ¬
ĠáĦİáħ¯áĨ µ
ĠáĦĮáħ´áĨ ¿
ĠáĦıáħ¨áĨ ²
ĠáĦĨáħ¢áĨ ª
ĠáĦĳáħ¬áĨ º
ĠáĦĢáħ±áĨ ½
ĠáĦĲáħ¬áĨ ©
ĠáĦĲáħ¬áĨ ª
ĠáĦĲáħ¬áĨ ±
ĠáĦĲáħ£áĨ ³
Ġà£ ı
Ġà£ ĵ
ĠáĦĳáħ²áĨ ¿
ĠáĦĪáħ¯áĨ ¾
ĠáĦıáħ²áĨ ¸
ĠáĦĭáħ¡áĨ ±
ĠáĦįáħ¨áĨ ´
ĠáĦĬáħ¢áĨ °
ĠáĦįáħ¡áĨ ¬
ĠáĦĬáħ´áĨ °
ĠáĦīáħ«áĨ ³
ĠáĦıáħªáĨ ¶
ĠáĦĲáħ¥áĨ ®
ĠáĦĲáħ¥áĨ ±
ĠáĦĦáħ³áĨ µ
ĠáĦīáħ¨áĨ °
ĠáĦīáħ¯áĨ º
ĠáĦĦáħ²áĨ ©
ĠáĦĥáħ®áĨ ³
ĠáĦīáħ¡áĨ ¬
ĠáĦĤáħ£áĨ ³
ĠáĦĮáħ°áĨ °
ĠáĦĨáħ¬áĨ µ
ĠáĦĴáħ¡áĨ «
ĠáĦĴáħ¡áĨ ®
ĠáĦĤáħ©áĨ ±
ĠáĦīáħµáĨ ©
ĠáĦĲáħµáĨ ¶
ĠáĦĢáħ¦áĨ µ
ĠáĦģáħµáĨ ·
ĠáĦıáħ³áĨ ª
ĠáĦĲáħ´áĨ ©
Ġñ´ §¢
Ġá» ¿
Ġá· ¹
¡ ł
¢ Ĭ
¢ İ
£ ¨
£ ®
¤ ¬
¦ ¶
¨ ª
¨ ·
© Ħ
© ĭ
« ģ
® ¸
¯ §
± ·
³ İ
µ ķ
¶ ²
¶ µ
· §
· Ł
¹ ¦
¹ ¿
º ³
» ½
¼ »
¼ ģ
½ ¶
½ ¾
¾ «
¿ ¦
¿ ĸ
¿ ĺ
ģ ĥ
ģ Ī
ģ ĳ
ģ ł
ĥ ©
ĥ ´
ĥ ŀ
ħ ¦
Ĩ £
Ĩ Ŀ
ĩ Ĥ
Ī ¢
Ĭ ĥ
Ĭ ĩ
ĭ ¦
ĭ ı
Į ¼
į «
İ £
ı «
ı ¼
ı Ł
Ĳ ¤
ĳ ĥ
ĳ ŀ
Ĵ Ĵ
Ĵ Ĺ
ĵ µ
Ķ ·
ķ ĭ
ĸ Ĳ
Ĺ Ĥ
ļ ¨
ļ ģ
ļ Ľ
Ľ ·
ľ ·
ľ ŀ
ŀ ĩ
ŀ ı
ŀ ŀ
Ł ¯
ł Ĳ
Ń ½
Ń ¿
Ń ī
Ġï¿ ¥
Ġï¿ ı
ĠâĢ ·
ĠâĢ ļ
ĠâĻ ¿
ĠâĻ Į
ĠâĻ Ĳ
ĠâĻ ĺ
Ġà¤ Ĵ
Ġâĸ ¬
Ġâĸ Ħ
Ġâĸ ĸ
ĠáĦĨáħ ¨áĩģ
ĠáĦĬáħ ŃáĩĤ
ĠáĦħáħ ¡
ĠáĦħáħ ±áĩĢ
ĠáĦģáħ ¥
ĠáĦģáħ ¨
ĠáĦģáħ ŃáĩĢ
ĠáĦģáħ Ńáĩģ
ĠáĦģáħ ªáĩĢ
ĠáĦĭáħ ¤áĩģ
ĠáĦĮáħ °áĩģ
ĠáĦĥáħ §áĩĢ
ĠáĦĥáħ ¢áĩģ
ĠáĦĢáħ ¬áĩģ
ĠáĦįáħ ®áĩĢ
ĠáĦįáħ °áĩĢ
ĠáĦĳáħ ±áĩĢ
ĠáĦĳáħ ¤áĩĤ
ĠáĦĩáħ Ń
ĠáĦĩáħ ±áĩģ
ĠáĦĩáħ ®áĩģ
ĠáĦĴáħ ¯áĩĢ
ĠáĦĴáħ µáĩģ
ĠáĦīáħ §áĩĤ
ĠáĦīáħ ©áĩĤ
ĠáĦĪáħ £
ĠáĦĪáħ °áĩĤ
ĠáĦıáħ «áĩĤ
ĠáĦĦáħ ´áĩģ
ĠáĦĦáħ ©áĩĢ
ĠáĦĦáħ µáĩĢ
ĠáĦĲáħ ¯áĩĤ
ĠáĦĤáħ £
ĠâĪ ĸ
ĠâĦ ħ
ĠâĦ ķ
Ġéĵ ¡
Ġéĵ İ
Ġéĵ ı
Ġéĵ Ķ
Ġéĵ ļ
ĠâĴ Ĥ
ĠâĴ ļ
ĠâŁ ĭ
ĠâŁ į
Ġâĺ ²
Ġâģ ¢
Ġâģ ¾
Ġãı ®
Ġãı ĺ
Ġãı Ľ
Ġçı ©
ĠâĿ °
ĠâĿ ĸ
ĠãŁ ¤
ĠãŁ Ĩ
ĠãŁ Ł
Ġïİ ¡
Ġïİ °
Ġâľ ĭ
ĠçŁ ¸
ĠçŁ ĵ
ĠçŁ Ļ
Ġïı Į
Ġïı ĺ
Ġâ¥ ¤
Ġâ¥ ¯
Ġâ¥ ħ
Ġâ¥ Ī
Ġâ¥ į
Ġâ¥ ĳ
ĠäĴ §
ĠäĴ Ī
ĠäĴ ļ
Ġæĺ ®
Ġæĺ »
ĠäĶ Ĩ
Ġã§ ¥
Ġã§ °
Ġã¢ »
Ġã¢ Ħ
Ġã¢ ī
Ġã¢ Ĭ
ĠæĿ ¥
ĠæĿ ¦
ĠæĿ ¯
ĠæĿ Ģ
ĠæĿ Ļ
Ġäĵ ¨
Ġäĵ »
Ġäĵ Ģ
Ġäĵ Ħ
Ġæģ Ľ
Ġã· ī
Ġã· Į
Ġã· ĸ
Ġã² ·
Ġã² Ĵ
Ġîı ©
Ġîı ³
Ġîı Ģ
Ġîı Ķ
Ġîı ľ
Ġâį £
Ġâį ¨
Ġâį ª
Ġâį ı
Ġãª ¥
Ġãª ¹
Ġãª ģ
Ġãª ħ
Ġéŀ ±
Ġéŀ ¸
ĠíŁ º
ĠíŁ ĵ
ĠíŁ Ľ
ĠäĿ ¿
Ġçİ ¦
Ġçİ ¯
Ġçİ ¹
Ġçİ Ľ
Ġäľ ¼
Ġäľ Ĺ
Ġäľ Ŀ
Ġäľ ł
ĠæĴ ¹
ĠæĴ ĭ
Ġã¿ ¨
Ġã¿ Ħ
Ġã¿ Į
Ġã¯ ¹
Ġã¯ ½
Ġã¯ Ħ
ĠîŁ ¨
ĠîŁ ¶
ĠîŁ ½
ĠîŁ Ń
ĠäŁ ļ
ĠäŁ ľ
ĠäŁ Ł
Ġæį ´
Ġæį Ĭ
ĠîĿ »
ĠîĿ ½
ĠîĿ Ĵ
Ġãŀ ±
Ġãŀ ĩ
Ġãº İ
Ġéİ Ģ
Ġéİ Ŀ
Ġçº ¯
Ġçº ¹
Ġçº »
Ġçº Ĩ
Ġçº ī
Ġçº į
ĠéŁ §
ĠéŁ ¨
ĠéŁ ®
ĠéŁ º
ĠéŁ ķ
ĠèĴ »
ĠèĴ Ĭ
Ġïŀ ´
Ġïŀ »
Ġïŀ ¾
Ġïŀ Ī
Ġïŀ ķ
Ġäı ¬
Ġæĵ ¨
Ġæĵ »
Ġæĵ Ĩ
ĠæĹ Ļ
Ġäĳ Ģ
Ġäĳ ĥ
Ġäĳ İ
Ġäĳ ľ
Ġäĳ ł
Ġâķ £
Ġâķ ¨
Ġâķ Ĳ
Ġâķ ŀ
Ġäį ©
Ġäį ¾
Ġäį ¿
ĠâĹ į
Ġå¾ ¡
Ġå¾ ®
Ġå¾ ±
Ġå¾ µ
Ġå¾ Ĺ
Ġá¢ ª
Ġá¢ ī
Ġá¢ ĺ
Ġâĵ £
Ġâĵ ¤
Ġâĵ ľ
Ġâĵ Ł
ĠçĶ ¢
ĠçĶ »
ĠçĶ Ī
ĠçĶ ļ
Ġæĸ º
Ġæĸ ļ
Ġá§ Ħ
Ġéº ©
Ġéº ¶
Ġéº º
Ġéº ¿
Ġéº Į
Ġçŀ µ
Ġé¾ ©
Ġé¾ °
Ġé¾ į
Ġé¾ ĺ
Ġé¾ Ł
Ġãİ ¾
Ġîĵ §
Ġîĵ ¯
Ġãĳ ·
Ġãĳ ī
Ġãĵ ®
Ġãĵ ģ
Ġãĵ Ī
Ġâ£ ¼
Ġâ£ Ģ
Ġâ£ Ĳ
Ġâ£ Ĵ
Ġéı §
Ġéı º
Ġéı ¿
ĠêĿ º
ĠêĿ Ļ
ĠêĿ Ŀ
Ġá¦ Ń
Ġç² ³
Ġç² º
Ġç² Ł
Ġç¿ ¥
Ġç¿ ¿
Ġãĥ ½
Ġï¢ ·
Ġï¢ ĥ
Ġï¢ ĺ
Ġï¢ ľ
Ġï¢ Ń
Ġî´ ĺ
Ġî´ Ń
ĠîĻ ĩ
ĠîĻ ı
Ġè£ ¥
Ġè£ ·
Ġè£ º
Ġâŀ ·
Ġâŀ į
Ġâŀ Ĺ
Ġâŀ ŀ
ĠîŃ ¥
ĠîŃ ¯
ĠîŃ ī
ĠîŃ ĵ
Ġéļ ´
Ġéļ ¶
Ġâı ´
Ġæķ ¡
Ġæķ ¤
Ġæķ ¥
Ġæķ º
Ġæķ Ĩ
Ġæķ ķ
Ġç¾ ĩ
Ġç¾ Ķ
Ġç¾ ŀ
Ġäĥ Ħ
Ġäĥ ı
Ġäĥ Ĵ
Ġîľ º
Ġîľ Ģ
ĠäĬ ĳ
ĠäĬ ĵ
Ġå± »
Ġä¸ °
Ġä¸ Ĭ
Ġä¸ Ĳ
ĠäĤ £
Ġäº į
Ġî£ Ķ
Ġé´ ¦
Ġé´ ĸ
Ġé´ Ļ
ĠêŃ Ŀ
ĠäĮ ¦
ĠäĮ ª
ĠäĮ Ĳ
Ġï» Ĵ
Ġâī ³
Ġâī Ķ
Ġäģ į
Ġäģ Ļ
Ġîį Ń
Ġé» ¡
Ġé» »
Ġé» ¾
ĠãĦ ¸
ĠãĦ Ī
ĠãĦ ī
ĠãĦ Ļ
Ġâ« ¹
Ġâ« ½
Ġïį ¬
Ġïį ®
Ġïį ¯
Ġïį ī
Ġî§ ³
Ġî§ ·
Ġî§ º
Ġé· ¤
Ġé· «
Ġé· Į
Ġé· ı
Ġé· ĳ
Ġèĺ ī
Ġèĺ ı
Ġæº ¯
Ġæº ĥ
ĠãĶ §
ĠãĶ Ī
Ġâħ £
Ġâħ º
Ġâħ Ĩ
Ġâħ Ĺ
Ġï¯ ¿
ĠèĿ ¤
ĠèĿ ¬
ĠèĿ ļ
Ġç§ ®
Ġç§ ½
ĠèŁ µ
ĠèŁ Ĺ
Ġè« ±
Ġè« ľ
Ġé¸ ¤
Ġé¸ Ĭ
Ġâļ ³
ĠçĮ ĳ
Ġé® ¬
Ġé® Ī
Ġé¶ ¢
Ġé¶ ¿
Ġé¶ ī
Ġé¶ Ĺ
Ġé¶ ļ
Ġã® ĥ
Ġã® ĩ
Ġã® Ī
Ġäŀ ¤
Ġäŀ ¥
Ġäŀ «
Ġäŀ ¸
Ġäŀ Ķ
Ġäŀ Ļ
ĠäĲ ·
ĠäĲ ħ
ĠäĲ į
ĠäĲ Ľ
Ġæħ ·
Ġæħ ĺ
Ġã» ¥
Ġã» »
Ġã» ķ
Ġâ¶ į
Ġâ¶ Ĳ
Ġâ¶ Ļ
Ġâ¶ ŀ
Ġî¥ ¸
Ġî¥ ¼
Ġî¥ Į
Ġêį ĩ
Ġêį ı
ĠæĢ ½
ĠæĢ ĳ
ĠéĻ ¥
ĠéĻ ķ
Ġæ· ±
Ġé¢ ¢
Ġé¢ ł
Ġã¸ ´
Ġã¸ İ
Ġã¦ ª
Ġã¦ ¼
Ġã¦ ļ
Ġå» ¸
Ġæĳ ·
Ġæĳ ¾
Ġæĳ ĳ
ĠïĬ °
ĠïĬ ı
Ġï½ »
Ġï½ ħ
Ġé§ ĭ
ĠïĴ ¥
ĠïĴ ŀ
Ġîŀ ±
Ġîŀ ¿
Ġã¶ ³
Ġã¶ ĳ
Ġã¶ ĸ
Ġã¶ Ŀ
Ġã¶ ŀ
Ġîķ ĥ
Ġîķ ī
Ġîķ Ń
Ġè¢ ĳ
Ġã¾ ·
Ġã¾ ĭ
Ġî¯ ¯
Ġî¯ »
Ġî¯ ĥ
Ġî¯ ŀ
Ġâ» ļ
Ġâ» Ń
ĠïĤ ¿
ĠïĤ Ľ
ĠâĶ ©
ĠâĶ Ĳ
ĠâĶ Ĵ
Ġéµ ®
ĠéĮ ¦
ĠéĮ ¯
ĠéĮ ĳ
Ġåº Ĺ
Ġåº ĺ
Ġåº Ŀ
Ġæ¸ ´
Ġæ¸ ½
Ġæ¸ Ļ
Ġâĭ Ĭ
Ġâĭ İ
Ġâĭ Ĺ
ĠæĻ ¢
ĠæĻ ¤
ĠæĻ º
ĠæĻ ŀ
ĠïĨ Ľ
ĠïĨ Ŀ
Ġæ´ «
Ġæ´ ĥ
Ġæ´ Ļ
ĠæĲ µ
ĠæĲ İ
ĠæĲ Ĺ
ĠæĲ Ľ
Ġêľ Ł
Ġæ¾ Ł
Ġî« ¸
Ġî« ¿
Ġåµ į
Ġåµ Ń
Ġêĵ ¬
Ġêĵ ¾
Ġâİ ģ
Ġâİ ħ
Ġæļ ±
Ġæļ ´
Ġæļ į
Ġæļ Ĺ
ĠäĻ į
ĠäĻ Ĳ
ĠäĻ Ł
Ġåķ º
Ġåķ ¾
Ġåķ ¿
Ġåķ ĸ
Ġâ¹ ¼
Ġâ¹ Į
Ġâ¹ ı
Ġäĺ ¶
Ġäĺ ı
Ġäĺ ĺ
Ġæŀ Ļ
Ġåħ ¥
Ġä¨ »
Ġä¨ ļ
Ġæµ ¬
Ġæ¹ ¡
Ġæ¹ ¼
Ġæ» ¢
Ġæ» º
Ġâº º
Ġâº ľ
Ġâº Ł
Ġîİ İ
Ġîİ ļ
Ġîİ Ŀ
Ġéĥ ¥
Ġéĥ Į
Ġéĥ ı
Ġéĥ ļ
Ġâ§ Ľ
Ġïģ ·
Ġä¢ ¢
Ġä¢ ª
Ġä¢ Ĳ
Ġä¢ ŀ
Ġèº Ļ
ĠâĲ ²
ĠâĲ ¶
Ġè§ Ŀ
Ġçĳ ĵ
Ġçľ ³
Ġçľ ļ
Ġè´ ±
Ġè´ ĭ
Ġêĸ ī
Ġêĸ Ĺ
Ġáª ¿
Ġáª Ĵ
Ġáª Ĺ
Ġî® ¡
Ġî® ¶
Ġî® ĸ
Ġî® Ł
Ġå§ ©
Ġå§ ¹
Ġå§ ĥ
Ġå§ ĺ
Ġêļ ¢
Ġêļ ·
Ġêļ Ĳ
Ġêļ ĸ
ĠéĿ ¢
ĠéĿ ¦
Ġâ¾ ±
Ġâ¾ ı
Ġâ¾ ķ
Ġâ¾ ĺ
Ġâ¾ Ļ
Ġæ£ ı
Ġèı ±
Ġèı »
Ġâµ ¤
Ġâµ Ĭ
Ġî½ ´
Ġî½ Ħ
Ġåı ©
Ġåı ¯
Ġä± ¬
Ġä± ĭ
Ġê® §
Ġê® Į
Ġâ´ ¼
Ġî¡ į
Ġêķ Ń
Ġè® Ģ
Ġè® Į
ĠèĶ ¥
ĠèĶ ®
ĠèĶ ĳ
Ġá² ¤
Ġá² ī
Ġá² Ĵ
ĠãĮ ¯
ĠãĮ ĥ
Ġî¿ Ĭ
Ġè¶ į
Ġè¶ Ĵ
Ġè¶ ł
Ġéģ ¬
Ġæ³ º
Ġæ³ ĸ
Ġæ³ Ľ
Ġéª ¥
Ġéª ±
Ġèį İ
Ġèį ł
Ġá¯ ´
Ġá¯ ¿
Ġá± Ł
Ġæ± ³
Ġæ± ı
Ġæ± ļ
Ġç¢ ĸ
ĠîĬ ĸ
ĠêŁ ´
ĠêŁ ķ
Ġïī ¸
Ġïī ľ
Ġáı ½
Ġäª ³
Ġäª İ
ĠèĤ ĺ
ĠèĤ Ļ
Ġâ¤ ¤
Ġâ¤ ı
Ġîĳ ¯
Ġîĳ ³
Ġîĳ Į
ĠîĶ Ĳ
ĠîĶ ĸ
ĠîĶ Ĺ
Ġè¥ £
Ġê§ ŀ
Ġïĩ ļ
Ġä» §
Ġä» µ
Ġä» ģ
Ġç¹ ¡
Ġç¹ ¤
Ġç¹ ®
Ġç¹ Ł
Ġåį ¶
ĠæĤ ©
ĠîĦ ·
ĠîĦ ļ
Ġç¶ Ĭ
Ġâĳ ĳ
Ġâ² ¼
Ġâ² ĩ
Ġâ² ī
Ġâ² Ł
Ġâ² Ń
ĠîĢ ©
ĠîĢ º
ĠîĢ ħ
ĠîĤ ĺ
Ġå² Ĵ
ĠäĦ ļ
Ġï® ®
Ġï® º
Ġäļ »
Ġçĥ ¨
Ġä¥ ¨
Ġæİ §
Ġîº ¶
Ġîº Ĳ
Ġæ§ ·
Ġæ§ »
Ġè© »
Ġè© ģ
Ġè© ħ
Ġè© ī
Ġè© İ
Ġèľ ³
Ġèľ µ
Ġèľ ¸
Ġèľ į
Ġèľ Ŀ
ĠèĻ §
ĠèĻ ¬
ĠèĻ ®
ĠèĻ Ķ
Ġâª ´
Ġâª Ĩ
Ġä¹ ®
Ġä¹ ¾
Ġä¹ İ
Ġé¯ ¯
Ġé¯ ī
Ġé¯ Ĺ
Ġà¸ £
Ġà¸ ¯
Ġà¸ ķ
Ġà¸ ļ
Ġà¸ ł
Ġè¯ ĳ
ĠâĽ ¥
ĠâĽ ħ
ĠâĽ Ŀ
ĠâĽ ŀ
Ġä¬ Ĵ
Ġé¦ Ĥ
Ġé¦ Ĭ
Ġèħ Ļ
Ġå³ Į
Ġå³ İ
Ġïļ £
Ġïļ ı
Ġïļ Ł
Ġä§ į
Ġè¤ ®
Ġè¤ ĵ
Ġè¤ Ľ
Ġéĳ ¬
Ġä² ¬
Ġä² ĭ
ĠåĶ ±
ĠåĶ Į
ĠåĶ Ľ
ĠãĽ Ħ
ĠãĽ ı
ĠèŃ ±
ĠèŃ ½
ĠèŃ Ĳ
Ġçķ ¡
Ġã¹ ´
Ġîĺ ¸
Ġîĺ Ľ
Ġçµ °
Ġçµ ¶
Ġçµ ĭ
Ġâ° ¯
Ġâ° Ľ
Ġãµ ¤
Ġàª ¦
Ġàª ¹
Ġàª ½
Ġàª ĭ
ĠäĽ ³
ĠäĽ ¿
ĠäĽ į
ĠäĽ ĳ
ĠäĽ ĵ
Ġä· Ħ
Ġéĸ ¸
Ġéĸ ¿
Ġè· ¹
Ġä° ±
ĠãĿ §
ĠæĬ ©
ĠæĬ ĳ
ĠæĬ Ĵ
Ġé¤ ¯
Ġçª Ŀ
Ġå½ ·
Ġå½ ı
Ġïµ ½
Ġïµ ŀ
Ġêĳ ¢
Ġêĳ £
Ġêĳ ½
Ġä´ Į
Ġèİ Ń
Ġæ¥ °
Ġé¹ ±
Ġé¹ ½
Ġé¹ Ĥ
Ġæ¤ ©
Ġæ¤ ĺ
Ġæ¤ ł
Ġèģ ¡
Ġã± Ķ
Ġã± Ŀ
Ġîł ®
Ġîł ħ
Ġèĵ ´
Ġåĩ ł
Ġâ¼ ļ
Ġá¶ Ģ
Ġá¶ ĩ
ĠãĤ ª
ĠãĤ «
ĠãĤ Ŀ
Ġå¤ ¯
ĠåĹ ķ
Ġî¢ ±
Ġî¢ ĭ
Ġî¢ ĵ
Ġî¢ ł
Ġçģ İ
Ġæĭ Ŀ
ĠáĽ Į
Ġã´ ²
Ġã´ ´
ĠæĽ ĵ
ĠæĽ Ŀ
Ġãħ ©
Ġãħ ·
Ġãį ¶
Ġãį ł
Ġæ¡ ·
Ġæ¡ ĥ
Ġæ¡ ĳ
ĠåĿ ²
Ġïķ ¬
Ġïķ ī
Ġê¬ ®
Ġáµ ·
Ġáµ ¼
Ġáµ ¿
Ġáµ Ĩ
Ġáµ Ń
Ġè¡ ĭ
Ġè¡ ı
Ġè¡ Ľ
Ġêı ī
Ġêı Ł
Ġïĸ £
Ġïĸ ¿
Ġïĸ ľ
Ġé± ¾
Ġé± ĵ
ĠèĦ Ĳ
Ġâ³ ľ
Ġæ¨ ®
Ġæ¨ Ĳ
Ġæ¨ ĸ
Ġé° ¯
Ġé° »
Ġé° ĳ
Ġé° Ĺ
Ġè¿ ķ
Ġåª «
Ġï¾ ¹
Ġï¾ Ł
Ġã© ©
Ġã© ´
Ġåĳ ħ
Ġåĳ İ
Ġä¾ ¡
Ġä¾ Ģ
ĠêĮ ¶
ĠêĮ ·
Ġå¸ ī
Ġå¸ Ķ
Ġêħ ¥
ĠïĿ ¸
Ġäħ ¨
Ġäħ °
Ġçį §
Ġçį Ĺ
ĠèĲ ĳ
Ġêĥ ·
Ġêĥ ¹
Ġêĥ ¼
Ġêĥ į
Ġêĥ Ń
ĠâĮ Į
ĠâĮ ĸ
Ġæ« ¶
Ġæ« »
Ġé¿ ¢
Ġé¿ ª
Ġé¿ ²
Ġé¿ ¾
Ġéį £
ĠèĢ ĺ
Ġå© Ģ
Ġå® ħ
ĠæĨ ĭ
Ġèļ ĸ
Ġê¡ §
Ġâ¯ ³
ĠãĨ ¨
Ġîļ º
Ġîļ ¼
Ġîļ ¾
Ġîļ Ĳ
Ġà¨ Ĵ
Ġä« ¿
Ġâ¦ ļ
Ġîĩ ¡
Ġîĩ Ĭ
Ġîĩ ı
Ġà¹ ¨
Ġà¹ ¬
Ġî© ±
Ġî© Ĥ
Ġî© Į
Ġï· º
Ġï· ¾
Ġïĥ ®
Ġïĥ ´
Ġî¦ °
Ġåľ °
Ġåľ Ĥ
Ġåľ Ħ
Ġåľ Į
Ġê¤ ĥ
Ġï¼ Ł
ĠæŃ ¶
Ġîī Ľ
Ġá¡ ¥
Ġá¡ ½
Ġáķ ´
Ġáķ ĺ
Ġî¼ Ķ
Ġá´ ľ
Ġá´ Ł
ĠéĴ º
ĠéĴ ī
Ġâ¸ ı
Ġî» ¯
Ġî» ¿
Ġæ½ ¶
Ġæ½ ļ
ĠêĶ ¥
Ġä¶ ¾
Ġä¶ į
Ġãļ º
Ġãļ ĳ
Ġä³ ³
Ġä³ ĸ
Ġä³ ŀ
Ġäµ ĥ
Ġäµ Ĵ
ĠèĹ º
ĠäŃ ¹
ĠäŃ ĩ
ĠäŃ ı
ĠæĮ Ĩ
ĠæĮ İ
Ġå¼ °
Ġå¼ ¾
Ġå¼ ı
Ġå¼ ĵ
ĠéĹ ·
ĠéĹ ¹
ĠéĹ º
ĠéĽ ľ
ĠêĦ ´
ĠêĦ Ħ
ĠêĦ Ĩ
ĠêĦ Ĳ
Ġà¶ °
Ġà¶ ¾
Ġãľ İ
Ġãľ ŀ
Ġãľ Ł
Ġå¢ Ģ
Ġå· ³
Ġå· ¸
Ġå· Ĵ
Ġæĩ ¸
ĠèĮ ¦
ĠåŁ º
Ġîª ®
Ġîª ´
Ġîª µ
Ġèµ Ń
Ġåĺ ¦
Ġåĺ ª
Ġêª Ļ
ĠâŃ Ł
Ġâ© «
Ġâ© ¹
Ġç© £
Ġåĭ µ
Ġè° º
Ġå¦ ¯
Ġîĥ ĳ
ĠîĲ Ĩ
ĠåĽ Ī
ĠåĽ į
ĠêĽ ¦
ĠêĽ ĭ
ĠïĹ ı
Ġáİ ¼
Ġä© ½
Ġæª ·
Ġç± ³
ĠïĮ ©
ĠïĮ ŀ
Ġà¡ ª
Ġà¡ ·
Ġéħ ĩ
ĠçĴ ª
ĠçĴ ł
Ġåī ³
Ġåī Ķ
Ġï£ °
Ġï£ ±
Ġâ¨ ¡
ĠêĤ ī
ĠêĤ Ļ
Ġèĸ ļ
Ġã¼ ¶
Ġç¡ ¦
Ġê« ª
Ġê« ²
Ġê« ¹
Ġê« ľ
Ġê« Ł
Ġé£ §
Ġé£ ı
Ġéĭ £
Ġç» ¨
Ġèĥ ´
Ġèĳ ¢
Ġèĳ Ĺ
Ġä¯ İ
Ġä¯ Ł
ĠåĪ ³
ĠäĨ º
ĠéĢ ¬
Ġè» Ĭ
Ġä½ ĵ
ĠãĲ Ģ
ĠãĲ ĺ
ĠãĲ ł
Ġèĭ ĸ
Ġï° ¶
Ġï° ĳ
ĠçĹ Ģ
ĠêĲ ¸
ĠêĲ Ĵ
Ġä¿ ®
Ġä¿ Ń
Ġåĵ ¦
Ġïħ ĩ
Ġïħ Ī
Ġîµ «
Ġçī ı
Ġï¶ ¢
Ġï¶ ĩ
Ġé¥ ¨
Ġâ¢ ª
Ġâ¢ ĸ
Ġâ¢ ľ
Ġâ® £
Ġâ® ³
Ġæ¿ ´
Ġæ¿ ķ
ĠéĨ Ń
ĠçĬ §
ĠçĬ ¶
Ġà» ¸
Ġà» İ
Ġà» ŀ
Ġæ© ³
Ġáĳ ¯
Ġáĳ ĳ
Ġêī ī
Ġêī ı
ĠîĽ ±
Ġé² ı
Ġç¦ Ł
ĠçĲ ·
Ġï± ´
Ġï± ¾
Ġî¶ »
Ġãĭ ¼
ĠãĴ ¹
Ġïĵ Ĭ
Ġã³ ²
ĠîĹ §
Ġê¥ »
Ġê¥ ĺ
Ġã° ¼
Ġã° ĭ
Ġà« ¨
Ġà« ½
Ġà« ı
Ġà« Ł
Ġé« ´
Ġé« į
ĠãĬ «
Ġê© ·
Ġê© İ
Ġå° ¤
Ġåİ ¿
Ġåİ ģ
Ġåİ Į
Ġäĭ Ľ
Ġã¡ ī
Ġã¡ İ
ĠåŃ ¡
Ġá« Ŀ
Ġç½ ±
Ġç½ ²
Ġç½ ·
Ġç½ ¹
Ġç½ ķ
Ġæ¬ ª
ĠçĨ ´
ĠçĨ µ
Ġå£ į
Ġçĩ ¼
Ġï³ ķ
Ġà¬ ¢
Ġà¬ ·
Ġà¬ º
ĠêĨ ı
ĠáĬ ¯
ĠáĬ ľ
ĠïĲ °
ĠïĲ ²
ĠïĲ ¸
ĠïĲ ¿
ĠïĲ Ļ
Ġáĸ ĭ
Ġáĭ ¸
Ġáĵ ¨
Ġáĵ Ģ
Ġáĵ Ī
Ġãĸ Ń
ĠêĪ ³
Ġã¤ £
Ġã¤ Ĵ
Ġî¸ ®
Ġäĩ į
Ġæ° Ĺ
Ġæł ³
Ġæł Ģ
Ġêģ į
ĠãŃ ¼
ĠãŃ Ń
ĠåĤ ĳ
ĠïĢ §
ĠïĢ ¬
ĠåĲ ĵ
Ġï´ ´
Ġáį ¢
Ġãī ī
Ġç¨ ¦
Ġá£ Ħ
ĠéĲ ½
Ġã¨ ł
Ġãĩ ±
Ġç³ Ŀ
ĠáĮ ¦
Ġè¹ Ĵ
Ġîĸ ª
Ġîĸ ·
Ġïľ İ
Ġç£ ¶
ĠïĶ Į
Ġêł ¾
Ġêł İ
Ġàµ °
Ġàµ ¿
Ġàµ ħ
Ġéī Ħ
Ġæ¢ ł
Ġêĩ ¼
ĠãĪ ¿
Ġé¼ Ħ
ĠáĻ ¥
ĠáĻ ı
Ġã« Ģ
Ġã« Ĩ
Ġã« ı
Ġã« ĸ
Ġã« Ŀ
ĠéĤ ¤
ĠéĤ ¦
ĠéĤ ¶
Ġê¯ ³
Ġê¯ ¼
Ġê¯ ĩ
Ġáļ ´
Ġå¨ ¦
Ġáī ķ
Ġã¥ Ĺ
ĠîĨ ¦
ĠîĨ ī
ĠîĨ ĸ
Ġç« ĸ
Ġç« Ľ
Ġá¨ «
Ġá¨ Ĳ
ĠçĤ ŀ
ĠçĻ Ļ
ĠáĹ ´
Ġæ¯ ĭ
Ġæ¯ ł
Ġç¬ Ĳ
Ġáħ µ
Ġáħ ¿
Ġáħ ĳ
ĠáĨ ¤
Ġáľ ¤
ĠêĻ ®
ĠêĻ İ
Ġç¤ ¾
Ġà¼ Ĳ
ĠïŃ ¶
ĠïĽ ±
Ġà³ ®
Ġà³ ¸
Ġéķ ª
Ġçĸ ĳ
Ġçĸ ķ
Ġåļ İ
Ġê¦ į
Ġê¢ İ
Ġà© ¹
Ġà© º
Ġà¯ ķ
ĠáŃ ľ
ĠáŃ Ł
Ġà· ®
Ġà· ĩ
Ġê£ º
Ġê£ ı
Ġê¨ ¹
Ġï¬ ı
ĠáĦĨáħ¨áĨ ¨
ĠáĦĨáħ¨áĨ ¯
ĠáĤ ¨
ĠáĦĨáħ³áĨ °
Ġá¬ ĩ
Ġà½ Ł
Ġï« ´
ĠáĦĨáħ©áĨ ´
ĠáĦĨáħ©áĨ µ
ĠáĦĨáħ©áĨ Ń
ĠáĦĬáħ¯áĨ ª
ĠáĦħáħªáĨ ¾
ĠáĦĥáħ§áĨ ·
Ġâ· ĭ
ĠáŁ Ľ
ĠáĦħáħ«áĨ ´
ĠáĦħáħ«áĨ ¿
ĠáĦģáħ£áĨ ¶
ĠáĦģáħ£áĨ ½
ĠáĦģáħ£áĨ ¾
ĠáĦĭáħ´áĨ ®
ĠáĦĴáħµáĨ ´
ĠáĦĴáħµáĨ º
ĠáĦĳáħ¦áĨ ¯
ĠáĦĳáħ¦áĨ ¼
ĠáĦħáħ¤áĨ ·
ĠáĦĭáħ³áĨ ª
ĠáĦģáħŃáĨ ·
ĠáĦģáħŃáĨ ¾
ĠáĦĢáħ®áĨ ©
ĠáĦĮáħŃáĨ ²
ĠáĦĳáħ¨áĨ ¨
ĠáĦĳáħ¨áĨ ©
ĠáĦĥáħ©áĨ ®
ĠáĦĥáħ©áĨ »
ĠáĦįáħŃáĨ º
ĠáĦĬáħ¥áĨ µ
ĠáĦĬáħ¥áĨ »
ĠáĦĮáħ®áĨ ®
ĠáĦĮáħ®áĨ ±
ĠáĦĬáħ§áĨ ²
Ġï¸ Ĵ
ĠáĦģáħ¤áĨ Ń
ĠáĦħáħµáĨ ²
ĠáĦĢáħ°áĨ «
ĠáĦĢáħ°áĨ °
ĠáĦĢáħ°áĨ ´
ĠáĦģáħ¦áĨ ¨
ĠáĦĪáħ¦áĨ ¹
ĠáĦĮáħµáĨ ¶
ĠáĦįáħ¯áĨ ª
ĠáĦįáħ¯áĨ »
ĠáĦĨáħ±áĨ ©
ĠáĦĨáħ±áĨ ¼
ĠáĦĥáħªáĨ ½
ĠáĦĴáħ³áĨ º
ĠáĦĮáħ¢áĨ ¨
ĠáĦĮáħ¢áĨ Ń
ĠáĦĬáħ¤áĨ °
ĠáĦĬáħ¤áĨ ³
ĠáĦħáħ´áĨ ´
ĠáĦħáħ´áĨ ¿
ĠáĦĭáħµáĨ ¬
ĠáĦĨáħ§áĨ ¹
ĠáĦĨáħ§áĨ ½
ĠáĦĭáħ¨áĨ ¯
ĠáĦĢáħ¯áĨ ¶
ĠáĦĢáħ¯áĨ ¼
ĠáĦĬáħ³áĨ ©
ĠáĦĬáħ³áĨ ²
ĠáĦĥáħ¢áĨ ¨
ĠáĦĥáħ¢áĨ ¸
ĠáĦĩáħ²áĨ ¯
ĠáĦĳáħŃáĨ ¿
ĠáĦĨáħ´áĨ ³
ĠáĦĩáħ±áĨ °
ĠáĦģáħªáĨ ¶
ĠáĦİáħ©áĨ µ
ĠáĦģáħ¥áĨ «
ĠáĦģáħ¥áĨ ¾
ĠáĦİáħªáĨ ´
ĠáĦĨáħ«áĨ ª
ĠáĦĨáħ«áĨ ²
ĠáĦĨáħ«áĨ ¿
ĠáĦĭáħ¢áĨ ±
ĠáĦĪáħµáĨ º
ĠáĦıáħ¬áĨ ´
ĠáĦĨáħµáĨ »
ĠáĦĬáħ®áĨ ±
ĠáĦĩáħ°áĨ ¯
ĠáĦĴáħ¬áĨ ¸
ĠáĦģáħ¢áĨ ·
ĠáĦģáħ¢áĨ ¾
ĠáĦĨáħŃáĨ ±
ĠáĦĥáħ¥áĨ ¿
ĠáĦĩáħ´áĨ ¬
ĠáĦĩáħ´áĨ »
ĠáĦĦáħ®áĨ º
ĠáĦĮáħ¡áĨ ¼
ĠáĦįáħ«áĨ ±
ĠáĦİáħ±áĨ µ
ĠáĦĨáħ¤áĨ »
ĠáĦģáħ§áĨ °
ĠáĦģáħ§áĨ ´
ĠáĦĭáħ¦áĨ «
ĠáĦĭáħ¦áĨ ¼
ĠáĦĳáħ¤áĨ ¿
ĠáĦĬáħ©áĨ ´
ĠáĦĪáħŃáĨ ¼
ĠáĦĭáħ£áĨ ³
ĠáĦĥáħ³áĨ ¬
ĠáĦĥáħ£áĨ µ
ĠáĦĩáħ©áĨ µ
ĠáĦĩáħ©áĨ ¶
ĠáĦĩáħ¯áĨ ª
ĠáĦĩáħ¢áĨ ²
ĠáĦĩáħ¢áĨ ¿
ĠáĦĩáħ¢áĨ Ń
ĠáĦīáħ£áĨ º
ĠáĦīáħ£áĨ ½
ĠáĦģáħ¡áĨ ®
ĠáĦįáħ¬áĨ ©
ĠáĦĳáħ¡áĨ «
ĠáĦĢáħ©áĨ ¹
ĠáĦģáħ®áĨ ®
ĠáĦħáħ¥áĨ ª
ĠáĦĭáħ±áĨ ¬
ĠáĦĭáħ±áĨ ±
ĠáĦİáħ¡áĨ ¹
ĠáĦĥáħ²áĨ ¾
ĠáĦĮáħ§áĨ ¼
ĠáĦĳáħ©áĨ ¸
ĠáĦĪáħ¢áĨ ©
ĠáĦĬáħ±áĨ µ
ĠáĦįáħ³áĨ ±
ĠáĦģáħ°áĨ µ
ĠáĦĳáħ³áĨ ¨
ĠáĦĦáħŃáĨ ¹
ĠáĦĮáħ¯áĨ ¿
ĠáĦĮáħ¯áĨ Ń
ĠáĦĳáħ£áĨ ¾
ĠáĦĨáħ¯áĨ ¬
ĠáĦĨáħ¥áĨ ©
ĠáĦĮáħ´áĨ ·
ĠáĦıáħ¨áĨ ®
ĠáĦĬáħ¬áĨ ¼
ĠáĦĬáħ¬áĨ ¾
ĠáĦĨáħ¢áĨ ¾
ĠáĦĮáħ©áĨ ¶
ĠáĦĳáħ¬áĨ ³
ĠáĦĪáħ£áĨ ´
ĠáĦĢáħ¬áĨ ¯
ĠáĦĲáħ¬áĨ »
ĠáĦĩáħ¤áĨ ¶
ĠáĦİáħ¨áĨ µ
ĠáĦįáħ¦áĨ ¶
ĠáĦħáħ°áĨ ©
ĠáĦħáħ°áĨ Ń
ĠáĦĢáħªáĨ ¯
Ġà£ į
ĠáĦĳáħ²áĨ «
ĠáĦĪáħ¯áĨ ¼
ĠáĦıáħ²áĨ µ
ĠáĦĨáħ®áĨ ª
ĠáĦĭáħ¡áĨ °
ĠáĦīáħ¥áĨ ¯
ĠáĦıáħŃáĨ ª
ĠáĦĭáħ©áĨ »
ĠáĦīáħ¬áĨ º
ĠáĦĦáħ¨áĨ »
ĠáĦĲáħ¡áĨ ¼
ĠáĦĲáħªáĨ ½
ĠáĦıáħ«áĨ ¬
ĠáĦıáħ«áĨ Ń
ĠáĦĩáħŃáĨ ±
ĠáĦĨáħ£áĨ ·
ĠáĦħáħ¯áĨ ª
ĠáĦģáħ¨áĨ ¨
ĠáĦĭáħ¤áĨ µ
ĠáĦĭáħ¤áĨ ¹
ĠáĦĳáħ¯áĨ ´
ĠáĦĴáħ¥áĨ Ń
ĠáĦħáħ¦áĨ ¬
ĠáĦħáħ¦áĨ ¯
ĠáĦĮáħ¦áĨ ³
ĠáĦīáħ«áĨ °
ĠáĦħáħ§áĨ ½
ĠáĦįáħ©áĨ ª
ĠáĦĢáħ¢áĨ ª
ĠáĦĢáħ¤áĨ ¯
ĠáĦĭáħªáĨ µ
ĠáĦħáħ±áĨ ®
ĠáĦĢáħ¡áĨ ©
ĠáĦĢáħ¨áĨ ©
ĠáĦĳáħ¢áĨ ²
ĠáĦĩáħ¦áĨ °
ĠáĦįáħ¢áĨ ¯
ĠáĦīáħ¡áĨ ®
ĠáĦĤáħ£áĨ µ
ĠáĦĮáħ°áĨ ½
ĠáĦĢáħ£áĨ ª
ĠáĦĴáħ¡áĨ ½
ĠáĦĭáħ¥áĨ ±
ĠáĦīáħµáĨ Ń
ĠáĦİáħ¦áĨ µ
ĠáĦİáħ¦áĨ ¾
ĠáĦĳáħªáĨ º
ĠáĦİáħ´áĨ ©
ĠáĦİáħ´áĨ ²
ĠáĦĪáħ§áĨ Ń
ĠáĦĦáħ¤áĨ ª
ĠáĦĦáħªáĨ ¹
ĠáĦĲáħ´áĨ ¬
ĠáĦĥáħ°áĨ ¯
ĠáĦıáħ®áĨ ·
ĠáĦĥáħ±áĨ ª
ĠáĦĲáħ°áĨ ª
ĠáĦĴáħ©áĨ ¾
ĠáĦĲáħŃáĨ ®
ĠáĦĴáħ®áĨ ¾
ĠáĦĲáħ©áĨ °
ĠáĦĩáħ§áĨ ½
Ġóį ±
ĠðĿĺ Ń
Ġá· ¸
¡ ·
¢ Ļ
£ «
£ ±
£ ĩ
¤ ĭ
¦ ±
§ «
§ ±
¨ ¢
¨ ¥
¨ ©
¨ ¬
¨ ĳ
© ¹
© Ī
ª Ľ
« ı
« Ń
¬ µ
¯ Ł
° ¶
± ı
³ »
´ ½
´ Ŀ
µ ¦
µ ©
¶ §
· ¡
¸ µ
¸ ¹
¸ ĭ
¹ §
¹ µ
¹ »
¹ Ļ
º ŀ
» ±
» µ
» º
» Ķ
¼ ®
¼ Ĳ
¼ ĵ
¼ Ł
½ Ī
¾ £
¾ ²
¾ ¹
¾ Ĳ
¾ ļ
¿ ¤
¿ Ĭ
ģ ¨
ģ ľ
Ĥ ¬
Ĥ Ĭ
Ĥ Ķ
Ĥ ĸ
ĥ ĺ
Ħ İ
Ħ Ļ
ħ £
ħ Ĩ
ħ ļ
Ĩ ©
ĩ ®
ĩ ħ
Ī ¤
Ī ¨
Ī ¯
Ī ĭ
ī ¶
ī ¾
Ĭ ¼
Ĭ Ĳ
ĭ §
ĭ ©
ĭ ĭ
ĭ Ł
Į ľ
į ĳ
İ ¢
İ »
İ ¼
İ ¿
İ Ŀ
ı µ
ı ¿
ı ĩ
Ĳ £
ĳ ¯
ĳ ģ
ĵ «
ĵ ¶
Ķ Ĩ
Ķ Ĭ
Ķ Ĳ
Ĺ »
Ĺ ı
ĺ ¤
ĺ ¦
Ļ ¨
Ļ µ
ļ ¦
ļ Ĭ
Ľ ĭ
Ľ Ļ
ŀ ĺ
Ł ¼
ł ¾
ł ĸ
Ń ·
Ń ı
Ń Ł
Ġï¿ ¡
Ġï¿ «
Ġï¿ µ
Ġï¿ ħ
Ġï¿ į
ĠâĢ µ
ĠâĻ µ
ĠâĻ ĩ
ĠâĻ ķ
Ġâĸ ©
Ġâĸ ®
Ġâĸ Ľ
ĠáĦĨáħ ¦áĩĤ
ĠáĦĨáħ «áĩģ
ĠáĦĨáħ ´áĩĤ
ĠáĦĨáħ ¥áĩĢ
ĠáĦĬáħ ®
ĠáĦĬáħ ©áĩĤ
ĠáĦĬáħ §áĩģ
ĠáĦĬáħ ´áĩģ
ĠáĦħáħ ©áĩĤ
ĠáĦħáħ «áĩģ
ĠáĦħáħ µáĩģ
ĠáĦģáħ £
ĠáĦģáħ ¯
ĠáĦģáħ ¦áĩĤ
ĠáĦģáħ §áĩĢ
ĠáĦģáħ ®áĩĢ
ĠáĦĭáħ Ńáĩģ
ĠáĦĭáħ ±áĩģ
ĠáĦĭáħ ¨áĩģ
ĠáĦĮáħ «áĩģ
ĠáĦĥáħ ²
ĠáĦĥáħ ³
ĠáĦĥáħ ©áĩĤ
ĠáĦĢáħ ¬
ĠáĦĢáħ ¯áĩģ
ĠáĦįáħ ¢
ĠáĦįáħ Ńáĩģ
ĠáĦĳáħ ¨
ĠáĦĳáħ ¯
ĠáĦĳáħ ²
ĠáĦĳáħ «áĩĢ
ĠáĦĳáħ ®áĩģ
ĠáĦĩáħ ¡áĩĢ
ĠáĦĩáħ ¨áĩĢ
ĠáĦĩáħ ±áĩĤ
ĠáĦİáħ ¨
ĠáĦİáħ ª
ĠáĦİáħ ¯
ĠáĦİáħ «áĩĤ
ĠáĦİáħ µáĩĤ
ĠáĦİáħ £áĩģ
ĠáĦİáħ ¬áĩģ
ĠáĦİáħ £áĩĤ
ĠáĦĴáħ ³áĩĤ
ĠáĦĴáħ ¦áĩĤ
ĠáĦĴáħ ²áĩģ
ĠáĦĴáħ ¢áĩĢ
ĠáĦĴáħ ©áĩģ
ĠáĦīáħ µáĩĤ
ĠáĦĪáħ °áĩģ
ĠáĦıáħ £
ĠáĦıáħ §áĩģ
ĠáĦĦáħ ®áĩĢ
ĠáĦĲáħ °áĩĢ
ĠáĦĤáħ ´
ĠáĦĤáħ ±áĩĢ
ĠâĦ ģ
Ġéĵ ©
Ġéĵ Ħ
Ġéĵ ĸ
ĠâŁ Ĭ
Ġâĺ ¹
Ġâģ ĥ
Ġãı ĭ
Ġçı ¢
Ġçı ¨
Ġçı ®
Ġçı İ
ĠâĿ ī
ĠãŁ ®
ĠãŁ ¾
ĠãŁ į
ĠãŁ Ŀ
Ġâľ ¥
ĠçŁ Ī
ĠçŁ Ķ
ĠçŁ ķ
Ġïı Ī
Ġâ¥ £
Ġâ¥ §
Ġâ¥ ±
Ġâ¥ ¾
ĠäĴ ¤
ĠäĴ ¥
ĠäĴ ·
ĠäĴ ¿
ĠäĴ Į
ĠäĴ Ĵ
Ġæĺ ¤
Ġæĺ ı
Ġæĺ Ĳ
Ġæĺ ĺ
Ġæĺ Ń
ĠäĶ ¼
ĠäĶ ı
ĠäĶ Ļ
ĠäĶ ľ
Ġã§ ¡
Ġã§ ¦
Ġã§ ¶
Ġã§ ¹
Ġã¢ ³
Ġã¢ ·
Ġã¢ Ł
ĠæĿ ¼
ĠæĿ Ĩ
ĠæĿ Ĵ
Ġäĵ ·
Ġäĵ ĩ
Ġäĵ ķ
Ġæģ ®
Ġæģ ±
Ġæģ Ģ
Ġæģ Ĩ
Ġæģ Ĳ
Ġæģ Ŀ
Ġæģ ł
Ġã· °
Ġã· ±
Ġã· ¸
Ġã· ¿
Ġã· Ĳ
ĠâĨ ģ
ĠâĨ ŀ
Ġã² ¬
Ġã² Ķ
Ġã² Ĺ
Ġã² Ŀ
Ġîı ¢
Ġîı ĥ
Ġîı ĵ
Ġâį ¤
Ġâį į
Ġâį ĺ
Ġâį Ļ
Ġãª ¨
Ġãª ¯
Ġãª ¿
Ġãª ķ
Ġãª Ĺ
Ġãª Ń
Ġéŀ ħ
Ġéŀ ĺ
Ġéŀ ľ
ĠîĴ Ģ
ĠîĴ ĵ
ĠíŁ ®
ĠíŁ ĸ
ĠíŁ ļ
Ġç· µ
Ġç· ¾
ĠäĿ ·
ĠäĿ ı
ĠäĿ ĸ
ĠäĿ ĺ
Ġçİ »
Ġçİ ŀ
Ġäľ ¤
ĠæĴ Ĩ
Ġã¿ ³
Ġã¿ Ļ
Ġã¿ ŀ
Ġã¯ ¯
Ġã¯ ŀ
ĠîŁ ª
ĠîŁ ·
ĠîŁ ¼
ĠîŁ Ĳ
ĠîŁ ĳ
ĠäŁ ¤
ĠäŁ º
ĠäŁ ¼
ĠäŁ į
ĠäŁ Ĳ
Ġæį ¾
Ġæį ĳ
ĠîĿ ª
ĠîĿ µ
ĠîĿ ¹
Ġæľ ª
Ġæľ ²
Ġæľ ¾
Ġæľ ¿
Ġæľ Ī
Ġæľ Ĳ
Ġæľ ĵ
Ġãŀ £
Ġãŀ Ń
Ġãº º
Ġãº ģ
Ġãº ħ
Ġãº Ľ
Ġéİ ¾
Ġéİ ĥ
Ġéİ ħ
Ġãģ Ĭ
Ġçº ¥
Ġçº ¨
Ġçº ģ
ĠéŁ ı
ĠéŁ Ń
Ġïŀ ¼
Ġïŀ Ĩ
Ġïŀ ĩ
Ġïŀ ľ
Ġäı ¨
Ġäı Ļ
Ġæĵ ´
Ġæĵ Ļ
ĠêĴ Ĥ
ĠêĴ Ĵ
ĠæĹ ¦
Ġäĳ ª
Ġäĳ ³
Ġäĳ Į
Ġäĳ Ķ
Ġäĳ Ļ
Ġâķ ®
Ġäį ¡
Ġäį ¬
Ġäį Ī
ĠâĹ ¤
ĠâĹ ¶
ĠâĹ ·
ĠâĹ Ī
ĠâĹ Ļ
Ġå¾ ²
Ġå¾ ¹
Ġå¾ ½
Ġå¾ Ī
Ġá¢ ±
Ġá¢ ³
Ġá¢ ĳ
Ġá¢ Ķ
Ġá¢ Ĺ
Ġá¢ ŀ
Ġá¢ Ń
Ġâĵ ®
Ġâĵ Ī
Ġâĵ ī
Ġâĵ ļ
ĠçĦ ¶
ĠçĦ ¸
ĠçĦ Ĥ
ĠçĦ ļ
ĠçĦ ľ
ĠçĶ Ĩ
ĠçĶ ĩ
ĠçĶ ŀ
Ġæĸ ¾
Ġæĸ Ķ
Ġá§ ´
Ġá§ ¿
Ġéº ¥
Ġéº ª
Ġéº ½
Ġéº Ń
Ġé¾ ¯
Ġé¾ Ħ
Ġé¾ Ĳ
Ġé¾ ĵ
Ġé¾ ĸ
Ġîĵ £
Ġîĵ «
Ġîĵ İ
Ġîĵ ĳ
Ġãĳ ĥ
Ġãĵ ¨
Ġãĵ Į
Ġãĵ Ľ
Ġâ£ °
Ġâ£ Ķ
Ġéı ®
Ġéı ¼
Ġéı ħ
Ġéı Ĭ
ĠêĿ ŀ
Ġá¦ §
Ġá¦ ¸
Ġá¦ ļ
Ġç² ¸
Ġç² ¹
Ġç² ī
Ġç² ı
Ġç² Ķ
Ġç² ĺ
Ġç¿ ´
Ġç¿ ¼
Ġç¿ ½
Ġç¿ Ī
Ġï¢ ¨
Ġï¢ ª
Ġï¢ º
Ġï¢ ħ
Ġï¢ Ĩ
Ġî´ ¬
ĠîĻ ¬
ĠîĻ ¾
Ġè£ ¡
Ġè£ ¦
Ġè£ Ĳ
Ġè£ ĳ
Ġè£ ŀ
Ġâŀ ¦
Ġâŀ ¾
Ġâŀ ī
ĠîŃ ¤
ĠîŃ ³
ĠîŃ ¹
ĠîŃ Ģ
ĠîŃ Ĥ
ĠîŃ Į
ĠîŃ ķ
ĠîŃ Ľ
Ġéļ §
Ġéļ ¬
Ġéļ ı
Ġâı ĥ
Ġäİ ¾
Ġäİ ħ
Ġäİ ĵ
Ġæķ ħ
Ġæķ Ń
Ġäĥ ¯
Ġäĥ ¸
Ġîľ ¤
Ġîľ ²
Ġîľ Ŀ
ĠäĬ Ĭ
ĠäĬ į
Ġå± ¯
Ġå± Ń
Ġä¸ ı
ĠäĤ Į
Ġäº ĩ
Ġî£ ¥
Ġî£ ¿
Ġî£ ĭ
Ġî£ ĳ
Ġî£ ķ
Ġé´ ·
Ġé´ ½
Ġç¯ §
Ġç¯ º
Ġç¯ Ŀ
ĠêŃ ¿
ĠäĮ ģ
ĠäĮ Ń
Ġï» ģ
Ġï» ĭ
Ġâī Į
Ġâī į
Ġâī Ĳ
Ġäģ ±
Ġäģ ³
Ġäģ Ĥ
Ġîį ¹
Ġîį ķ
Ġé» ·
ĠãĦ ¹
ĠãĦ ¾
ĠãĦ Ģ
Ġî§ ¦
Ġî§ ¯
Ġî§ Į
Ġé· ¨
Ġé· ©
Ġé· µ
Ġé· Ĵ
Ġèĺ »
Ġèĺ Ħ
Ġèĺ Ľ
ĠãĶ ©
ĠãĶ ®
ĠãĶ Ĳ
Ġâħ ·
Ġâħ ¹
Ġâħ ½
Ġâħ ħ
Ġâħ ķ
Ġï¯ Ľ
ĠèĿ «
ĠèĿ ½
ĠèĿ Į
ĠèĿ ı
ĠèĿ Ĵ
Ġç§ Ĭ
Ġç§ Ĵ
Ġç§ ĺ
ĠèŁ ¨
ĠèŁ ³
ĠèŁ ´
ĠèŁ į
ĠèŁ Ŀ
Ġè« ¿
Ġé¸ ĥ
Ġâļ §
Ġâļ ¼
Ġâļ Ľ
Ġäķ §
Ġäķ Į
Ġäķ Ķ
Ġäķ Ŀ
ĠçĮ ¨
ĠçĮ ¯
ĠçĮ ĥ
ĠçĮ Ľ
Ġé® ¼
Ġé® ¾
Ġé® Ĭ
Ġé® ł
Ġé¶ ·
Ġé¶ į
Ġé¶ ĳ
ĠïŁ ĵ
Ġäŀ ª
Ġäŀ º
Ġäŀ ½
ĠäĲ ¹
ĠäĲ ĸ
ĠäĲ ĺ
ĠäĲ Ń
Ġæħ Ń
Ġã» ±
Ġã» ¼
Ġã» į
Ġâ¶ ©
Ġâ¶ ¾
Ġâ¶ ĩ
Ġâ¶ Ĭ
Ġâ¶ Ń
Ġâĩ ·
Ġâĩ Ħ
Ġâĩ ļ
Ġî¥ ³
Ġî¥ ¶
Ġî¥ ¾
Ġî¥ ¿
ĠæĢ Ĭ
ĠæĢ ľ
ĠéĻ ĭ
Ġæ· ¢
Ġæ· ¦
Ġæ· ¸
Ġæ· ł
Ġé¢ ²
Ġé¢ ĭ
Ġã¸ ®
Ġã¸ ĩ
Ġã¸ Į
Ġã¦ ¬
Ġã¦ ¯
Ġã¦ ĵ
Ġå» ¿
Ġå» Ģ
Ġå» ĩ
Ġæĳ ®
Ġæĳ ±
Ġæĳ ½
Ġæĳ ī
Ġæĳ ł
ĠïĬ ´
ĠïĬ Ĩ
ĠïĬ ķ
ĠïĬ Ń
Ġï½ ī
Ġï½ ĵ
ĠïĴ «
ĠïĴ Ī
ĠïĴ ĭ
Ġîŀ ¦
Ġîŀ ¯
Ġîŀ ĸ
Ġîŀ Ŀ
Ġã¶ ±
Ġã¶ į
Ġã¶ ľ
Ġîķ ¢
Ġîķ ¥
Ġîķ ķ
Ġã¾ ī
Ġã¾ Ĺ
ĠæŁ £
ĠæŁ ļ
Ġî¯ ¥
Ġî¯ İ
Ġî¯ ĳ
Ġî¯ ĸ
Ġî¯ ļ
Ġâ» ¯
Ġâ» ·
Ġâ» ĭ
ĠïĤ ´
ĠïĤ Ģ
ĠïĤ ĥ
ĠïĤ į
ĠïĤ Ł
ĠâĶ §
ĠâĶ ²
ĠâĶ ¶
ĠâĶ ĥ
ĠâĶ ı
Ġéµ Ŀ
ĠéĮ ¶
ĠéĮ Ĳ
Ġåº £
Ġåº ¯
Ġåº °
Ġåº Ĭ
Ġæ¸ ¹
Ġæ¸ ¼
Ġâĭ Į
Ġâĭ į
Ġâĭ ı
ĠæĻ ¶
ĠæĻ ¸
ĠæĻ ł
ĠïĨ ¢
ĠïĨ ¼
ĠïĨ ¾
ĠïĨ ĵ
ĠïĨ Ń
Ġæ´ ±
Ġæ´ ¿
Ġæ´ İ
Ġæ´ ĳ
ĠæĲ ²
ĠæĲ ¶
ĠæĲ į
ĠæĲ ĺ
ĠæĲ Ł
Ġå¶ Ĥ
Ġå¶ Ļ
Ġå¶ ŀ
Ġæ¾ ±
Ġæ¾ ¹
Ġæ¾ Ļ
Ġî« »
Ġî« Ĵ
Ġî« Ł
Ġî« Ń
Ġåµ ·
Ġåµ ¾
Ġåµ ķ
Ġåµ Ļ
Ġêĵ º
Ġêĵ ¿
Ġêĵ Ĵ
Ġâİ ¶
Ġâİ į
Ġæļ ª
ĠäĻ ¨
ĠäĻ ¬
Ġåķ ģ
Ġâ¹ ½
Ġäĺ »
Ġäĺ Į
Ġäĺ Ĳ
Ġäĺ Ĵ
Ġäĺ Ľ
Ġæŀ £
Ġæŀ ®
Ġæŀ ±
Ġæŀ Į
Ġæŀ Ľ
Ġåħ §
Ġåħ ¨
Ġåħ Ģ
Ġä¨ §
Ġä¨ ¿
Ġä¨ Ĭ
Ġä¨ ĸ
Ġä¨ Ľ
Ġæµ ķ
Ġæ¹ Ħ
Ġæ¹ ľ
Ġæ¹ ł
Ġæ» Ħ
Ġâº ¦
Ġîİ §
Ġîİ ª
Ġîİ «
Ġîİ ¿
Ġîİ ī
Ġîİ Į
Ġîİ ŀ
Ġéĥ ´
Ġéĥ ł
Ġâ§ ´
Ġâ§ ¶
Ġïģ ĸ
Ġä¢ ¦
Ġä¢ Ģ
Ġä¢ İ
Ġèº ¾
ĠâĲ £
ĠâĲ ¥
ĠâĲ ®
ĠâĲ Ī
Ġè§ °
Ġè§ ŀ
Ġçĳ £
Ġçĳ ķ
Ġçľ £
Ġçľ ¨
Ġçľ į
Ġçľ ĵ
Ġè´ ¹
Ġè´ º
Ġè´ Ĳ
Ġêĸ Ķ
Ġáª ¡
Ġáª į
Ġáª Ł
Ġî® ¤
Ġî® §
Ġî® ®
Ġî® ı
Ġî® ļ
Ġî® ľ
Ġå§ ĳ
Ġêļ ¥
Ġêļ ®
Ġêļ ¼
Ġêļ Ħ
ĠéĿ »
Ġâ¾ ¯
Ġâ¾ ĩ
Ġâ¾ İ
Ġæ£ ¡
Ġæ£ ±
Ġæ£ º
Ġæ£ Ķ
Ġèı £
Ġèı ĩ
Ġèı Ĺ
Ġâµ µ
Ġâµ Ń
Ġåı ¸
Ġåı ģ
Ġåı ĥ
Ġåı Ī
Ġä± ¸
Ġä± º
Ġä± ¾
Ġê® ¡
Ġê® °
Ġê® ¼
Ġê® ¿
Ġâ´ ľ
Ġâ´ Ł
Ġâ´ Ń
Ġî¡ ¦
Ġî¡ ¨
Ġî¡ ¼
Ġî¡ ı
Ġè® ª
Ġè® «
Ġè® Ľ
Ġè® Ń
ĠèĶ Ĩ
ĠèĶ Ĭ
ĠèĶ ķ
ĠèĶ ĺ
Ġá² ´
Ġá² Ķ
ĠãĮ ¬
ĠãĮ ĳ
ĠãĮ Ĵ
Ġî¿ °
Ġî¿ ²
Ġî¿ İ
Ġî¿ ı
Ġî¿ Ĳ
Ġè¶ ¤
Ġè¶ ±
Ġè¶ ¾
Ġè¶ ĸ
Ġæı ª
Ġæı Ł
Ġéģ ²
Ġéģ ´
Ġéģ ĵ
Ġæ³ ¦
Ġæ³ ª
Ġæ³ ĭ
Ġæ³ İ
Ġæ³ ł
Ġéª Ħ
Ġéª ĳ
Ġçĵ ¨
Ġçĵ Ĵ
Ġçĵ ĵ
Ġçļ ¼
Ġçļ ¾
Ġçļ Ģ
Ġèį £
Ġèį ª
Ġá¯ į
Ġå¯ ¥
Ġå¯ ¼
Ġå¯ Ĵ
Ġá± ¬
Ġá± ¹
Ġá± ħ
Ġá± ĵ
Ġæ± ¾
Ġæ± ĥ
Ġç¢ ¦
Ġç¢ Ĥ
Ġæ¶ ´
Ġæ¶ Ģ
Ġæ¶ Ĥ
Ġæ¶ Į
Ġæ¶ ĵ
Ġæ¶ ĸ
Ġæ¶ Ŀ
ĠîĬ Ĳ
ĠîĬ ĳ
ĠîĬ ĺ
ĠîĬ ļ
ĠîĬ Ľ
ĠêŁ £
ĠêŁ ¹
ĠêŁ º
ĠêŁ ¿
Ġïī ³
Ġáı ¦
Ġáı ª
Ġáı «
Ġáı Ģ
Ġáı Ĭ
Ġáı Ł
Ġäª ī
Ġäª Ĳ
Ġäª ĸ
ĠèĤ ¥
ĠèĤ ī
ĠèĤ Ĺ
Ġî¤ ¼
Ġî¤ ĭ
Ġî¤ ı
Ġèª ¬
Ġèª ´
Ġèª ĩ
Ġèª Į
Ġâ¤ ī
Ġâ¤ Ĭ
Ġâ¤ İ
Ġâ¤ Ĺ
Ġä¤ ¡
Ġä¤ ¢
Ġä¤ Ĥ
Ġîĳ ¦
Ġîĳ ·
Ġîĳ İ
Ġîĳ Ĵ
ĠîĶ ¶
Ġè¥ ³
Ġè¥ ·
Ġè¥ ł
Ġèł °
Ġê§ ¡
Ġê§ ·
Ġä» ¬
Ġç¹ ¯
Ġç¹ Ľ
Ġç¹ ł
Ġç¹ Ń
Ġå¿ º
Ġå¿ ĩ
Ġå¿ ļ
Ġåį ı
ĠæĤ ĺ
Ġç¶ ¹
Ġç¶ ł
Ġâĳ ¢
Ġâĳ §
Ġâĳ į
Ġâ² ¯
ĠîĢ ¡
ĠîĢ ª
ĠîĢ ĵ
ĠîĢ Ł
ĠîĤ ļ
Ġå¥ º
Ġå¥ ļ
Ġå² µ
Ġå² º
Ġå² ļ
ĠäĦ Ī
ĠäĦ Ĵ
Ġï® ¨
Ġï® ´
Ġï® ¼
Ġï® ½
Ġâ¡ ¸
Ġâ¡ ¿
Ġäļ £
Ġäļ ¤
Ġäļ ·
Ġäļ º
Ġäļ į
Ġäļ ĺ
Ġä£ ¨
Ġä£ ²
Ġçĥ §
Ġçĥ »
Ġâ± ª
Ġâ± ¯
Ġä¥ ª
Ġä¥ «
Ġä¥ ¾
Ġä¥ Ĥ
Ġæ§ ¦
Ġæ§ ¯
Ġæ§ ¿
Ġæ§ ĸ
Ġîģ ĥ
Ġîģ Ĭ
Ġîģ ł
Ġè© ¢
Ġè© «
Ġè© ¼
ĠèĻ ©
ĠèĻ ĺ
Ġâª ¶
Ġä¹ ¯
Ġä¹ ±
Ġä¹ ¹
Ġä¹ ¼
Ġä¹ ĭ
Ġä¹ ľ
Ġé¯ Ģ
Ġé¯ ģ
Ġâ¬ ³
Ġâ¬ ¶
Ġâ¬ ĭ
Ġà¸ ¢
Ġè¯ ¿
Ġè¯ ĥ
ĠâĽ ¹
ĠâĽ º
ĠâĽ Į
Ġä¬ ĩ
Ġé¦ §
Ġé¦ Ĩ
Ġèħ Ĥ
Ġèħ Ŀ
Ġèħ Ń
Ġå³ į
Ġå³ ĳ
Ġä§ ¯
Ġä§ °
Ġä§ ¿
ĠäĢ «
Ġè¤ ¦
Ġè¤ Ī
Ġêĺ »
Ġêĺ Ī
Ġè± £
Ġè± ¯
Ġè± ±
Ġè± Ļ
Ġè± Ŀ
Ġè± Ń
Ġéĳ ģ
Ġä² Į
Ġä² Ł
ĠåĶ ¹
ĠåĶ ı
ĠåĶ ĸ
ĠåĶ ļ
ĠêĬ ¬
ĠêĬ ¶
ĠêĬ ģ
ĠêĬ Ļ
ĠãĽ ĵ
ĠãĽ Ĺ
ĠãĽ ļ
ĠèŃ ©
ĠèŃ ¾
Ġçķ £
Ġçķ ´
Ġã¹ ĩ
Ġã¹ ł
Ġà´ ¬
Ġà´ ¯
Ġà´ ²
Ġà´ Ĩ
Ġîĺ ī
Ġéł ¥
Ġéł Ļ
Ġçµ £
Ġçµ ¼
Ġçµ Ĭ
Ġâ° ²
Ġâ° ĥ
Ġãµ ²
Ġãµ į
Ġàª ¬
Ġàª ŀ
ĠäĽ ı
ĠäĽ Ĳ
Ġé½ Ń
Ġè¾ Ī
Ġä· ¯
Ġä· ±
Ġéĸ Ŀ
Ġéĸ Ń
Ġè· ¬
Ġä° ¾
Ġä° Ĥ
Ġä° ĥ
ĠãĿ ¿
Ġêİ ¸
Ġêİ Ħ
Ġêİ ĸ
Ġçª ģ
Ġçª Ń
Ġå½ Ħ
Ġå½ ŀ
Ġïµ ·
Ġïµ ı
Ġêĳ ±
Ġêĳ ī
Ġä´ °
Ġä´ º
Ġè¨ «
Ġè¨ ±
Ġè¨ İ
Ġè¨ Ĺ
Ġæ¥ ¸
Ġî± £
Ġî± Į
Ġé¹ Ī
Ġâ½ ¿
Ġâ½ Ł
Ġèģ ¨
Ġèģ İ
Ġèģ Ĺ
Ġã± ¥
Ġã± ¦
Ġã± ¿
Ġîł ĥ
Ġîł Ĩ
Ġîł ĩ
Ġèĵ ¯
ĠãĤ ¯
Ġèŀ ľ
ĠåĹ ĳ
Ġî¢ ³
Ġî¢ ¸
Ġçģ ¯
Ġçģ ¿
Ġæĭ ¶
ĠéŃ ¢
ĠéŃ ¿
ĠêĹ ĩ
ĠêĹ ĸ
ĠêĹ Ľ
ĠáĽ Ľ
ĠáĽ ľ
ĠáĽ ŀ
Ġã´ ¦
Ġã´ °
Ġæ¦ į
Ġãħ ĳ
Ġãį ½
Ġãį ¾
Ġæ¡ «
Ġæ¡ ±
Ġîħ ³
ĠèĬ ´
ĠåĿ º
ĠåĿ ģ
Ġïķ ®
Ġê¬ ħ
Ġáµ º
Ġáµ ĥ
Ġáµ Ŀ
Ġè¡ ©
Ġè¡ «
Ġêı µ
Ġêı »
Ġêı ĸ
Ġïĸ Ĩ
Ġïĸ Ł
ĠèĦ Ĥ
ĠèĦ Ĭ
Ġâ³ ®
Ġâ³ į
Ġâ³ ŀ
Ġæ¨ ¸
Ġé° ī
Ġè¿ º
Ġè¿ Ĩ
Ġè¿ Ŀ
Ġåª ¢
Ġåª ª
Ġåª ·
Ġã© ®
Ġã© ¶
Ġã© Ĭ
Ġåĳ ²
Ġåĳ ¸
ĠåĬ ħ
ĠåĬ İ
ĠåĬ Ľ
ĠêĮ ¼
ĠêĮ ¾
ĠêĮ Ĭ
Ġêħ ĭ
ĠïĿ §
ĠïĿ ¯
ĠïĿ į
Ġäħ ¦
Ġçį ½
ĠèĲ ¶
ĠèĲ ¹
ĠèĲ ķ
Ġêĥ ĭ
Ġé¿ ¿
Ġé¿ ļ
Ġéį ¿
ĠèĢ ĭ
Ġå® ¤
Ġå® ¥
Ġå® ³
Ġå® Ĭ
Ġå® Į
ĠæĨ ģ
ĠæĨ Ŀ
Ġéľ Ĭ
Ġéľ Ł
Ġèļ ¼
Ġèļ ¾
Ġèļ ¿
Ġèļ Ĺ
Ġèļ Ľ
Ġê¡ ³
Ġê¡ Ĩ
Ġâ¯ ģ
Ġâ¯ ħ
Ġâ¯ Į
Ġâ¯ Ŀ
ĠãĨ ©
Ġà¨ Ń
Ġä« ģ
Ġé¬ Ĥ
Ġè¬ ¸
Ġè¬ Ģ
Ġâ¦ ĭ
Ġîĩ »
Ġîĩ Ļ
Ġà¹ °
Ġà¹ ¶
Ġà¹ ¸
Ġà¹ Ģ
Ġà¹ ŀ
Ġî¬ ¨
Ġî¬ ¹
Ġî¬ ½
Ġéĩ °
Ġéĩ ·
Ġéĩ »
Ġî© »
Ġî© ¼
Ġï· ª
Ġï· »
Ġï· Ĥ
Ġï· ľ
Ġïĥ ¾
Ġïĥ İ
Ġî¦ ®
Ġî¦ »
Ġî¦ Ģ
Ġî¦ ħ
Ġåľ »
Ġê¤ ¡
Ġê¤ ·
Ġê¤ »
Ġê¤ ħ
Ġê¤ Ī
Ġê¤ į
Ġê¤ İ
Ġê¤ ı
Ġï¼ ī
Ġï¼ ľ
ĠæŃ Į
Ġîī Ĥ
Ġîī ĸ
ĠåĻ ´
ĠåĻ İ
Ġá¡ º
Ġáķ »
Ġáķ Ļ
Ġî¼ »
Ġî¼ ¾
Ġî¼ İ
Ġî¼ ĺ
Ġá´ ¿
Ġá´ Ļ
Ġå¹ ·
ĠéĴ ķ
Ġâ¸ ¯
ĠáĶ Ĩ
ĠáĶ Į
ĠáĶ ı
Ġæ½ ¥
Ġæ½ ¼
ĠêĶ Ĥ
ĠêĶ ĺ
Ġä¶ «
Ġãļ ·
Ġè¦ ¢
Ġè¦ ķ
Ġèī İ
Ġèī ĳ
Ġäµ »
Ġäµ ĩ
ĠèĹ ®
ĠäŃ ĳ
ĠæĮ ¤
ĠæĮ ±
ĠæĮ Ĭ
Ġå´ ¶
Ġå´ Ĳ
Ġå¼ ³
Ġå¼ »
ĠéĹ Ľ
ĠêĦ Ĵ
ĠêĦ ĵ
Ġà¶ ·
Ġà¶ İ
Ġãľ ħ
Ġãľ ľ
Ġäī Ħ
Ġäł Ĵ
Ġæ¼ ¹
Ġæ¼ ī
Ġå· ±
Ġïĳ ½
Ġæĩ °
ĠèĮ Ķ
ĠåŁ ¢
ĠåŁ ¯
Ġîª ı
Ġèµ º
Ġåĺ ©
Ġåĺ Ģ
Ġåĺ Ĩ
Ġêª ¥
Ġêª ¬
Ġêª ¯
Ġêª º
Ġêª ĵ
Ġêª ł
Ġè½ ¿
Ġè½ Ľ
Ġèĩ ¾
Ġèĩ ł
Ġâ© Ľ
Ġæī ®
Ġæī ĭ
Ġæī į
ĠîĮ ĩ
ĠîĮ Ł
ĠæĦ ı
Ġåĭ Ĺ
Ġãķ «
Ġãķ ¯
Ġå¦ ¿
Ġå¦ Ļ
Ġî³ £
Ġîĥ ¤
Ġîĥ §
Ġîĥ ¸
Ġîĥ ł
ĠîĲ ģ
ĠîĲ ĥ
ĠåĽ ĺ
ĠêĽ ¹
ĠêĽ º
ĠêĽ Ħ
ĠêĽ Ł
Ġæª ¬
Ġç± ¶
Ġç± ĸ
ĠïĮ Ł
Ġç® Ł
Ġà¡ ¤
Ġà¡ ³
Ġà¡ º
Ġà¡ »
Ġà¡ į
Ġç° ¹
Ġåī °
Ġåī ī
Ġï£ ¨
Ġï£ ³
Ġï£ Ľ
Ġï£ ł
Ġï² º
Ġâ¨ »
Ġâ¨ ĭ
Ġàº ²
Ġàº ĸ
Ġä¼ §
Ġèĸ ±
Ġèĸ İ
Ġã¼ ŀ
Ġî¨ «
Ġî¨ ±
Ġç¡ ¼
Ġç¡ ¾
Ġç¡ ħ
Ġê« ¦
Ġê« ķ
Ġé£ ķ
Ġéĭ ¶
Ġéĭ Ĵ
Ġç» Ļ
Ġèĥ £
Ġèĥ Į
Ġèĥ ı
Ġèĳ »
ĠåĢ Ĺ
Ġà¦ ¢
Ġà¦ ¥
Ġä¯ ŀ
ĠïĪ ŀ
ĠåĪ ¸
Ġïł ¨
Ġïł ¶
Ġïł Ł
Ġà² ¬
Ġà² Ĩ
ĠäĨ ¶
ĠäĨ ģ
Ġè¸ ´
Ġè¸ į
Ġä½ ¿
ĠçĿ §
ĠçĿ ¸
ĠçĿ ł
ĠçĹ ¼
ĠçĹ Ĩ
Ġä¿ Ĭ
Ġåĵ ¤
Ġåĵ ¶
Ġïħ £
Ġïħ ¸
Ġïħ ¾
Ġçī ī
Ġï¶ «
Ġï¶ Ģ
Ġé¥ Ĵ
Ġâ¢ Ĭ
Ġâ® ¿
Ġæ¿ £
Ġæ¿ Į
Ġæ¿ Ĺ
Ġî¹ ¹
ĠéĨ ©
ĠéĨ º
Ġà» Ń
Ġç¸ ĸ
Ġáĳ ĩ
Ġç¼ ¡
Ġç¼ ¤
Ġç¼ º
Ġêī §
Ġêī ĥ
Ġáĺ ¹
Ġáĺ ĩ
ĠîĽ Ŀ
Ġé¨ ı
Ġé© ¥
Ġé² ®
Ġé² µ
Ġç¦ £
ĠçĲ ¤
ĠçĲ §
Ġï± ¤
Ġï± ±
Ġï± ½
Ġï¹ Ķ
Ġî¶ ĸ
Ġãĭ ĵ
Ġî¾ Ľ
Ġã³ ¶
Ġã³ ¿
Ġã³ ī
ĠîĹ ª
ĠçĪ «
Ġê¥ ¤
Ġê¥ ª
Ġê¥ ´
Ġê¥ ¸
Ġê¥ º
Ġê¥ ¾
Ġê¥ ħ
Ġê¥ Ŀ
Ġã° Ļ
Ġà« ĵ
Ġé« ¥
Ġé« Ģ
Ġé« Ĳ
ĠãĬ İ
ĠãĬ Ķ
ĠãĬ Ĺ
Ġå¡ Ĩ
ĠéĬ Ń
Ġê© ¨
Ġê© ¯
Ġê© °
Ġå° ī
Ġåİ «
Ġäĭ Ĵ
ĠåŃ İ
ĠáĲ ¹
Ġç½ ¾
Ġç½ ĩ
Ġç½ ŀ
Ġæ¬ ²
Ġæ¬ Ħ
Ġæ¬ Ĵ
ĠæĶ ĵ
Ġå£ «
Ġï³ µ
Ġà¬ ¤
Ġà¬ Ĳ
ĠêĨ ĭ
ĠêĨ ŀ
ĠáĬ Ĵ
Ġéĺ ¡
ĠïĲ Ħ
Ġà¢ ±
Ġà¢ ŀ
Ġãĸ »
Ġãĸ Ĵ
Ġãĸ ĺ
ĠîĪ Ł
Ġäĸ Ĥ
ĠêĪ ¶
Ġã¤ Ł
Ġè³ ¼
Ġè³ ĳ
Ġç¥ Ĳ
ĠïĦ ´
Ġä¦ Ļ
Ġäĩ ¿
Ġæ° ĥ
Ġæł ¼
Ġæł ı
Ġî° ²
Ġî° º
Ġáĩ §
Ġáĩ ¾
Ġà® ¡
Ġà® «
Ġà® ®
Ġà® »
ĠãŃ ¤
ĠãŃ Ģ
ĠåĤ ª
Ġé¡ «
ĠïĢ ®
ĠïĢ ¿
ĠåĲ §
ĠåĲ ©
ĠåĲ ¯
ĠåĲ ı
Ġáį ª
Ġáį ¾
Ġáį Į
Ġã¬ ®
Ġé³ ¼
Ġãī ľ
Ġç¨ Ĥ
Ġç¨ ł
ĠåĴ «
Ġá£ Ĭ
ĠéĲ Ł
ĠåĨ µ
ĠåĨ »
Ġã¨ °
Ġã¨ ·
Ġã¨ į
Ġãĩ ¡
Ġãĩ Ħ
Ġãĩ ķ
ĠæĪ ´
Ġîĭ ı
ĠåĮ Ĳ
Ġç³ §
ĠáĮ Ĺ
Ġè¹ §
Ġè¹ į
ĠãĹ ģ
Ġîĸ ´
Ġîĸ Ľ
Ġïľ ľ
ĠéĪ ´
Ġç£ ª
Ġå« Ŀ
ĠïĶ ¢
Ġî² º
Ġàµ ¹
Ġàµ Ŀ
Ġä® ļ
Ġè² ´
Ġè² Ħ
Ġè² ŀ
Ġè¼ ¯
ĠãĻ Ģ
Ġêĩ Ĩ
Ġï¡ ·
ĠãĪ Ģ
Ġåģ ĺ
Ġãĺ ±
Ġãĺ ı
Ġãĺ Ł
Ġé¼ «
Ġé¼ ¹
Ġåŀ ³
ĠáĻ ¶
ĠáĻ Ĥ
ĠéĤ į
ĠéĦ ģ
Ġå¨ ¤
Ġå¨ ı
Ġã¥ £
Ġã¥ ±
Ġá¥ ŀ
Ġç« ©
Ġâł ¢
Ġá¨ Ł
Ġá¨ Ń
ĠáĹ ³
Ġáł §
Ġç¬ Ĥ
ĠáĿ ĳ
Ġçł ŀ
Ġáħ ¯
Ġáľ ĭ
ĠêĻ ģ
ĠêĻ ķ
ĠêĻ Ń
Ġà¼ ¸
Ġà¼ ĭ
ĠïŃ ¦
ĠïŃ Ļ
Ġà³ ¾
Ġçĸ ·
ĠïĻ Ł
Ġçĺ Ĩ
Ġáĥ ¿
Ġà§ ¸
Ġà§ ĵ
Ġáŀ ŀ
Ġà° ķ
Ġê¦ Ŀ
ĠáĪ ´
ĠàŃ ¿
Ġà© ·
Ġà© ¿
ĠáŃ ´
ĠáŃ ĳ
Ġà· º
Ġê£ ¾
Ġê£ Į
Ġê£ İ
Ġê¨ Ĭ
Ġï¬ ¦
ĠáĦĨáħ¨áĨ ª
Ġà¥ ¨
Ġà± ²
ĠáĤ ¦
Ġá¤ Ĥ
Ġá¬ ¬
Ġá¬ ĳ
Ġà½ Į
Ġï« µ
ĠáĦĨáħ©áĨ ³
ĠáĦĨáħ©áĨ ¾
Ġá° ĸ
ĠáĦĬáħ¯áĨ ¸
ĠáĦħáħªáĨ ¯
ĠáĢ ģ
ĠáĦĥáħ¨áĨ ¶
Ġíŀ ¤
Ġíŀ °
Ġíŀ µ
Ġíŀ ¾
ĠáĦĥáħ§áĨ ¶
ĠáĦĥáħ§áĨ ½
Ġá³ Ĩ
Ġâ· ħ
Ġâ· Ĵ
ĠáŁ ¡
ĠáĦĢáħ«áĨ ©
ĠáĦħáħ«áĨ ©
ĠáĦħáħ«áĨ «
ĠáĦģáħ£áĨ ¼
ĠáĦĭáħ´áĨ ±
ĠáĦĨáħ²áĨ ¬
ĠáĦĨáħ²áĨ ¯
ĠáĦĨáħ²áĨ ´
ĠáĦħáħ¤áĨ ´
ĠáĦĢáħ®áĨ «
ĠáĦĢáħ®áĨ ®
ĠáĦĢáħ®áĨ ²
ĠáĦĢáħ®áĨ µ
ĠáĦĮáħŃáĨ «
ĠáĦĮáħŃáĨ ·
ĠáĦĮáħŃáĨ ¿
ĠáĦĳáħ§áĨ ¨
ĠáĦĳáħ§áĨ ¯
ĠáĦĥáħ©áĨ ¯
ĠáĦĥáħ¦áĨ ¹
ĠáĦĴáħ´áĨ ³
ĠáĦĴáħ´áĨ ·
ĠáĦįáħŃáĨ ¯
ĠáĦĬáħ¥áĨ ¨
ĠáĦĭáħ«áĨ º
ĠáĦĮáħ®áĨ ª
ĠáĦĬáħ§áĨ ±
Ġï¸ ¶
ĠáĦģáħ¤áĨ «
ĠáĦģáħ¤áĨ ·
ĠáĦģáħ¦áĨ ¬
ĠáĦģáħ¦áĨ ¸
ĠáĦģáħ¦áĨ ¾
ĠáĦĪáħ¦áĨ ±
ĠáĦģáħ«áĨ ±
ĠáĦģáħ«áĨ ½
ĠáĦĮáħµáĨ Ń
ĠáĦįáħ¯áĨ ¨
ĠáĦįáħ¯áĨ ±
ĠáĦįáħ¯áĨ ·
ĠáĦįáħ¯áĨ ¼
ĠáĦĨáħ±áĨ ª
ĠáĦĴáħ³áĨ ¬
ĠáĦĴáħ³áĨ ®
ĠáĦĮáħ¬áĨ ´
ĠáĦĮáħ¬áĨ ¹
ĠáĦĢáħ¥áĨ ª
ĠáĦĢáħ¥áĨ ¯
ĠáĦĢáħ¥áĨ ±
ĠáĦįáħ®áĨ ¹
ĠáĦİáħ£áĨ ©
ĠáĦİáħ£áĨ ·
ĠáĦĮáħ¢áĨ ª
ĠáĦĮáħ¢áĨ ¼
ĠáĦĬáħ¤áĨ ¬
ĠáĦĭáħ¨áĨ ²
ĠáĦĭáħ¨áĨ ¸
ĠáĦįáħ±áĨ ¬
ĠáĦįáħ±áĨ °
ĠáĦīáħ²áĨ ¶
ĠáĦĥáħ¢áĨ ¼
ĠáĦĦáħ°áĨ ²
ĠáĦĦáħ°áĨ ¼
ĠáĦĳáħŃáĨ °
ĠáĦħáħ¢áĨ ¬
ĠáĦģáħªáĨ µ
ĠáĦĭáħ®áĨ ´
ĠáĦħáħ¬áĨ ª
ĠáĦģáħ¥áĨ ²
ĠáĦģáħ¥áĨ ¼
ĠáĦİáħªáĨ ¿
ĠáĦīáħ¤áĨ ²
ĠáĦĢáħµáĨ ¯
ĠáĦĢáħµáĨ °
ĠáĦĢáħµáĨ ³
ĠáĦĢáħ²áĨ °
ĠáĦĢáħ²áĨ µ
ĠáĦįáħ²áĨ Ń
ĠáĦİáħ¬áĨ ª
ĠáĦİáħ¬áĨ ½
ĠáĦģáħ¢áĨ µ
ĠáĦĨáħŃáĨ ¶
ĠáĦĨáħŃáĨ ·
ĠáĦĨáħŃáĨ ¼
ĠáĦĥáħ¥áĨ ¾
ĠáĦĩáħ´áĨ ·
ĠáĦĦáħ®áĨ ±
ĠáĦĦáħ®áĨ µ
ĠáĦıáħ£áĨ ·
ĠáĦįáħ«áĨ ¹
ĠáĦİáħ±áĨ ©
ĠáĦİáħ±áĨ ¹
ĠáĦİáħ±áĨ »
ĠáĦĨáħ¤áĨ ¯
ĠáĦĨáħ¤áĨ °
ĠáĦĨáħ¤áĨ ·
ĠáĦģáħ¯áĨ »
ĠáĦĪáħ¬áĨ ¬
ĠáĦĪáħ¬áĨ ²
ĠáĦģáħ§áĨ ¹
ĠáĦĭáħ¦áĨ ®
ĠáĦĬáħ©áĨ ¯
ĠáĦĬáħ©áĨ ·
ĠáĦĪáħŃáĨ «
ĠáĦĪáħŃáĨ ¯
ĠáĦĪáħŃáĨ ¾
ĠáĦĪáħªáĨ ³
ĠáĦĪáħªáĨ ¼
ĠáĦıáħ©áĨ ±
ĠáĦģáħ³áĨ ¶
ĠáĦģáħ¬áĨ ª
ĠáĦģáħ¬áĨ ´
ĠáĦģáħ¬áĨ ½
ĠáĦĩáħ¢áĨ º
ĠáĦģáħ¡áĨ ¬
ĠáĦįáħ¬áĨ »
ĠáĦĢáħ©áĨ ¼
ĠáĦİáħµáĨ ´
Ġâĥ ´
ĠáĦĮáħ£áĨ ³
ĠáĦĭáħŃáĨ «
ĠáĦĭáħŃáĨ ¹
ĠáĦĭáħŃáĨ Ń
ĠáĦĩáħªáĨ ½
ĠáĦĥáħ²áĨ µ
ĠáĦĥáħ²áĨ ·
ĠáĦĥáħ²áĨ ¸
ĠáĦĳáħ±áĨ ·
ĠáĦĳáħ±áĨ ¿
ĠáĦĮáħ§áĨ ½
ĠáĦģáħ©áĨ ²
ĠáĦģáħ©áĨ ¾
ĠáĦĦáħ±áĨ ´
ĠáĦĦáħ±áĨ ¹
ĠáĦĪáħ¢áĨ ´
ĠáĦĳáħ³áĨ ·
ĠáĦĦáħŃáĨ ¬
Ġá© İ
ĠáĦĳáħ£áĨ ´
ĠáĦİáħ§áĨ ¯
ĠáĦİáħ§áĨ ´
ĠáĦİáħ¯áĨ »
ĠáĦīáħ¢áĨ ©
ĠáĦīáħ¢áĨ ¾
ĠáĦĨáħ¯áĨ º
ĠáĦĨáħ¯áĨ ¼
ĠáĦĨáħ¥áĨ ®
ĠáĦĮáħ´áĨ ¼
ĠáĦĮáħ´áĨ ¾
ĠáĦĢáħŃáĨ ¯
ĠáĦīáħ§áĨ Ń
ĠáĦĬáħ¬áĨ ¸
ĠáĦĨáħ¢áĨ ·
ĠáĦħáħ³áĨ Ń
ĠáĦĪáħ£áĨ ³
ĠáĦĩáħ£áĨ ·
ĠáĦįáħ¦áĨ º
ĠáĦĴáħ¢áĨ ¯
ĠáĦĴáħ¢áĨ ³
ĠáĦĢáħªáĨ ¾
ĠáĦĮáħ±áĨ »
ĠáĦĮáħ±áĨ ¾
ĠáĦĥáħ¡áĨ ®
ĠáĦĴáħŃáĨ «
ĠáĦĴáħŃáĨ »
ĠáĦĴáħ°áĨ ©
ĠáĦĴáħ°áĨ º
ĠáĦĲáħ±áĨ ª
ĠáĦĬáħ¡áĨ ¿
ĠáĦĭáħ¡áĨ ©
ĠáĦīáħ©áĨ ¨
ĠáĦīáħ©áĨ ´
ĠáĦīáħªáĨ ¬
ĠáĦĭáħ©áĨ ¼
ĠáĦĭáħ©áĨ ½
ĠáĦĭáħ¯áĨ »
ĠáĦĦáħ¨áĨ ©
ĠáĦĦáħ¨áĨ ª
ĠáĦįáħ¡áĨ »
ĠáĦĪáħ¡áĨ ³
ĠáĦĪáħ¡áĨ ½
ĠáĦįáħ¤áĨ ¬
ĠáĦįáħ¤áĨ ¶
ĠáĦĩáħŃáĨ ¾
ĠáĦģáħ¨áĨ ½
ĠáĦĭáħ§áĨ ©
ĠáĦĭáħ¤áĨ ²
ĠáĦĭáħ¤áĨ ´
ĠáĦĳáħ«áĨ ª
ĠáĦĳáħ«áĨ ¼
ĠáĦĴáħ¥áĨ ª
ĠáĦħáħ¦áĨ ½
ĠáĦħáħ¦áĨ ¾
ĠáĦĴáħ¤áĨ ²
ĠáĦĴáħ¤áĨ ¼
ĠáĦıáħ°áĨ ·
ĠáĦĲáħ¥áĨ ª
ĠáĦĲáħ¥áĨ »
ĠáĦĢáħ¤áĨ ´
ĠáĦĦáħ³áĨ ©
ĠáĦĩáħ®áĨ Ń
ĠáĦīáħ¦áĨ ¾
ĠáĦīáħ¨áĨ ¶
ĠáĦĦáħ²áĨ º
ĠáĦħáħ±áĨ º
ĠáĦĳáħ¢áĨ Ń
ĠáĦĩáħ¦áĨ µ
ĠáĦĥáħ®áĨ µ
ĠáĦīáħ¡áĨ ·
ĠáĦĦáħ´áĨ ´
ĠáĦĦáħ´áĨ ¼
ĠáĦĮáħ°áĨ ¼
ĠáĦįáħµáĨ ©
ĠáĦįáħµáĨ ´
ĠáĦĳáħ°áĨ ²
ĠáĦİáħ³áĨ ¯
ĠáĦĪáħ®áĨ ¯
ĠáĦħáħ©áĨ ª
ĠáĦĢáħ£áĨ ²
ĠáĦİáħ¥áĨ ¸
ĠáĦĭáħ¥áĨ «
ĠáĦĮáħ¤áĨ ¯
ĠáĦĮáħ¤áĨ °
ĠáĦĴáħ²áĨ ²
ĠáĦĴáħ£áĨ ³
ĠáĦĴáħ£áĨ ½
ĠáĦĦáħ¢áĨ ¬
ĠáĦİáħ¦áĨ Ń
ĠáĦĪáħ±áĨ ²
ĠáĦıáħ¥áĨ ¿
ĠáĦĦáħ¤áĨ ¬
ĠáĦĲáħ®áĨ °
ĠáĦıáħµáĨ «
ĠáĦıáħµáĨ ¶
ĠáĦİáħ¤áĨ ¿
ĠáĦİáħ²áĨ °
ĠáĦİáħ²áĨ ¹
ĠáĦĥáħ¬áĨ »
ĠáĦĴáħ¯áĨ ·
ĠáĦĲáħ´áĨ ¾
ĠáĦİáħ°áĨ ¾
ĠáĦĦáħ¡áĨ ¼
ĠáĦĪáħ¤áĨ ±
ĠáĦĳáħ´áĨ ½
ĠáĦĤáħ±áĨ «
ĠáĦĲáħŃáĨ °
ĠáĦħáħ²áĨ ´
ĠáĦĴáħ§áĨ ²
ĠáĦĩáħ¥áĨ ¾
ĠáĦģáħ²áĨ ±
Ġð¤ ĭ®
Ġá½ İ
Ġá» ¾
¡ ª
¡ ¬
¢ ¶
¢ ĺ
¤ ¦
¤ ¾
¥ ¥
¥ ª
¥ µ
¥ »
¥ ¿
¥ ħ
¥ į
¦ §
¦ ¨
¦ ²
¦ ģ
¦ Ĵ
§ §
§ ®
¨ ²
¨ ı
¨ ĵ
© ĥ
ª ŀ
« ¢
« §
« ·
¬ Ĩ
¬ Ŀ
® ³
® ĩ
¯ Ģ
¯ Ŀ
° ł
± º
± Ĥ
± Ľ
² ¯
² ²
³ ©
³ ª
³ ¹
³ Ĥ
´ ±
´ Ħ
´ Ĵ
µ ¡
µ ®
µ ³
µ ĥ
¶ ¢
¶ ©
· ¿
· Ģ
· ı
· ķ
¸ ĥ
¹ £
º ¢
º ħ
º Ķ
º Ł
» ª
» Ĵ
» Ł
¼ Ģ
½ µ
½ ī
¾ ¢
¾ §
¾ ¯
¾ °
¾ ¾
¾ Ĭ
¾ Ķ
¿ ½
¿ Ģ
¿ Ī
¿ ļ
¿ Ľ
¿ Ń
Ģ İ
Ģ Ķ
ģ ¡
ģ ¬
Ĥ ¯
Ĥ ¹
Ĥ Ĵ
Ĥ ķ
ĥ ļ
Ħ Ĵ
Ħ Ľ
ħ Ĳ
ħ ĳ
ħ ĸ
ħ Ľ
Ĩ ĵ
ĩ ĩ
Ī ´
Ī Ī
Ī Ń
ī ¯
ī Ļ
Ĭ ¯
Ĭ ²
Ĭ ³
Ĭ Ĩ
Ĭ Į
Ĭ ĸ
ĭ µ
ĭ Ŀ
Į ¢
Į ¬
Į ĺ
į ·
į Ģ
į Ń
İ ´
İ Ļ
ı £
ı ¥
ı ª
ı Ĺ
Ĳ ¨
ĳ §
ĳ Ĵ
Ķ ¶
Ķ ī
Ķ ı
ķ ´
ĸ ¦
ĸ Ĭ
ĸ į
ĸ Ĺ
Ĺ İ
Ĺ Ľ
ĺ Ĥ
Ļ ¹
Ļ Ħ
ļ ŀ
Ľ ķ
Ľ ļ
Ľ ŀ
ľ ¿
ľ İ
ľ ĳ
ľ Ĺ
Ŀ ¿
Ŀ į
Ŀ Ĳ
ŀ £
ŀ ¦
ŀ Ĭ
ŀ Ķ
Ł Ī
Ł Ķ
Ł Ł
ĠâĢ ¡
ĠâĻ ´
Ġà¤ ³
Ġà¤ ĭ
Ġâĸ ª
Ġâĸ »
ĠáĦĨáħ ¯
ĠáĦĨáħ °áĩĤ
ĠáĦĨáħ £áĩĤ
ĠáĦĬáħ ´áĩĢ
ĠáĦĬáħ ¨áĩĤ
ĠáĦĬáħ ªáĩģ
ĠáĦħáħ ¯áĩĤ
ĠáĦģáħ ¡
ĠáĦģáħ ®
ĠáĦģáħ ¡áĩģ
ĠáĦģáħ ®áĩĤ
ĠáĦĭáħ ´áĩĤ
ĠáĦĮáħ ¨
ĠáĦĮáħ «
ĠáĦĮáħ Ń
ĠáĦĮáħ ¯áĩĤ
ĠáĦĥáħ ±áĩĢ
ĠáĦĢáħ ®
ĠáĦĢáħ £áĩģ
ĠáĦĢáħ ²áĩģ
ĠáĦĢáħ ¤áĩģ
ĠáĦĢáħ ´áĩĤ
ĠáĦĢáħ ¨áĩĤ
ĠáĦĢáħ ¬áĩĢ
ĠáĦįáħ ±
ĠáĦįáħ «áĩĢ
ĠáĦįáħ ¤áĩģ
ĠáĦįáħ ²áĩĢ
ĠáĦĳáħ ¦áĩĤ
ĠáĦĳáħ ¡áĩģ
ĠáĦĩáħ ¡
ĠáĦĩáħ ³
ĠáĦĩáħ ´
ĠáĦĩáħ «áĩĤ
ĠáĦĩáħ ¢áĩģ
ĠáĦĩáħ ®áĩĤ
ĠáĦİáħ ¡áĩģ
ĠáĦİáħ ªáĩĢ
ĠáĦİáħ ´áĩĤ
ĠáĦİáħ ¬áĩĢ
ĠáĦĴáħ ¤áĩĤ
ĠáĦīáħ ¯áĩģ
ĠáĦīáħ ¢áĩģ
ĠáĦīáħ ¬áĩĤ
ĠáĦĪáħ ±áĩĢ
ĠáĦĪáħ ¤áĩĤ
ĠáĦĪáħ ²áĩĢ
ĠáĦıáħ ¢
ĠáĦıáħ ¢áĩĤ
ĠáĦıáħ §áĩĢ
ĠáĦıáħ ¤áĩģ
ĠáĦıáħ ¥áĩĤ
ĠáĦıáħ ¦áĩĢ
ĠáĦĦáħ µ
ĠáĦĦáħ ¢áĩĤ
ĠáĦĦáħ ´áĩĢ
ĠáĦĦáħ ©áĩģ
ĠáĦĲáħ ¡
ĠáĦĲáħ ¡áĩĢ
ĠáĦĲáħ µáĩģ
ĠáĦĤáħ ¦áĩĤ
ĠâĪ °
ĠâĪ ķ
ĠâĦ ¶
ĠâŁ ĩ
Ġâĺ ¥
Ġâĺ ģ
Ġâģ «
Ġâģ ¸
Ġâģ Ń
Ġãı ķ
Ġãı ľ
Ġçı £
Ġçı ¦
Ġçı ·
Ġçı ¸
Ġçı Ĵ
ĠâĿ ¸
ĠâĿ Ĵ
ĠâĿ Ŀ
ĠãŁ ļ
Ġïİ ¬
Ġïİ Ń
Ġâľ £
ĠçŁ Ľ
ĠçŁ Ń
Ġïı ¦
Ġïı ľ
Ġâ¥ Ģ
Ġâ¥ Ĺ
Ġâ¥ ļ
ĠäĴ ®
ĠäĴ ¹
ĠäĴ »
ĠäĴ ĥ
Ġæĺ ĥ
ĠäĶ ¨
ĠäĶ µ
ĠäĶ ¿
ĠäĶ ģ
ĠäĶ ĳ
ĠäĶ Ŀ
ĠäĶ Ń
Ġã§ £
Ġã§ ĭ
Ġã§ ĸ
Ġã¢ ¥
Ġã¢ ¦
Ġã¢ §
Ġã¢ °
Ġã¢ ´
Ġã¢ µ
ĠæĿ ¢
ĠæĿ ©
ĠæĿ °
ĠæĿ µ
ĠæĿ ½
ĠæĿ ķ
Ġäĵ ¡
Ġäĵ ¤
Ġäĵ ½
Ġäĵ Ĭ
Ġäĵ ĭ
Ġäĵ ĵ
Ġäĵ ĸ
Ġã· ¹
ĠâĨ İ
Ġã² ¥
Ġã² ²
Ġã² Ĩ
Ġã² ķ
Ġã² ŀ
Ġîı İ
Ġîı ĳ
Ġîı ĺ
Ġîı ļ
Ġâį ½
Ġâį Ĺ
Ġãª »
Ġãª Ĭ
Ġãª Ļ
Ġéŀ ¦
Ġéŀ ª
Ġéŀ Ģ
Ġéŀ Ĥ
ĠîĴ ¯
ĠîĴ Ī
ĠîĴ Ĳ
ĠíŁ £
ĠíŁ ©
ĠíŁ ¾
ĠäĿ Ĭ
Ġçİ µ
Ġçİ ¸
Ġçİ Ģ
Ġçİ Ħ
Ġäľ ¥
Ġäľ °
Ġäľ Ī
Ġäľ ĳ
ĠæĴ ¦
ĠæĴ ¸
ĠæĴ Ĳ
ĠæĴ ľ
Ġã¿ ¶
Ġã¿ »
Ġã¿ ½
Ġã¿ į
Ġã¿ ĳ
Ġã¿ ļ
Ġã¯ ¥
Ġã¯ ª
Ġã¯ Ī
Ġã¯ Į
Ġã¯ ł
ĠîŁ İ
ĠäŁ »
ĠäŁ Ĭ
ĠäŁ Ĵ
ĠäŁ Ļ
Ġæį ¸
ĠîĿ ±
ĠîĿ ¸
ĠîĿ ħ
Ġæľ ¬
Ġæľ ¶
Ġæľ Ħ
Ġæľ İ
Ġãŀ ¼
Ġãŀ Ĥ
Ġãŀ İ
Ġãº ©
Ġãº °
Ġãº į
Ġéİ ½
Ġéİ Ĩ
Ġéİ ı
Ġãģ «
Ġãģ Ħ
Ġçº ¦
Ġçº ±
Ġçº ¸
Ġçº Ģ
Ġçº ħ
Ġçº İ
Ġçº ľ
Ġçº Ń
ĠéŁ ¥
ĠéŁ ¯
ĠéŁ ³
ĠéŁ ĩ
ĠéŁ ĸ
ĠèĴ ´
ĠèĴ Ľ
Ġïŀ ¢
Ġïŀ ĥ
Ġäı £
Ġäı ¹
Ġäı Ĥ
Ġäı į
Ġäı ľ
ĠâĬ »
ĠâĬ Ŀ
Ġæĵ ®
Ġæĵ ¹
Ġæĵ ¿
Ġæĵ İ
Ġæĵ Ĵ
Ġæĵ ļ
ĠêĴ £
ĠêĴ ²
ĠêĴ µ
ĠêĴ ¶
ĠêĴ Ĭ
ĠêĴ ļ
ĠæĹ «
Ġäĳ §
Ġäĳ µ
Ġäĳ Ĥ
Ġäĳ Ĵ
Ġâķ µ
Ġâķ į
Ġâķ Ŀ
Ġäį ¨
Ġäį ½
Ġäį ĥ
Ġäį ĳ
Ġäį Ķ
Ġäį ł
ĠâĹ ®
ĠâĹ ´
ĠâĹ Ĩ
ĠâĹ Į
Ġå¾ ¯
Ġá¢ ¡
Ġá¢ ¨
Ġá¢ ¬
Ġâĵ ©
ĠçĦ ¬
ĠçĦ Ĩ
ĠçĦ ĳ
ĠçĦ Ŀ
ĠçĶ ¬
ĠçĶ ģ
Ġæĸ Ĵ
Ġæĸ ĵ
Ġæĸ Ĺ
Ġá§ ¨
Ġá§ ³
Ġá§ Ĩ
Ġéº ¤
Ġéº §
Ġéº ®
Ġéº ²
Ġéº ¹
Ġéº ĩ
Ġçŀ £
Ġçŀ ¹
Ġçŀ ĥ
Ġçŀ ŀ
Ġé¾ ¸
Ġé¾ º
Ġé¾ Ľ
Ġé¾ ł
Ġãİ ¢
Ġãİ Ľ
Ġîĵ µ
Ġîĵ Ħ
Ġîĵ ŀ
Ġãĳ ®
Ġãĳ Ĩ
Ġãĳ Ĭ
Ġãĵ ¤
Ġãĵ Ĳ
Ġâ£ £
Ġâ£ ¶
Ġâ£ ĳ
Ġâ£ ŀ
Ġéı ³
Ġéı ·
Ġéı Ħ
Ġéı ĺ
Ġéı Ń
ĠêĿ ³
ĠêĿ Ģ
ĠêĿ Ĥ
ĠêĿ į
ĠêĿ Ł
Ġá¦ º
Ġá¦ ½
Ġá¦ ĥ
Ġá¦ Ī
Ġá¦ ķ
Ġá¦ Ĺ
Ġá¦ ŀ
Ġç² ½
Ġç² ¿
Ġç² ĭ
Ġç² Ĺ
Ġç² ł
Ġç¿ ©
Ġç¿ ³
Ġç¿ ·
Ġãĥ ©
Ġï¢ ¤
Ġï¢ ¶
Ġï¢ »
Ġï¢ Ģ
Ġï¢ ĸ
Ġî´ ¼
Ġî´ ¿
Ġî´ Ļ
ĠîĻ ¢
ĠîĻ Į
ĠîĻ Ĳ
Ġè£ ³
Ġè£ ´
Ġè£ Ĵ
Ġâŀ ¨
Ġâŀ ±
Ġâŀ ¹
Ġâŀ ¿
Ġâŀ Ĭ
Ġâŀ ł
ĠîŃ ¢
ĠîŃ ¨
ĠîŃ ı
Ġéļ ļ
Ġéļ ľ
Ġâı ĭ
Ġâı į
Ġâı Ĳ
Ġäİ ĥ
Ġæķ ª
Ġæķ ĳ
Ġæķ Ŀ
Ġç¾ ħ
Ġäĥ ¥
Ġäĥ ©
Ġäĥ ī
Ġäĥ Ĭ
Ġäĥ ķ
Ġäĥ ľ
Ġîľ ³
Ġîľ ħ
Ġîľ İ
Ġîľ Ĵ
Ġîľ ľ
ĠäĬ ĥ
Ġå± ª
Ġå± ¼
Ġå± Ĥ
Ġå± ī
ĠäĤ ®
ĠäĤ º
Ġäº £
Ġäº ¬
Ġäº º
Ġäº Ļ
Ġî£ ¶
Ġî£ º
Ġî£ ĩ
Ġî£ Ĭ
Ġé´ º
Ġé´ »
Ġé´ ¿
Ġé´ Ģ
Ġé´ Ĩ
Ġé´ İ
Ġé´ ļ
Ġé´ ľ
Ġé´ Ł
Ġç¯ Ĭ
Ġç¯ ĸ
Ġç¯ Ń
ĠêŃ ª
ĠêŃ ´
ĠêŃ ¾
ĠêŃ į
ĠäĮ º
ĠäĮ ĥ
ĠäĮ ħ
ĠäĮ ķ
Ġï» ²
Ġï» µ
Ġï» Ĺ
Ġï» Ľ
Ġï» ŀ
Ġâī §
Ġâī ŀ
Ġîį £
Ġîį ª
Ġîį ¯
Ġîį »
Ġîį Ĭ
Ġîį İ
Ġé» ©
Ġé» Ĭ
ĠãĦ ©
ĠãĦ «
ĠãĦ ±
ĠãĦ ·
ĠãĦ Ĩ
ĠãĦ Ĳ
ĠãĦ ķ
Ġâ« ¥
Ġâ« ¶
Ġâ« Ļ
Ġïį ¾
Ġïį Ń
Ġî§ ±
Ġî§ ¿
Ġî§ Ĥ
Ġî§ Ī
Ġî§ ł
Ġé· Ĩ
Ġèĺ ¤
Ġèĺ º
Ġèĺ ħ
Ġèĺ Ī
Ġæº ¦
Ġæº ©
Ġæº ±
Ġæº ²
Ġæº ¸
Ġæº ¿
Ġæº Į
Ġæº ĵ
ĠãĶ ¬
ĠãĶ Ģ
ĠãĶ ĭ
ĠãĶ ł
Ġâħ ¡
Ġâħ »
Ġâħ ī
Ġï¯ ¨
Ġï¯ «
Ġï¯ ĭ
Ġï¯ Ń
ĠèĿ °
ĠèĿ ¿
Ġç§ ¦
Ġç§ İ
ĠèŁ ½
ĠèŁ Į
Ġè« ģ
Ġé¸ «
Ġé¸ ģ
Ġé¸ ħ
Ġâļ ¦
Ġâļ ¬
Ġâļ ±
Ġâļ ĩ
Ġâļ Ł
Ġäķ ¯
Ġäķ ²
Ġäķ ³
Ġäķ ¾
Ġäķ ķ
ĠçĮ Ģ
ĠçĮ Ĩ
Ġé® £
Ġé® ¤
Ġé® ©
Ġé® ª
Ġé® ³
Ġé® º
Ġé¶ ¥
Ġé¶ ¯
Ġé¶ ±
Ġé¶ º
Ġé¶ ĩ
Ġé¶ ĭ
Ġé¶ Ŀ
ĠïŁ º
ĠïŁ ½
ĠïŁ Ķ
Ġäŀ ²
Ġäŀ Ľ
Ġäŀ ŀ
ĠäĲ ²
ĠäĲ ³
ĠäĲ º
ĠäĲ Į
Ġæħ °
Ġæħ ¸
Ġã» Į
Ġã» Ķ
Ġã» ŀ
Ġâ¶ ±
Ġâ¶ ³
Ġâ¶ ķ
Ġâĩ ¡
Ġâĩ ĳ
Ġâĩ ĵ
Ġî¥ ®
Ġî¥ ¯
Ġî¥ »
Ġî¥ ŀ
Ġêį ¿
Ġêį ħ
Ġêį Ĳ
ĠæĢ ²
ĠæĢ ·
ĠéĻ ¹
ĠéĻ ĺ
ĠéĻ Ŀ
Ġæ· ³
Ġæ· »
Ġæ· ¼
Ġæ· ĭ
Ġæ· į
Ġæ· ĸ
Ġæ· ŀ
Ġé¢ ģ
Ġé¢ Ĭ
Ġã¸ ¯
Ġã¸ º
Ġã¸ Ħ
Ġã¸ į
Ġã¸ Ń
Ġã¦ ³
Ġã¦ Ī
Ġã¦ ı
Ġã¦ Ŀ
Ġå» ¬
Ġæĳ ª
Ġæĳ ĩ
Ġæĳ ŀ
ĠïĬ ¿
ĠïĬ ĥ
Ġï½ £
Ġï½ ·
Ġï½ ¹
Ġï½ Ĵ
Ġé§ ©
Ġé§ ®
ĠïĴ §
ĠïĴ ½
ĠïĴ į
ĠïĴ ı
ĠïĴ Ĵ
ĠïĴ ķ
ĠïĴ Ľ
ĠïĴ ł
Ġîŀ ·
Ġã¶ °
Ġã¶ ²
Ġã¶ »
Ġîķ ¬
Ġîķ ¾
Ġîķ į
Ġîķ Ŀ
Ġã¾ ³
Ġã¾ ¶
Ġã¾ ¸
Ġã¾ Ħ
Ġã¾ ľ
Ġã¾ ł
ĠæŁ ¦
Ġî¯ §
Ġî¯ ®
Ġî¯ µ
Ġî¯ ĵ
Ġâ» §
Ġâ» ¾
Ġâ» ī
Ġâ» Ĭ
Ġâ» ı
ĠïĤ ī
ĠïĤ ł
ĠâĶ ¡
ĠâĶ Ī
ĠâĶ į
ĠâĶ Ļ
Ġéµ µ
Ġéµ ĩ
Ġéµ İ
Ġéµ ĸ
ĠéĮ º
ĠéĮ Į
ĠéĮ į
ĠéĮ ı
ĠçĽ ¬
ĠçĽ ¯
ĠçĽ º
ĠçĽ Į
ĠçĽ Ļ
ĠçĽ ľ
Ġåº ·
Ġåº º
Ġåº ½
Ġåº ħ
Ġæ¸ ¯
Ġæ¸ µ
Ġæ¸ ĳ
Ġâĭ ¤
Ġâĭ ¸
Ġâĭ ¹
Ġâĭ Ĳ
Ġâĭ ļ
ĠæĻ ®
ĠæĻ Ĭ
ĠïĨ °
ĠïĨ Ĳ
Ġæ´ Ģ
Ġæ´ ĩ
Ġæ´ ĺ
ĠæĲ Ĩ
ĠæĲ Ŀ
Ġå¶ ¢
Ġå¶ °
Ġå¶ ±
Ġêľ ¨
Ġêľ ķ
Ġæ¾ £
Ġæ¾ »
Ġæ¾ ¿
Ġæ¾ Ĩ
Ġæ¾ Ŀ
Ġæ¾ Ń
Ġî« ©
Ġî« ²
Ġî« ´
Ġî« Ĩ
Ġî« ķ
Ġåµ ¼
Ġåµ Ĵ
Ġêĵ ©
Ġêĵ Į
Ġêĵ Ļ
Ġâİ ¢
Ġâİ ¥
Ġâİ §
Ġâİ ©
Ġæļ ½
Ġæļ Ľ
ĠäĻ §
ĠäĻ ĥ
ĠäĻ Ĩ
Ġåķ ¬
Ġâ¹ Ī
Ġäĺ ·
Ġäĺ ĸ
Ġæŀ §
Ġæŀ ©
Ġæŀ «
Ġæŀ ĩ
Ġåħ ®
Ġåħ Į
Ġä¨ ½
Ġä¨ ĩ
Ġä¨ į
Ġä¨ ĳ
Ġä¨ Ĺ
Ġæµ ¡
Ġæµ ·
Ġæµ ĸ
Ġæ¹ ¬
Ġæ¹ į
Ġæ¹ ķ
Ġæ» ¡
Ġæ» §
Ġæ» µ
Ġâº ¿
Ġîİ ¹
Ġîİ Ĭ
Ġéĥ ¢
Ġéĥ ¿
Ġéĥ Ĳ
Ġïģ ¡
Ġïģ ¨
Ġïģ °
Ġïģ ¹
Ġïģ ģ
Ġïģ į
Ġïģ ı
Ġïģ Ĳ
Ġïģ ĳ
Ġïģ ł
Ġä¢ ¡
Ġä¢ ©
Ġä¢ Ĵ
Ġèº ¬
Ġèº Į
Ġèº ı
Ġèº Ł
ĠâĲ ³
ĠâĲ ı
ĠâĲ ĸ
Ġè§ «
Ġçĳ ¢
Ġçĳ Ĥ
Ġçĳ ŀ
Ġçĳ ł
Ġçĳ Ń
Ġçľ ©
Ġçľ ¯
Ġçľ ŀ
Ġè´ ¬
Ġè´ ¯
Ġè´ į
Ġè´ ı
Ġè´ Ĵ
Ġêĸ ¦
Ġêĸ µ
Ġêĸ ¸
Ġêĸ ĭ
Ġêĸ ı
Ġêĸ Ł
Ġáª ĩ
Ġáª ĺ
Ġî® ¯
Ġî® µ
Ġî® ½
Ġî® ĥ
Ġå§ ¨
Ġå§ ķ
Ġêļ ¤
Ġêļ ĩ
Ġêļ ľ
ĠéĿ ¡
ĠéĿ ¤
ĠéĿ ¸
Ġâ¾ ª
Ġâ¾ º
Ġâ¾ ł
Ġæ£ ¢
Ġæ£ §
Ġæ£ ¬
Ġæ£ ¯
Ġæ£ ½
Ġèı ĭ
Ġèı ľ
Ġâµ ª
Ġâµ ¾
Ġâµ Ŀ
Ġî½ ¾
Ġî½ Ģ
Ġî½ ĵ
Ġåı ´
Ġåı ı
Ġåı Ĳ
Ġä± Į
Ġê® ª
Ġê® º
Ġê® ł
Ġê® Ń
Ġâ´ ª
Ġâ´ ³
Ġâ´ ¹
Ġâ´ ı
Ġî¡ ¿
Ġî¡ ģ
Ġî¡ Ĭ
Ġêŀ ¢
Ġêŀ £
Ġêŀ ĥ
Ġêŀ İ
Ġêŀ ı
Ġêŀ Ń
Ġêķ ¦
Ġè® ¿
Ġè® Ħ
Ġè® į
ĠèĶ ·
ĠèĶ ł
Ġá² į
Ġá² ĸ
ĠãĮ ª
Ġî¿ ½
Ġî¿ Ĵ
Ġè¶ µ
Ġè¶ ·
Ġè¶ Ľ
Ġè¶ ľ
Ġéģ ¼
Ġéģ į
Ġéģ ľ
Ġç´ ½
Ġç´ ı
Ġç´ Ł
Ġæ³ £
Ġæ³ «
Ġæ³ ®
Ġæ³ µ
Ġæ³ ¼
Ġæ³ Ĩ
Ġéª ¦
Ġéª ª
Ġéª µ
Ġçĵ ¬
Ġçĵ ´
Ġçĵ ı
Ġçļ ®
Ġçļ ³
Ġçļ ħ
Ġçļ Ł
Ġèį ½
Ġá¯ Ĩ
Ġá¯ Ī
Ġá¯ İ
Ġå¯ ¤
Ġå¯ Ĥ
Ġå¯ ķ
Ġá± ĩ
Ġá± ŀ
Ġæ± ©
Ġæ± ł
Ġç¢ ĭ
Ġæ¶ ±
Ġæ¶ ĭ
Ġæ¶ Ń
ĠîĬ ¨
ĠîĬ ©
ĠîĬ µ
ĠîĬ ¼
ĠêŁ ±
ĠêŁ ı
ĠêŁ Ķ
ĠêŁ Ł
Ġïī ·
Ġïī Į
Ġáı ¶
Ġäª ª
ĠèĤ ©
ĠèĤ Ķ
Ġî¤ ¦
Ġî¤ Ģ
Ġî¤ Ĥ
Ġî¤ Ĳ
Ġî¤ ļ
Ġî¤ Ł
Ġâ¤ Ĳ
Ġâ¤ ķ
Ġä¤ «
Ġä¤ Ĵ
Ġîĳ ª
Ġîĳ ĳ
Ġîĳ Ń
ĠîĶ ¬
ĠîĶ Ģ
ĠîĶ Ĵ
ĠîĶ Ķ
Ġè¥ ¦
Ġè¥ §
Ġè¥ ĥ
Ġè¥ Ĺ
Ġèł «
Ġèł į
Ġèł ĸ
Ġê§ ¢
Ġê§ ¦
Ġê§ Į
Ġä» ±
Ġä» Ĩ
Ġä» Ĺ
Ġä» Ļ
Ġç¹ Ŀ
Ġå¿ ¶
Ġå¿ »
Ġå¿ Ħ
Ġå¿ ı
Ġå¿ Ĵ
Ġåį Ĭ
Ġåį Ľ
ĠæĤ ª
ĠæĤ µ
ĠæĤ ¶
ĠæĤ ķ
ĠîĦ ±
ĠîĦ İ
Ġâĳ »
Ġâĳ Ĳ
Ġâ² ®
Ġâ² ¹
Ġâ² Ĳ
ĠîĢ ¬
ĠîĢ ±
ĠîĢ ¾
ĠîĢ ı
ĠîĤ Ĥ
ĠîĤ ĸ
Ġå¥ ½
Ġå¥ Ķ
Ġå² ¤
Ġå² Ĥ
ĠäĦ ¬
ĠäĦ ·
ĠäĦ »
ĠäĦ ı
ĠäĦ ķ
Ġï® ı
Ġï® ļ
Ġï® ľ
Ġï® Ń
Ġâ¡ ¹
Ġâ¡ ĭ
Ġâ¡ ĳ
Ġâ¡ ĵ
Ġâ¡ Ĺ
Ġäļ ¹
Ġäļ Į
Ġä£ ¢
Ġä£ ¹
Ġä£ ¿
Ġçĥ ©
Ġçĥ ª
Ġâ± µ
Ġâ± ·
Ġâ± ĺ
Ġä¥ °
Ġä¥ Ħ
Ġæİ £
Ġæİ ª
Ġæİ º
Ġæİ ŀ
Ġæİ Ń
Ġîº «
Ġîº ı
Ġæ§ ´
Ġæ§ Ĵ
Ġîģ §
Ġîģ ²
Ġîģ ·
Ġîģ Ĳ
Ġîģ ĳ
Ġè© µ
Ġè© º
Ġè© Ģ
Ġè© ĭ
Ġè© į
Ġè© ı
Ġèľ £
Ġèľ ¥
Ġèľ ¶
ĠèĻ į
Ġâª ¡
Ġâª ²
Ġâª ¸
Ġâª ¿
Ġä¹ ¸
Ġä¹ ī
Ġé¯ Ļ
Ġé¯ ŀ
Ġâ¬ ²
Ġâ¬ ĸ
Ġà¸ ¬
Ġà¸ ®
Ġà¸ ĵ
Ġà¸ Ĺ
Ġà¸ ŀ
Ġè¯ ¾
Ġè¯ Ĵ
Ġè¯ Ķ
Ġè¯ Ń
ĠâĽ ª
ĠâĽ ģ
ĠâĽ ı
ĠâĽ ļ
Ġä¬ «
Ġèħ ¤
Ġèħ ĸ
Ġå³ ·
Ġå³ ĥ
Ġå³ ħ
Ġå³ Ĵ
Ġå³ Ļ
Ġå³ ļ
Ġïļ ¤
Ġïļ ¬
Ġïļ Ĩ
Ġä§ ·
ĠäĢ »
ĠäĢ İ
ĠäĢ ĵ
ĠäĢ ķ
Ġè¤ ĺ
Ġêĺ ¢
Ġêĺ µ
Ġêĺ ·
Ġêĺ º
Ġêĺ ī
Ġè± ¿
Ġéĳ ¥
Ġéĳ Ĥ
Ġä² ±
Ġä² º
Ġä² į
Ġä² Ļ
Ġä² ľ
ĠåĶ ³
ĠåĶ ·
ĠåĶ ¾
ĠãĽ Ģ
ĠèŃ ¯
ĠèŃ ¸
ĠèŃ Ģ
ĠèŃ Ĺ
ĠèŃ ĺ
Ġçķ ³
Ġà´ £
Ġà´ ´
Ġà´ Ī
Ġà´ ĭ
Ġà´ İ
Ġà´ Ļ
Ġà´ ļ
Ġà´ Ŀ
Ġîĺ ¿
Ġîĺ Ķ
Ġîĺ Ļ
Ġîĺ Ł
Ġéł ®
Ġçµ ±
Ġçµ »
Ġçµ ī
Ġâ° ³
Ġâ° ĳ
Ġãµ ¦
Ġãµ ¯
Ġãµ µ
Ġãµ Į
Ġãµ Ł
Ġàª ĸ
Ġàª ľ
ĠäĽ Ŀ
ĠäĽ Ł
Ġé½ ±
Ġé½ ·
Ġé½ »
Ġé½ ½
Ġé½ ģ
Ġé½ Ĭ
Ġé½ ķ
Ġè¾ «
Ġè¾ Ŀ
Ġè¾ Ń
Ġä· ĩ
Ġä· Ĺ
Ġä· ŀ
Ġéĸ ¶
Ġéĸ Ĩ
Ġéĸ ı
Ġè· ¢
Ġè· ª
Ġä° ¤
ĠãĿ Ħ
ĠãĿ Į
ĠãĿ Ļ
Ġêİ ¢
Ġêİ º
Ġêİ Į
Ġçª ¡
Ġçª ª
Ġçª ĥ
Ġçª ĩ
Ġçª ĭ
Ġçª ĸ
Ġå½ ª
Ġå½ ³
Ġå½ Ļ
Ġïµ ¿
Ġïµ Ĩ
Ġïµ ĳ
Ġêĳ ²
Ġä´ Ĵ
Ġä´ Ļ
Ġè¨ §
Ġè¨ ª
Ġè¨ °
Ġè¨ Ĥ
Ġè¨ Ń
Ġèİ §
Ġèİ ³
Ġèİ Į
Ġèİ İ
Ġèİ ł
Ġæ¥ ´
Ġæ¥ »
Ġæ¥ ½
Ġæ¥ ĵ
Ġî± ¢
Ġî± «
Ġî± ł
Ġé¹ ¤
Ġé¹ ĥ
Ġâ½ ¡
Ġâ½ ´
Ġâ½ ĥ
Ġâ½ ľ
Ġæ¤ ª
Ġæ¤ Ĭ
Ġæ¤ ļ
Ġæ¤ Ń
Ġã± ¨
Ġã± Ľ
Ġîł ¶
Ġîł ļ
Ġèĵ ³
Ġèĵ Ĵ
Ġèĵ ł
Ġåĩ Ĥ
Ġåĩ ĺ
Ġâ¼ ¬
Ġâ¼ ¯
Ġâ¼ ¶
Ġâ¼ ¸
Ġâ¼ ¹
Ġâ¿ §
Ġâ¿ ĥ
ĠãĤ ĩ
Ġèŀ ¦
Ġèŀ ©
Ġèŀ ½
Ġèŀ ı
Ġèŀ Ĳ
Ġèŀ Ń
ĠåĹ ¿
ĠåĹ ĵ
ĠåĹ Ŀ
Ġî¢ ¹
Ġî¢ »
Ġî¢ ĸ
Ġçģ ¥
Ġçģ Ĥ
Ġçģ Ĵ
Ġçģ ļ
Ġæĭ µ
Ġæĭ Ī
Ġæĭ Ĭ
ĠéŃ º
ĠêĹ ¥
ĠêĹ «
ĠêĹ Ļ
ĠêĹ ļ
ĠáĽ ±
Ġã´ ¨
Ġã´ ¹
Ġã´ Ģ
Ġã´ Ī
Ġæ¦ Ħ
ĠæĽ ¯
ĠæĽ ¶
ĠæĽ į
ĠæĽ ļ
Ġãħ ĭ
Ġãħ ł
Ġãį ¯
Ġãį µ
Ġãį Ń
Ġæ² ¾
Ġæ² ķ
Ġæ¡ £
Ġîħ ¤
Ġîħ ķ
Ġîħ ĸ
ĠèĬ ¦
ĠèĬ ·
ĠèĬ ĥ
ĠèĬ Ļ
ĠåĿ ¯
ĠåĿ Ļ
Ġïķ »
Ġïķ ¿
Ġïķ ĳ
Ġê¬ ¥
Ġê¬ ¬
Ġê¬ ´
Ġê¬ »
Ġê¬ ĸ
Ġê¬ Ł
Ġáµ Ĥ
Ġè¡ Ŀ
Ġêı Ĩ
Ġêı ĭ
Ġïĸ »
Ġïĸ ı
Ġïĸ Ĵ
Ġé± »
ĠèĦ ±
ĠèĦ ĳ
Ġâ³ ¸
Ġâ³ ¾
Ġâ³ Ī
Ġâ³ Į
Ġâ³ Ŀ
Ġæ¨ ±
Ġæ¨ ¿
Ġæ¨ ĩ
Ġæ¨ Ĵ
Ġé° £
Ġé° į
Ġé° İ
Ġé° ķ
Ġè¿ ³
Ġè¿ ĥ
Ġåª Ĥ
Ġï¾ §
Ġï¾ ¼
Ġï¾ ¾
Ġã© Ī
Ġã© Ķ
Ġã© ł
Ġåĳ ģ
Ġä¾ ¹
Ġä¾ º
ĠåĬ ¨
ĠåĬ ¬
ĠåĬ ¹
ĠåĬ ĭ
ĠêĮ ³
ĠêĮ ļ
Ġå¸ ¢
Ġå¸ ¾
Ġå¸ ļ
Ġêħ ļ
Ġêħ Ł
Ġäħ ¡
Ġçį £
Ġçį ²
ĠèĲ ´
ĠèĲ Ħ
ĠèĲ Į
ĠèĲ Ĳ
ĠèĲ Ĵ
ĠâĮ ´
ĠâĮ į
ĠâĮ İ
Ġæ« ¦
Ġæ« ¹
Ġæ« ĵ
Ġæ« ķ
Ġé¿ ³
Ġéį ĭ
ĠèĢ µ
ĠèĢ Ĥ
Ġå© ½
Ġå© ŀ
Ġå© ł
Ġå® £
Ġå® ¿
ĠæĨ ·
ĠæĨ ¸
ĠæĨ ı
Ġéľ ¶
Ġéľ Ģ
Ġéľ Ĩ
Ġèļ «
Ġèļ ¹
Ġê¡ ¡
Ġê¡ ¸
Ġâ¯ ¹
Ġâ¯ »
Ġâ¯ Ģ
Ġâ¯ į
Ġâ¯ Ĳ
ĠãĨ §
ĠãĨ µ
ĠãĨ º
ĠãĨ »
ĠãĨ ĺ
Ġîļ ª
Ġîļ ³
Ġîļ Ĥ
Ġîļ Ļ
Ġîļ ł
Ġà¨ ¨
Ġà¨ °
Ġà¨ »
Ġà¨ ĵ
Ġä« ĭ
Ġè¬ ª
Ġè¬ Ħ
Ġâ¦ ¯
Ġîĩ «
Ġà¹ ĸ
Ġî¬ Į
Ġî¬ ĳ
Ġéĩ ±
Ġéĩ º
Ġî© ĳ
Ġî© Ł
Ġï· ¦
Ġï· ·
Ġï· Ĵ
Ġïĥ ¢
Ġïĥ ±
Ġïĥ į
Ġïĥ Ŀ
Ġåľ ¦
Ġê¤ ĺ
Ġê¤ Ŀ
ĠæŃ ¡
Ġîī ¿
Ġîī Ĭ
Ġîī į
Ġîī Ń
ĠåĻ ¾
Ġá¡ Ļ
Ġá¡ Ń
Ġáķ ª
Ġáķ Ķ
Ġî¼ ¦
Ġî¼ Ĥ
Ġá´ ĸ
Ġá´ ŀ
Ġå¹ ¹
Ġâ¸ º
Ġâ¸ Ĭ
Ġâ¸ Į
Ġâ¸ Ł
ĠáĶ ħ
ĠáĶ ĩ
ĠáĶ İ
ĠáĶ ķ
Ġî» ı
Ġî» Ł
Ġæ½ ħ
ĠêĶ ©
ĠêĶ ¸
ĠêĶ Ģ
ĠêĶ Ĩ
ĠêĶ ī
Ġä¶ ±
Ġä¶ ·
Ġãļ ģ
Ġãļ ĩ
Ġè¦ ĵ
Ġè¦ ŀ
Ġèī ¤
Ġèī ¶
Ġèī ľ
Ġèī ł
Ġä³ ±
Ġäµ ¢
ĠèĹ ¥
ĠèĹ ĸ
ĠäŃ ®
ĠäŃ ³
ĠäŃ ´
ĠäŃ ¾
ĠäŃ ĵ
ĠæĮ ĵ
Ġå´ ´
Ġå´ ĩ
Ġå´ Ĭ
Ġå´ Ń
Ġå¼ ¸
ĠéĹ «
ĠéĹ ŀ
ĠéĽ ¦
ĠéĽ ¯
ĠêĦ ķ
Ġà¶ ±
Ġãľ ¯
Ġãľ º
Ġå¢ İ
Ġäī ¶
Ġäī Ł
Ġäł ¨
Ġäł Į
Ġäł ĸ
Ġå· ·
Ġå· ĭ
Ġå· ĸ
Ġïĳ ·
Ġïĳ į
Ġæĩ ª
ĠèĮ ¥
ĠèĮ ·
ĠèĮ ¸
ĠèĮ Ĳ
ĠåŁ Ł
Ġîª ¹
Ġèµ ¤
Ġêª ª
Ġêª Ī
ĠâŃ Ĭ
ĠâŃ Ľ
Ġè½ ¢
Ġè½ ©
Ġè½ º
Ġè½ Ł
Ġâ© ¾
Ġâ© Ŀ
Ġæī »
Ġæī ¿
Ġæī ī
ĠîĮ Ĭ
ĠæĦ ģ
ĠæĦ Ĥ
ĠæĦ ķ
Ġç© ¢
Ġç© ¨
Ġç© ª
Ġç© «
Ġç© ¯
Ġåĭ ²
Ġåĭ ĭ
Ġãķ ´
Ġãķ ·
Ġãķ ħ
Ġãķ ł
Ġè° ¸
Ġè° ¹
Ġè° Ĭ
Ġè° ĭ
ĠäĪ ¥
ĠäĪ Ħ
ĠäĪ Į
ĠäĪ ı
ĠäĪ ĸ
ĠäĪ Ł
Ġå¦ ĩ
Ġå¦ Ŀ
Ġî³ ¢
Ġî³ §
Ġî³ ¼
Ġî³ ĺ
Ġî³ ļ
Ġî³ ľ
ĠîĲ ¼
ĠåĽ µ
ĠåĽ º
ĠåĽ ĸ
ĠêĽ ĺ
ĠêĽ ł
Ġáİ Ķ
Ġáİ Ŀ
Ġä¡ »
Ġä¡ Ĺ
Ġä¡ Ľ
Ġä© ²
Ġä© ¶
Ġæª ´
Ġæª ¹
Ġæª İ
Ġæª ľ
Ġæĥ ´
Ġç± ®
ĠïĮ ´
ĠïĮ Į
ĠïĮ ĺ
Ġç® Ķ
Ġà¡ ¦
Ġà¡ «
Ġà¡ ¸
Ġæ® ª
Ġæ® ±
Ġæ® µ
Ġæ® ·
Ġéħ ¢
Ġéħ ¥
Ġéħ İ
Ġç° Ľ
Ġåī ¦
Ġåī ·
Ġåī ĥ
Ġåī Į
Ġåī į
Ġåī Ń
Ġá® ĵ
Ġá® Ŀ
Ġï² ¢
Ġï² ¶
Ġï² »
Ġàº ¯
Ġàº ½
Ġàº ľ
ĠêĤ ģ
ĠêĤ Ī
ĠêĤ Į
ĠêĤ ļ
ĠêĤ Ń
Ġä¼ ĥ
Ġèĸ ¨
Ġèĸ ŀ
Ġã¼ ĥ
Ġî¨ ³
Ġî¨ Ĭ
Ġî¨ Ŀ
Ġî· ª
Ġî· ¼
Ġî· Ģ
Ġî· Ľ
Ġç¡ ł
Ġê« ¼
Ġê« ¿
Ġé£ ³
Ġé£ İ
Ġéĭ ¢
Ġéĭ ·
Ġéĭ į
Ġéĭ Ļ
Ġç» ¥
Ġç» °
Ġç» Ħ
Ġç» ĩ
Ġèĥ ¡
Ġèĥ §
Ġèĥ ¨
Ġèĳ ³
ĠåĢ ¨
Ġà¦ Ĩ
Ġà¦ Ī
Ġà¦ Ĵ
Ġà¦ Ŀ
Ġä¯ ¯
Ġä¯ ³
ĠïĪ ±
ĠåĪ Ĥ
ĠåĪ ĩ
Ġïł į
Ġïł Ĳ
Ġà² «
Ġà² İ
Ġà² ķ
Ġà² ľ
ĠäĨ »
ĠäĨ Ŀ
ĠéĢ ¢
ĠéĢ ®
ĠéĢ ´
ĠéĢ Ģ
ĠéĢ Ĥ
Ġè¸ Ħ
Ġè¸ Ķ
Ġè» ª
Ġä½ ¤
Ġä½ µ
Ġä½ ¹
ĠãĲ Ĥ
ĠãĲ ĸ
ĠçĿ µ
ĠçĿ ¹
ĠçĿ Ł
Ġèĭ ¤
Ġèĭ ¦
Ġèĭ ı
Ġèĭ ĵ
Ġï° Ļ
Ġï° ļ
ĠêĲ ³
ĠêĲ ĥ
Ġåĵ ·
Ġïħ ¬
Ġïħ ¹
Ġï¶ °
Ġï¶ Ī
Ġé¥ ±
Ġé¥ ĩ
Ġé¥ į
Ġé¥ İ
Ġé¥ Ľ
Ġâ¢ Ľ
Ġâ¢ Ŀ
Ġæ¿ ¡
Ġæ¿ ³
Ġæ¿ Ń
Ġî¹ Ĺ
ĠéĨ Ļ
ĠéĨ Ł
ĠçĬ ¹
ĠçĬ Ĵ
Ġç¸ »
Ġç¸ ¿
Ġç¸ ĺ
Ġïº ĩ
Ġïº ķ
Ġáĳ ¡
Ġáĳ ¦
Ġáĳ ª
Ġáĳ «
Ġáĳ ģ
Ġáĳ ĥ
Ġç¼ Ĳ
Ġç¼ ĵ
Ġêī ®
Ġêī Ŀ
Ġáĺ ¦
Ġáĺ º
Ġáĺ ĭ
ĠîĽ «
ĠîĽ º
ĠîĽ Ł
Ġé¨ ¿
Ġé¨ Ĵ
Ġé¨ ł
Ġé© ¤
Ġé² º
Ġç¦ §
ĠçĲ Ļ
Ġï± ī
Ġï¹ ·
Ġï¹ Ĺ
Ġï¹ ŀ
Ġî¶ ´
Ġî¶ ħ
Ġî¶ Ĳ
Ġãĭ ĩ
Ġãĭ ĸ
ĠãĴ ¸
ĠãĴ »
ĠãĴ ı
ĠãĴ Ł
Ġî¾ ¸
Ġî¾ ¹
Ġïĵ §
Ġïĵ ¨
Ġïĵ ŀ
Ġã³ ħ
ĠîĹ ³
ĠçĪ ®
ĠçĪ ľ
Ġê¥ ±
Ġê¥ ĥ
Ġã° ®
Ġã° ¸
Ġã° ĥ
Ġã° Ĺ
Ġà« ĸ
Ġé« ¸
Ġé« Ĩ
Ġé« Ķ
ĠãĬ °
Ġå¡ ĥ
ĠéĬ ¸
ĠéĬ Ĳ
ĠéĬ ķ
Ġê© ĭ
Ġê© ĵ
Ġå° µ
Ġåİ İ
Ġäĭ Ĳ
Ġã¡ ¶
Ġçĭ ĥ
ĠåŃ ķ
Ġá« ī
ĠáĲ İ
ĠæĶ ı
ĠæĶ ĺ
ĠçĨ İ
Ġçĩ ¯
Ġçĩ ´
Ġçĩ ģ
Ġçĩ ĭ
Ġï³ ·
Ġà¬ ¬
Ġà¬ ħ
Ġà¬ Ĭ
Ġà¬ Į
Ġà¬ ŀ
ĠêĨ ©
ĠêĨ ¾
ĠáĬ ¸
ĠèĽ Ħ
ĠèĽ ı
ĠïĲ ±
Ġáĸ ±
Ġáĸ µ
Ġáĸ Ĭ
Ġáĭ ©
Ġáĵ ©
Ġáĵ ĩ
Ġãĸ º
Ġãĸ ķ
ĠîĪ ¶
ĠîĪ İ
Ġäĸ ¾
Ġäĸ ĵ
ĠêĪ ģ
ĠäĹ ĵ
Ġã¤ ¤
Ġã¤ ·
Ġè³ ½
Ġè³ ľ
Ġî¸ »
Ġç¥ ¿
Ġç¥ Ĥ
Ġç¥ ŀ
ĠïĦ ¿
ĠïĦ ī
ĠïĦ Į
Ġä¦ Ģ
Ġäĩ º
Ġäĩ ı
Ġäĩ ľ
Ġæ° ŀ
Ġæł ·
Ġæł ¹
Ġæł ĳ
Ġæł ĸ
Ġî° ³
Ġî° ł
Ġêģ ¡
Ġáĩ ª
Ġáĩ ¯
Ġà® ³
Ġà® ĭ
ĠãŃ ¦
ĠåĤ ³
Ġé¡ ī
Ġé¡ ŀ
ĠïĢ ±
ĠïĢ ķ
ĠåĲ Ĭ
Ġïĺ ¯
Ġïĺ ±
Ġïĺ Į
Ġå¬ Ħ
Ġáį ¬
Ġáį ´
Ġáį ¿
Ġã¬ ¤
Ġã¬ ĵ
Ġåĥ ·
Ġåĥ Ħ
Ġåĥ ŀ
Ġé³ »
Ġé³ ¾
Ġé³ ħ
Ġé³ Ĳ
Ġãī ¨
Ġá£ ı
Ġá£ Ļ
ĠéĲ Ļ
ĠéĲ Ľ
ĠåĨ ·
ĠåĨ Ī
ĠæĪ ķ
ĠæĪ ĸ
ĠæĪ Ł
ĠãĢ ¡
ĠãĢ £
Ġîĭ ĵ
Ġîĭ ļ
Ġåĸ ķ
Ġêĭ ²
Ġêĭ ı
Ġç³ £
Ġç³ Ĩ
ĠáĮ ¡
ĠáĮ ¼
Ġè¹ Ģ
Ġè¹ İ
Ġè¹ ĸ
Ġç£ ±
Ġå« ¦
Ġå« ¼
Ġå« ĩ
Ġî² Ľ
Ġêł ¼
Ġàµ ¯
Ġàµ ¸
ĠèĨ ¥
ĠèĨ °
ĠèĨ ²
ĠèĨ »
Ġä® ĥ
Ġä® ĭ
Ġè² ²
Ġè² »
Ġè² ĥ
ĠãĻ Ĥ
Ġêĩ ª
Ġêĩ ´
Ġêĩ ·
Ġï¡ ¿
ĠãĪ ¬
ĠãĪ ħ
ĠãĪ ı
ĠãĪ ĵ
Ġåģ ĵ
Ġé¼ Ģ
Ġåŀ Ŀ
ĠáĻ £
ĠáĻ ª
Ġà¿ °
Ġà¿ İ
Ġã« ģ
Ġã« Ī
ĠéĤ ¸
Ġê¯ ĭ
Ġáļ ©
Ġã¥ ī
ĠîĨ ©
Ġá¥ ı
Ġç« £
Ġâł Ħ
ĠåĦ ¿
ĠåĦ Ń
Ġá¨ ¦
Ġá¨ Ķ
ĠçĤ ²
ĠçĤ º
ĠçĤ Ħ
ĠçĤ ł
ĠçĻ ©
ĠéĶ »
ĠéĶ ĺ
Ġáł ¨
Ġáł ©
Ġáł ±
Ġáł İ
Ġç¬ Ħ
ĠáĿ ¹
ĠáĿ Ĩ
Ġçł ¸
Ġáħ ĵ
ĠáĨ ¯
Ġáľ ·
Ġáľ ı
ĠêĢ £
ĠêĻ ¦
ĠêĻ ĵ
ĠêĻ Ļ
ĠèĪ £
Ġà¼ ¯
Ġà¼ Ĩ
ĠïŃ µ
ĠïŃ ·
ĠïŃ ı
Ġãł ¦
Ġéķ Ĺ
ĠïĻ Ĭ
ĠïĻ ı
Ġçĺ ı
Ġåł į
Ġåł ı
Ġåļ ĳ
Ġáĥ ı
Ġà§ ¼
Ġáŀ ¢
Ġáŀ ²
Ġà° ¹
Ġà° ľ
Ġê¦ ¤
Ġê¦ ©
Ġê¦ ®
Ġê¦ ĳ
Ġê¦ ļ
Ġê¢ ¢
Ġê¢ §
ĠáĪ ľ
ĠàŃ ´
ĠàŃ Ĩ
Ġà© §
Ġà© ¨
Ġà© ´
Ġà© İ
Ġà¯ ¶
Ġà¯ ĸ
Ġà· §
Ġà· İ
Ġê£ ¸
Ġê£ Ļ
ĠçŃ ¾
Ġï¬ Ĭ
Ġï¬ İ
ĠáĦĨáħ¨áĨ ¹
Ġà¥ «
Ġà¥ °
Ġà¥ Ĳ
Ġà± ±
Ġà± »
ĠáĤ Ģ
Ġá¤ į
Ġá¤ Ķ
Ġá¤ Ľ
ĠáĦĨáħ³áĨ µ
ĠáĦĨáħ¡áĨ ³
ĠáĦĨáħ¡áĨ ½
ĠáĦĨáħ©áĨ º
ĠáĦĨáħ©áĨ ¼
Ġá° ĩ
Ġá° İ
Ġá° Ľ
Ġá° ł
ĠáĦħáħªáĨ ±
ĠáĢ ¡
ĠáĦĥáħ¨áĨ ¨
Ġíŀ ©
Ġâ· Ī
Ġâ· ĵ
ĠáŁ ¿
ĠáŁ ł
ĠáĦĢáħ«áĨ ¬
ĠáĦĢáħ«áĨ ¾
ĠáĦħáħ«áĨ µ
ĠáĦģáħ£áĨ ¬
ĠáĦģáħ£áĨ ¸
ĠáĦĭáħ´áĨ ¬
ĠáĦĴáħµáĨ µ
ĠáĦĳáħ¦áĨ »
ĠáĦģáħŃáĨ ¬
ĠáĦģáħŃáĨ °
ĠáĦģáħŃáĨ ¹
ĠáĦģáħŃáĨ º
ĠáĦģáħŃáĨ ½
ĠáĦĢáħ®áĨ ¸
ĠáĦĮáħŃáĨ ®
ĠáĦĮáħŃáĨ Ń
ĠáĦĳáħ¨áĨ ¬
ĠáĦĳáħ¨áĨ °
ĠáĦĳáħ§áĨ ·
ĠáĦĳáħ§áĨ º
ĠáĦĥáħ©áĨ ±
ĠáĦĥáħ©áĨ ¶
ĠáĦĥáħ©áĨ ¼
ĠáĦĥáħ¦áĨ ´
ĠáĦĴáħ´áĨ ´
ĠáĦĴáħ´áĨ ¿
ĠáĦĬáħ¨áĨ ¶
ĠáĦĬáħ¨áĨ ½
ĠáĦĬáħ¥áĨ ¬
ĠáĦĬáħ¥áĨ ±
ĠáĦĬáħ¥áĨ ·
ĠáĦĬáħ¥áĨ ¹
ĠáĦĬáħ²áĨ ¯
ĠáĦĬáħ²áĨ °
ĠáĦĬáħ²áĨ ²
ĠáĦĬáħ²áĨ ³
ĠáĦĬáħ²áĨ Ń
ĠáĦĮáħ®áĨ °
ĠáĦģáħ¤áĨ ²
ĠáĦģáħ¤áĨ º
ĠáĦħáħµáĨ ®
ĠáĦĢáħ°áĨ ¹
ĠáĦĩáħ«áĨ ¶
ĠáĦĪáħ¦áĨ ¯
ĠáĦĪáħ¦áĨ ´
ĠáĦģáħ«áĨ ¹
ĠáĦĮáħµáĨ ·
ĠáĦĮáħµáĨ ¼
ĠáĦįáħ¯áĨ ³
ĠáĦįáħ¯áĨ ¾
ĠáĦĨáħ±áĨ ¯
ĠáĦĴáħ³áĨ ¯
ĠáĦĴáħ³áĨ ¾
ĠáĦĮáħ¬áĨ ª
ĠáĦĮáħ¬áĨ ¯
ĠáĦĮáħ¬áĨ ½
ĠáĦĢáħ¥áĨ ©
ĠáĦĢáħ¥áĨ °
ĠáĦĢáħ¥áĨ ¶
ĠáĦĢáħ¥áĨ ½
ĠáĦįáħ®áĨ ´
ĠáĦįáħ®áĨ ¾
ĠáĦİáħ£áĨ ³
ĠáĦħáħ´áĨ ±
ĠáĦħáħ´áĨ ²
ĠáĦĭáħ¨áĨ µ
ĠáĦĮáħ²áĨ ±
ĠáĦĮáħ²áĨ ¿
ĠáĦħáħ£áĨ ¯
ĠáĦħáħ£áĨ º
ĠáĦįáħ±áĨ ¶
ĠáĦĥáħ¢áĨ ¶
ĠáĦĩáħ²áĨ ¸
ĠáĦĦáħ°áĨ ¯
ĠáĦĳáħŃáĨ ¬
ĠáĦĳáħŃáĨ ³
ĠáĦĳáħŃáĨ ´
ĠáĦĳáħŃáĨ ·
ĠáĦĨáħ´áĨ ¶
ĠáĦģáħªáĨ º
ĠáĦħáħ¬áĨ ©
ĠòĴ ĸ
ĠáĦģáħ¥áĨ ©
ĠáĦİáħªáĨ °
ĠáĦİáħªáĨ ±
ĠáĦĨáħ«áĨ ±
ĠáĦĨáħ«áĨ º
ĠáĦĪáħµáĨ ³
ĠáĦĪáħµáĨ ·
ĠáĦıáħ¬áĨ ®
ĠáĦıáħ¬áĨ ±
ĠáĦıáħ¬áĨ ³
ĠáĦıáħ¬áĨ ¾
ĠáĦıáħ¬áĨ Ń
ĠáĦĨáħµáĨ ¶
ĠáĦĬáħ®áĨ ¬
ĠáĦĬáħ®áĨ ¸
ĠáĦĩáħ°áĨ Ń
ĠáĦįáħ²áĨ µ
ĠáĦįáħ²áĨ ¹
ĠáĦįáħ²áĨ º
ĠáĦİáħ¬áĨ ²
ĠáĦİáħ¬áĨ º
ĠáĦĨáħŃáĨ ¹
ĠáĦĥáħ¥áĨ ¹
ĠáĦĳáħ¥áĨ ©
ĠáĦĳáħ¥áĨ ²
ĠáĦĦáħ®áĨ ¼
ĠáĦĮáħ¡áĨ ¹
ĠáĦĮáħ¡áĨ ¾
ĠáĦİáħ±áĨ ¯
ĠáĦİáħ±áĨ ¶
ĠáĦİáħ±áĨ ¾
ĠáĦĨáħ°áĨ ¶
ĠáĦģáħ¯áĨ ¨
ĠáĦģáħ¯áĨ ¯
ĠáĦĬáħ°áĨ ³
ĠáĦĳáħ¤áĨ ª
ĠáĦĳáħ¤áĨ ±
ĠáĦĬáħ©áĨ ©
ĠáĦĬáħ©áĨ ²
ĠáĦīáħ´áĨ ´
ĠáĦīáħ´áĨ ½
ĠáĦĪáħŃáĨ ¨
ĠáĦĪáħŃáĨ ²
ĠáĦĭáħ²áĨ Ń
ĠáĦĥáħ³áĨ ª
ĠáĦĮáħ³áĨ ¬
ĠáĦĥáħ£áĨ ±
ĠáĦıáħ©áĨ ¨
ĠáĦĩáħ¯áĨ ³
ĠáĦĩáħ¯áĨ ¼
ĠáĦģáħ¬áĨ ¬
ĠáĦģáħ¬áĨ °
ĠáĦīáħ£áĨ ·
ĠáĦģáħ¡áĨ ³
ĠáĦĭáħ°áĨ ©
ĠáĦĭáħ°áĨ ¬
ĠáĦĴáħ±áĨ ²
ĠáĦįáħ¬áĨ ª
ĠáĦĳáħ¡áĨ º
ĠáĦĮáħ£áĨ ±
ĠáĦĮáħ£áĨ ²
ĠáĦĮáħ£áĨ ¹
ĠáĦħáħ¥áĨ ´
ĠáĦĭáħ±áĨ «
ĠáĦĭáħ±áĨ ³
ĠáĦĭáħ±áĨ »
ĠáĦĩáħªáĨ ¨
ĠáĦĩáħªáĨ ª
ĠáĦİáħ¡áĨ »
ĠáĦĥáħ²áĨ ª
ĠáĦĳáħ±áĨ ª
ĠáĦĳáħ±áĨ ®
ĠáĦĳáħ±áĨ µ
ĠáĦĮáħ§áĨ ©
ĠáĦĮáħ§áĨ ³
ĠáĦĮáħ§áĨ µ
ĠáĦįáħ°áĨ ©
ĠáĦįáħ°áĨ ²
ĠáĦįáħ°áĨ º
ĠáĦıáħ¡áĨ ¬
ĠáĦıáħ¡áĨ °
ĠáĦıáħ¡áĨ ±
ĠáĦıáħ¡áĨ Ń
ĠáĦĪáħ´áĨ ½
ĠáĦĪáħ´áĨ ¿
ĠáĦĦáħ¯áĨ ³
ĠáĦĦáħ±áĨ ½
ĠáĦĳáħ©áĨ ª
ĠáĦĳáħ©áĨ ·
ĠáĦĬáħ±áĨ ³
ĠáĦįáħ³áĨ ¬
ĠáĦĤáħ¢áĨ «
ĠáĦĤáħ¢áĨ ¬
ĠáĦĤáħ¢áĨ ½
ĠáĦĦáħŃáĨ ©
ĠáĦĦáħŃáĨ ª
ĠáĦĦáħŃáĨ ¼
Ġá© ĥ
ĠáĦĮáħ¯áĨ ©
ĠáĦĳáħ£áĨ ¼
ĠáĦĬáħŃáĨ ¿
ĠáĦĥáħŃáĨ ¼
ĠáĦİáħ¯áĨ ª
ĠáĦİáħ¯áĨ ±
ĠáĦİáħ¯áĨ ²
ĠáĦīáħ¢áĨ »
ĠáĦīáħ¢áĨ ¿
ĠáĦĨáħ¯áĨ ·
ĠáĦĨáħ¯áĨ ½
ĠáĦĨáħ¥áĨ ¬
ĠáĦĨáħ¥áĨ ³
ĠáĦİáħŃáĨ ©
ĠáĦİáħŃáĨ ª
ĠáĦİáħŃáĨ ®
ĠáĦīáħ§áĨ º
ĠáĦĮáħ©áĨ ¨
ĠáĦĮáħ©áĨ «
ĠáĦĳáħ¬áĨ »
ĠáĦĪáħ£áĨ ²
ĠáĦĪáħ£áĨ ½
ĠáĦĢáħ¬áĨ ª
ĠáĦĢáħ¬áĨ ±
ĠáĦĢáħ¬áĨ ¾
ĠáĦĢáħ¬áĨ Ń
ĠáĦĲáħ¬áĨ ¸
ĠáĦĩáħ¤áĨ °
ĠáĦĩáħ¤áĨ ¾
ĠáĦİáħ¨áĨ ¿
ĠáĦĲáħ£áĨ ¨
ĠáĦĮáħ¨áĨ »
ĠáĦĮáħ¨áĨ ¾
ĠáĦĨáħ¦áĨ ²
ĠáĦĨáħ¦áĨ ¿
ĠáĦĢáħ³áĨ ®
ĠáĦĢáħ³áĨ ¼
ĠáĦįáħ¦áĨ ±
ĠáĦħáħ°áĨ ½
ĠáĦĢáħªáĨ ±
ĠáĦĢáħªáĨ ¿
ĠáĦĮáħ±áĨ ¯
ĠáĦĢáħ´áĨ ¨
ĠáĦĳáħ²áĨ ¨
ĠáĦĴáħŃáĨ °
ĠáĦĴáħŃáĨ ¾
ĠáĦĪáħ²áĨ ·
ĠáĦĲáħ±áĨ ¼
ĠáĦĬáħ¡áĨ ¬
ĠáĦĬáħ¡áĨ »
ĠáĦīáħ©áĨ ¹
ĠáĦīáħªáĨ ¯
ĠáĦĪáħ¥áĨ ¶
ĠáĦĪáħ¥áĨ ·
ĠáĦĪáħ¥áĨ ½
ĠáĦĪáħ¥áĨ ¾
ĠáĦıáħŃáĨ ¯
ĠáĦīáħ¬áĨ ¯
ĠáĦĬáħ¢áĨ ²
ĠáĦįáħ¡áĨ ¾
ĠáĦİáħ¢áĨ ²
ĠáĦİáħ¢áĨ µ
ĠáĦĲáħ¡áĨ ±
ĠáĦĲáħ¡áĨ ²
ĠáĦĲáħªáĨ º
ĠáĦįáħ¤áĨ °
ĠáĦıáħ«áĨ º
ĠáĦįáħ´áĨ ¶
ĠáĦĩáħŃáĨ °
ĠáĦĭáħ§áĨ ¬
ĠáĦĤáħ´áĨ °
ĠáĦĤáħ´áĨ ¸
ĠáĦĴáħ¥áĨ ±
ĠáĦĮáħªáĨ ´
ĠáĦĮáħ¦áĨ µ
ĠáĦĤáħ³áĨ ¶
ĠáĦĤáħ³áĨ ¾
ĠáĦĥáħ«áĨ ³
ĠáĦĴáħ¤áĨ ¶
ĠáĦĴáħ¦áĨ ·
ĠáĦĴáħ¦áĨ »
ĠáĦħáħ§áĨ ·
ĠáĦħáħ§áĨ »
ĠáĦĲáħ¨áĨ ©
ĠáĦĥáħ¤áĨ ²
ĠáĦĥáħ¤áĨ µ
ĠáĦĥáħ¤áĨ º
ĠáĦĥáħ¤áĨ ¼
ĠáĦįáħ©áĨ ¨
ĠáĦıáħ°áĨ ²
ĠáĦĲáħ¥áĨ ³
ĠáĦĤáħ¤áĨ µ
ĠáĦĤáħ¤áĨ Ń
ĠáĦĦáħ³áĨ ¹
ĠáĦĩáħ³áĨ ©
ĠáĦĩáħ³áĨ ª
ĠáĦĩáħ³áĨ ®
ĠáĦĴáħªáĨ ±
ĠáĦĴáħªáĨ ¸
ĠáĦīáħ¦áĨ ®
ĠáĦīáħ¦áĨ ¯
ĠáĦīáħ¦áĨ »
ĠáĦĭáħªáĨ ¶
ĠáĦįáħ£áĨ °
ĠáĦįáħ£áĨ µ
ĠáĦįáħ£áĨ º
ĠáĦĪáħ«áĨ ®
ĠáĦħáħ±áĨ ½
ĠáĦĢáħ¡áĨ º
ĠáĦįáħ¥áĨ ¸
ĠáĦĦáħ«áĨ ½
ĠáĦĦáħµáĨ ¯
ĠáĦĦáħµáĨ ´
ĠáĦĩáħ¦áĨ ¾
ĠáĦĥáħ®áĨ »
ĠáĦįáħ¢áĨ º
ĠáĦĦáħ´áĨ ¹
ĠáĦįáħµáĨ ¶
ĠáĦĳáħ°áĨ ©
ĠáĦĳáħ°áĨ º
ĠáĦĳáħ°áĨ ½
ĠáĦĲáħ§áĨ ¯
ĠáĦĲáħ§áĨ ¼
ĠáĦĪáħ®áĨ °
ĠáĦĪáħ®áĨ ¼
ĠáĦĴáħ«áĨ ¯
ĠáĦıáħ¦áĨ ½
ĠáĦįáħªáĨ ±
ĠáĦĦáħ§áĨ ©
ĠáĦĤáħ¨áĨ ¶
ĠáĦĲáħ²áĨ ´
ĠáĦĲáħ²áĨ ¹
ĠáĦĮáħ«áĨ ª
ĠáĦİáħ¥áĨ ±
ĠáĦĤáħ©áĨ ¨
ĠáĦĤáħ©áĨ ½
ĠáĦīáħµáĨ ²
ĠáĦĦáħ©áĨ ª
ĠáĦĦáħ©áĨ ¼
ĠáĦĦáħ¢áĨ ª
ĠáĦĦáħ¥áĨ ¯
ĠáĦĦáħ¥áĨ ¹
ĠáĦĦáħ¥áĨ ¾
ĠáĦĬáħªáĨ ¯
ĠáĦĳáħªáĨ ¨
ĠáĦĲáħ®áĨ »
ĠáĦĩáħ¨áĨ Ń
ĠáĦıáħµáĨ ¾
ĠáĦĭáħ¬áĨ º
ĠáĦıáħ§áĨ ©
ĠáĦıáħ§áĨ »
ĠáĦĤáħ«áĨ ª
ĠáĦĥáħ¬áĨ «
ĠáĦĴáħ¯áĨ ¾
ĠáĦıáħ³áĨ ³
ĠáĦĲáħ¦áĨ º
ĠáĦĥáħ±áĨ ¾
ĠáĦĲáħ°áĨ ¹
ĠáĦģáħ´áĨ ³
ĠáĦģáħ´áĨ ¾
ĠáĦıáħ´áĨ º
ĠáĦħáħ¨áĨ ½
ĠáĦĳáħµáĨ ¿
ĠáĦĤáħŃáĨ °
ĠáĦĲáħ³áĨ ª
ĠáĦīáħ®áĨ ±
ĠðĿĺ ¦
Ġï¨ ı
Ġáº ŀ
Ġá¼ Ł
ĠðŁİ µ
¡ ¡
¡ ¤
¢ Ł
£ ¦
£ Ĩ
¤ ģ
¥ £
¥ ©
¥ ¬
¥ ®
¥ ·
¦ ®
¦ µ
¦ ·
¦ ĭ
§ ¶
§ ĥ
§ Ħ
§ ľ
¨ ¨
¨ ¶
¨ Į
© ¬
© °
© µ
ª ®
ª ķ
ª Ł
« «
« »
« ¾
« Ģ
« ĸ
® ¡
® °
® ¹
® ¾
® ģ
® ī
¯ ķ
¯ Ń
° ¼
± ĥ
² ĩ
² ĸ
³ £
³ °
³ ·
³ ĵ
µ ±
µ ¼
µ ¿
µ Ĳ
µ ŀ
¶ ¯
· ²
· º
· »
· ī
¹ ¢
¹ ı
¹ Ń
º ¦
º ©
º ¹
º į
º ķ
» ¬
» ¶
¼ ·
¼ ¸
½ £
½ ¨
½ ¿
½ Ĩ
½ ı
¾ ³
¾ ¼
¾ ħ
¾ ķ
¿ «
¿ ®
¿ ³
¿ »
¿ Ĥ
¿ Ĵ
¿ ĵ
Ģ ¢
Ģ ¦
Ģ ľ
Ģ Ł
ģ Ĵ
ģ ŀ
Ĥ ´
Ĥ ģ
Ĥ ŀ
ĥ ¡
ĥ ¸
ĥ ¿
ĥ Ħ
ĥ İ
Ħ Ĩ
ħ §
ħ ¹
Ĩ ¼
Ĩ ĸ
ĩ »
ĩ ī
ĩ ķ
ĩ Ĺ
ĩ Ļ
ĩ ļ
Ī Ĺ
ī ´
ī ¿
ī ı
ī Ĵ
Ĭ ¸
Ĭ Ĥ
Ĭ ĭ
Į ¤
Į §
Į ´
Į Ĵ
į ©
į ī
į Ĺ
İ ĩ
İ ī
İ ı
İ Ĵ
ı ¨
ı Ī
ı ĺ
Ĳ ª
Ĳ º
Ĳ Į
Ĳ ı
ĳ Ģ
Ĵ §
Ĵ ¨
Ĵ »
Ĵ Ĭ
ĵ Ĭ
ĵ Ķ
Ķ Ń
ķ µ
ķ ł
ĸ ¥
ĸ §
ĸ ¨
ĸ ®
ĸ ¾
ĸ Ĩ
ĸ ĳ
ĸ ŀ
Ĺ ©
Ĺ Ī
Ĺ ĸ
ĺ Ĳ
ĺ ł
Ļ Į
Ļ į
Ļ ľ
ļ į
Ľ ĳ
Ľ Ĺ
ľ Ĩ
ľ Ĵ
Ŀ ¬
Ŀ ¶
Ŀ ¾
Ŀ ķ
Ŀ Ĺ
ŀ «
ŀ ±
ŀ º
ŀ ¾
ŀ Ļ
Ł Ĩ
Ł į
Ł ĺ
Ł Ļ
ł ¢
ł ©
ł Ŀ
ł Ł
Ń ¯
Ń ±
Ń ¾
Ġï¿ ©
Ġï¿ »
Ġï¿ Ń
ĠâĢ ¸
ĠâĻ ĥ
ĠâĻ Ĩ
ĠâĻ ī
ĠáĦ ´
Ġâĸ ·
Ġâĸ Ĩ
ĠáĦĨáħ °
ĠáĦĨáħ ³áĩĢ
ĠáĦĬáħ ©
ĠáĦĬáħ ±
ĠáĦĬáħ ±áĩĢ
ĠáĦĬáħ ¡áĩģ
ĠáĦĬáħ µáĩģ
ĠáĦħáħ ¤
ĠáĦħáħ ¥
ĠáĦħáħ ¦
ĠáĦħáħ ©
ĠáĦħáħ ´
ĠáĦħáħ ¨áĩģ
ĠáĦħáħ £áĩĤ
ĠáĦħáħ ©áĩĢ
ĠáĦģáħ ¯áĩĢ
ĠáĦģáħ ¤áĩĤ
ĠáĦģáħ ¯áĩģ
ĠáĦĭáħ ±áĩĤ
ĠáĦĭáħ £áĩĤ
ĠáĦĮáħ ¢áĩĤ
ĠáĦĮáħ ¯áĩĢ
ĠáĦĮáħ §áĩĢ
ĠáĦĮáħ °áĩĤ
ĠáĦĮáħ ¬áĩĤ
ĠáĦĮáħ ¬áĩģ
ĠáĦĥáħ «
ĠáĦĥáħ ¡áĩĢ
ĠáĦĥáħ ªáĩĤ
ĠáĦĥáħ ŃáĩĤ
ĠáĦĥáħ ²áĩģ
ĠáĦĥáħ §áĩģ
ĠáĦĢáħ µ
ĠáĦĢáħ ªáĩĤ
ĠáĦĢáħ Ńáĩģ
ĠáĦĢáħ ²áĩĤ
ĠáĦĢáħ «áĩĢ
ĠáĦĢáħ ²áĩĢ
ĠáĦĢáħ ¤áĩĢ
ĠáĦįáħ ¡
ĠáĦįáħ ¦
ĠáĦįáħ °áĩģ
ĠáĦįáħ ³áĩĤ
ĠáĦįáħ ¬áĩģ
ĠáĦĳáħ £áĩģ
ĠáĦĳáħ ªáĩĢ
ĠáĦĩáħ §
ĠáĦĩáħ ¢áĩĤ
ĠáĦĩáħ §áĩĢ
ĠáĦĩáħ ¡áĩĤ
ĠáĦİáħ ¢áĩĢ
ĠáĦİáħ «áĩģ
ĠáĦİáħ ©áĩģ
ĠáĦİáħ £áĩĢ
ĠáĦĴáħ ¡áĩĢ
ĠáĦĴáħ ´áĩĢ
ĠáĦīáħ ¯áĩĤ
ĠáĦīáħ ¨áĩģ
ĠáĦīáħ µáĩģ
ĠáĦĪáħ ³áĩģ
ĠáĦĪáħ ¤áĩģ
ĠáĦĪáħ ¥áĩĢ
ĠáĦĪáħ £áĩĤ
ĠáĦĪáħ ©áĩĢ
ĠáĦıáħ «
ĠáĦıáħ ³áĩģ
ĠáĦıáħ ²áĩģ
ĠáĦıáħ ¨áĩĤ
ĠáĦıáħ ¥áĩģ
ĠáĦıáħ ©áĩģ
ĠáĦĦáħ ¨
ĠáĦĦáħ ¯áĩĢ
ĠáĦĦáħ «áĩģ
ĠáĦĦáħ ¦áĩĢ
ĠáĦĲáħ ¦
ĠáĦĲáħ ¢áĩĢ
ĠáĦĤáħ «
ĠâĤ İ
ĠâĤ Ł
ĠâĪ ©
ĠâĪ Ŀ
ĠâĦ ´
ĠâĦ Ī
ĠâĦ Ĳ
ĠâĦ ĵ
Ġéĵ ¯
Ġéĵ Ĭ
Ġéĵ Ĳ
ĠâĴ «
ĠâĴ ²
ĠâĴ Ĭ
ĠâĴ į
ĠâŁ ¬
ĠâŁ ¾
ĠâŁ Ĥ
ĠâŁ ī
ĠâŁ Ĵ
Ġâĺ ¤
Ġâģ ¡
Ġâģ Ľ
Ġãı º
Ġçı ¼
Ġçı Į
ĠâĿ ´
ĠâĿ Ĺ
ĠãŁ ħ
ĠãŁ ŀ
Ġâľ ¢
Ġâľ °
Ġâľ ±
ĠçŁ «
ĠçŁ ĸ
Ġïı ¶
Ġâ¥ ¬
Ġâ¥ ¹
Ġâ¥ ģ
Ġâ¥ Ĥ
Ġâ¥ ĩ
Ġâ¥ ķ
ĠäĴ «
ĠäĴ Ģ
Ġæĺ ¨
Ġæĺ ¸
Ġæĺ ¹
ĠäĶ ¡
ĠäĶ ²
ĠäĶ Ģ
ĠäĶ ĥ
ĠäĶ ī
ĠäĶ ĭ
ĠäĶ ķ
Ġã§ ³
Ġã§ ´
Ġã§ ½
Ġã§ Ĩ
Ġã§ Į
Ġã§ Ŀ
Ġã§ ŀ
Ġã¢ ¬
Ġã¢ ¹
Ġã¢ Ĺ
Ġã¢ Ļ
Ġäĵ Ĥ
Ġäĵ Ķ
Ġæģ ¤
Ġæģ ¹
Ġæģ Ĺ
Ġã· ®
Ġã· ²
Ġã· ĵ
Ġã· ŀ
ĠâĨ ´
ĠâĨ ī
Ġã² ¨
Ġã² ±
Ġã² Ĳ
Ġã² Ł
Ġîı £
Ġîı ´
Ġîı ħ
Ġâį ¬
Ġâį ľ
Ġãª °
Ġãª ±
Ġãª ¼
Ġãª Ī
Ġãª Į
Ġãª Ķ
Ġãª ľ
Ġéŀ ¤
Ġéŀ °
Ġéŀ Ń
ĠîĴ ¦
ĠîĴ ¼
ĠîĴ ĳ
ĠíŁ ¸
Ġç· ¡
Ġç· ¦
Ġç· »
Ġç· ľ
ĠäĿ ¼
ĠäĿ Ļ
Ġçİ ¨
Ġçİ º
Ġçİ ĥ
Ġçİ Ī
Ġäľ ¦
Ġäľ Ħ
Ġäľ Ĩ
Ġäľ ķ
Ġäľ ĸ
Ġäľ ļ
ĠæĴ ·
ĠæĴ ĳ
Ġã¿ ¾
Ġã¿ Ģ
Ġã¿ ħ
Ġã¿ ī
Ġã¯ °
Ġã¯ ²
Ġã¯ µ
Ġã¯ İ
ĠîŁ §
ĠîŁ ©
ĠîŁ ³
ĠîŁ Ĩ
ĠîŁ Į
ĠîŁ ĸ
ĠîŁ ĺ
ĠîŁ ľ
ĠäŁ ®
ĠäŁ ´
ĠäŁ ģ
ĠäŁ Į
ĠäŁ ķ
ĠäŁ ł
Ġæį µ
Ġæį Ĳ
ĠîĿ ¥
ĠîĿ ĭ
ĠîĿ Ļ
ĠîĿ ļ
ĠîĿ ŀ
Ġæľ ¢
Ġæľ Ĥ
Ġæľ ĺ
Ġãŀ ¤
Ġãŀ Ĳ
Ġãº ®
Ġãº ¼
Ġãº Ī
Ġéİ ĭ
Ġçº «
Ġçº ĵ
Ġçº Ł
ĠéŁ ¤
ĠéŁ ¼
ĠéŁ Ħ
ĠéŁ Ī
ĠéŁ Ĳ
ĠéŁ Ŀ
ĠéŁ ł
ĠèĴ Ģ
ĠèĴ ĭ
Ġïŀ «
Ġïŀ ½
Ġïŀ Ĥ
Ġïŀ ł
Ġäı ¼
Ġäı Į
Ġäı ĳ
Ġæĵ ¾
ĠêĴ ¦
ĠêĴ ª
ĠæĹ ¡
ĠæĹ ¯
ĠæĹ ¿
ĠæĹ Ĵ
ĠæĹ Ń
Ġäĳ ¡
Ġäĳ ¢
Ġäĳ ·
Ġäĳ ģ
Ġäĳ ĩ
Ġäĳ Ŀ
Ġâķ º
Ġâķ Į
Ġâķ Ĵ
Ġäį ±
ĠâĹ ¡
ĠâĹ ±
ĠâĹ ĥ
ĠâĹ ī
Ġå¾ ¢
Ġå¾ »
Ġå¾ Ĵ
Ġå¾ ķ
Ġå¾ ĸ
Ġå¾ Ľ
Ġå¾ Ŀ
Ġá¢ º
Ġá¢ į
Ġá¢ ķ
Ġâĵ ¼
ĠçĦ «
ĠçĦ ´
ĠçĦ ¹
ĠçĦ Ħ
ĠçĦ Ĵ
ĠçĦ Ľ
ĠçĶ ©
ĠçĶ ´
ĠçĶ ·
ĠçĶ ¹
ĠçĶ İ
Ġæĸ £
Ġæĸ ·
Ġæĸ Ī
Ġæĸ ī
Ġæĸ ĺ
Ġá§ ©
Ġá§ ¯
Ġá§ Ļ
Ġéº «
Ġéº ¼
Ġéº Ķ
Ġéº Ľ
Ġçŀ ¬
Ġçŀ Ł
Ġé¾ ¥
Ġãİ £
Ġîĵ ¶
Ġîĵ ĭ
Ġîĵ ĵ
Ġãĳ ĵ
Ġãĳ ļ
Ġãĵ ¢
Ġãĵ ·
Ġãĵ Ģ
Ġâ£ ļ
Ġâ£ Ł
Ġéı ¾
Ġéı Ĥ
Ġéı ł
ĠêĿ ¬
ĠêĿ ¸
ĠêĿ ½
ĠêĿ Ĩ
ĠêĿ ĭ
Ġá¦ ¯
Ġá¦ °
Ġá¦ ģ
Ġá¦ Ĭ
Ġç² ¶
Ġç² Ĥ
Ġç² Ĳ
Ġç² ĵ
Ġç¿ ĩ
Ġç¿ Į
Ġãĥ °
Ġï¢ ¢
Ġï¢ µ
Ġï¢ ¾
Ġï¢ ŀ
Ġî´ £
Ġî´ ½
Ġî´ Ľ
ĠîĻ ¨
ĠîĻ ©
Ġè£ £
Ġè£ ®
Ġè£ Ĥ
Ġè£ ĸ
Ġè£ Ł
Ġâŀ £
Ġâŀ «
Ġâŀ ¼
Ġâŀ ģ
Ġâŀ ħ
Ġâŀ ı
Ġâŀ Ŀ
Ġâŀ Ń
ĠîŃ ®
ĠîŃ ½
ĠîŃ Ī
ĠîŃ ĭ
ĠîŃ İ
ĠîŃ Ĳ
Ġéļ «
Ġéļ Ħ
Ġéļ į
Ġéļ İ
Ġéļ ĳ
Ġéļ ĸ
Ġâı ª
Ġâı ¹
Ġâı ½
Ġäİ ©
Ġäİ ĺ
Ġäİ ļ
Ġæķ µ
Ġæķ Į
Ġç¾ ¨
Ġç¾ ©
Ġç¾ °
Ġç¾ º
Ġäĥ ¤
Ġäĥ ´
Ġîľ ¦
Ġîľ ģ
ĠäĬ ¼
ĠäĬ ĭ
ĠäĬ ŀ
Ġå± ±
Ġå± ĥ
Ġå± Ķ
Ġä¸ ¹
Ġä¸ İ
Ġä¸ ĸ
Ġä¸ Ľ
ĠäĤ ¼
ĠäĤ ģ
ĠäĤ Ĵ
Ġäº ³
Ġäº ·
Ġäº ĥ
Ġäº Ī
Ġäº ĵ
Ġäº Ĺ
Ġäº ļ
Ġäº ľ
Ġäº Ł
Ġî£ ³
Ġî£ Ĥ
Ġî£ Ĩ
Ġî£ Ĵ
Ġé´ ¸
Ġé´ ĭ
Ġé´ ı
Ġç¯ ¥
ĠêŃ ¥
ĠêŃ §
ĠêŃ ²
ĠêŃ »
ĠêŃ ħ
ĠêŃ ĭ
ĠêŃ Ń
ĠäĮ ©
Ġï» ½
Ġâī ĥ
Ġâī ı
Ġâī Ľ
Ġäģ ģ
Ġäģ Ĩ
Ġîį µ
Ġîį ĭ
Ġîį Ľ
Ġîį ľ
Ġé» ¬
Ġé» ¹
Ġé» ½
Ġé» ĵ
Ġé» ł
ĠãĦ ¡
ĠãĦ Į
Ġâ« ¡
Ġâ« ¬
Ġâ« ®
Ġâ« ³
Ġâ« ¸
Ġâ« Ĵ
Ġâ« Ľ
Ġïį µ
Ġïį ¼
Ġïį ħ
Ġïį ł
Ġî§ ¨
Ġî§ ®
Ġî§ °
Ġî§ µ
Ġî§ ½
Ġî§ Ń
Ġé· §
Ġé· ²
Ġé· ¾
Ġé· ĵ
Ġèĺ ·
Ġèĺ ĥ
Ġèĺ Ļ
Ġèĺ Ł
Ġæº ·
Ġæº Ĩ
Ġæº ī
Ġæº Ń
ĠãĶ ¸
ĠãĶ ¿
ĠãĶ ĥ
ĠãĶ Ĩ
Ġâħ Ļ
Ġâħ Ń
Ġï¯ ¡
Ġï¯ Ĺ
Ġï¯ ļ
ĠèĿ ¢
ĠèĿ £
ĠèĿ ±
ĠèĿ ²
ĠèĿ ŀ
Ġç§ ĵ
ĠèŁ ¶
Ġè« ½
Ġè« ĵ
Ġè« Ĺ
Ġé¸ ¢
Ġé¸ ®
Ġâļ ¯
Ġâļ Ŀ
Ġäķ ¥
Ġäķ ¬
Ġäķ °
Ġäķ »
Ġäķ ħ
Ġäķ Ĩ
Ġäķ ĩ
Ġäķ Ľ
Ġäķ Ł
Ġäķ ł
ĠçĮ §
ĠçĮ ³
Ġé® ½
Ġé® Ħ
Ġé¶ ©
Ġé¶ Ĩ
Ġé¶ Ĳ
Ġé¶ Ľ
ĠïŁ Ĥ
ĠïŁ ľ
ĠïŁ Ń
Ġã® ¢
Ġã® ¨
Ġã® ¼
Ġã® Ĭ
Ġäŀ £
Ġäŀ ´
Ġäŀ ¾
Ġäŀ ĩ
Ġäŀ Į
Ġäŀ ł
ĠäĲ ª
ĠäĲ Ĩ
ĠäĲ ı
Ġæħ ½
Ġæħ ¾
Ġæħ Ĥ
Ġã» ª
Ġã» ¾
Ġã» ģ
Ġã» Ĥ
Ġã» ħ
Ġã» ĸ
Ġâ¶ ²
Ġâ¶ ¿
Ġâ¶ Ľ
Ġâ¶ Ł
Ġî¥ ©
Ġî¥ Ĩ
Ġî¥ ı
Ġî¥ ĵ
Ġêį ¡
Ġêį ¯
Ġêį Ī
Ġêį Į
Ġêį į
Ġêį ŀ
ĠæĢ ¦
ĠæĢ ĺ
Ġæ· °
Ġæ· ¹
Ġæ· ¾
Ġæ· ħ
Ġæ· Į
Ġæ· İ
Ġé¢ ¡
Ġé¢ Ŀ
Ġé¢ Ń
Ġã¸ ©
Ġã¸ ¬
Ġã¦ °
Ġã¦ ¶
Ġã¦ ĭ
Ġå» ©
Ġå» «
Ġæĳ ¥
Ġæĳ ³
Ġæĳ ¿
Ġæĳ Ī
Ġæĳ Ĭ
Ġæĳ ķ
ĠïĬ «
ĠïĬ Ĳ
ĠïĬ ĳ
Ġï½ §
Ġï½ ¯
Ġï½ ĩ
Ġï½ Ī
Ġé§ ¨
Ġé§ İ
Ġé§ Ĵ
Ġé§ ĺ
ĠïĴ ¦
Ġîŀ ²
Ġîŀ ³
Ġîŀ į
Ġîŀ ı
Ġîŀ Ľ
Ġã¶ ©
Ġã¶ ¶
Ġã¶ Ĳ
Ġîķ Ħ
Ġîķ Ĳ
Ġîķ Ļ
Ġè¢ į
Ġè¢ Ł
Ġã¾ ¨
Ġã¾ ª
Ġã¾ °
Ġã¾ ½
Ġã¾ ļ
ĠæŁ ª
ĠæŁ »
Ġî¯ ¿
Ġî¯ Ĵ
Ġî¯ Ł
Ġâ» ¢
Ġâ» º
Ġâ» ½
Ġâ» ģ
Ġâ» Į
Ġâ» Ĺ
ĠïĤ Ĥ
ĠïĤ İ
ĠâĶ ¢
ĠâĶ £
ĠâĶ ¥
ĠâĶ «
ĠâĶ ³
ĠâĶ ĸ
ĠâĶ Ł
Ġéµ ĺ
ĠéĮ ´
ĠéĮ ½
ĠçĽ ĥ
ĠçĽ ı
ĠçĽ Ń
Ġåº »
Ġåº ŀ
Ġæ¸ ±
Ġæ¸ º
Ġâĭ ®
Ġâĭ Ĥ
Ġâĭ ĵ
ĠæĻ ĭ
ĠæĻ Ĳ
ĠïĨ ª
ĠïĨ ·
ĠïĨ ½
ĠïĨ Ī
ĠïĨ Ĭ
Ġæ´ Į
Ġæ´ į
Ġæ´ Ĵ
Ġæ´ ĵ
ĠæĲ ª
ĠæĲ ¬
ĠæĲ ¯
ĠæĲ ļ
Ġå¶ «
Ġå¶ ²
Ġå¶ ¿
Ġå¶ ķ
Ġêľ µ
Ġêľ ·
Ġæ¾ ´
Ġæ¾ ¶
Ġæ¾ º
Ġæ¾ ¾
Ġî« ª
Ġî« Ħ
Ġî« ĩ
Ġî« ı
Ġåµ ¦
Ġåµ ³
Ġåµ ĥ
Ġåµ ħ
Ġåµ ĭ
Ġêĵ ¸
Ġêĵ Ĩ
Ġêĵ Ķ
Ġâİ ¡
Ġâİ ´
Ġâİ ¸
Ġâİ º
Ġæļ ³
Ġæļ º
Ġæļ ı
ĠäĻ ¤
ĠäĻ ¥
ĠäĻ ¯
ĠäĻ ĸ
Ġåķ ½
Ġåķ ĭ
Ġåķ İ
Ġåķ ĵ
Ġåķ Ŀ
Ġåķ ŀ
Ġâ¹ Ĥ
Ġâ¹ Ĭ
Ġäĺ ¤
Ġäĺ ´
Ġäĺ ¼
Ġæŀ ¥
Ġæŀ ¹
Ġæŀ ½
Ġæŀ İ
Ġæŀ ľ
Ġåħ ²
Ġåħ ı
Ġä¨ £
Ġä¨ ¤
Ġä¨ Ŀ
Ġä¨ Ń
Ġæµ «
Ġæµ ³
Ġæµ ¶
Ġæµ ¿
Ġæµ Ń
Ġæ¹ µ
Ġæ¹ ¸
Ġæ¹ ¿
Ġæ¹ ĥ
Ġæ» ³
Ġâº ª
Ġâº Ĳ
Ġâº Ŀ
Ġîİ ®
Ġéĥ ¶
Ġéĥ Ł
Ġâ§ ±
Ġâ§ ³
Ġâ§ Ī
Ġâ§ ĳ
Ġâ§ Ļ
Ġïģ §
Ġïģ ®
Ġïģ ±
Ġïģ »
Ġïģ ķ
Ġïģ ļ
Ġïģ Ŀ
Ġä¢ ¤
Ġä¢ º
Ġä¢ ¼
Ġä¢ ½
Ġä¢ ĥ
Ġä¢ Ĭ
Ġèº ¥
Ġèº ®
Ġèº Ĥ
Ġèº Ķ
Ġèº ľ
ĠâĲ ¯
ĠâĲ ±
ĠâĲ į
Ġè§ ¡
Ġçĳ ¯
Ġçĳ ¿
Ġçĳ Į
Ġçľ ¬
Ġçľ Ī
Ġè´ »
Ġêĸ ¥
Ġêĸ °
Ġêĸ ¿
Ġêĸ Ģ
Ġêĸ Ī
Ġêĸ Į
Ġêĸ Ļ
Ġáª Ģ
Ġáª Ħ
Ġáª Ļ
Ġáª Ŀ
Ġî® ĩ
Ġî® ĭ
Ġî® Ŀ
Ġå§ ¤
Ġå§ İ
Ġå§ Ķ
Ġêļ «
Ġêļ ³
Ġêļ ¹
Ġêļ ħ
Ġâ¾ ¬
Ġâ¾ ´
Ġâ¾ ģ
Ġæ£ ¨
Ġæ£ ©
Ġæ£ ®
Ġæ£ »
Ġæ£ ĭ
Ġæ£ İ
Ġèı ¤
Ġèı ħ
Ġâµ ©
Ġâµ «
Ġâµ ĭ
Ġâµ ľ
Ġî½ ģ
Ġî½ ĥ
Ġî½ ĩ
Ġåı ¤
Ġåı ĵ
Ġä± ³
Ġä± ·
Ġä± Ĩ
Ġä± ĵ
Ġê® ¬
Ġê® ·
Ġê® ¾
Ġê® Ĺ
Ġâ´ ®
Ġâ´ ¿
Ġâ´ Ľ
Ġâ´ Ŀ
Ġî¡ £
Ġî¡ ©
Ġî¡ «
Ġî¡ ®
Ġî¡ ¶
Ġî¡ ķ
Ġî¡ Ľ
Ġêŀ ¦
Ġêŀ §
Ġêŀ ¾
Ġêŀ ī
Ġêŀ ľ
Ġêķ ¬
Ġêķ ¸
Ġêķ ĥ
Ġêķ İ
Ġêķ ĸ
Ġêķ Ļ
Ġêķ ł
Ġè® ¥
ĠèĶ »
ĠèĶ ¿
ĠèĶ ħ
ĠèĶ į
ĠèĶ İ
ĠèĶ Ľ
ĠèĶ ľ
ĠèĶ Ń
Ġá² ©
Ġá² ¹
Ġá² ģ
Ġá² Ĩ
Ġá² İ
Ġá² Ĳ
ĠãĮ ħ
ĠãĮ Ĭ
ĠãĮ Ĳ
Ġî¿ ¿
Ġî¿ ĩ
Ġè¶ ¦
Ġè¶ ¸
Ġè¶ Ķ
Ġè¶ ĺ
Ġæı ²
Ġæı ī
Ġæı Ĭ
Ġæı Ń
Ġéģ »
Ġéģ Ĭ
Ġéģ İ
Ġéģ Ĳ
Ġéģ ĺ
Ġéģ Ľ
Ġç´ ĵ
Ġç´ Ķ
Ġç´ ĺ
Ġç´ ł
Ġæ³ ²
Ġæ³ Ķ
Ġæ³ ļ
Ġéª º
Ġéª Ī
Ġéª ĭ
Ġçĵ ¤
Ġçĵ ¶
Ġçļ «
Ġçļ µ
Ġçļ ¿
Ġçļ į
Ġçļ Ĳ
Ġçļ ĵ
Ġèį §
Ġèį ©
Ġèį ²
Ġèį ·
Ġèį ĳ
Ġèį ŀ
Ġá¯ ¾
Ġçħ ¨
Ġçħ µ
Ġçħ ·
Ġçħ ¸
Ġçħ Ń
Ġå¯ ¡
Ġå¯ Ĩ
Ġá± ¯
Ġá± »
Ġá± Ģ
Ġá± Ķ
Ġæ± ¬
Ġæ± ±
Ġæ± µ
Ġæ± Į
Ġæ± į
Ġç¢ ¡
Ġç¢ ¸
Ġç¢ ¹
Ġç¢ ĩ
Ġç¢ Ľ
Ġç¢ Ŀ
Ġæ¶ ®
Ġæ¶ »
Ġæ¶ Ĩ
ĠîĬ ª
ĠîĬ ´
ĠîĬ Į
ĠîĬ Ĺ
ĠîĬ Ń
ĠêŁ µ
ĠêŁ ĵ
ĠêŁ ļ
Ġïī ¤
Ġïī ¹
Ġáı ³
Ġáı ·
Ġáı Ĺ
Ġáı Ľ
Ġäª ¸
Ġäª ı
Ġäª ķ
ĠèĤ ±
ĠèĤ ½
ĠèĤ Ĭ
ĠèĤ ĳ
ĠèĤ Ĵ
Ġî¤ ©
Ġî¤ ĥ
Ġî¤ Į
Ġî¤ İ
Ġâ¤ Ŀ
Ġä¤ ¤
Ġîĳ ¢
Ġîĳ ¤
Ġîĳ §
Ġîĳ ´
Ġîĳ ¸
ĠîĶ ±
ĠîĶ ĵ
ĠîĶ Ļ
Ġè¥ ¡
Ġè¥ ¢
Ġè¥ ¥
Ġè¥ µ
Ġèł ¥
Ġèł ¯
Ġèł ¸
Ġèł »
Ġèł Ĵ
Ġèł Ķ
Ġèł ĺ
Ġê§ ¶
Ġê§ Ĩ
Ġê§ Ĳ
Ġê§ Ń
Ġïĩ ¦
Ġïĩ §
Ġïĩ ®
Ġïĩ µ
Ġïĩ Ĳ
Ġä» ª
Ġä» ®
Ġä» Į
Ġä» Ŀ
Ġç¹ «
Ġç¹ ¶
Ġç¹ »
Ġç¹ Ĭ
Ġå¿ µ
Ġå¿ ½
Ġå¿ Ĺ
Ġåį ¬
Ġåį ®
Ġåį ³
Ġåį ¹
Ġåį ½
ĠæĤ ²
ĠæĤ ħ
ĠæĤ ŀ
ĠîĦ ĳ
ĠîĦ Ń
Ġç¶ ¨
Ġç¶ ½
Ġç¶ ķ
Ġç¶ ľ
Ġç¶ ŀ
Ġâĳ ¤
Ġâĳ Ĭ
Ġâĳ ĸ
Ġâĳ ĺ
Ġâ² ³
Ġâ² Ĵ
ĠîĢ Ľ
ĠîĤ Ń
Ġå¥ ±
Ġå¥ ¾
Ġå¥ ģ
Ġå¥ İ
Ġå¥ ı
Ġå¥ ł
Ġå² ¶
Ġå² ½
Ġå² Ĳ
Ġå² Ŀ
ĠäĦ ģ
ĠäĦ ĭ
ĠäĦ Ŀ
Ġï® ¸
Ġï® »
Ġï® ģ
Ġï® ĵ
Ġâ¡ ĩ
Ġâ¡ ī
Ġâ¡ Ĳ
Ġâ¡ Ķ
Ġäļ ¥
Ġäļ §
Ġäļ ¶
Ġäļ ĩ
Ġäļ ķ
Ġäļ ł
Ġä£ ±
Ġä£ ¸
Ġä£ ½
Ġä£ ģ
Ġä£ Ħ
Ġä£ Į
Ġçĥ ŀ
Ġâ± ±
Ġâ± ¿
Ġâ± ģ
Ġâ± ĭ
Ġâ± Ń
Ġä¥ º
Ġä¥ »
Ġä¥ ¼
Ġîº »
Ġæ§ ¸
Ġæ§ ī
Ġæ§ İ
Ġæ§ ĳ
Ġæ§ Ĺ
Ġîģ ¬
Ġîģ Ĥ
Ġîģ ħ
Ġîģ Ī
Ġîģ Ĵ
Ġè© ĥ
Ġèľ ´
Ġèľ Ģ
Ġèľ Ī
Ġèľ Ĳ
Ġèľ Ł
ĠèĻ ¥
ĠèĻ ²
ĠèĻ µ
ĠèĻ ī
Ġâª ĳ
Ġä¹ ¦
Ġä¹ »
Ġä¹ ĵ
Ġä¹ ł
Ġé¯ ª
Ġé¯ Ĭ
Ġé¯ ĳ
Ġâ¬ ¡
Ġâ¬ ķ
Ġâ¬ Ĺ
Ġà¸ Į
Ġè¯ ¥
Ġè¯ ¦
Ġè¯ ´
Ġè¯ ·
Ġè¯ ģ
Ġè¯ ŀ
Ġè¯ Ł
ĠâĽ į
Ġä¬ ¶
Ġä¬ ¹
Ġä¬ º
Ġä¬ ģ
Ġä¬ ľ
Ġé¦ ©
Ġé¦ ¬
Ġèħ ¿
Ġèħ İ
Ġèħ ĵ
Ġèħ ļ
Ġå³ ª
Ġå³ ³
Ġå³ ´
Ġå³ ¸
Ġå³ ĵ
Ġïļ Ħ
Ġïļ ĳ
Ġïļ Ĵ
Ġïļ ĺ
Ġïļ Ľ
Ġä§ ¡
Ġä§ ²
Ġä§ ´
Ġä§ »
Ġä§ ī
Ġä§ Ĺ
Ġä§ ĺ
ĠäĢ į
ĠäĢ Ł
Ġè¤ ¡
Ġè¤ ¢
Ġè¤ ļ
Ġêĺ ¿
Ġêĺ Ĥ
Ġêĺ Ħ
Ġêĺ Ĩ
Ġè± §
Ġè± ķ
Ġè± Ľ
Ġéĳ §
Ġéĳ ¸
Ġéĳ »
Ġä² ª
Ġä² ³
Ġä² Ģ
Ġä² ĸ
ĠåĶ ®
ĠåĶ ¸
ĠåĶ Ģ
ĠåĶ Ĵ
ĠåĶ Ł
ĠêĬ ª
ĠêĬ ±
ĠêĬ º
ĠêĬ Ĥ
ĠêĬ Ķ
ĠãĽ ¿
ĠãĽ ĳ
ĠãĽ ĺ
ĠãĽ Ł
ĠèŃ ĥ
Ġçķ ª
Ġçķ Ŀ
Ġà´ ©
Ġà´ µ
Ġà´ ¶
Ġà´ ĩ
Ġà´ ī
Ġà´ Ĭ
Ġà´ ĸ
Ġîĺ ¶
Ġîĺ ½
Ġîĺ Ģ
Ġîĺ Ĥ
Ġîĺ ı
Ġèķ ª
Ġèķ ®
Ġèķ ¼
Ġèķ ĥ
Ġèķ ĸ
Ġèķ Ļ
Ġèķ ļ
Ġéł Ĥ
Ġéł Ī
Ġéł ĵ
Ġçµ ¢
Ġçµ ª
Ġçµ ®
Ġçµ ³
Ġâ° ±
Ġâ° ¿
Ġâ° ħ
Ġãµ ±
Ġãµ ¼
Ġãµ Ĩ
Ġãµ ĸ
Ġàª ¨
Ġàª ©
Ġàª Ĺ
ĠäĽ ¹
ĠäĽ Ģ
ĠäĽ ī
ĠäĽ Į
Ġé½ ¿
Ġé½ Ĩ
Ġè¾ ¨
Ġè¾ ²
Ġè¾ Ĺ
Ġè¾ Ł
Ġè¾ ł
Ġä· ·
Ġä· ¼
Ġä· ī
Ġéĸ §
Ġéĸ ¬
Ġéĸ »
Ġè· ´
Ġè· ¶
Ġè· º
Ġè· ĩ
Ġä° ¨
Ġä° ©
Ġä° ¹
Ġä° º
Ġä° ½
ĠãĿ ¥
ĠãĿ ¶
ĠæĬ ¾
Ġêİ «
Ġêİ İ
Ġé¤ ¢
Ġçª ¬
Ġçª ·
Ġçª Ĩ
Ġçª Ł
Ġå½ ¬
Ġå½ °
Ġå½ ¶
Ġå½ »
Ġïµ ª
Ġïµ ²
Ġïµ Ĳ
Ġïµ Ĺ
Ġêĳ ¥
Ġêĳ §
Ġêĳ ¯
Ġêĳ Ĵ
Ġä´ µ
Ġè¨ Ģ
Ġèİ ª
Ġèİ ®
Ġèİ ¶
Ġèİ Ł
Ġæ¥ ¤
Ġæ¥ §
Ġæ¥ ¨
Ġæ¥ ²
Ġæ¥ º
Ġæ¥ ¼
Ġæ¥ ļ
Ġî± ¸
Ġî± Ł
Ġé¹ ®
Ġé¹ Ķ
Ġé¹ Ń
Ġâ½ «
Ġâ½ µ
Ġâ½ ¾
Ġâ½ ĩ
Ġæ¤ ¢
Ġæ¤ ¤
Ġæ¤ ľ
Ġæ¤ Ł
Ġèģ º
Ġèģ ĵ
Ġèģ ĺ
Ġã± ¡
Ġã± º
Ġã± Ń
Ġîł ¥
Ġîł Ĥ
Ġîł Ħ
Ġîł Ń
Ġèĵ Į
Ġèĵ Ľ
Ġèĵ Ł
Ġåĩ ¡
Ġåĩ ³
Ġåĩ ¶
Ġåĩ ĳ
Ġåĩ ļ
Ġâ¼ ¢
Ġâ¼ ħ
Ġâ¿ £
Ġâ¿ ©
Ġâ¿ Ħ
Ġá¶ §
Ġá¶ °
Ġá¶ ³
Ġá¶ ·
Ġá¶ į
Ġá¶ Ł
ĠãĤ ¡
ĠãĤ £
ĠãĤ »
ĠãĤ ĸ
ĠãĤ ĺ
Ġèŀ ª
Ġå¤ §
Ġå¤ ·
Ġå¤ į
ĠåĹ »
ĠåĹ ģ
Ġî¢ ĩ
Ġî¢ Ľ
Ġî¢ Ń
Ġçģ ¸
Ġçģ Ĳ
Ġæĭ Į
Ġæĭ ķ
ĠéŃ ¬
ĠéŃ ´
ĠéŃ ¸
ĠéŃ Ħ
ĠêĹ £
ĠêĹ ª
ĠêĹ Ī
ĠáĽ ©
ĠáĽ ¼
ĠáĽ ½
ĠáĽ ģ
ĠáĽ Ķ
ĠáĽ Ĺ
Ġã´ µ
Ġã´ Ĩ
Ġã´ Ł
Ġã´ ł
Ġæ¦ ª
Ġæ¦ µ
Ġæ¦ Ĵ
Ġæ¦ ķ
Ġæ¦ ļ
ĠæĽ ¿
ĠæĽ İ
ĠæĽ Ĳ
ĠæĽ Ĺ
ĠæĽ ŀ
Ġãħ ¨
Ġãħ ĩ
Ġãħ į
Ġãħ ķ
Ġãħ Ľ
Ġãħ ŀ
Ġãį £
Ġãį ²
Ġæ² µ
Ġæ² Ĵ
Ġæ² Ľ
Ġæ² Ń
Ġæ¡ ¿
Ġæ¡ Ĵ
Ġîħ «
Ġîħ °
Ġîħ į
Ġîħ Ĵ
Ġîħ Ķ
ĠèĬ ±
ĠèĬ Ĩ
ĠèĬ ķ
ĠèĬ Ľ
ĠåĿ ´
ĠåĿ Ī
ĠåĿ Ľ
Ġïķ Ģ
Ġïķ ĩ
Ġïķ Ľ
Ġê¬ §
Ġê¬ ·
Ġê¬ º
Ġê¬ ĭ
Ġê¬ ı
Ġáµ ¦
Ġáµ ´
Ġè¡ ³
Ġè¡ ¹
Ġè¡ ĳ
Ġêı ¢
Ġêı ¨
Ġêı ©
Ġêı Ĺ
Ġïĸ ³
Ġïĸ ¹
Ġé± ´
Ġé± ĥ
Ġé± ī
Ġé± ı
Ġé± ĺ
ĠèĦ µ
ĠèĦ ĩ
ĠèĦ Ķ
Ġâ³ ©
Ġâ³ ¹
Ġâ³ Ĵ
Ġæ¨ ĳ
Ġé° Ģ
Ġè¿ ¨
Ġè¿ Ĵ
Ġè¿ Ļ
Ġåª ¯
Ġåª µ
Ġåª ¹
Ġï¾ ²
Ġï¾ ´
Ġï¾ Ĭ
Ġã© Ĵ
Ġã© Ļ
Ġåĳ ¤
Ġåĳ ¨
Ġåĳ Į
Ġåĳ Ŀ
Ġä¾ ¯
ĠåĬ ¥
ĠåĬ ³
ĠåĬ Ĥ
ĠåĬ ļ
ĠêĮ ĭ
ĠêĮ Ľ
Ġå¸ ·
Ġå¸ ħ
Ġå¸ İ
Ġå¸ ķ
Ġêħ ¦
Ġêħ ½
Ġêħ ĵ
Ġêħ ŀ
ĠïĿ ¤
ĠïĿ ¨
ĠïĿ «
ĠïĿ ħ
Ġäħ §
Ġäħ ²
Ġäħ ¸
Ġäħ »
Ġäħ ķ
Ġçį «
Ġçį ļ
ĠèĲ į
ĠèĲ Ļ
ĠèĲ ļ
Ġêĥ ±
Ġêĥ Ĩ
ĠâĮ ĭ
ĠâĮ ı
Ġæ« ¾
Ġæ« Ŀ
Ġé¿ ©
Ġé¿ µ
Ġéį ¦
Ġéį ³
Ġéį ¸
Ġéį ¼
Ġéį ½
ĠèĢ İ
ĠèĢ ı
Ġå© ¼
Ġå© Ī
Ġå© ī
Ġå© Ĭ
Ġå® ¾
Ġå® Ī
Ġå® ł
Ġå® Ń
ĠæĨ ¥
ĠæĨ ¹
ĠæĨ Ĩ
ĠæĨ į
ĠæĨ Ĵ
ĠæĨ Ł
Ġéľ Ĥ
Ġèļ £
Ġèļ ¶
Ġê¡ ®
Ġê¡ ĺ
Ġê¡ ł
Ġâ¯ ĥ
Ġâ¯ Ĭ
ĠãĨ ¦
ĠãĨ ľ
ĠãĨ ŀ
Ġîļ °
Ġîļ Ĵ
Ġîļ ļ
Ġà¨ ¦
Ġà¨ ´
Ġà¨ ½
Ġä« »
Ġé¬ °
Ġé¬ ¸
Ġâ¦ ¦
Ġâ¦ ª
Ġâ¦ ³
Ġâ¦ Ģ
Ġâ¦ Ĺ
Ġîĩ ĵ
Ġîĩ ķ
Ġà¹ ª
Ġà¹ ¯
Ġà¹ ·
Ġà¹ »
Ġà¹ ľ
Ġî¬ ¶
Ġî¬ º
Ġî¬ ł
Ġéĩ ¥
Ġéĩ ĥ
Ġéĩ ĩ
Ġéĩ ĵ
Ġéĩ Ł
Ġî© ©
Ġî© «
Ġî© į
Ġï· ®
Ġï· İ
Ġï· ı
Ġï· Ĳ
Ġïĥ ĥ
Ġïĥ Ĭ
Ġïĥ ĳ
Ġî¦ ·
Ġî¦ º
Ġî¦ Į
Ġî¦ Ļ
Ġåľ ®
Ġåľ ¸
Ġåľ Ģ
Ġåľ Ĩ
Ġåľ ı
Ġåľ ĺ
Ġê¤ ĵ
Ġï¼ ¤
Ġï¼ ¨
Ġï¼ ı
ĠæŃ ´
ĠæŃ Ĺ
ĠæŃ Ł
Ġîī ±
Ġîī Ļ
ĠåĻ Ĥ
Ġá¡ ¤
Ġá¡ ¼
Ġá¡ ¾
Ġáķ ķ
Ġî¼ £
Ġî¼ ®
Ġá´ ¨
Ġá´ ¶
Ġá´ İ
Ġå¹ º
Ġå¹ ĩ
Ġå¹ ļ
ĠéĴ ¼
ĠéĴ Ħ
ĠéĴ Ĳ
ĠéĴ ĺ
ĠéĴ ľ
Ġâ¸ ¬
Ġâ¸ ²
Ġâ¸ ¾
Ġâ¸ Ĵ
Ġî» ®
Ġî» º
Ġî» ļ
Ġæ½ ģ
Ġæ½ İ
ĠêĶ ĥ
ĠêĶ ħ
ĠêĶ ĩ
ĠêĶ Ĵ
ĠêĶ Ľ
Ġä¶ ¶
Ġä¶ ī
Ġãļ £
Ġãļ ©
Ġè¦ ¿
Ġè¦ ģ
Ġè¦ Ī
Ġè¦ Ļ
Ġä³ ¥
Ġä³ §
Ġä³ ®
Ġä³ ·
Ġä³ ī
Ġäµ ¡
Ġäµ ±
Ġäµ Ĩ
ĠèĹ ¢
ĠèĹ ©
ĠäŃ ¼
ĠæĮ £
ĠæĮ ½
ĠæĮ ĥ
ĠæĮ ĳ
ĠæĮ ĸ
Ġå´ ·
Ġå´ ĭ
Ġå¼ ¥
Ġå¼ ¦
Ġå¼ İ
Ġå¼ Ļ
ĠéĹ ´
ĠéĹ ¿
ĠéĹ İ
ĠéĹ Ŀ
ĠéĽ ©
ĠéĽ Ĵ
ĠéĽ ĵ
ĠêĦ ¸
ĠêĦ ¾
ĠêĦ İ
ĠêĦ ĳ
ĠêĦ Ķ
ĠêĦ ĺ
ĠêĦ ļ
Ġà¶ Ĭ
Ġà¶ ĸ
Ġà¶ ĺ
Ġà¶ ľ
Ġà¶ Ŀ
Ġãľ ĥ
Ġãľ Į
Ġå¢ ¯
Ġå¢ Ĥ
Ġå¢ Ĳ
Ġå¢ Ļ
Ġäī ¤
Ġäī Ķ
Ġäł ĭ
Ġäł ĵ
Ġæ¼ ĥ
Ġæ¼ į
Ġæ¼ ĸ
Ġå· «
Ġå· ¶
Ġå· ¿
Ġå· į
Ġïĳ »
Ġïĳ ģ
Ġïĳ Ĥ
Ġïĳ ĳ
Ġæĩ ĳ
Ġæĩ Ĺ
Ġæĩ ł
ĠèĮ Ľ
ĠåŁ ı
ĠåŁ Ĵ
Ġîª ¾
Ġîª ĸ
Ġèµ £
Ġèµ ¨
Ġèµ ±
Ġèµ ¶
Ġèµ ĭ
Ġåĺ ģ
Ġêª ¡
Ġêª ¶
Ġêª ŀ
ĠâŃ ¨
ĠâŃ ¯
ĠâŃ º
ĠâŃ Ķ
ĠâŃ ĺ
Ġè½ ¥
Ġè½ İ
Ġèĩ ¤
Ġèĩ ´
Ġèĩ Ŀ
Ġâ© ¡
Ġâ© ¨
Ġâ© ½
Ġâ© İ
Ġâ© ļ
Ġæī ³
Ġæī Ģ
Ġæī ĩ
Ġæī Ļ
ĠîĮ Ĥ
ĠîĮ Ħ
ĠîĮ Ĩ
ĠîĮ ı
ĠæĦ ¬
ĠæĦ ´
ĠæĦ ¾
ĠæĦ Ħ
ĠæĦ Ĺ
Ġç© ¥
Ġç© §
Ġåĭ ³
Ġåĭ ĸ
Ġãķ ¡
Ġãķ ļ
ĠäĪ µ
ĠäĪ º
ĠäĪ ģ
ĠäĪ Ŀ
Ġî³ Ŀ
Ġîĥ ¦
Ġîĥ ¯
Ġîĥ İ
ĠîĲ µ
ĠîĲ »
ĠîĲ Ģ
ĠîĲ Ĵ
ĠîĲ Ŀ
ĠåĽ Ĥ
ĠåĽ Ĩ
ĠåĽ ĵ
ĠêĽ ħ
ĠêĽ ĵ
ĠêĽ Ļ
ĠêĽ ļ
ĠêĽ Ŀ
ĠïĹ ĳ
ĠïĹ Ļ
Ġáİ ¸
Ġáİ Ĥ
Ġáİ į
Ġä¡ ª
Ġä¡ ·
Ġä¡ ģ
Ġä¡ Ł
Ġä© °
Ġä© ³
Ġä© º
Ġä© »
Ġä© ¾
Ġä© ĸ
Ġä© ľ
Ġæª ½
Ġæĥ «
Ġæĥ ¸
Ġæĥ »
Ġæĥ Ķ
Ġç± ±
Ġç± ¿
ĠïĮ ¯
ĠïĮ Ĭ
ĠïĮ ı
ĠïĮ ĵ
ĠïĮ ĸ
Ġç® §
Ġç® ı
Ġç® ļ
Ġà¡ ¹
Ġæ® ´
Ġæ® ħ
Ġæ® ı
Ġæ® Ľ
Ġéħ ¤
Ġéħ ®
Ġéħ ĺ
Ġç° §
Ġç° ½
ĠçĴ ¤
ĠçĴ ¬
ĠçĴ ī
ĠçĴ Ń
Ġåī ©
Ġåī ĺ
Ġåī ľ
Ġá® ¯
Ġá® ¼
Ġá® Į
Ġá® ł
Ġï£ ģ
Ġï£ Ł
Ġï² ħ
Ġï² Ĵ
Ġï² ĵ
Ġï² Ļ
Ġï² ļ
Ġâ¨ §
Ġâ¨ ª
Ġâ¨ °
Ġàº §
Ġàº ª
Ġàº «
Ġàº ¿
Ġàº Ĳ
Ġàº ĺ
ĠêĤ İ
ĠêĤ ķ
Ġä¼ £
Ġä¼ ¼
Ġä¼ ½
Ġä¼ İ
Ġèĸ °
Ġèĸ ĵ
Ġã¼ ¢
Ġã¼ ª
Ġã¼ Ĭ
Ġã¼ į
Ġã¼ İ
Ġî¨ µ
Ġî· ĺ
Ġç¡ ¬
Ġç¡ ¿
Ġê« ±
Ġê« ³
Ġé£ ²
Ġé£ Ĵ
Ġéĭ Ķ
Ġéĭ ŀ
Ġèĥ ¥
Ġèĥ ª
Ġèĥ ¯
Ġèĥ ¿
Ġèĥ ł
Ġèĳ ¿
Ġèĳ Ħ
ĠåĢ ®
ĠåĢ Ľ
ĠåĢ ł
Ġà¦ ·
Ġà¦ Ħ
Ġä¯ ¨
Ġä¯ ¸
Ġä¯ Ģ
Ġä¯ ģ
Ġä¯ Ń
ĠïĪ ¬
ĠïĪ »
ĠïĪ Ĭ
ĠåĪ °
Ġïł §
Ġïł ¼
Ġïł ķ
Ġà² ´
Ġà² ¶
Ġà² Ī
Ġà² Į
Ġà² į
Ġà² Ĵ
Ġà² Ľ
ĠäĨ ³
ĠäĨ Ĭ
ĠäĨ ĵ
ĠéĢ «
ĠéĢ ¹
Ġè¸ µ
Ġè¸ Ĥ
Ġè¸ ĳ
Ġè¸ ļ
Ġè» ¾
Ġè» ĺ
Ġè» ŀ
Ġä½ ¢
Ġä½ ĸ
ĠãĲ Ļ
ĠçĿ Ľ
Ġèĭ Ģ
Ġèĭ ŀ
Ġï° »
Ġï° ¼
Ġï° ¾
Ġã½ ©
Ġã½ ³
Ġã½ µ
Ġã½ º
Ġã½ Ĩ
Ġã½ Ĳ
ĠçĹ ¸
ĠçĹ ¿
ĠçĹ Ĳ
ĠçĹ ĳ
ĠçĹ ĸ
ĠçĹ Ĺ
ĠêĲ ī
Ġä¿ ĵ
Ġä¿ ľ
Ġåĵ Ĵ
Ġåĵ Ł
Ġïħ ¦
Ġîµ ©
Ġîµ ĭ
Ġîµ İ
Ġçī Ģ
Ġé¥ ª
Ġé¥ Ī
Ġé¥ ĵ
Ġé¥ Ķ
Ġé¥ ķ
Ġâ¢ ²
Ġâ¢ »
Ġâ® ¯
Ġâ® ¾
Ġâ® ĸ
Ġâ® Ł
Ġæ¿ ĩ
Ġæ¿ Ĳ
Ġî¹ ¦
Ġî¹ ª
Ġî¹ ¬
Ġî¹ į
Ġî¹ Ł
ĠéĨ Ķ
ĠçĬ Ĭ
Ġà» ¯
Ġà» Ĳ
Ġæ© ¢
Ġç¸ ķ
Ġïº ©
Ġïº Ŀ
Ġáĳ ¾
Ġç¼ Ĺ
Ġáĺ ®
Ġáĺ ´
Ġáĺ ģ
ĠîĽ ¶
ĠîĽ ĥ
Ġé¨ «
Ġé¨ Į
Ġé¨ Ŀ
Ġé© ¡
Ġé© ¨
Ġé© ª
Ġé© ´
Ġé© »
Ġé© ı
Ġé© Ļ
Ġé² ¤
Ġé² Ĳ
Ġé² ļ
Ġé² Ľ
Ġç¦ ©
Ġç¦ ģ
Ġç¦ ı
Ġï± ¢
Ġï± ¦
Ġï± §
Ġï¹ §
Ġï¹ ¹
Ġï¹ ½
Ġï¹ Ŀ
ĠçĢ ¡
ĠçĢ ī
ĠçĢ Ĳ
ĠçĢ ł
Ġãĭ ¤
ĠãĴ ¢
ĠãĴ ¥
ĠãĴ ²
ĠãĴ ¶
ĠãĴ Ģ
ĠãĴ ĺ
Ġî¾ §
Ġî¾ ģ
Ġî¾ ı
Ġî¾ ĸ
Ġïĵ °
Ġïĵ ±
Ġïĵ Ģ
Ġïĵ ķ
ĠîĹ ©
ĠîĹ ¹
ĠçĪ ª
ĠçĪ ģ
ĠçĪ Ī
ĠçĪ Ļ
Ġê¥ ¬
Ġê¥ Ł
Ġê¥ ł
Ġã° ¹
Ġã° ķ
Ġà« ¤
Ġà« ¸
Ġà« ¾
Ġé« ¼
ĠãĬ ®
ĠãĬ ´
ĠãĬ Į
Ġå¡ ¼
Ġå¡ ĳ
Ġå¡ Ĺ
ĠéĬ ¦
ĠéĬ ī
Ġê© ¤
Ġê© ®
Ġê© ´
Ġê© Ģ
Ġê© ĳ
Ġê© ķ
Ġå° º
Ġå° ĵ
Ġåİ ĥ
Ġåİ Ĩ
Ġåİ ĭ
Ġåİ Ļ
Ġã¡ ©
Ġçĭ º
Ġçĭ Ł
ĠåŃ ¹
ĠåŃ ħ
Ġá« ¦
Ġá« ¼
Ġá« Ī
Ġá« ı
ĠáĲ ¶
ĠáĲ ĳ
Ġæ¬ ³
ĠæĶ ¬
ĠæĶ µ
ĠæĶ Ķ
ĠæĶ Ļ
ĠçĨ Ģ
Ġå£ ·
Ġå£ º
Ġå£ Ĵ
Ġçĩ µ
Ġçĩ ·
Ġçĩ Ĺ
Ġçĩ ľ
Ġï³ ²
Ġï³ ¶
Ġï³ Ģ
Ġà¬ ¡
Ġà¬ ´
Ġà¬ ¶
Ġà¬ ļ
Ġà¬ Ľ
ĠêĨ ¸
ĠêĨ ¹
ĠêĨ ī
ĠáĬ Į
ĠèĽ ħ
ĠèĽ Ŀ
ĠïĲ Ń
Ġáĸ į
Ġáĭ ª
Ġáĭ Ĺ
Ġáĭ Ń
Ġáĵ İ
Ġà¢ Ģ
Ġà¢ ĺ
Ġãĸ ¿
Ġãĸ Į
ĠîĪ ¥
ĠîĪ µ
ĠîĪ Ī
ĠîĪ į
Ġäĸ ²
Ġäĸ Į
Ġäĸ į
Ġäĸ ĳ
ĠäĹ ª
ĠäĹ «
Ġã¤ ¢
Ġã¤ ĥ
Ġî¸ ¹
Ġî¸ ħ
Ġî¸ İ
Ġç¥ ¶
Ġç¥ Ĺ
ĠïĦ ĭ
Ġä¦ ŀ
Ġäĩ £
Ġäĩ Ģ
Ġäĩ Ŀ
Ġæ° ¯
Ġæ° »
Ġæ° ¾
Ġæ° ħ
Ġæ° ķ
Ġæł ¡
Ġæł ¬
Ġæł Ń
Ġî° Ģ
Ġêģ ´
Ġêģ µ
Ġêģ ĩ
Ġêģ ĺ
Ġáĩ ħ
Ġà® §
Ġà® ½
ĠãŃ ¢
ĠãŃ »
ĠåĤ ¹
ĠåĤ ģ
ĠåĤ ī
ĠåĤ ŀ
Ġé¡ ĵ
Ġé¡ Ľ
Ġé¡ ł
ĠïĢ Ń
Ġï´ ·
Ġï´ »
Ġïĺ ¸
Ġïĺ ¹
Ġïĺ ĩ
Ġïĺ ĸ
Ġáį £
Ġáį §
Ġã¬ ¦
Ġåĥ ©
Ġåĥ ĳ
Ġé³ ©
Ġé³ ·
Ġé³ Ĥ
Ġé³ Ĺ
Ġãī Ī
ĠåĴ §
ĠåĴ ĩ
Ġá£ ¤
Ġá£ ģ
Ġá£ Ĥ
ĠéĲ ¥
ĠéĲ ¿
ĠåĨ §
ĠåĨ Ģ
ĠåĨ į
Ġã¨ ¥
Ġã¨ ¹
Ġãĩ ½
Ġãĩ Ľ
ĠãĢ ľ
Ġîĭ º
Ġîĭ ģ
Ġåĸ ĥ
Ġåĸ Ĳ
Ġêĭ §
Ġêĭ «
Ġêĭ ¶
Ġêĭ ĳ
Ġç³ ´
Ġç³ »
ĠáĮ Ĥ
Ġè¹ º
Ġè¹ ¿
Ġè¹ Ħ
Ġè¹ Ĩ
Ġè¹ Ĭ
Ġè¹ ŀ
ĠãĹ Ģ
ĠãĹ į
Ġîĸ Ī
Ġïľ ¾
Ġïľ Ĳ
Ġïľ ķ
ĠéĪ »
ĠéĪ ħ
ĠéĪ ĳ
Ġç£ ®
Ġç£ Į
Ġç£ Ĵ
Ġç£ Ń
Ġå« «
Ġå« ĭ
Ġå« ĸ
ĠïĶ ®
ĠïĶ ±
Ġî² °
Ġêł ģ
Ġêł ĥ
Ġêł Ĭ
Ġàµ ®
Ġàµ ·
Ġàµ ¾
ĠèĨ ¼
Ġä® ĸ
Ġéī ª
Ġéī ¶
Ġéī ŀ
Ġæ¢ ¸
Ġæ¢ ĺ
Ġè¼ ¦
Ġè¼ ±
Ġè¼ ĭ
ĠãĻ Ķ
ĠãĻ Ŀ
Ġêĩ §
Ġï¡ £
Ġï¡ Ł
ĠãĪ ¤
ĠãĪ ´
ĠãĪ į
ĠãĪ ŀ
ĠãĪ Ń
Ġåģ ¸
Ġåģ º
Ġåģ ĥ
Ġé¼ ¦
Ġé¼ ¶
Ġé¼ Ĥ
Ġé¼ ı
Ġåŀ µ
Ġåŀ İ
ĠáĻ ľ
ĠéĦ Ĥ
Ġê¯ ·
Ġê¯ ¸
Ġê¯ ģ
Ġê¯ ĥ
Ġê¯ Į
Ġê¯ ĳ
Ġê¯ Ķ
Ġê¯ ķ
Ġáļ ¢
Ġáļ µ
Ġáļ ŀ
Ġå¨ ¯
Ġå¨ ±
Ġå¨ ķ
Ġáī ²
Ġáī ī
Ġáī ľ
Ġã¥ ²
Ġã¥ ¼
Ġã¥ ļ
Ġã¥ Ŀ
Ġã¥ ł
Ġá¥ ¢
Ġá¥ Ĩ
Ġá¥ ĭ
Ġá¥ ķ
Ġç« ¡
Ġç« ½
Ġâł Ĭ
Ġâł Ĳ
ĠáĹ µ
ĠáĹ Į
ĠáĹ ŀ
ĠéĶ ĳ
Ġáł ¬
Ġáł ī
Ġáł Ķ
Ġáł ķ
Ġæ¯ £
Ġæ¯ ª
Ġç¬ į
ĠáĿ ®
ĠáĿ ¯
ĠáĿ ¾
ĠáĿ ł
Ġçł ®
Ġçł »
Ġçł Į
Ġïĭ ª
Ġïĭ µ
Ġïĭ Ŀ
Ġáħ ł
ĠáĨ «
Ġáľ ª
Ġáľ ±
Ġáľ ļ
Ġáľ ľ
ĠêĢ Ī
ĠêĻ į
Ġç¤ ¦
Ġç¤ ¯
Ġç¤ Ł
ĠèĪ Ĥ
ĠèĪ ı
Ġà¼ İ
Ġà¼ ĳ
ĠïŃ £
ĠïŃ §
ĠïŃ ¿
ĠïŃ Ŀ
Ġãł §
ĠïĽ Ģ
ĠïĽ Ļ
Ġà³ ¬
Ġà³ °
Ġà³ ±
Ġéķ ®
Ġçĸ ¼
ĠïĻ İ
ĠïĻ ĸ
Ġçĺ Ĥ
Ġåł İ
Ġåł Ĵ
Ġáĥ ®
Ġáĥ ĳ
Ġà§ »
Ġà§ ¿
Ġáŀ ¡
Ġáŀ £
Ġáŀ į
Ġáŀ ķ
Ġáŀ Ļ
Ġà° ¤
Ġà° µ
Ġê¦ Ĩ
Ġê¦ ı
Ġê¦ Ĺ
Ġê¢ ī
Ġê¢ ĸ
ĠàŃ »
ĠàŃ ¼
ĠàŃ Ķ
Ġà© ¦
Ġà© ī
Ġà© Ĺ
Ġà¯ ³
Ġà¯ ´
ĠáĴ ¹
ĠáĴ ĺ
ĠáĴ ļ
ĠáŃ ĭ
Ġà· ¸
Ġê£ ¿
Ġê¨ §
Ġê¨ ľ
Ġï¬ Ĥ
ĠáĦĨáħ¨áĨ ¼
Ġà¥ ¹
Ġà¥ º
Ġà± ¥
Ġà± ¾
ĠáĤ Ĵ
Ġá¤ ģ
Ġá¤ Ĭ
Ġá¤ Ļ
ĠáĦĨáħ³áĨ ¯
Ġá¬ į
Ġï« Ŀ
Ġï« Ń
ĠáĦĨáħ©áĨ «
ĠáĦĨáħ©áĨ ½
Ġá° Ĳ
Ġá° Ĵ
Ġá° ĺ
Ġá° Ł
ĠáĦĬáħ¯áĨ ²
ĠáĦħáħªáĨ ¬
ĠáĢ §
ĠáĢ ¨
ĠáĢ Ķ
ĠáĢ Ļ
Ġàł Ķ
Ġáģ Ĭ
ĠáĦĥáħ¨áĨ °
ĠáĦĥáħ¨áĨ ±
Ġíŀ «
Ġíŀ »
Ġá³ Ĥ
Ġá³ į
Ġá³ ĵ
Ġâ· ĩ
Ġâ· ī
Ġâ· ĸ
Ġâ· ŀ
ĠáŁ ¥
ĠáŁ ½
ĠáĦħáħ«áĨ ª
ĠáĦħáħ«áĨ ¾
ĠáĦģáħ£áĨ ·
ĠáĦĭáħ´áĨ ¹
ĠáĦĨáħ²áĨ ª
ĠáĦĨáħ²áĨ ±
ĠáĦĨáħ²áĨ ¸
ĠáĦĨáħ²áĨ ¾
ĠáĦĳáħ¦áĨ ª
ĠáĦħáħ¤áĨ «
ĠáĦħáħ¤áĨ ³
ĠáĦĭáħ³áĨ ©
ĠáĦģáħŃáĨ ±
ĠáĦģáħŃáĨ µ
ĠáĦĢáħ®áĨ ¯
ĠáĦĢáħ®áĨ °
ĠáĦĢáħ®áĨ ³
ĠáĦĮáħŃáĨ ¯
ĠáĦĮáħŃáĨ °
ĠáĦĮáħŃáĨ ½
ĠáĦĳáħ¨áĨ º
ĠáĦĳáħ§áĨ ¹
ĠáĦĥáħ¦áĨ ª
ĠáĦĥáħ¦áĨ Ń
ĠáĦĬáħ¨áĨ ¹
ĠáĦĬáħ¥áĨ ¶
ĠáĦĭáħ«áĨ ·
ĠáĦĮáħ®áĨ ¨
ĠáĦĮáħ®áĨ «
ĠáĦĮáħ®áĨ º
ĠáĦĮáħ®áĨ ¼
ĠáĦĬáħ§áĨ ´
Ġï¸ »
Ġï¸ ½
ĠáĦģáħ¤áĨ ª
ĠáĦģáħ¤áĨ ®
ĠáĦģáħ¤áĨ ¼
ĠáĦĢáħ°áĨ ¶
ĠáĦģáħ¦áĨ ®
ĠáĦĩáħ«áĨ °
ĠáĦĪáħ¦áĨ ¼
ĠáĦħáħ¡áĨ ±
ĠáĦģáħ«áĨ «
ĠáĦįáħ¯áĨ ¶
ĠáĦĨáħ±áĨ ¬
ĠáĦĥáħªáĨ ¿
ĠáĦĴáħ³áĨ ²
ĠáĦĮáħ¬áĨ ¬
ĠáĦįáħ®áĨ ³
ĠáĦįáħ®áĨ »
ĠáĦİáħ£áĨ ª
ĠáĦİáħ£áĨ ²
ĠáĦİáħ£áĨ ¶
ĠáĦİáħ£áĨ Ń
ĠáĦĮáħ¢áĨ ²
ĠáĦħáħ´áĨ ª
ĠáĦħáħ´áĨ º
ĠáĦħáħ´áĨ ¼
ĠáĦĭáħµáĨ ©
ĠáĦĭáħµáĨ «
ĠáĦĭáħµáĨ ®
ĠáĦĨáħ§áĨ »
ĠáĦĭáħ¨áĨ «
ĠáĦĭáħ¨áĨ ·
ĠáĦĮáħ²áĨ ¸
ĠáĦĢáħ¯áĨ ¯
ĠáĦħáħ£áĨ ¿
ĠáĦįáħ±áĨ ©
ĠáĦįáħ±áĨ ²
ĠáĦįáħ±áĨ µ
ĠáĦįáħ±áĨ º
ĠáĦĬáħ³áĨ ¯
ĠáĦĩáħ²áĨ µ
ĠáĦĩáħ²áĨ ¹
ĠáĦĦáħ°áĨ ®
ĠáĦĦáħ°áĨ º
ĠáĦĳáħŃáĨ ²
ĠáĦĳáħŃáĨ »
ĠáĦħáħ¢áĨ Ń
ĠáĦģáħªáĨ ¸
ĠáĦģáħªáĨ »
ĠáĦģáħªáĨ ¾
ĠáĦħáħ¬áĨ «
ĠáĦħáħ¬áĨ ¸
ĠáĦİáħ©áĨ ª
ĠáĦİáħ©áĨ ¯
ĠáĦİáħ©áĨ ¸
ĠáĦİáħ©áĨ ¾
ĠáĦİáħªáĨ »
ĠáĦĨáħ«áĨ µ
ĠáĦĭáħ¢áĨ Ń
ĠáĦĪáħµáĨ «
ĠáĦĪáħµáĨ ¯
ĠáĦĬáħ«áĨ ¬
ĠáĦıáħ¬áĨ ¸
ĠáĦĨáħµáĨ ¬
ĠáĦĨáħµáĨ Ń
ĠáĦĬáħ®áĨ «
ĠáĦĬáħ®áĨ ¹
ĠáĦĢáħµáĨ ´
ĠáĦĩáħ°áĨ ±
ĠáĦĩáħ°áĨ ½
ĠáĦĢáħ²áĨ ´
ĠáĦįáħ²áĨ ¬
ĠáĦįáħ²áĨ ¯
ĠáĦİáħ¬áĨ ©
ĠáĦĴáħ¬áĨ °
ĠáĦĴáħ¬áĨ ³
ĠáĦĴáħ¬áĨ ¿
ĠáĦģáħ¢áĨ °
ĠáĦĨáħŃáĨ ¨
ĠáĦĥáħ¥áĨ ³
ĠáĦĥáħ¥áĨ ¶
ĠáĦĥáħ¥áĨ ·
ĠáĦĳáħ¥áĨ ª
ĠáĦĩáħ´áĨ ³
ĠáĦĩáħ´áĨ ¾
ĠáĦĦáħ®áĨ ¨
ĠáĦĬáħ¦áĨ ½
ĠáĦıáħ£áĨ ¿
ĠáĦįáħ«áĨ ²
ĠáĦįáħ«áĨ ¶
ĠáĦĨáħ°áĨ ¨
ĠáĦĨáħ°áĨ ¬
ĠáĦĨáħ°áĨ ±
ĠáĦģáħ¯áĨ ¹
ĠáĦĬáħ°áĨ Ń
ĠáĦĪáħ¬áĨ ½
ĠáĦĪáħ¬áĨ Ń
ĠáĦģáħ§áĨ ±
ĠáĦģáħ§áĨ ³
ĠáĦĭáħ¦áĨ ª
ĠáĦĭáħ¦áĨ ¬
ĠáĦĭáħ¦áĨ °
ĠáĦĭáħ¦áĨ µ
ĠáĦĭáħ¦áĨ ¾
ĠáĦĳáħ¤áĨ ´
ĠáĦĳáħ¤áĨ ¸
ĠáĦĬáħ©áĨ º
ĠáĦĬáħ©áĨ ¿
ĠáĦīáħ´áĨ ²
ĠáĦīáħ´áĨ ³
ĠáĦīáħ´áĨ º
ĠáĦĪáħŃáĨ µ
ĠáĦĭáħ²áĨ ³
ĠáĦĭáħ²áĨ ¾
ĠáĦĭáħ£áĨ ©
ĠáĦĥáħ³áĨ ±
ĠáĦĮáħ³áĨ ©
ĠáĦĮáħ³áĨ ±
ĠáĦĥáħ£áĨ ¶
ĠáĦĩáħ©áĨ ½
ĠáĦıáħ©áĨ ¼
ĠáĦĩáħ¯áĨ µ
ĠáĦĩáħ¯áĨ ¿
ĠáĦĲáħ¢áĨ º
ĠáĦĮáħ¥áĨ °
ĠáĦīáħ£áĨ ¾
ĠáĦģáħ¡áĨ ´
ĠáĦģáħ¡áĨ ¹
ĠáĦģáħ¡áĨ ½
ĠáĦĭáħ°áĨ ±
ĠáĦĴáħ±áĨ ®
ĠáĦįáħ¬áĨ º
ĠáĦĳáħ¡áĨ ª
ĠáĦĳáħ¡áĨ Ń
ĠáĦĢáħ©áĨ ¨
ĠáĦİáħµáĨ ®
ĠáĦİáħµáĨ ¯
ĠáĦİáħµáĨ ¿
ĠáĦģáħ®áĨ ¬
ĠáĦĮáħ£áĨ °
ĠáĦĮáħ£áĨ ·
ĠáĦĮáħ£áĨ ¾
ĠáĦħáħ¥áĨ ¯
ĠáĦħáħ¥áĨ ¸
ĠáĦĭáħŃáĨ ±
ĠáĦĭáħ±áĨ ¼
ĠáĦİáħ¡áĨ °
ĠáĦİáħ¡áĨ ´
ĠáĦİáħ¡áĨ ¶
ĠáĦİáħ¡áĨ Ń
ĠáĦĳáħ±áĨ «
Ġð¥ ³Ĳ
ĠáĦĮáħ§áĨ »
ĠáĦįáħ°áĨ µ
ĠáĦįáħ°áĨ ¿
ĠáĦĦáħ¯áĨ º
ĠáĦĬáħ±áĨ ©
ĠáĦįáħ³áĨ ©
ĠáĦįáħ³áĨ º
ĠáĦĤáħ¢áĨ ¯
ĠáĦģáħ°áĨ ¨
ĠáĦģáħ°áĨ ©
ĠáĦģáħ°áĨ ¯
ĠáĦĦáħŃáĨ ¶
ĠáĦĦáħŃáĨ Ń
Ġá© ĭ
Ġá© ĳ
ĠáĦĳáħ£áĨ °
ĠáĦĳáħ£áĨ ³
ĠáĦĳáħ£áĨ µ
ĠáĦīáħ±áĨ ª
ĠáĦīáħ±áĨ «
ĠáĦİáħ§áĨ ¨
ĠáĦĨáħ¯áĨ ¶
ĠáĦĨáħ¯áĨ ¿
ĠáĦĨáħ¯áĨ Ń
ĠáĦĨáħ¥áĨ ª
ĠáĦĢáħŃáĨ ´
ĠáĦİáħŃáĨ ¸
ĠáĦīáħ§áĨ ®
ĠáĦıáħ¨áĨ ¬
ĠáĦıáħ¨áĨ µ
ĠáĦıáħ¨áĨ ¶
ĠáĦıáħ¨áĨ ·
ĠáĦĬáħ¬áĨ »
ĠáĦįáħ§áĨ »
ĠáĦħáħ³áĨ ²
ĠáĦħáħ³áĨ º
ĠáĦħáħ³áĨ ¼
ĠáĦħáħ³áĨ ½
ĠáĦħáħ³áĨ ¾
ĠáĦĮáħ©áĨ ®
ĠáĦĳáħ¬áĨ ±
ĠáĦĪáħ£áĨ ®
ĠáĦĢáħ¬áĨ ²
ĠáĦĢáħ±áĨ ¯
ĠáĦĢáħ±áĨ °
ĠáĦĢáħ±áĨ ¹
ĠáĦĢáħ±áĨ ¾
ĠáĦĩáħ¤áĨ ¹
ĠáĦİáħ¨áĨ ©
ĠáĦİáħ¨áĨ «
ĠáĦİáħ¨áĨ ¬
ĠáĦīáħ°áĨ ¶
ĠáĦīáħ°áĨ »
ĠáĦĲáħ£áĨ ½
ĠáĦĩáħ£áĨ ¾
ĠáĦĢáħ³áĨ ´
ĠáĦįáħ¦áĨ ³
ĠáĦįáħ¦áĨ ¿
ĠáĦħáħ°áĨ «
ĠáĦĢáħªáĨ ¶
ĠáĦĴáħŃáĨ ®
ĠáĦĪáħ²áĨ ¸
ĠáĦĪáħ¯áĨ ¯
ĠáĦĪáħ¯áĨ °
ĠáĦĪáħ¯áĨ ½
ĠáĦıáħ²áĨ ª
ĠáĦıáħ²áĨ ³
ĠáĦĨáħ®áĨ ²
ĠáĦĴáħ°áĨ ª
ĠáĦĴáħ°áĨ °
ĠáĦĬáħ¡áĨ ¹
ĠáĦĭáħ¡áĨ ¨
ĠáĦīáħ©áĨ ©
ĠáĦīáħ©áĨ ·
ĠáĦīáħ¥áĨ ¨
ĠáĦīáħ¥áĨ ¼
ĠáĦĭáħ¯áĨ ¨
ĠáĦĭáħ¯áĨ ©
ĠáĦĭáħ¯áĨ ¬
ĠáĦĬáħ¢áĨ ¾
ĠáĦĦáħ¨áĨ ¶
ĠáĦİáħ¢áĨ ¸
ĠáĦĪáħ¡áĨ ª
ĠáĦĪáħ¡áĨ ±
ĠáĦĲáħ¡áĨ ©
ĠáĦĲáħ¡áĨ ³
ĠáĦĲáħ¡áĨ µ
ĠáĦĲáħªáĨ ³
ĠáĦĲáħªáĨ »
ĠáĦĪáħ¨áĨ ¸
ĠáĦıáħ«áĨ ¹
ĠáĦįáħ´áĨ ¬
ĠáĦĭáħ§áĨ ¼
ĠáĦĭáħ¤áĨ ®
ĠáĦĭáħ¤áĨ ±
ĠáĦĳáħ¯áĨ ·
ĠáĦĤáħ´áĨ ²
ĠáĦİáħ«áĨ Ń
ĠáĦĤáħ³áĨ ¬
ĠáĦĢáħ§áĨ ¨
ĠáĦĢáħ§áĨ ²
ĠáĦĢáħ§áĨ ¼
ĠáĦĢáħ§áĨ ½
ĠáĦĩáħ¡áĨ ´
ĠáĦĴáħ¦áĨ °
ĠáĦĴáħ¦áĨ ¸
ĠáĦīáħ«áĨ ¿
ĠáĦıáħ¢áĨ µ
ĠáĦıáħªáĨ ¨
ĠáĦıáħªáĨ ª
ĠáĦĲáħ¨áĨ ª
ĠáĦĲáħ¨áĨ ½
ĠáĦĥáħ¤áĨ ¨
ĠáĦįáħ©áĨ ±
ĠáĦĤáħ¤áĨ ²
ĠáĦĢáħ¤áĨ «
ĠáĦĨáħªáĨ º
ĠáĦĬáħ£áĨ ¼
ĠáĦĩáħ³áĨ ¯
ĠáĦĩáħ³áĨ ¹
ĠáĦĩáħ®áĨ ¬
ĠáĦĩáħ®áĨ ¸
ĠáĦĴáħªáĨ ¨
ĠáĦīáħ¦áĨ ¼
ĠáĦħáħ®áĨ ¨
ĠáĦħáħ®áĨ ·
ĠáĦįáħ£áĨ ¸
ĠáĦīáħ¨áĨ ´
ĠáĦīáħ¯áĨ »
ĠáĦīáħ¯áĨ ¾
ĠáĦĪáħ«áĨ ¶
ĠáĦĪáħ«áĨ Ń
ĠáĦĦáħ²áĨ ¹
ĠáĦĢáħ¡áĨ ¹
ĠáĦįáħ¥áĨ ¨
ĠáĦįáħ¥áĨ ¹
ĠáĦĢáħ¨áĨ °
ĠáĦĩáħ¦áĨ ¹
ĠáĦĥáħ®áĨ ª
ĠáĦĥáħ®áĨ °
ĠáĦĥáħ®áĨ ·
ĠáĦĮáħ°áĨ ª
ĠáĦĳáħ°áĨ µ
ĠáĦĲáħ§áĨ Ń
ĠáĦİáħ³áĨ ¸
ĠáĦĪáħ®áĨ ª
ĠáĦħáħ©áĨ ¯
ĠáĦħáħ©áĨ ¼
ĠáĦıáħ¦áĨ µ
ĠáĦįáħªáĨ ³
ĠáĦįáħªáĨ ·
ĠáĦĩáħ¬áĨ ®
ĠáĦĩáħ¬áĨ ¸
ĠáĦĩáħ¬áĨ º
ĠáĦĦáħ§áĨ ³
ĠáĦĤáħ¨áĨ ©
ĠáĦĤáħ¨áĨ °
ĠáĦĲáħ²áĨ ¸
ĠáĦĤáħ©áĨ ¸
ĠáĦĤáħ©áĨ ¼
ĠáĦĭáħ¥áĨ ©
ĠáĦĮáħ¤áĨ ½
ĠáĦĴáħ²áĨ »
ĠáĦĤáħ¡áĨ ²
ĠáĦĦáħ©áĨ ±
ĠáĦĦáħ©áĨ ·
ĠáĦİáħ¦áĨ ±
ĠáĦĦáħ£áĨ Ń
ĠáĦĬáħªáĨ ©
ĠáĦıáħ¥áĨ ®
ĠáĦĪáħ§áĨ ¬
ĠáĦĦáħ¦áĨ ¾
ĠáĦĩáħ¨áĨ ¹
ĠáĦģáħµáĨ µ
ĠáĦĭáħ¬áĨ ©
ĠáĦĭáħ¬áĨ ¶
ĠáĦıáħ§áĨ ²
ĠáĦĤáħ«áĨ ´
ĠáĦĴáħ¯áĨ ¨
ĠáĦĴáħ¯áĨ ¯
ĠáĦİáħ°áĨ ½
ĠáĦĦáħ¡áĨ ±
ĠáĦĦáħ¡áĨ ´
ĠáĦĪáħ¤áĨ ´
ĠáĦĪáħ¤áĨ Ń
ĠáĦĳáħ´áĨ ¹
ĠáĦīáħŃáĨ ¨
ĠáĦıáħ®áĨ ´
ĠáĦĥáħ¯áĨ ª
ĠáĦħáħ²áĨ ¬
ĠáĦħáħ²áĨ º
ĠáĦĴáħ§áĨ °
ĠáĦĲáħ©áĨ ¹
ĠáĦĥáħ´áĨ ¨
ĠáĦĥáħ´áĨ ®
ĠáĦĥáħ´áĨ °
ĠáĦĩáħ¥áĨ ±
ĠáĦģáħ±áĨ ³
ĠáĦģáħ±áĨ ¿
ĠáĦĲáħ«áĨ ¶
ĠáĦĲáħ¯áĨ °
ĠáĦĲáħ¯áĨ ¾
ĠáĦıáħ¤áĨ ©
ĠáĦĬáħµáĨ ¬
ĠáĦĬáħµáĨ ¶
ĠáĦİáħ®áĨ ³
ĠáĦĴáħ¨áĨ ¹
ĠáĦĤáħ®áĨ ¬
ĠáĦĤáħ®áĨ ²
ĠáĦıáħ¯áĨ ¸
ĠáĦĤáħ¥áĨ ±
ĠáĦĤáħ¥áĨ ²
ĠáĦĪáħ³áĨ º
ĠáĦīáħ®áĨ ¶
ĠáĦĤáħ¬áĨ ¹
ĠáĦĤáħ§áĨ ³
Ġï¨ ĳ
Ġï¨ Ł
Ġá» º
Ġá· ¶
¡ ³
¡ Ĳ
¡ ľ
¢ «
¢ »
¢ ĭ
¢ ĸ
£ ·
£ ¸
£ º
£ ¿
£ İ
£ ŀ
¤ ¤
¤ ª
¤ «
¤ °
¤ º
¤ ĵ
¥ «
¥ ¯
¥ Ŀ
¦ ¯
¦ ´
§ ª
§ ı
¨ ¤
¨ ±
¨ Ľ
© §
© ķ
ª ¯
ª Ĳ
ª Ĵ
ª ĸ
« ¨
« ®
« ĩ
¬ ¥
¬ ³
¬ ·
¬ Ĺ
® ¤
® «
® ·
® ½
® ħ
® ĵ
® ļ
® ł
¯ ¹
¯ ¿
¯ Ī
¯ Į
° §
° ¾
± ¨
± °
± ±
± ĭ
² °
² ¹
³ µ
³ Ł
´ ©
´ ²
´ ´
´ ¹
´ ħ
µ ¢
µ ¬
µ ¾
µ İ
¶ £
¶ º
¶ ¾
¶ İ
¶ Ń
· ª
· ¸
· ģ
· Ī
¸ ¡
¸ ª
¸ Į
¸ ĳ
¸ Ĺ
¹ ª
¹ ĭ
º ª
º µ
º º
º ½
º ¿
º ĥ
º ī
º ĵ
» «
» ®
» ¯
» ²
» Ĺ
» ļ
¼ ¾
¼ Į
½ ½
½ Ģ
½ ģ
½ Ń
¾ ·
¾ Ĥ
¾ Ĩ
¾ ĺ
¿ ¯
¿ ¼
¿ ħ
¿ Ĩ
¿ İ
¿ Ķ
Ģ Ĳ
Ģ ł
Ĥ ®
Ĥ Ģ
Ĥ ĥ
Ĥ ĭ
Ĥ Ļ
Ĥ Ł
ĥ ¬
Ħ £
Ħ «
Ħ ¼
Ħ ¿
Ħ ģ
ħ ³
Ĩ ±
Ĩ Ľ
ĩ ¤
ĩ ©
ĩ ·
ĩ Ł
Ī ®
Ī Ĳ
ī §
ī Ģ
Ĭ ©
Ĭ Ĺ
ĭ Ī
ĭ ķ
ĭ ļ
ĭ ł
Į ³
Į Ĥ
Į Į
Į İ
Į Ĳ
į £
į ®
į Ľ
İ ²
İ Ħ
ı ®
ı ¾
ı ĥ
ı Į
Ĳ Ń
ĳ ¸
ĳ Ŀ
Ĵ ĩ
Ĵ ķ
Ĵ ĺ
Ĵ Ľ
Ĵ ŀ
ĵ Ļ
Ķ ¢
Ķ Ģ
Ķ ĭ
Ķ Ĺ
ķ Į
ĸ ´
ĸ ¿
ĸ ħ
ĸ ĭ
ĸ ļ
Ĺ º
Ĺ į
Ĺ Ł
ĺ ¢
ĺ »
ĺ ŀ
Ļ ´
ļ ¬
ļ Ĺ
ļ ľ
Ľ ¡
Ľ ¬
Ľ ĥ
Ľ Į
Ľ į
Ľ İ
ľ ¤
ľ ®
ľ Ł
Ŀ ¯
Ŀ ¼
Ŀ Ĭ
Ŀ ĳ
ŀ ¶
ŀ ·
Ł ¥
Ł ļ
ł ¦
ł º
ł ĵ
Ń Ĩ
Ń ĺ
Ń Ń
Ġï ©¯
Ġï¿ Ķ
Ġï¿ Ł
ĠâĢ ª
ĠâĢ Ĭ
ĠâĢ ĸ
ĠâĻ ı
ĠáĦ ·
Ġâĸ Ģ
Ġâĸ ĥ
Ġâĸ į
Ġâĸ ŀ
ĠáĦĨáħ ²
ĠáĦĨáħ ±áĩĢ
ĠáĦĨáħ ¯áĩģ
ĠáĦĨáħ ´áĩĢ
ĠáĦĬáħ ¡
ĠáĦĬáħ ¥
ĠáĦĬáħ ¯áĩĤ
ĠáĦĬáħ ¯áĩģ
ĠáĦĬáħ ¥áĩĤ
ĠáĦħáħ §áĩĤ
ĠáĦħáħ ´áĩĤ
ĠáĦħáħ ¤áĩĢ
ĠáĦģáħ ª
ĠáĦģáħ µ
ĠáĦģáħ ¢áĩģ
ĠáĦģáħ «áĩĢ
ĠáĦģáħ ¬áĩĤ
ĠáĦģáħ ±áĩģ
ĠáĦģáħ ¦áĩģ
ĠáĦģáħ ©áĩĢ
ĠáĦĭáħ ¨
ĠáĦĭáħ Ń
ĠáĦĭáħ ©áĩĤ
ĠáĦĭáħ «áĩģ
ĠáĦĭáħ ªáĩģ
ĠáĦĭáħ ®áĩĤ
ĠáĦĮáħ ¤
ĠáĦĮáħ ©
ĠáĦĮáħ °
ĠáĦĮáħ ±áĩĢ
ĠáĦĮáħ §áĩģ
ĠáĦĮáħ ±áĩĤ
ĠáĦĮáħ ¤áĩĢ
ĠáĦĥáħ ³áĩģ
ĠáĦĥáħ ŃáĩĢ
ĠáĦĥáħ ¦áĩģ
ĠáĦĥáħ ®áĩĤ
ĠáĦĥáħ ¦áĩĢ
ĠáĦĢáħ ¡
ĠáĦĢáħ ©
ĠáĦĢáħ ±
ĠáĦĢáħ «áĩĤ
ĠáĦįáħ ¨
ĠáĦįáħ ª
ĠáĦįáħ «
ĠáĦįáħ ®
ĠáĦįáħ ¯
ĠáĦįáħ ´
ĠáĦįáħ «áĩĤ
ĠáĦįáħ ¯áĩģ
ĠáĦįáħ °áĩĤ
ĠáĦįáħ ¡áĩĤ
ĠáĦįáħ £áĩĢ
ĠáĦĳáħ ®
ĠáĦĳáħ Ń
ĠáĦĳáħ ŃáĩĤ
ĠáĦĳáħ £áĩĤ
ĠáĦĳáħ ¦áĩģ
ĠáĦĳáħ ¥áĩģ
ĠáĦĩáħ ®
ĠáĦĩáħ °áĩĤ
ĠáĦĩáħ ŃáĩĤ
ĠáĦĩáħ ©áĩĤ
ĠáĦĩáħ §áĩģ
ĠáĦĩáħ ¡áĩģ
ĠáĦĩáħ ªáĩĢ
ĠáĦĩáħ ©áĩģ
ĠáĦĩáħ ¥áĩĤ
ĠáĦİáħ ¥
ĠáĦİáħ ®
ĠáĦİáħ ³áĩĤ
ĠáĦİáħ ¯áĩĤ
ĠáĦİáħ °áĩĤ
ĠáĦĴáħ °
ĠáĦĴáħ ¯áĩģ
ĠáĦĴáħ ²áĩĢ
ĠáĦĴáħ ¡áĩĤ
ĠáĦīáħ §
ĠáĦīáħ ²
ĠáĦīáħ ŃáĩĤ
ĠáĦīáħ ¢áĩĢ
ĠáĦĪáħ ±
ĠáĦĪáħ Ń
ĠáĦĪáħ ªáĩĤ
ĠáĦĪáħ ¯áĩĢ
ĠáĦĪáħ ¯áĩģ
ĠáĦĪáħ ¬áĩģ
ĠáĦĪáħ ¦áĩģ
ĠáĦıáħ §áĩĤ
ĠáĦıáħ µáĩĤ
ĠáĦıáħ ®áĩĢ
ĠáĦıáħ ŃáĩĤ
ĠáĦĦáħ ¯
ĠáĦĲáħ Ń
ĠáĦĲáħ ¨áĩĤ
ĠáĦĲáħ ¥áĩĤ
ĠáĦĤáħ ©
ĠáĦĤáħ µáĩĤ
ĠâĤ ·
ĠâĤ ¸
ĠâĪ ¬
ĠâĪ µ
ĠâĪ º
ĠâĪ Ķ
ĠâĦ ¬
ĠâĦ ¯
ĠâĦ ³
ĠâĦ Ģ
ĠâĦ Ľ
ĠâĦ Ń
Ġéĵ ½
Ġéĵ Ģ
Ġéĵ ģ
Ġéĵ į
Ġéĵ ĳ
ĠâĴ ¦
ĠâĴ ģ
ĠâĴ Į
ĠâĴ ı
ĠâĴ ľ
ĠâŁ £
ĠâŁ ¥
ĠâŁ º
ĠâŁ »
ĠâŁ ļ
Ġâĺ ©
Ġâĺ µ
Ġâĺ Ķ
Ġâģ ¿
Ġâģ ĺ
Ġãı ģ
Ġãı Ĩ
Ġãı ŀ
Ġçı ¤
Ġçı Ĩ
Ġçı ĳ
ĠâĿ ľ
ĠâĿ ŀ
ĠâĿ Ł
ĠãŁ «
ĠãŁ ·
ĠãŁ ¸
ĠãŁ ī
ĠãŁ Ĭ
ĠãŁ Į
Ġïİ Ĭ
Ġâľ ¼
Ġâľ ½
Ġâľ ĩ
Ġâľ ĺ
ĠçŁ ®
ĠçŁ ¶
ĠçŁ ĺ
Ġïı ¨
Ġïı °
Ġïı Ģ
Ġïı ī
Ġâ¥ ¦
Ġâ¥ ²
ĠäĴ ¡
ĠäĴ °
ĠäĴ ±
ĠäĴ ĳ
ĠäĴ Ľ
ĠäĴ Ł
ĠäĴ ł
Ġæĺ ¯
Ġæĺ Į
Ġæĺ Ķ
ĠäĶ ª
ĠäĶ Ī
ĠäĶ ĵ
Ġã§ µ
Ġã§ Ī
Ġã¢ ¡
Ġã¢ ©
Ġã¢ Ķ
ĠæĿ ª
ĠæĿ ±
ĠæĿ Ŀ
Ġäĵ ¦
Ġäĵ ¼
Ġæģ ²
Ġæģ ·
Ġã· ¨
Ġã· ª
Ġã· º
Ġã· ¾
Ġã· Ģ
ĠâĨ ³
ĠâĨ ĵ
Ġã² ®
Ġã² º
Ġã² ¾
Ġã² Ĭ
Ġîı «
Ġîı ķ
Ġâį ¢
Ġâį İ
Ġãª §
Ġãª ¸
Ġãª ¾
Ġãª Ħ
Ġãª į
Ġéŀ Ĵ
ĠîĴ §
ĠîĴ ī
ĠîĴ ľ
ĠíŁ ¡
ĠíŁ ¨
ĠíŁ ħ
ĠíŁ İ
ĠíŁ ĺ
Ġç· °
Ġç· ±
Ġç· ²
Ġç· ³
Ġç· Ĩ
Ġç· ĺ
ĠäĿ ¨
ĠäĿ ²
ĠäĿ ĥ
ĠäĿ ľ
ĠäĿ ŀ
Ġçİ ¢
Ġçİ ł
Ġäľ ¡
Ġäľ ¨
ĠæĴ ª
ĠæĴ ¯
ĠæĴ ¾
Ġã¿ ®
Ġã¯ ¾
Ġã¯ Ĳ
ĠîŁ º
ĠîŁ Ħ
ĠîŁ Ļ
Ġæį £
Ġæį º
Ġæį ¼
Ġæį ¿
Ġæį ģ
Ġæį ī
Ġæį Ķ
Ġæį ķ
Ġæį ĺ
ĠîĿ ¢
ĠîĿ ¨
ĠîĿ Ĳ
Ġæľ «
Ġæľ ¯
Ġæľ ±
Ġæľ ĭ
Ġãŀ ¦
Ġãŀ ¾
Ġãŀ Ľ
Ġãº ¡
Ġãº £
Ġãº ¨
Ġãº ¯
Ġãº ¹
Ġãº ¿
Ġãº ĺ
Ġéİ ¢
Ġéİ º
Ġãģ ¬
Ġãģ ĥ
Ġçº ²
Ġçº ĸ
ĠéŁ ´
ĠéŁ ¹
ĠéŁ ŀ
ĠèĴ ¶
ĠèĴ ī
Ġïŀ ¶
Ġïŀ Ĳ
Ġäı ī
Ġäı Ľ
Ġäı ŀ
ĠâĬ «
ĠâĬ ¶
ĠâĬ º
ĠâĬ ½
ĠâĬ į
ĠâĬ Ľ
Ġæĵ ²
Ġæĵ ¶
Ġæĵ ¼
Ġæĵ Ĭ
Ġæĵ ĭ
ĠêĴ §
ĠêĴ ¸
ĠêĴ ¼
ĠêĴ ĥ
ĠêĴ ħ
ĠêĴ į
ĠæĹ ª
ĠæĹ ³
ĠæĹ Ī
ĠæĹ į
ĠæĹ ı
Ġäĳ ¯
Ġäĳ ²
Ġäĳ ¹
Ġäĳ ı
Ġâķ «
Ġâķ ¶
Ġâķ ¾
Ġâķ ģ
Ġâķ Ĺ
Ġäį Į
Ġäį ķ
ĠâĹ ¦
ĠâĹ ¯
Ġå¾ ¨
Ġå¾ ¬
Ġå¾ º
Ġå¾ Ĥ
Ġå¾ ħ
Ġå¾ ł
Ġá¢ §
Ġá¢ ®
Ġá¢ ²
Ġá¢ ı
Ġá¢ ĸ
Ġá¢ Ł
Ġâĵ ª
Ġâĵ Ģ
Ġâĵ ĺ
Ġâĵ ł
ĠçĦ ©
ĠçĦ İ
ĠçĦ ı
ĠçĦ Ļ
ĠçĶ ¤
ĠçĶ ¥
ĠçĶ ¼
ĠçĶ Ĭ
ĠçĶ Į
ĠçĶ ĵ
ĠçĶ Ļ
ĠçĶ Ľ
Ġæĸ ¦
Ġæĸ ª
Ġæĸ ¯
Ġæĸ °
Ġæĸ ¸
Ġæĸ ½
Ġæĸ Ĩ
Ġæĸ Ľ
Ġá§ ¹
Ġá§ ī
Ġá§ ķ
Ġá§ ŀ
Ġéº Ģ
Ġéº ĥ
Ġéº ı
Ġéº Ļ
Ġéº ļ
Ġéº Ŀ
Ġçŀ ¡
Ġçŀ ¦
Ġçŀ Ħ
Ġçŀ ħ
Ġçŀ ķ
Ġé¾ ¨
Ġé¾ ´
Ġé¾ ¶
Ġé¾ ħ
Ġé¾ ĩ
Ġé¾ Ń
Ġãİ ĩ
Ġîĵ ³
Ġîĵ ¼
Ġîĵ ī
Ġîĵ Ĵ
Ġîĵ Ķ
Ġãĳ Ļ
Ġãĵ ¦
Ġãĵ İ
Ġãĵ ĳ
Ġãĵ Ń
Ġâ£ ±
Ġâ£ ĭ
Ġâ£ ĺ
Ġéı ¥
ĠêĿ ·
ĠêĿ ķ
ĠêĿ ł
Ġá¦ «
Ġá¦ ®
Ġá¦ ¼
Ġá¦ Ĳ
Ġá¦ Ķ
Ġç² µ
Ġç² ·
Ġç² Ļ
Ġç¿ ¡
Ġç¿ »
Ġç¿ Ģ
Ġç¿ İ
Ġç¿ Ŀ
Ġãĥ §
Ġãĥ ¿
Ġï¢ £
Ġï¢ ¥
Ġï¢ ¦
Ġï¢ ½
Ġï¢ ¿
Ġï¢ Ħ
Ġï¢ ĩ
Ġï¢ Ļ
Ġî´ ¶
Ġî´ İ
Ġî´ Ĳ
ĠîĻ ´
ĠîĻ ¸
ĠîĻ Ĥ
ĠîĻ ĭ
ĠîĻ ĳ
ĠîĻ Ł
Ġè£ ¢
Ġè£ ¿
Ġè£ Į
Ġâŀ ²
Ġâŀ Ĥ
ĠîŃ ¶
ĠîŃ Ħ
ĠîŃ į
ĠîŃ Ĵ
ĠîŃ ļ
Ġéļ ®
Ġéļ ī
Ġâı ħ
Ġâı ľ
Ġäİ Į
Ġäİ į
Ġæķ ¦
Ġæķ ¨
Ġæķ ±
Ġæķ ´
Ġæķ ¶
Ġæķ ¼
Ġæķ Ĭ
Ġæķ Ķ
Ġç¾ ¸
Ġç¾ ĥ
Ġç¾ ĭ
Ġç¾ Ļ
Ġäĥ »
Ġäĥ ĩ
Ġäĥ Ĺ
Ġîľ ¨
Ġîľ ±
Ġîľ µ
Ġîľ ĺ
ĠäĬ ²
ĠäĬ ¿
ĠäĬ Ī
ĠäĬ İ
Ġå± ¨
Ġå± °
Ġå± ı
Ġå± ĵ
Ġå± ł
Ġä¸ ¥
Ġä¸ ª
Ġä¸ ³
Ġä¸ Ħ
Ġä¸ ľ
Ġä¸ ŀ
ĠäĤ µ
ĠäĤ ¾
ĠäĤ İ
ĠäĤ Ľ
Ġäº »
Ġäº ł
Ġî£ ²
Ġî£ ¾
Ġî£ ĥ
Ġî£ Ī
Ġé´ ¶
Ġé´ ģ
Ġé´ Ĥ
Ġé´ ĩ
Ġé´ Ĳ
Ġé´ ķ
Ġç¯ ª
Ġç¯ ±
ĠêŃ ¸
ĠêŃ ģ
ĠêŃ Į
ĠêŃ ı
ĠêŃ ĵ
ĠêŃ ĸ
ĠäĮ ¡
ĠäĮ Ĩ
ĠäĮ į
ĠäĮ Ļ
Ġï» ¾
Ġï» ĳ
Ġï» ķ
Ġâī ĭ
Ġäģ ¨
Ġäģ ¯
Ġäģ ²
Ġäģ ¸
Ġäģ Ĳ
Ġäģ ļ
Ġîį ¡
Ġîį ¢
Ġîį ¬
Ġé» ¢
Ġé» ¥
Ġé» ĩ
Ġé» Ĺ
ĠãĦ ¢
ĠãĦ §
ĠãĦ º
Ġâ« ²
Ġâ« ģ
Ġâ« ĵ
Ġâ« ĺ
Ġïį Ģ
Ġïį Ī
Ġïį Į
Ġïį Ĵ
Ġî§ ¤
Ġî§ »
Ġé· ģ
Ġèĺ Ĩ
Ġèĺ İ
Ġèĺ Ķ
Ġæº ª
Ġæº ¬
Ġæº ĸ
Ġæº Ļ
Ġæº ŀ
ĠãĶ £
ĠãĶ ¾
ĠãĶ İ
ĠãĶ ľ
ĠãĶ Ł
Ġâħ ®
Ġâħ ¯
Ġâħ °
Ġï¯ ·
Ġï¯ ¼
Ġï¯ Ħ
ĠèĿ ´
ĠèĿ ¶
ĠèĿ ·
ĠèĿ ĩ
ĠèĿ į
ĠèĿ ĳ
ĠèĿ Ń
ĠèŁ ¤
ĠèŁ ĩ
ĠèŁ İ
ĠèŁ Ĵ
Ġè« ª
Ġè« ´
Ġè« ĩ
Ġé¸ ²
Ġé¸ ´
Ġé¸ ½
Ġé¸ Ĵ
Ġâļ °
Ġâļ ²
Ġâļ µ
Ġâļ ½
Ġâļ Ļ
Ġâļ ŀ
Ġäķ ·
Ġäķ ¹
Ġäķ ¿
ĠçĮ ±
ĠçĮ ¶
Ġé® ¡
Ġé® ¦
Ġé® ²
Ġé® µ
Ġé® Ń
Ġé¶ ¤
Ġé¶ §
Ġé¶ ¨
Ġé¶ «
Ġé¶ İ
Ġé¶ ĸ
ĠïŁ ¥
ĠïŁ ¦
ĠïŁ į
ĠïŁ ļ
Ġã® ª
Ġã® ³
Ġã® Ģ
Ġäŀ ¹
Ġäŀ ĵ
Ġäŀ ļ
ĠäĲ ¨
ĠäĲ °
ĠäĲ ¿
ĠäĲ Ļ
ĠäĲ Ł
Ġæħ ¡
Ġæħ ¢
Ġæħ «
Ġæħ ®
Ġæħ ³
Ġæħ Ĩ
Ġæħ ĵ
Ġæħ Ľ
Ġã» ¨
Ġã» Ĩ
Ġâ¶ ¥
Ġâ¶ °
Ġâ¶ ģ
Ġâ¶ ĳ
Ġâĩ ®
Ġâĩ ¶
Ġâĩ »
Ġâĩ ¼
Ġâĩ ī
Ġâĩ Ŀ
Ġî¥ ĥ
Ġî¥ į
Ġî¥ ķ
Ġêį ¬
Ġêį ®
Ġêį ī
Ġêį ĺ
Ġêį Ń
ĠæĢ Ł
ĠéĻ Ħ
ĠéĻ ĩ
ĠéĻ ī
ĠéĻ Ĵ
ĠéĻ ŀ
Ġæ· µ
Ġæ· ĥ
Ġæ· Ĭ
Ġæ· Ķ
Ġæ· Ĺ
Ġæ· Ľ
Ġé¢ ©
Ġé¢ ¾
Ġé¢ ĥ
Ġé¢ Ķ
Ġé¢ Ļ
Ġã¸ ±
Ġã¸ ¸
Ġã¸ Ķ
Ġã¸ ŀ
Ġã¦ ¨
Ġã¦ ±
Ġã¦ µ
Ġå» ¶
Ġå» ¹
Ġå» Ħ
Ġå» ī
Ġå» ļ
Ġæĳ »
ĠïĬ ®
ĠïĬ ³
ĠïĬ º
ĠïĬ ī
ĠïĬ Ł
Ġï½ «
Ġï½ ³
Ġï½ ¸
Ġï½ İ
Ġé§ ħ
Ġé§ ĸ
Ġé§ Ń
ĠïĴ ¡
ĠïĴ ¬
ĠïĴ ³
ĠïĴ ·
ĠïĴ ¿
Ġîŀ ¤
Ġîŀ Ĩ
Ġîŀ ĳ
Ġã¶ º
Ġã¶ ī
Ġã¶ Ĭ
Ġîķ ¡
Ġîķ ģ
Ġîķ Ĭ
Ġîķ ĺ
Ġè¢ ¦
Ġè¢ Ĥ
Ġè¢ Ħ
Ġè¢ ĺ
Ġè¢ Ļ
Ġã¾ ¦
Ġã¾ ±
Ġã¾ ŀ
ĠæŁ İ
ĠæŁ ĳ
ĠæŁ Ķ
Ġî¯ ¦
Ġî¯ ¬
Ġî¯ ĭ
Ġâ» ª
Ġâ» ĺ
Ġâ» Ļ
ĠïĤ ½
ĠïĤ Ī
ĠâĶ ¤
ĠâĶ ¦
ĠâĶ ¿
ĠâĶ ļ
ĠâĶ Ń
Ġéµ £
Ġéµ «
ĠéĮ ¡
ĠéĮ ²
ĠéĮ ¹
ĠéĮ ģ
ĠéĮ Ĵ
ĠéĮ ľ
ĠçĽ ¹
ĠçĽ ¿
Ġåº ¤
Ġåº ¾
Ġåº İ
Ġåº ı
Ġåº Ĵ
Ġåº ĵ
Ġæ¸ »
Ġæ¸ ¿
Ġæ¸ ĵ
Ġâĭ °
Ġâĭ ¶
Ġâĭ Ĵ
ĠæĻ ¯
ĠæĻ µ
ĠæĻ į
ĠæĻ Ŀ
ĠïĨ £
ĠïĨ ®
ĠïĨ ´
ĠïĨ µ
ĠïĨ ģ
ĠïĨ Ĥ
ĠïĨ Ĩ
ĠïĨ ı
ĠïĨ ĸ
Ġæ´ Ŀ
ĠæĲ Ħ
ĠæĲ ķ
Ġå¶ ¥
Ġå¶ ¨
Ġå¶ ®
Ġå¶ ³
Ġå¶ ģ
Ġå¶ ī
Ġå¶ į
Ġå¶ İ
Ġå¶ ĳ
Ġêľ ©
Ġêľ ħ
Ġêľ İ
Ġêľ ĵ
Ġêľ Ľ
Ġêľ ł
Ġæ¾ ¡
Ġæ¾ ®
Ġæ¾ °
Ġæ¾ ¼
Ġæ¾ Ģ
Ġæ¾ ĳ
Ġî« §
Ġî« ¶
Ġî« Ģ
Ġî« ľ
Ġåµ §
Ġåµ ¶
Ġåµ º
Ġåµ ĸ
Ġêĵ ¢
Ġêĵ ¯
Ġêĵ ·
Ġêĵ Ħ
Ġâİ ·
Ġâİ Ī
Ġâİ Į
Ġâİ Ĺ
Ġæļ °
Ġæļ ·
Ġæļ ķ
Ġæļ Ŀ
Ġæļ ł
ĠäĻ ¸
ĠäĻ ļ
Ġåķ ¡
Ġåķ £
Ġåķ ¥
Ġåķ ®
Ġåķ ¶
Ġåķ Ķ
Ġåķ ĺ
Ġåķ Ľ
Ġâ¹ £
Ġâ¹ ®
Ġâ¹ ·
Ġâ¹ ĥ
Ġâ¹ ŀ
Ġäĺ Ħ
Ġäĺ ī
Ġäĺ Ĺ
Ġäĺ Ļ
Ġæŀ ¯
Ġæŀ °
Ġæŀ ģ
Ġæŀ Ł
Ġæŀ ł
Ġåħ ĥ
Ġåħ Ħ
Ġåħ ķ
Ġä¨ ¢
Ġä¨ ¨
Ġä¨ °
Ġä¨ ±
Ġä¨ ¶
Ġä¨ Ĵ
Ġä¨ Ķ
Ġä¨ ķ
Ġä¨ Ļ
Ġæµ ©
Ġæµ ¯
Ġæµ ¸
Ġæµ Ł
Ġæ¹ ®
Ġæ» ª
Ġæ» ¬
Ġæ» ´
Ġæ» ·
Ġæ» ¿
Ġâº §
Ġâº ħ
Ġîİ ¯
Ġîİ ´
Ġîİ Ī
Ġîİ ĳ
Ġîİ Ķ
Ġîİ Ł
Ġéĥ ©
Ġâ§ µ
Ġâ§ Ģ
Ġâ§ ģ
Ġâ§ ĭ
Ġâ§ Ĺ
Ġïģ ¢
Ġïģ ĵ
Ġä¢ §
Ġä¢ Ĥ
Ġä¢ Ĩ
Ġèº ©
Ġèº ·
Ġèº º
Ġèº Ĭ
Ġèº Ĵ
Ġèº Ľ
Ġèº ŀ
ĠâĲ µ
ĠâĲ Ģ
Ġè§ ¯
Ġè§ Ĥ
Ġè§ İ
Ġè§ Ĵ
Ġçĳ ¡
Ġçĳ ¦
Ġçĳ ¸
Ġçĳ Ĵ
Ġçľ ®
Ġçľ »
Ġçľ Ĩ
Ġè´ ²
Ġè´ ½
Ġè´ ¾
Ġè´ ¿
Ġè´ ģ
Ġè´ Ĩ
Ġè´ ķ
Ġè´ Ŀ
Ġêĸ ·
Ġêĸ ĳ
Ġêĸ ļ
Ġáª ¥
Ġî® ©
Ġî® ¿
Ġî® Ń
Ġå§ ¡
Ġå§ ¶
Ġå§ ģ
Ġå§ Ĥ
Ġå§ ĸ
Ġêļ ¿
Ġêļ Ķ
Ġêļ Ń
ĠéĿ ª
ĠéĿ º
ĠéĿ ½
ĠéĿ Ĥ
ĠéĿ ĵ
ĠéĿ Ŀ
Ġâ¾ §
Ġâ¾ »
Ġâ¾ ½
Ġâ¾ ħ
Ġâ¾ ĭ
Ġâ¾ ŀ
Ġæ£ «
Ġæ£ ³
Ġæ£ ´
Ġæ£ Ĳ
Ġæ£ ľ
Ġèı ¬
Ġèı º
Ġèı ¼
Ġèı ¿
Ġèı ĳ
Ġâµ ®
Ġâµ ´
Ġâµ ·
Ġâµ Ģ
Ġâµ Ĥ
Ġâµ Ĳ
Ġî½ ·
Ġî½ ħ
Ġî½ Ļ
Ġî½ Ľ
Ġåı ³
Ġåı »
Ġåı ¾
Ġåı Ĥ
Ġåı ĺ
Ġåı Ļ
Ġåı ł
Ġä± ¼
Ġä± İ
Ġä± Ļ
Ġä± ļ
Ġê® ¤
Ġê® ¯
Ġê® ²
Ġê® ³
Ġê® Ģ
Ġê® İ
Ġâ´ ¤
Ġâ´ §
Ġâ´ ¸
Ġâ´ Ī
Ġî¡ ¢
Ġî¡ µ
Ġî¡ Ī
Ġî¡ ĳ
Ġî¡ Ļ
Ġêŀ ¡
Ġêŀ «
Ġêŀ ±
Ġêŀ ¸
Ġêŀ »
Ġêķ ¨
Ġêķ į
Ġêķ Ŀ
Ġè® ±
Ġè® ¾
Ġè® Ĺ
Ġè® ļ
ĠèĶ ³
ĠèĶ ĵ
ĠèĶ Ļ
Ġá² ¨
Ġá² ±
Ġá² Ĭ
Ġá² Ŀ
ĠãĮ Ģ
ĠãĮ Ĩ
ĠãĮ Ī
ĠãĮ Ĺ
Ġî¿ ¤
Ġî¿ §
Ġî¿ ĥ
Ġè¶ ¡
Ġè¶ £
Ġæı §
Ġæı ¸
Ġæı į
Ġæı ĵ
Ġéģ ¾
Ġéģ Ĩ
Ġéģ Ĵ
Ġç´ ī
Ġæ³ ¯
Ġæ³ ¸
Ġæ³ Ļ
Ġæ³ ŀ
Ġéª ®
Ġéª ĺ
Ġéª Ľ
Ġçĵ ©
Ġçĵ µ
Ġçĵ ·
Ġçĵ º
Ġçĵ Ń
Ġçļ ¯
Ġçļ °
Ġèį ¦
Ġèį ¨
Ġèį «
Ġèį ¯
Ġèį °
Ġèį ±
Ġèį ĥ
Ġèį ĭ
Ġá¯ ·
Ġá¯ ļ
Ġçħ ¥
Ġçħ ¦
Ġçħ ª
Ġçħ ¹
Ġçħ ĩ
Ġçħ ķ
Ġå¯ ª
Ġå¯ ³
Ġå¯ į
Ġå¯ ĺ
Ġá± ©
Ġá± ¼
Ġá± İ
Ġá± Ľ
Ġá± ł
Ġæ± ·
Ġæ± º
Ġæ± Ĵ
Ġç¢ ¨
Ġç¢ ¯
Ġç¢ ²
Ġç¢ ĥ
Ġç¢ Ĳ
Ġç¢ ŀ
Ġæ¶ °
Ġæ¶ ¼
Ġæ¶ Ĺ
Ġæ¶ Ľ
ĠîĬ Ĥ
ĠîĬ Ī
ĠêŁ ¼
ĠêŁ Ľ
ĠêŁ ŀ
Ġïī ²
Ġáı §
Ġáı ĥ
Ġáı ħ
Ġáı ľ
Ġäª ¨
Ġäª «
Ġäª »
Ġäª Ģ
Ġäª ħ
Ġäª į
Ġäª ĳ
Ġäª ļ
ĠèĤ ¢
ĠèĤ ¨
ĠèĤ Ģ
ĠèĤ Ħ
ĠèĤ ķ
Ġî¤ µ
Ġî¤ ¸
Ġî¤ ķ
Ġèª £
Ġèª º
Ġèª ħ
Ġèª İ
Ġèª Ļ
Ġâ¤ ¸
Ġâ¤ ģ
Ġä¤ ª
Ġä¤ µ
Ġä¤ º
Ġä¤ ħ
Ġä¤ Ļ
Ġä¤ ľ
Ġä¤ Ł
Ġîĳ ¡
Ġîĳ ¨
Ġîĳ Ĥ
Ġîĳ ı
ĠîĶ ģ
ĠîĶ ī
Ġè¥ »
Ġè¥ Ģ
Ġè¥ ı
Ġè¥ Ļ
Ġè¥ ļ
Ġèł ¨
Ġèł ģ
Ġê§ »
Ġê§ ¿
Ġê§ İ
Ġïĩ ´
Ġä» ¹
Ġä» ī
Ġç¹ ¿
Ġç¹ ŀ
Ġå¿ ³
Ġå¿ ·
Ġå¿ ĺ
Ġåį £
Ġåį ¤
Ġåį ´
Ġåį Ĥ
Ġåį į
Ġåį Ĵ
Ġåį Ķ
Ġåį Ń
ĠæĤ ¥
ĠæĤ ³
ĠæĤ º
ĠæĤ ¾
ĠæĤ Į
ĠæĤ ļ
ĠîĦ µ
ĠîĦ ķ
Ġç¶ º
Ġç¶ Ĥ
Ġç¶ ī
Ġç¶ ĳ
Ġâĳ ¨
Ġâĳ ²
Ġâĳ ´
Ġâ² «
Ġâ² ¬
Ġâ² °
Ġâ² Ģ
Ġâ² ģ
Ġâ² ħ
Ġâ² Ķ
ĠîĢ §
ĠîĢ ¨
ĠîĢ ĩ
ĠîĢ ī
ĠîĢ ĭ
ĠîĢ İ
ĠîĢ ķ
ĠîĤ Ľ
ĠîĤ ľ
Ġå¥ Ĥ
Ġå¥ Ń
Ġå² ¦
Ġå² §
ĠäĦ ©
ĠäĦ ´
Ġï® £
Ġï® ©
Ġï® ·
Ġï® Ľ
Ġï® Ŀ
Ġâ¡ £
Ġâ¡ ©
Ġâ¡ ¼
Ġâ¡ ı
Ġäļ ¢
Ġäļ Ī
Ġäļ ĳ
Ġäļ Ĵ
Ġä£ £
Ġä£ ª
Ġä£ ī
Ġä£ Ĵ
Ġçĥ ®
Ġçĥ ±
Ġçĥ ³
Ġçĥ ¿
Ġçĥ ĵ
Ġçĥ ľ
Ġâ± ¡
Ġâ± °
Ġâ± ¸
Ġâ± ļ
Ġâ± Ŀ
Ġä¥ ¥
Ġä¥ Ĩ
Ġä¥ ĭ
Ġä¥ ŀ
Ġæİ ĥ
Ġæİ ħ
Ġæİ ĺ
Ġæİ Ŀ
Ġæİ Ł
Ġîº ¯
Ġîº ¾
Ġîº ĩ
Ġîº ĭ
Ġîº ĵ
Ġæ§ §
Ġæ§ ®
Ġæ§ į
Ġæ§ ĵ
Ġæ§ Ķ
Ġæ§ ł
Ġîģ ī
Ġîģ Ł
Ġè© ±
Ġè© ¹
Ġè© Ĥ
Ġè© Ĵ
Ġèľ Ĩ
Ġèľ ī
Ġèľ Į
ĠèĻ ¨
ĠèĻ Ĭ
Ġâª ¦
Ġâª º
Ġâª ĸ
Ġä¹ £
Ġä¹ ĺ
Ġé¯ ²
Ġé¯ ³
Ġâ¬ §
Ġâ¬ ª
Ġâ¬ Ĵ
Ġâ¬ Ń
Ġà¸ į
Ġà¸ Ĳ
Ġè¯ «
Ġè¯ ³
Ġè¯ Ħ
Ġè¯ ĺ
Ġè¯ Ļ
ĠâĽ İ
Ġä¬ ¬
Ġä¬ ²
Ġä¬ ³
Ġä¬ ·
Ġä¬ ¿
Ġä¬ Ī
Ġé¦ ĩ
Ġé¦ Ī
Ġé¦ ĳ
Ġé¦ Ľ
Ġèħ §
Ġèħ Ģ
Ġèħ Ĭ
Ġèħ Ĵ
Ġèħ Ķ
Ġèħ Ł
Ġå³ ²
Ġå³ »
Ġå³ Ĳ
Ġå³ ŀ
Ġïļ ¡
Ġïļ §
Ġïļ ¹
Ġä§ ¥
Ġä§ ±
Ġä§ ³
Ġä§ ĩ
ĠäĢ ®
ĠäĢ Ĭ
ĠäĢ ĭ
ĠäĢ Ŀ
Ġè¤ ¥
Ġè¤ Ĩ
Ġè¤ ĳ
Ġè¤ ķ
Ġêĺ °
Ġêĺ ¶
Ġêĺ ¾
Ġêĺ ļ
Ġêĺ Ŀ
Ġè± ¬
Ġè± ¼
Ġéĳ ¯
Ġéĳ ´
Ġéĳ º
Ġéĳ Ģ
Ġä² ®
Ġä² ĥ
Ġä² Ķ
ĠåĶ Ĥ
ĠåĶ ĭ
ĠåĶ į
ĠåĶ ŀ
ĠêĬ ĳ
ĠêĬ Ľ
ĠãĽ ¡
ĠãĽ ¦
ĠãĽ §
ĠãĽ ¾
ĠãĽ Ĩ
ĠèŃ ¨
ĠèŃ ľ
ĠèŃ Ł
Ġçķ ¦
Ġçķ ©
Ġçķ ·
Ġçķ »
Ġçķ ĵ
Ġã¹ ¡
Ġã¹ ¤
Ġã¹ ¦
Ġã¹ ½
Ġã¹ Ĥ
Ġã¹ Ĭ
Ġã¹ Ł
Ġà´ ¨
Ġà´ ³
Ġîĺ ª
Ġîĺ ģ
Ġîĺ ĳ
Ġîĺ ľ
Ġèķ ³
Ġèķ ·
Ġèķ į
Ġèķ Ľ
Ġèķ ł
Ġéł ¦
Ġéł §
Ġéł ¾
Ġçµ İ
Ġçµ Ŀ
Ġâ° ¬
Ġâ° µ
Ġâ° ¾
Ġâ° ı
Ġâ° Ķ
Ġâ° ĺ
Ġãµ ¥
Ġãµ ´
Ġãµ ī
Ġãµ ĭ
Ġàª «
Ġàª ³
Ġàª ´
ĠäĽ ¨
Ġè¾ ¦
Ġè¾ ¬
Ġè¾ ·
Ġè¾ ĳ
Ġè¾ Ĵ
Ġè¾ ĺ
Ġä· ¹
Ġä· º
Ġä· ¿
Ġä· Ĳ
Ġä· ĳ
Ġä· ĸ
Ġéĸ ¦
Ġéĸ ±
Ġéĸ Į
Ġè· ¨
Ġè· ¸
Ġè· ¼
Ġè· Ĵ
Ġè· ļ
Ġä° ¬
Ġä° Ī
Ġä° Ķ
Ġä° ĺ
ĠãĿ ¸
ĠãĿ ¾
ĠãĿ ĥ
ĠãĿ ĸ
ĠæĬ ¢
ĠæĬ ģ
ĠæĬ ķ
Ġêİ §
Ġêİ ³
Ġêİ Ģ
Ġêİ Ĥ
Ġêİ ı
Ġêİ ĳ
Ġçª ĵ
Ġçª ļ
Ġå½ ĥ
Ġå½ ķ
Ġïµ «
Ġïµ »
Ġïµ ĥ
Ġïµ ĩ
Ġêĳ ĵ
Ġä´ ª
Ġä´ ¯
Ġä´ İ
Ġä´ ı
Ġä´ ĵ
Ġä´ ĸ
Ġè¨ ¸
Ġè¨ ¿
Ġè¨ ģ
Ġè¨ Ĳ
Ġèİ ¥
Ġèİ ©
Ġèİ ¯
Ġèİ ¿
Ġèİ ī
Ġæ¥ ¦
Ġæ¥ ģ
Ġæ¥ ĥ
Ġæ¥ ĭ
Ġî± ĩ
Ġî± ī
Ġî± į
Ġî± ı
Ġî± ŀ
Ġé¹ ´
Ġé¹ Į
Ġé¹ Ĵ
Ġé¹ Ľ
Ġâ½ ¢
Ġâ½ ±
Ġâ½ Ĺ
Ġâ½ ł
Ġæ¤ £
Ġæ¤ °
Ġæ¤ ´
Ġæ¤ »
Ġæ¤ Ĩ
Ġæ¤ ı
Ġèģ ¼
Ġèģ Ĥ
Ġèģ į
Ġèģ Ĵ
Ġèģ ļ
Ġã± ª
Ġã± ´
Ġã± ½
Ġã± ģ
Ġã± ı
Ġã± Ĳ
Ġã± Ĺ
Ġîł ¦
Ġîł µ
Ġîł »
Ġîł ½
Ġîł ĸ
Ġèĵ °
Ġèĵ ı
Ġèĵ ĵ
Ġèĵ Ŀ
Ġåĩ Ī
Ġåĩ ī
Ġåĩ ķ
Ġåĩ Ĺ
Ġåĩ ŀ
Ġâ¼ ©
Ġâ¼ Ĩ
Ġâ¼ Į
Ġâ¼ ı
Ġâ¼ ĳ
Ġâ¼ ĸ
Ġâ¼ Ļ
Ġâ¿ ¤
Ġâ¿ ¥
Ġá¶ ¥
Ġá¶ ¨
Ġá¶ »
Ġá¶ Ĥ
Ġá¶ Ī
Ġá¶ Ĭ
Ġá¶ Į
Ġá¶ ı
ĠãĤ §
ĠãĤ Ī
Ġèŀ £
Ġèŀ ¨
Ġèŀ ĭ
Ġå¤ ¦
Ġå¤ ³
Ġå¤ ¸
Ġå¤ »
Ġå¤ ģ
Ġå¤ Ĥ
Ġå¤ ĳ
Ġå¤ ľ
ĠåĹ ¡
Ġî¢ ·
Ġî¢ º
Ġî¢ Ī
Ġî¢ ı
Ġî¢ Ķ
Ġî¢ Ļ
Ġî¢ ļ
Ġçģ ¬
Ġçģ ¾
Ġçģ Ĭ
Ġçģ ĵ
ĠéŃ «
ĠéŃ »
ĠêĹ ±
ĠêĹ ¸
ĠêĹ Ł
ĠáĽ £
ĠáĽ ĭ
ĠáĽ Ĵ
Ġã´ Ķ
Ġæ¦ ¢
Ġæ¦ ·
Ġæ¦ Ĥ
Ġæ¦ ħ
ĠæĽ ¨
ĠæĽ º
ĠæĽ ĩ
ĠæĽ Ĭ
ĠæĽ ł
Ġãħ Ħ
Ġãį ¥
Ġãį ĩ
Ġãį Ī
Ġãį Į
Ġæ² į
Ġæ² ı
Ġæ² Ķ
Ġæ² ĸ
Ġæ² Ł
Ġæ¡ ¢
Ġæ¡ ²
Ġæ¡ º
Ġæ¡ İ
Ġæ¡ ĵ
Ġîħ £
Ġîħ ĵ
Ġîħ Ĺ
Ġîħ ĺ
Ġîħ Ľ
ĠåĿ ĭ
ĠåĿ ļ
Ġïķ ·
Ġïķ ķ
Ġê¬ «
Ġê¬ °
Ġáµ ©
Ġáµ Ģ
Ġáµ ī
Ġáµ İ
Ġè¡ ¤
Ġè¡ ¬
Ġè¡ ´
Ġè¡ ¾
Ġêı ·
Ġêı Ģ
Ġêı ĩ
Ġïĸ ¤
Ġïĸ ¯
Ġïĸ ½
Ġïĸ ķ
Ġé± ·
ĠèĦ ¤
ĠèĦ ¨
ĠèĦ ´
ĠèĦ į
ĠèĦ ı
ĠèĦ Ŀ
Ġâ³ §
Ġâ³ ª
Ġâ³ ĭ
Ġâ³ Ł
Ġâ³ Ń
Ġæ¨ §
Ġæ¨ į
Ġæ¨ İ
Ġæ¨ Ń
Ġé° ·
Ġé° ¼
Ġé° ĭ
Ġé° Ł
Ġè¿ ¢
Ġè¿ ·
Ġè¿ ¼
Ġè¿ Ģ
Ġè¿ Ł
Ġåª ¦
Ġåª ®
Ġåª ²
Ġï¾ ľ
Ġã© ¦
Ġã© į
Ġåĳ ©
Ġåĳ ¯
Ġåĳ ´
Ġåĳ ½
Ġåĳ ĥ
Ġåĳ ķ
Ġåĳ ĺ
Ġä¾ ²
Ġä¾ »
Ġä¾ ½
ĠåĬ ®
ĠåĬ Į
ĠåĬ Ĵ
ĠåĬ Ļ
ĠêĮ »
ĠêĮ ĥ
ĠêĮ ł
Ġå¸ ¥
Ġå¸ ¹
Ġêħ ª
Ġêħ ®
Ġêħ ±
ĠïĿ ı
Ġäħ ¥
Ġäħ ±
Ġäħ ĩ
Ġäħ ĵ
Ġäħ Ŀ
Ġçį ¦
Ġçį Į
ĠèĲ ¢
ĠèĲ ®
ĠèĲ Ľ
ĠèĲ ľ
Ġêĥ £
Ġêĥ ¿
Ġêĥ ĥ
Ġêĥ Ļ
Ġêĥ ŀ
ĠâĮ ¦
ĠâĮ «
ĠâĮ °
ĠâĮ ³
ĠâĮ ·
Ġæ« ¢
Ġæ« ¸
Ġæ« Ħ
Ġæ« Ń
Ġé¿ £
Ġé¿ ¤
Ġé¿ ¯
Ġé¿ Ĳ
Ġé¿ Ļ
Ġéį ¬
Ġéį ¯
Ġéį Ĥ
Ġéį Ļ
ĠèĢ Ĵ
ĠèĢ Ķ
ĠèĢ Ļ
ĠèĢ Ŀ
ĠèĢ ł
Ġå© ¸
Ġå© ģ
Ġå® ¦
Ġå® §
Ġå® ĩ
Ġå® ĵ
Ġå® Ŀ
ĠæĨ ª
ĠæĨ ¶
ĠæĨ º
ĠæĨ ħ
Ġèļ Ģ
Ġèļ ľ
Ġèļ ł
Ġèļ Ń
Ġê¡ «
Ġê¡ ¾
Ġê¡ ĩ
Ġê¡ ī
Ġê¡ Į
Ġê¡ ı
Ġâ¯ ²
ĠãĨ ¹
ĠãĨ ı
ĠãĨ ļ
ĠãĨ Ł
Ġà¨ ¤
Ġä« ¡
Ġä« ¯
Ġä« ¾
Ġä« ī
Ġä« Ĺ
Ġä« ľ
Ġé¬ ©
Ġé¬ ¬
Ġé¬ ¼
Ġè¬ ¨
Ġè¬ ¼
Ġè¬ Ķ
Ġâ¦ ¬
Ġâ¦ Į
Ġâ¦ ı
Ġîĩ §
Ġà¹ Ĩ
Ġà¹ ĳ
Ġî¬ ¦
Ġî¬ ¬
Ġî¬ ¾
Ġî¬ ¿
Ġî¬ İ
Ġî¬ Ĵ
Ġî¬ Ķ
Ġéĩ į
Ġéĩ Ŀ
Ġî© ¶
Ġî© ĭ
Ġî© ļ
Ġï· ¶
Ġï· į
Ġïĥ ¨
Ġïĥ Ħ
Ġïĥ Į
Ġïĥ Ĵ
Ġïĥ ĵ
Ġî¦ ½
Ġî¦ ĺ
Ġî¦ ł
Ġê¤ ®
Ġï¼ ¯
Ġï¼ ³
Ġï¼ ´
Ġï¼ »
Ġï¼ ĵ
Ġï¼ ĺ
ĠæŃ ³
Ġîī ¹
Ġîī Ħ
Ġîī Ĵ
Ġîī Ŀ
ĠåĻ ª
ĠåĻ °
ĠåĻ ²
ĠåĻ º
ĠåĻ Į
Ġá¡ ¿
Ġá¡ ĳ
Ġáķ ¡
Ġáķ ¥
Ġáķ µ
Ġáķ Ħ
Ġáķ ı
Ġáķ ľ
Ġî¼ «
Ġî¼ ¸
Ġî¼ ¼
Ġî¼ ¿
Ġî¼ Ľ
Ġî¼ ŀ
Ġá´ ¹
Ġá´ Ī
Ġá´ ī
Ġå¹ ½
Ġå¹ Ģ
Ġå¹ ī
Ġå¹ ķ
ĠéĴ ¡
ĠéĴ ®
ĠéĴ ·
ĠéĴ Ĩ
ĠéĴ į
Ġâ¸ Ľ
ĠáĶ ±
ĠáĶ ²
ĠáĶ »
ĠáĶ ĥ
ĠáĶ ĭ
ĠáĶ ĳ
ĠáĶ Ŀ
Ġî» £
Ġî» ĥ
Ġî» Ĭ
Ġî» Ľ
Ġæ½ ±
Ġæ½ ĥ
Ġæ½ Ľ
Ġæ½ Ń
Ġä¶ ¢
Ġä¶ Ĩ
Ġä¶ Ĵ
Ġä¶ ļ
Ġãļ ħ
Ġãļ Ĵ
Ġè¦ ¸
Ġè¦ Ģ
Ġè¦ ī
Ġèī ħ
Ġèī Ĭ
Ġèī ĭ
Ġèī ĵ
Ġèī ĺ
Ġä³ į
Ġä³ Ĳ
Ġäµ °
Ġäµ µ
Ġäµ ī
Ġäµ ı
Ġäµ ĳ
ĠäŃ ±
ĠäŃ ²
ĠäŃ Ĩ
ĠäŃ Ĵ
ĠæĮ ī
ĠæĮ Ł
Ġå´ ¸
Ġå´ ħ
Ġå¼ ī
ĠéĹ £
ĠéĹ ¯
ĠéĹ Ī
ĠéĹ ĵ
ĠéĽ ¡
ĠéĽ ª
ĠéĽ ®
ĠéĽ Ŀ
ĠêĦ Ĭ
Ġà¶ ¡
Ġà¶ £
Ġà¶ ı
Ġà¶ ĳ
Ġà¶ Ĺ
Ġãľ ¨
Ġãľ »
Ġå¢ ¶
Ġå¢ Ľ
Ġäī ħ
Ġäī Ĩ
Ġäī ı
Ġäī Ĵ
Ġäī Ŀ
Ġäł §
Ġäł »
Ġæ¼ ¿
Ġæ¼ İ
Ġæ¼ Ļ
Ġå· ¦
Ġå· ´
Ġå· İ
Ġå· Ĺ
Ġïĳ ¤
Ġïĳ ¥
Ġïĳ ´
Ġïĳ Ĭ
Ġæĩ ±
Ġæĩ ĭ
Ġæĩ Ŀ
ĠèĮ «
ĠèĮ ³
ĠèĮ º
ĠèĮ Ĩ
ĠèĮ Ĵ
ĠåŁ «
ĠåŁ ¬
ĠåŁ ®
ĠåŁ ĵ
ĠåŁ Ĺ
ĠåŁ ļ
Ġîª ¸
Ġîª Ĵ
Ġèµ ¡
Ġèµ §
Ġèµ °
Ġèµ ³
Ġèµ ĩ
Ġèµ Ī
Ġèµ ľ
Ġèµ Ŀ
Ġåĺ ĳ
Ġåĺ Ķ
Ġåĺ ľ
Ġåĺ ł
Ġêª ¢
Ġêª §
Ġêª Ĵ
Ġêª ļ
Ġêª Ń
ĠâŃ ©
ĠâŃ ¶
ĠâŃ ¹
ĠâŃ į
Ġè½ Ŀ
Ġèĩ ©
Ġâ© Į
Ġâ© į
Ġâ© Ĵ
Ġâ© ĵ
Ġæī ¬
Ġæī ¶
Ġæī ĥ
ĠîĮ º
ĠæĦ ¯
ĠæĦ į
ĠæĦ Ĵ
ĠæĦ Ń
Ġç© Ĩ
Ġç© į
Ġç© ĵ
Ġãķ ©
Ġãķ ¿
Ġãķ Ĺ
Ġè° °
Ġè° Ĥ
ĠäĪ Ĭ
ĠäĪ ĳ
ĠäĪ Ń
Ġå¦ ¥
Ġå¦ °
Ġå¦ Ĥ
Ġå¦ ĸ
Ġî³ ¬
Ġî³ ³
Ġî³ ı
Ġî³ ĵ
Ġî³ Ń
Ġîĥ ´
Ġîĥ ĵ
Ġîĥ Ľ
Ġîĥ ľ
ĠîĲ ¿
ĠîĲ Ĥ
ĠîĲ Ĭ
ĠîĲ İ
ĠåĽ ¢
ĠåĽ §
ĠåĽ Ĭ
ĠåĽ ĳ
ĠåĽ Ĵ
ĠåĽ ŀ
ĠêĽ ¢
ĠêĽ į
ĠêĽ Ĵ
Ġáİ £
Ġáİ ¶
Ġáİ »
Ġáİ ĸ
Ġä¡ £
Ġä¡ °
Ġä¡ ³
Ġä¡ ´
Ġä¡ µ
Ġä¡ ļ
Ġä© Ĵ
Ġä© ĺ
Ġæª ²
Ġæª ĸ
Ġæª ŀ
Ġç± ¥
Ġç± µ
ĠïĮ ³
ĠïĮ ½
ĠïĮ ¿
Ġç® £
Ġç® ®
Ġç® ľ
Ġæ® ¤
Ġæ® «
Ġæ® Ń
Ġéħ ¡
Ġéħ ¦
Ġéħ Ĥ
Ġéħ Ĵ
Ġç° ¦
Ġç° ª
Ġç° °
ĠçĴ ³
ĠçĴ º
Ġåī ¾
Ġåī Ĩ
Ġá® Ī
Ġï£ ¢
Ġï£ ¤
Ġï£ ·
Ġï£ »
Ġï² «
Ġâ¨ ³
Ġâ¨ µ
Ġâ¨ ·
Ġâ¨ ½
Ġâ¨ Į
Ġâ¨ Ł
Ġàº °
Ġàº Ł
ĠêĤ £
Ġä¼ »
Ġä¼ ¾
Ġä¼ Ħ
Ġä¼ ļ
Ġã¼ ¨
Ġã¼ ³
Ġã¼ ĺ
Ġî¨ ¥
Ġî¨ ¶
Ġî¨ »
Ġî¨ Ĩ
Ġî¨ ī
Ġî¨ ļ
Ġî· ¸
Ġî· »
Ġî· ı
Ġç¡ ¤
Ġç¡ ¥
Ġç¡ ©
Ġç¡ Ł
Ġê« Ĺ
Ġê« ŀ
Ġé£ ¯
Ġé£ ĩ
Ġé£ ī
Ġé£ ĳ
Ġéĭ ´
Ġéĭ ħ
Ġç» ³
Ġç» į
Ġç» İ
Ġèĥ ¤
Ġèĥ ·
Ġèĳ §
Ġèĳ «
Ġèĳ Ĥ
Ġèĳ Į
Ġà¦ ²
Ġà¦ Į
Ġà¦ ĵ
ĠïĪ ¸
ĠïĪ ½
ĠïĪ ĩ
ĠïĪ İ
ĠïĪ ı
ĠïĪ ķ
ĠïĪ ĸ
ĠåĪ ¦
ĠåĪ ·
ĠåĪ ķ
ĠåĪ Ł
Ġïł ¯
Ġïł ·
Ġïł ¸
Ġïł Ģ
Ġïł Ĵ
Ġïł Ŀ
ĠäĨ ĸ
ĠäĨ Ł
ĠéĢ ľ
Ġè¸ ¹
Ġè» ®
Ġè» ¿
Ġè» Ī
Ġè» Ł
Ġä½ ¬
Ġä½ ·
Ġä½ ¸
Ġä½ »
Ġä½ Ĥ
Ġä½ Ĵ
ĠãĲ ¤
ĠãĲ ª
ĠãĲ ±
ĠãĲ Ħ
ĠãĲ ĭ
ĠãĲ ľ
ĠçĿ £
ĠçĿ ¼
ĠçĿ ¿
ĠçĿ Ĺ
Ġèĭ ¹
Ġèĭ º
Ġèĭ Ĥ
Ġèĭ ł
Ġï° ·
Ġï° ł
ĠçĹ ¢
ĠçĹ Ī
ĠçĹ Ķ
ĠêĲ ¹
ĠêĲ ĵ
ĠêĲ ł
Ġä¿ Ĥ
Ġä¿ ħ
Ġä¿ Ļ
Ġä¿ Ľ
Ġåĵ ¸
Ġåĵ »
Ġåĵ Ī
Ġïħ µ
Ġîµ ¨
Ġîµ ´
Ġîµ ¶
Ġîµ º
Ġçī ®
Ġçī ´
Ġçī ·
Ġçī Ľ
Ġçī Ń
Ġï¶ ¤
Ġï¶ ŀ
Ġï¶ ł
Ġé¥ ħ
Ġâ¢ °
Ġâ¢ ´
Ġâ¢ µ
Ġâ¢ ¹
Ġâ¢ ī
Ġâ® ¼
Ġâ® Į
Ġâ® ĳ
Ġâ® ĺ
Ġæ¿ «
Ġæ¿ Ĭ
Ġæ¿ ļ
Ġî¹ ¡
Ġî¹ ·
Ġî¹ »
Ġî¹ İ
ĠéĨ ľ
ĠçĬ ³
ĠçĬ ģ
ĠçĬ Ħ
ĠçĬ Ľ
ĠçĬ Ł
Ġà» °
Ġà» µ
Ġà» ¶
Ġæ© §
Ġæ© ´
Ġç¸ £
Ġç¸ ¤
Ġç¸ ´
Ġç¸ ħ
Ġç¸ ŀ
Ġïº ¢
Ġïº ¿
Ġïº Ģ
Ġïº Į
Ġáĳ ī
Ġáĳ ĺ
Ġáĳ ľ
Ġç¼ Ħ
Ġêī ±
Ġêī º
Ġêī ¼
Ġáĺ ¶
ĠîĽ į
ĠîĽ İ
ĠîĽ ķ
ĠîĽ Ń
Ġé¨ ¸
Ġé¨ Ĥ
Ġé¨ ĩ
Ġé© «
Ġé© ±
Ġé© ķ
Ġé© Ł
Ġé© ł
Ġé² ²
Ġé² ĵ
ĠçĲ ±
ĠçĲ ¼
ĠçĲ ĵ
ĠçĲ Ĺ
Ġï± ¡
Ġï± ¥
Ġï¹ ¿
Ġï¹ Ł
Ġî¶ ³
Ġî¶ ¹
Ġî¶ ¿
ĠçĢ Ķ
ĠçĢ ľ
ĠçĢ Ł
ĠãĴ ¯
ĠãĴ ±
ĠãĴ Ĵ
ĠãĴ ł
Ġî¾ ¡
Ġî¾ Ń
Ġïĵ ´
Ġïĵ Ĵ
Ġïĵ ĵ
Ġã³ µ
Ġã³ ĩ
Ġã³ ĳ
ĠîĹ ¢
ĠîĹ ¦
ĠîĹ «
ĠîĹ ±
ĠîĹ Ĩ
ĠçĪ ¶
ĠçĪ Ĥ
ĠçĪ Ĳ
ĠçĪ Ĺ
Ġê¥ ¦
Ġê¥ ¼
Ġê¥ ½
Ġê¥ Ķ
Ġê¥ ĸ
Ġã° Ħ
Ġà« ¥
Ġà« ±
Ġà« ²
Ġà« Ĩ
Ġé« ī
ĠãĬ ¤
ĠãĬ §
ĠãĬ ©
ĠãĬ ·
ĠãĬ ¹
ĠãĬ Ĭ
Ġå¡ ĵ
ĠéĬ ¹
ĠéĬ ¾
ĠéĬ ĸ
Ġê© ª
Ġê© ¬
Ġå° ļ
Ġå° ł
Ġåİ ¹
Ġåİ ¼
Ġåİ ĵ
Ġäĭ §
Ġäĭ ²
Ġäĭ ģ
Ġäĭ į
Ġäĭ ı
Ġäĭ ŀ
Ġã¡ ¡
Ġã¡ £
Ġã¡ ĵ
Ġçĭ ĳ
Ġçĭ Ľ
ĠåŃ ¥
ĠåŃ ĥ
Ġá« ´
Ġá« ¹
ĠáĲ ¾
ĠáĲ Ĥ
ĠáĲ ĥ
ĠáĲ ħ
ĠáĲ Ķ
Ġç½ ¶
Ġç½ ¸
Ġç½ ĵ
Ġæ¬ «
Ġæ¬ ¬
Ġæ¬ ·
Ġæ¬ ½
Ġæ¬ ĭ
Ġæ¬ Ľ
Ġæ¬ ľ
ĠæĶ ¥
ĠæĶ ĩ
ĠæĶ Ł
ĠæĶ Ń
ĠçĨ Ĭ
ĠçĨ ı
Ġå£ °
Ġå£ Į
Ġçĩ °
Ġçĩ Ħ
Ġçĩ į
Ġï³ ¦
Ġï³ ¼
Ġà¬ ª
ĠêĨ ·
ĠáĬ ģ
ĠáĬ ı
Ġéĺ ¯
Ġéĺ į
Ġéĺ ĵ
Ġéĺ Ŀ
ĠèĽ ¯
ĠïĲ Ĥ
ĠïĲ Ł
Ġáĸ ¤
Ġáĸ ª
Ġáĸ °
Ġáĸ ¾
Ġáĭ §
Ġáĭ «
Ġáĭ Ŀ
Ġáĵ ª
Ġáĵ ¯
Ġáĵ ģ
Ġáĵ Ľ
Ġà¢ ¢
Ġãĸ £
Ġãĸ ®
Ġãĸ ī
Ġãĸ Ļ
ĠîĪ ·
ĠîĪ »
ĠîĪ Ĵ
Ġäĸ ¤
Ġäĸ ª
Ġäĸ Ħ
ĠêĪ ¥
ĠêĪ »
ĠêĪ ī
ĠêĪ Ń
ĠäĹ ¦
ĠäĹ ¬
ĠäĹ Ĳ
ĠäĹ ļ
Ġã¤ Ķ
Ġã¤ ĺ
Ġè³ ³
Ġè³ Ħ
Ġç¥ ¤
Ġç¥ ĸ
ĠïĦ ¦
ĠïĦ ±
ĠïĦ ĥ
ĠïĦ ļ
ĠïĦ Ľ
ĠïĦ ł
Ġä¦ ¤
Ġä¦ Ŀ
Ġæ° ®
Ġæ° ĳ
Ġæł ĵ
Ġêģ ¾
Ġêģ ī
Ġáĩ ¨
Ġáĩ «
Ġáĩ ³
Ġáĩ ĵ
Ġà® ©
Ġà® ª
Ġà® ĳ
Ġà® Ĵ
ĠãŃ ©
ĠãŃ ¬
ĠãŃ Ľ
ĠãŃ ł
Ġé¡ ¨
Ġé¡ ³
Ġé¡ İ
Ġé¡ Ĵ
Ġé¡ Ĺ
Ġé¡ Ń
ĠïĢ ·
ĠïĢ Ŀ
ĠïĢ ŀ
Ġï´ ¬
Ġï´ ¿
Ġïĺ Ī
Ġïĺ ľ
Ġïĺ Ł
Ġå¬ ·
Ġå¬ Ģ
Ġå¬ ģ
Ġáį ¤
Ġáį ¥
Ġáį ¸
Ġáį Ľ
Ġã¬ ī
Ġã¬ Ĭ
Ġã¬ ľ
Ġåĥ ı
Ġåĥ ķ
Ġåĥ ļ
Ġåĥ Ŀ
Ġé³ ½
Ġé³ ĵ
Ġé³ ļ
Ġãī ¤
Ġãī §
Ġãī ¾
Ġãī ķ
Ġãī Ł
Ġãī Ń
Ġç¨ İ
Ġç¨ Ĵ
ĠåĴ ¦
ĠåĴ ª
Ġá£ ¬
Ġá£ ¿
Ġá£ ķ
Ġá£ ł
ĠéĲ ª
ĠéĲ ¶
ĠéĲ Ĳ
ĠåĨ ²
ĠåĨ Ķ
ĠåĨ ĸ
ĠåĨ Ń
Ġã¨ ®
Ġã¨ ¯
Ġãĩ §
ĠæĪ °
ĠæĪ µ
ĠæĪ ħ
ĠæĪ ī
ĠãĢ ¥
ĠãĢ ¨
ĠãĢ ŀ
Ġîĭ ¡
Ġîĭ ¥
Ġîĭ ¦
Ġîĭ ¬
Ġîĭ ´
Ġîĭ Ģ
ĠåĮ ±
ĠåĮ ¶
ĠåĮ º
ĠåĮ ĥ
ĠåĮ Ŀ
Ġåĸ ĵ
Ġêĭ ¡
Ġêĭ ¥
Ġêĭ ¹
Ġêĭ ģ
Ġêĭ Ŀ
Ġêĭ ŀ
Ġêĭ Ń
Ġç³ ¾
Ġç³ ĳ
ĠáĮ Ĭ
ĠáĮ ĵ
ĠáĮ Ń
Ġè¹ ¤
Ġè¹ µ
Ġè¹ Ľ
ĠãĹ ¾
ĠãĹ Ĳ
ĠãĹ Ķ
Ġîĸ ¡
Ġîĸ ¨
Ġîĸ ¯
Ġïľ ®
Ġïľ µ
Ġïľ ĸ
ĠéĪ Ħ
ĠéĪ ľ
Ġç£ ²
Ġå« ®
Ġå« ³
Ġå« ŀ
ĠïĶ º
ĠïĶ Ĭ
ĠïĶ ĳ
ĠïĶ Ļ
Ġã£ ·
Ġã£ ¼
Ġã£ ĭ
Ġã£ Ĵ
Ġã£ ķ
Ġî² ¡
Ġî² ¬
Ġî² »
Ġî² Ŀ
Ġêł ¯
Ġêł ±
Ġêł ³
Ġêł ŀ
ĠèĨ º
ĠèĨ ¾
Ġä® «
Ġä® ´
Ġä® µ
Ġä® ŀ
Ġéī ©
Ġéī ¾
Ġéī Ģ
Ġéī ı
Ġéī Ļ
Ġæ¢ ģ
Ġæ¢ Ń
Ġè¼ ħ
Ġè¼ Ĩ
ĠãĻ ¸
ĠãĻ Ĺ
Ġêĩ ¥
Ġêĩ ¨
Ġêĩ ı
Ġêĩ ķ
Ġêĩ Ń
Ġï¡ ª
Ġï¡ ±
ĠãĪ £
Ġåģ §
Ġåģ »
Ġåģ ĩ
Ġåģ ī
Ġåģ Ķ
Ġåģ Ĺ
Ġåģ ļ
Ġãĺ ¡
Ġãĺ ¬
Ġãĺ ¶
Ġãĺ Ħ
Ġé¼ ©
Ġåŀ ĥ
Ġåŀ ĵ
Ġåŀ ł
ĠáĻ ³
Ġã« µ
ĠéĤ £
ĠéĤ Ģ
ĠéĤ Ń
ĠéĦ º
ĠéĦ ½
ĠéĦ ī
Ġê¯ ²
Ġê¯ Ĭ
Ġê¯ ļ
Ġå¨ ´
Ġå¨ Ŀ
Ġáī §
Ġáī »
Ġã¥ ®
Ġã¥ ģ
Ġã¥ Ĩ
ĠîĨ ®
ĠîĨ Ł
ĠîĨ ł
Ġá¥ º
Ġç« ĩ
Ġç« ĵ
Ġâł İ
ĠåĦ ī
ĠåĦ ĵ
Ġá¨ ¤
Ġá¨ ¨
Ġá¨ ´
ĠçĤ ¢
ĠçĤ £
ĠçĻ ¬
ĠçĻ °
ĠçĻ İ
ĠçĻ ĸ
ĠáĹ ĩ
ĠéĶ ¥
ĠéĶ ©
ĠéĶ ĵ
ĠéĶ Ļ
ĠéĶ Ľ
ĠéĶ ł
Ġáł Ĳ
Ġæ¯ ¿
Ġæ¯ Ĩ
Ġç¬ ª
Ġç¬ Ł
ĠáĿ ¼
ĠáĿ ı
ĠáĿ Ļ
Ġçł ©
Ġçł Ķ
Ġïĭ ®
Ġïĭ ±
Ġïĭ ¶
Ġïĭ ı
Ġïĭ Ĺ
Ġáľ ¬
Ġáľ Ļ
Ġáľ Ł
ĠêĢ ½
ĠêĢ Ĵ
ĠêĢ Ľ
ĠêĢ ŀ
ĠêĻ ¥
ĠêĻ Ĥ
ĠêĻ ĥ
ĠêĻ ŀ
Ġç¤ ĩ
Ġç¤ ı
ĠèĪ ¾
Ġà¼ ¢
Ġà¼ ¤
Ġà¼ Ĵ
ĠïŃ «
ĠïŃ ´
ĠïŃ ĸ
Ġãł ³
ĠïĽ ©
ĠïĽ ŀ
Ġà³ ª
Ġà³ ¯
Ġéķ «
Ġéķ Ĭ
Ġçĸ ©
ĠïĻ ĵ
Ġåł ģ
Ġåł ĥ
Ġåļ Ħ
Ġáĥ ¯
Ġáĥ ĥ
Ġáĥ ĵ
Ġà§ ¶
Ġà§ ī
Ġà§ Ķ
Ġáŀ ī
Ġáŀ ĭ
Ġáŀ ĸ
Ġáŀ ļ
Ġà° ĺ
Ġê¦ ¬
Ġê¦ Ľ
Ġê¦ ľ
Ġê¢ ¨
Ġê¢ Ļ
ĠàŃ ®
ĠàŃ İ
ĠàŃ ı
ĠàŃ Ł
Ġà© Ĩ
Ġà© Ŀ
Ġà¯ ¾
Ġà¯ ¿
ĠáĴ ²
ĠáĴ Ŀ
ĠáŃ ª
ĠáŃ ¶
ĠáŃ ĵ
ĠáŃ ł
Ġà· ¯
Ġê£ »
Ġê£ ī
Ġê£ Ķ
Ġê¨ ģ
Ġê¨ ŀ
Ġï¬ ¢
Ġï¬ ĭ
Ġï¬ ļ
Ġï¬ ł
ĠáĦĨáħ¨áĨ ·
Ġà¥ ¥
Ġà¥ ¿
Ġà± «
Ġà± ¬
Ġà± ¿
Ġà± ĺ
ĠáĤ Ĺ
Ġá¤ Ģ
Ġá¤ Ħ
Ġá¤ ĵ
Ġá¤ ŀ
ĠáĦĨáħ³áĨ ¨
Ġá¬ ¢
Ġá¬ ¦
ĠáĦĨáħ¡áĨ ¨
ĠáĦĨáħ¡áĨ ¯
ĠáĦĨáħ¡áĨ ¼
Ġà½ ĺ
Ġï« «
Ġï« »
ĠáĦĨáħ©áĨ ·
ĠáĦĨáħ©áĨ ¹
ĠáĦĨáħ©áĨ ¿
Ġá° ¸
Ġá° ¹
Ġá° į
ĠáĦĬáħ¯áĨ ¯
ĠáĦĬáħ¯áĨ º
Ġàł ³
Ġàł ¿
Ġàł ı
Ġàł Ĵ
Ġáģ ĭ
Ġáģ Į
ĠáĦĥáħ¨áĨ ©
ĠáĦĥáħ§áĨ ¨
ĠáĦĥáħ§áĨ ©
Ġá³ ±
Ġá³ º
Ġá³ ħ
Ġâ· Ģ
Ġâ· ı
ĠáŁ £
ĠáĦĢáħ«áĨ ¨
ĠáĦĢáħ«áĨ «
ĠáĦħáħ«áĨ º
ĠáĦĭáħ´áĨ ¶
ĠáĦĭáħ´áĨ ¿
ĠáĦĴáħµáĨ «
ĠáĦĴáħµáĨ ®
ĠáĦĳáħ¦áĨ ¶
ĠáĦĳáħ¦áĨ ½
ĠáĦħáħ¤áĨ °
ĠáĦħáħ¤áĨ ±
ĠáĦħáħ¤áĨ ¼
ĠáĦħáħ¤áĨ ¿
ĠáĦĭáħ³áĨ ¨
ĠáĦĭáħ³áĨ ¯
ĠáĦĭáħ³áĨ º
ĠáĦģáħŃáĨ ®
ĠáĦĢáħ®áĨ ´
ĠáĦĮáħŃáĨ ª
ĠáĦĮáħŃáĨ ±
ĠáĦĮáħŃáĨ ¶
ĠáĦĳáħ¨áĨ ª
ĠáĦĳáħ¨áĨ ´
ĠáĦĳáħ¨áĨ ¾
ĠáĦĳáħ§áĨ ©
ĠáĦĳáħ§áĨ ª
ĠáĦĳáħ§áĨ ®
ĠáĦĳáħ§áĨ ±
ĠáĦĳáħ§áĨ ¿
ĠáĦĥáħ¦áĨ ¯
ĠáĦĥáħ¦áĨ ·
ĠáĦĥáħ¦áĨ »
ĠáĦĬáħ¨áĨ °
ĠðĿķ Ŀ
ĠáĦĬáħ¥áĨ ª
ĠáĦĬáħ¥áĨ ®
ĠáĦĬáħ¥áĨ º
ĠáĦĬáħ²áĨ »
ĠáĦĬáħ²áĨ ¼
ĠáĦĭáħ«áĨ ©
ĠáĦĭáħ«áĨ Ń
ĠáĦĮáħ®áĨ ©
ĠáĦĮáħ®áĨ ¿
ĠáĦĬáħ§áĨ ¨
ĠáĦĬáħ§áĨ ®
ĠáĦĬáħ§áĨ °
ĠáĦĬáħ§áĨ µ
ĠáĦĬáħ§áĨ »
ĠáĦĬáħ§áĨ ½
Ġï¸ °
Ġï¸ ´
ĠáĦģáħ¤áĨ ¬
ĠáĦģáħ¤áĨ °
ĠáĦģáħ¤áĨ ¸
ĠáĦģáħ¤áĨ ¹
ĠáĦħáħµáĨ ¬
ĠáĦħáħµáĨ ¸
ĠáĦģáħ¦áĨ »
ĠáĦĩáħ«áĨ ©
ĠáĦĩáħ«áĨ ±
ĠáĦĩáħ«áĨ ½
ĠáĦħáħ¡áĨ µ
ĠáĦģáħ«áĨ º
ĠáĦĮáħµáĨ º
ĠáĦĮáħµáĨ ¾
ĠáĦįáħ¯áĨ ¿
ĠáĦĴáħ³áĨ ¶
ĠáĦĮáħ¬áĨ ¼
ĠáĦĢáħ¥áĨ º
ĠáĦĢáħ¥áĨ Ń
ĠáĦİáħ£áĨ ±
ĠáĦİáħ£áĨ »
ĠáĦĬáħ¤áĨ ²
ĠáĦĬáħ¤áĨ ·
ĠáĦĬáħ¤áĨ »
ĠáĦĬáħ¤áĨ ¼
ĠáĦħáħ´áĨ ©
ĠáĦĨáħ§áĨ ª
ĠáĦĨáħ§áĨ ¼
ĠáĦĭáħ¨áĨ ®
ĠáĦĮáħ²áĨ ®
ĠáĦĢáħ¯áĨ ©
ĠáĦĢáħ¯áĨ ¸
ĠáĦĢáħ¯áĨ ¿
ĠáĦįáħ±áĨ «
ĠáĦįáħ±áĨ Ń
ĠáĦīáħ²áĨ ²
ĠáĦīáħ²áĨ µ
ĠáĦīáħ²áĨ ¹
ĠáĦĥáħ¢áĨ ½
ĠáĦĩáħ²áĨ ¨
ĠáĦĦáħ°áĨ ·
ĠáĦĦáħ°áĨ Ń
ĠáĦħáħ¢áĨ ²
ĠáĦħáħ¢áĨ µ
ĠáĦħáħ¢áĨ ¶
ĠáĦĨáħ´áĨ ¹
ĠáĦĨáħ´áĨ ¾
ĠáĦĨáħ´áĨ Ń
ĠáĦĩáħ±áĨ ¬
ĠáĦĩáħ±áĨ ¸
ĠáĦĩáħ±áĨ ¹
ĠáĦģáħªáĨ ®
ĠáĦĭáħ®áĨ ±
ĠáĦĭáħ®áĨ ·
ĠáĦĭáħ®áĨ ¾
ĠáĦħáħ¬áĨ ´
ĠáĦħáħ¬áĨ Ń
ĠáĦİáħ©áĨ ³
ĠáĦİáħªáĨ ¼
ĠáĦĨáħ«áĨ ¬
ĠáĦĭáħ¢áĨ ¨
ĠáĦĭáħ¢áĨ «
ĠáĦĭáħ¢áĨ ´
ĠáĦĭáħ¢áĨ ½
ĠáĦĭáħ¢áĨ ¾
ĠáĦīáħ¤áĨ ¾
ĠáĦĪáħµáĨ ¹
ĠáĦĪáħµáĨ ¾
ĠáĦĪáħµáĨ ¿
ĠáĦĬáħ«áĨ ´
ĠáĦĬáħ«áĨ ¹
ĠáĦıáħ¬áĨ ª
ĠáĦĬáħ®áĨ Ń
ĠáĦĢáħµáĨ ©
ĠáĦĢáħµáĨ ±
ĠáĦĢáħµáĨ ²
ĠáĦĢáħµáĨ ¶
ĠáĦĢáħµáĨ »
ĠáĦĩáħ°áĨ ¨
ĠáĦĩáħ°áĨ «
ĠáĦĩáħ°áĨ °
ĠáĦĩáħ°áĨ »
ĠáĦĢáħ²áĨ «
ĠáĦįáħ²áĨ ®
ĠáĦİáħ¬áĨ °
ĠáĦİáħ¬áĨ ¶
ĠáĦĴáħ¬áĨ ©
ĠáĦĴáħ¬áĨ Ń
ĠáĦĳáħ¥áĨ ¯
ĠáĦĳáħ¥áĨ ¶
ĠáĦĩáħ´áĨ ¨
ĠáĦĩáħ´áĨ «
ĠáĦĩáħ´áĨ ®
ĠáĦĩáħ´áĨ Ń
ĠáĦĦáħ®áĨ ³
ĠáĦĦáħ®áĨ ·
ĠáĦĬáħ¦áĨ °
ĠáĦĮáħ¡áĨ Ń
ĠáĦıáħ£áĨ ¶
ĠáĦıáħ£áĨ ¹
ĠáĦİáħ±áĨ ®
ĠáĦİáħ±áĨ ³
ĠáĦİáħ±áĨ ´
ĠáĦĨáħ¤áĨ ²
ĠáĦĨáħ¤áĨ ¸
ĠáĦĨáħ°áĨ ®
ĠáĦĨáħ°áĨ ³
ĠáĦģáħ¯áĨ º
ĠáĦĬáħ°áĨ «
ĠáĦĪáħ¬áĨ ¶
ĠáĦĪáħ¬áĨ »
ĠáĦģáħ§áĨ ¶
ĠáĦģáħ§áĨ ¿
ĠáĦĳáħ¤áĨ ¬
ĠáĦĳáħ¤áĨ ®
ĠáĦĳáħ¤áĨ ¶
ĠáĦĳáħ¤áĨ ¼
ĠáĦĳáħ¤áĨ Ń
ĠáĦĬáħ©áĨ «
ĠáĦĬáħ©áĨ °
ĠáĦĬáħ©áĨ »
ĠáĦīáħ´áĨ ª
ĠáĦĪáħŃáĨ ®
ĠáĦĪáħŃáĨ Ń
ĠáĦĭáħ²áĨ º
ĠáĦĭáħ£áĨ »
ĠáĦĭáħ£áĨ ¿
ĠáĦĥáħ³áĨ ´
ĠáĦĥáħ³áĨ ·
ĠáĦĥáħ³áĨ ½
ĠáĦĮáħ³áĨ °
ĠáĦĮáħ³áĨ ¿
ĠáĦĥáħ£áĨ ¹
ĠáĦĥáħ£áĨ »
ĠáĦıáħ©áĨ ¶
ĠáĦģáħ³áĨ ·
ĠáĦĩáħ¯áĨ ·
ĠáĦĩáħ¯áĨ ¾
ĠáĦĲáħ¢áĨ ³
ĠáĦĮáħ¥áĨ ¶
ĠáĦĮáħ¥áĨ ¸
ĠáĦĮáħ¥áĨ ¹
ĠáĦĮáħ¥áĨ Ń
ĠáĦĩáħ¢áĨ ¼
ĠáĦīáħ£áĨ µ
ĠáĦīáħ£áĨ ¼
ĠáĦģáħ¡áĨ µ
ĠáĦĴáħ±áĨ ´
ĠáĦĴáħ±áĨ ¹
ĠáĦĳáħ¡áĨ ®
ĠáĦĳáħ¡áĨ ´
ĠáĦĳáħ¡áĨ ¹
ĠáĦĢáħ©áĨ µ
ĠáĦİáħµáĨ °
Ġâĥ ¸
Ġâĥ ¾
Ġâĥ ı
ĠáĦģáħ®áĨ ¶
ĠáĦĭáħŃáĨ ²
ĠáĦĩáħªáĨ ©
ĠáĦĩáħªáĨ ´
ĠáĦĥáħ²áĨ °
ĠáĦĳáħ±áĨ ¨
ĠáĦĳáħ±áĨ ©
ĠáĦĳáħ±áĨ ³
ĠáĦįáħ°áĨ ®
ĠáĦįáħ°áĨ ¯
ĠáĦıáħ¡áĨ ¿
ĠáĦģáħ©áĨ ¼
ĠáĦģáħ©áĨ Ń
ĠáĦĪáħ´áĨ µ
ĠáĦĦáħ¯áĨ ¯
ĠáĦĦáħ¯áĨ ¼
ĠáĦĦáħ±áĨ ¬
ĠáĦĦáħ±áĨ ³
ĠáĦĳáħ©áĨ µ
ĠáĦĳáħ©áĨ º
ĠáĦĬáħ±áĨ ¸
ĠáĦįáħ³áĨ «
ĠáĦĤáħ¢áĨ ´
ĠáĦģáħ°áĨ ®
ĠáĦģáħ°áĨ ¶
ĠáĦĳáħ³áĨ ±
ĠáĦĳáħ³áĨ ¸
Ġá© ħ
ĠáĦĮáħ¯áĨ ¬
ĠáĦĮáħ¯áĨ ¸
ĠáĦīáħ±áĨ ¯
ĠáĦīáħ±áĨ ³
ĠáĦĬáħŃáĨ °
ĠáĦĬáħŃáĨ ¼
ĠáĦĥáħŃáĨ ´
ĠáĦİáħ§áĨ ¬
ĠáĦİáħ§áĨ °
ĠáĦİáħ§áĨ ¶
ĠáĦİáħ§áĨ ·
ĠáĦİáħ¯áĨ ¸
ĠáĦİáħ¯áĨ ¾
ĠáĦīáħ¢áĨ «
ĠáĦīáħ¢áĨ ²
ĠáĦīáħ¢áĨ ·
ĠáĦĨáħ¯áĨ ¹
ĠáĦĨáħ¥áĨ ´
ĠáĦĨáħ¥áĨ ¼
ĠáĦĮáħ´áĨ ©
ĠáĦĮáħ´áĨ ²
ĠáĦĢáħŃáĨ «
ĠáĦİáħŃáĨ º
ĠáĦİáħŃáĨ »
ĠáĦīáħ§áĨ ¸
ĠáĦıáħ¨áĨ º
ĠáĦıáħ¨áĨ ¼
ĠáĦįáħ§áĨ ¹
ĠáĦħáħ³áĨ ±
ĠáĦħáħ³áĨ »
ĠáĦĳáħ¬áĨ ª
ĠáĦĩáħ¤áĨ ®
ĠáĦĩáħ¤áĨ ´
ĠáĦİáħ¨áĨ ª
ĠáĦİáħ¨áĨ ²
ĠáĦİáħ¨áĨ Ń
ĠáĦīáħ°áĨ ©
ĠáĦīáħ°áĨ ±
ĠáĦīáħ°áĨ ´
ĠáĦīáħ°áĨ µ
ĠáĦĮáħ¨áĨ ¶
ĠáĦĮáħ¨áĨ Ń
ĠáĦĩáħ£áĨ ©
ĠáĦĩáħ£áĨ ª
ĠáĦĩáħ£áĨ ´
ĠáĦĩáħ£áĨ ¶
ĠáĦĨáħ¦áĨ ¯
ĠáĦĨáħ¦áĨ ´
ĠáĦĨáħ¦áĨ º
ĠáĦįáħ¦áĨ «
ĠáĦĢáħªáĨ º
Ġà£ Ĭ
ĠáĦĮáħ±áĨ ¨
ĠáĦĥáħ¡áĨ ©
ĠáĦĥáħ¡áĨ ´
ĠáĦĢáħ´áĨ ¹
ĠáĦĢáħ´áĨ º
ĠáĦĢáħ´áĨ ¼
ĠáĦĳáħ²áĨ ®
ĠáĦĳáħ²áĨ ¸
ĠáĦĳáħ²áĨ Ń
ĠáĦĴáħŃáĨ ¬
ĠáĦĴáħŃáĨ ´
ĠáĦĪáħ²áĨ ¬
ĠáĦĪáħ²áĨ ³
ĠáĦĪáħ²áĨ ¼
ĠáĦĪáħ¯áĨ ·
ĠáĦıáħ²áĨ ¨
ĠáĦıáħ²áĨ ¹
ĠáĦĨáħ®áĨ ½
ĠáĦĴáħ°áĨ ¨
ĠáĦĴáħ°áĨ ¼
ĠáĦĲáħ±áĨ ·
ĠáĦĲáħ±áĨ º
ĠáĦĬáħ¡áĨ ·
ĠáĦĭáħ¡áĨ ²
ĠáĦĭáħ¡áĨ ´
ĠáĦīáħ©áĨ ¿
ĠáĦīáħªáĨ ±
ĠáĦīáħ¥áĨ ¬
ĠáĦīáħ¥áĨ ´
ĠáĦĪáħ¥áĨ ª
ĠáĦıáħŃáĨ Ń
ĠáĦĭáħ©áĨ µ
ĠáĦĭáħ©áĨ ¶
ĠáĦĭáħ¯áĨ «
ĠáĦĭáħ¯áĨ °
ĠáĦĭáħ¯áĨ ¶
ĠáĦĭáħ¯áĨ ¸
ĠáĦįáħ¨áĨ ·
ĠáĦįáħ¨áĨ »
ĠáĦįáħ¨áĨ ¾
ĠáĦįáħ¨áĨ ¿
ĠáĦīáħ¬áĨ ¨
ĠáĦīáħ¬áĨ ¸
ĠáĦīáħ¬áĨ ¾
ĠáĦĬáħ¢áĨ ¨
ĠáĦĬáħ¢áĨ ¶
ĠáĦĦáħ¨áĨ ¯
ĠáĦİáħ¢áĨ ª
ĠáĦĪáħ¡áĨ ¨
ĠáĦĲáħ¡áĨ ¶
ĠáĦĲáħªáĨ ¼
ĠáĦĬáħ´áĨ »
ĠáĦĬáħ´áĨ ½
ĠáĦįáħ¤áĨ ¨
ĠáĦıáħ«áĨ ¼
ĠáĦĩáħŃáĨ µ
ĠáĦĩáħŃáĨ ¹
ĠáĦĩáħŃáĨ ¿
ĠáĦĨáħ£áĨ µ
ĠáĦĨáħ£áĨ ¶
ĠáĦĨáħ£áĨ ¸
ĠáĦĨáħ£áĨ ¼
ĠáĦħáħ¯áĨ º
ĠáĦħáħ¯áĨ ¼
ĠáĦģáħ¨áĨ µ
ĠáĦĭáħ§áĨ ®
ĠáĦĭáħ§áĨ »
ĠáĦĳáħ¯áĨ ª
ĠáĦĳáħ¯áĨ Ń
ĠáĦĤáħ´áĨ ª
ĠáĦĳáħ«áĨ ²
ĠáĦĳáħ«áĨ ´
ĠáĦĳáħ«áĨ ¾
ĠáĦİáħ«áĨ ¬
ĠáĦħáħ¦áĨ ±
ĠáĦĮáħªáĨ »
ĠáĦĤáħ³áĨ ´
ĠáĦĤáħ³áĨ ¿
ĠáĦĥáħ«áĨ µ
ĠáĦĢáħ§áĨ °
ĠáĦĢáħ§áĨ ±
ĠáĦĢáħ§áĨ »
ĠáĦĢáħ§áĨ Ń
ĠáĦĩáħ¡áĨ ¸
ĠáĦĴáħ¤áĨ ±
ĠáĦĴáħ¤áĨ º
ĠáĦīáħ³áĨ ¸
ĠáĦīáħ³áĨ ¼
ĠáĦħáħ§áĨ ¯
ĠáĦıáħ¢áĨ ½
ĠáĦıáħªáĨ ±
ĠáĦıáħªáĨ ¹
ĠáĦĲáħ¨áĨ ±
ĠáĦıáħ°áĨ ®
ĠáĦıáħ°áĨ µ
ĠáĦĲáħ¥áĨ ¬
ĠáĦĤáħ¤áĨ ®
ĠáĦĤáħ¤áĨ º
ĠáĦĦáħ³áĨ ¨
ĠáĦĦáħ³áĨ ´
ĠáĦĦáħ³áĨ Ń
ĠáĦĨáħªáĨ ®
ĠáĦĬáħ£áĨ ¯
ĠáĦĬáħ£áĨ ³
ĠáĦĬáħ£áĨ ½
ĠáĦĩáħ³áĨ ¸
ĠáĦĴáħªáĨ º
ĠáĦīáħ¦áĨ ¶
ĠáĦħáħ®áĨ ²
ĠáĦĭáħªáĨ ´
ĠáĦįáħ£áĨ ¬
ĠáĦīáħ¨áĨ ±
ĠáĦīáħ¨áĨ µ
ĠáĦĪáħ«áĨ «
ĠáĦĢáħ¡áĨ ´
ĠáĦįáħ¥áĨ µ
ĠáĦįáħ¥áĨ Ń
ĠáĦĦáħ«áĨ ²
ĠáĦĦáħ«áĨ Ń
ĠáĦĦáħµáĨ ²
ĠáĦĢáħ¨áĨ ´
ĠáĦĩáħ¦áĨ »
ĠáĦĥáħ®áĨ ©
ĠáĦįáħ¢áĨ ©
ĠáĦįáħ¢áĨ «
ĠáĦīáħ¡áĨ »
ĠáĦīáħ¡áĨ ¾
ĠáĦĤáħ²áĨ ½
ĠáĦĮáħ°áĨ Ń
ĠáĦįáħµáĨ ³
ĠáĦįáħµáĨ ¸
ĠáĦįáħµáĨ Ń
ĠáĦĳáħ°áĨ Ń
ĠáĦĪáħ©áĨ ½
ĠáĦĲáħ§áĨ »
ĠáĦİáħ³áĨ ª
ĠáĦĴáħ«áĨ ¶
ĠáĦĴáħ«áĨ ¼
ĠáĦıáħ¦áĨ «
ĠáĦıáħ¦áĨ ®
ĠáĦıáħ¦áĨ ¿
ĠáĦĢáħ£áĨ ¹
ĠáĦĢáħ£áĨ Ń
ĠáĦĩáħ¬áĨ ¼
ĠáĦĤáħ¨áĨ ¿
ĠáĦĨáħ¬áĨ ²
ĠáĦĴáħ¡áĨ ¬
ĠáĦĴáħ¡áĨ º
ĠáĦĲáħ²áĨ ¨
ĠáĦĲáħ²áĨ ¬
ĠáĦĮáħ«áĨ ´
ĠáĦİáħ¥áĨ ©
ĠáĦĭáħ¥áĨ ª
ĠáĦĭáħ¥áĨ º
ĠáĦĮáħ¤áĨ ¸
ĠáĦĴáħ²áĨ ©
ĠáĦĴáħ²áĨ ¾
ĠáĦĲáħµáĨ «
ĠáĦĲáħµáĨ ²
ĠáĦĤáħ¡áĨ »
ĠáĦĴáħ£áĨ ´
ĠáĦĦáħ¢áĨ ¨
ĠáĦĦáħ¢áĨ ¸
ĠáĦĦáħ¥áĨ ª
ĠáĦİáħ¦áĨ ¹
ĠáĦĦáħ£áĨ ·
ĠáĦĦáħ£áĨ »
ĠáĦĳáħªáĨ ¾
ĠáĦıáħ¥áĨ Ń
ĠáĦİáħ´áĨ ´
ĠáĦİáħ´áĨ »
ĠáĦĪáħ§áĨ ¶
ĠáĦĪáħ§áĨ ½
ĠáĦĦáħ¦áĨ ¸
ĠáĦĦáħ¤áĨ µ
ĠáĦĲáħ®áĨ ±
ĠáĦĩáħ¨áĨ ¾
ĠáĦıáħµáĨ ª
ĠáĦİáħ¤áĨ ©
ĠáĦĭáħ¬áĨ ¼
ĠáĦıáħ§áĨ ¼
ĠáĦĤáħ«áĨ ¯
ĠáĦĥáħ¬áĨ ¨
ĠáĦıáħ³áĨ ½
ĠáĦİáħ°áĨ µ
ĠáĦĦáħ¡áĨ ²
ĠáĦĪáħ¤áĨ ²
ĠáĦĪáħ¤áĨ ½
ĠáĦħáħŃáĨ ±
ĠáĦħáħŃáĨ ²
ĠáĦħáħŃáĨ µ
ĠáĦĥáħ°áĨ ¨
ĠáĦĳáħ´áĨ ¨
ĠáĦĳáħ´áĨ ¾
ĠáĦıáħ®áĨ «
ĠáĦıáħ®áĨ »
ĠáĦĲáħ¤áĨ ¼
ĠáĦĲáħ¤áĨ Ń
ĠáĦĲáħ°áĨ º
ĠáĦĲáħ°áĨ ¼
ĠáĦĥáħ¯áĨ ¯
ĠáĦĲáħŃáĨ ´
ĠáĦĲáħŃáĨ ¶
ĠáĦĲáħŃáĨ »
ĠáĦģáħ´áĨ ´
ĠáĦĴáħ®áĨ ¬
ĠáĦĴáħ®áĨ Ń
ĠáĦıáħ´áĨ ®
ĠáĦĲáħ©áĨ ³
ĠáĦĤáħŃáĨ ¶
ĠáĦĤáħµáĨ ª
ĠáĦĤáħµáĨ ®
ĠáĦıáħ±áĨ »
ĠáĦıáħ±áĨ ½
ĠáĦĦáħ¬áĨ ¾
ĠáĦĩáħ¥áĨ µ
ĠáĦĩáħ¥áĨ Ń
ĠáĦĩáħ§áĨ ¯
ĠáĦĩáħ§áĨ ¼
ĠáĦĲáħ«áĨ ¬
ĠáĦĤáħªáĨ ª
ĠáĦĤáħªáĨ ¸
ĠáĦıáħ¤áĨ ®
ĠáĦĬáħµáĨ ´
ĠáĦİáħ®áĨ ª
ĠáĦĤáħ®áĨ Ń
ĠáĦģáħ²áĨ ·
ĠáĦģáħ²áĨ Ń
ĠáĦĤáħ¥áĨ ¨
ĠáĦĤáħ¥áĨ ´
ĠáĦĤáħ¥áĨ ¶
ĠáĦĪáħ³áĨ ¶
ĠáĦĳáħ®áĨ ª
ĠáĦĳáħ®áĨ µ
Ġòī »»
Ġóģ ®Ľ
Ġá½ ¾
Ġð¢¡ Ħ
¡ ¦
¡ ¸
¡ ¿
¡ ĩ
¡ Ļ
¢ ¢
¢ ¥
¢ ·
¢ ¼
£ ©
£ ¹
£ »
£ Ĭ
£ ı
£ ľ
¤ į
¤ ĺ
¤ ŀ
¥ ¨
¥ Ĩ
¥ Ĺ
¥ Ľ
¦ ©
¦ ¹
§ ¯
¨ º
¨ ¾
¨ ī
¨ ķ
¨ ĸ
© £
© ¶
© ħ
© Ĩ
ª İ
ª ı
ª Ĺ
ª Ń
« £
« ¦
« ²
« º
« Ŀ
¬ ¨
¬ ¹
¬ ĳ
¬ Ķ
¯ ¨
¯ ¶
¯ ·
¯ ¾
¯ ĳ
¯ Ĺ
¯ ł
° °
° ´
° º
° į
° Ł
± ¡
± £
± ¥
± µ
± ¶
± ½
± ¿
± ĵ
± ĺ
² §
² µ
² ¾
² ĵ
² ĺ
² Ľ
³ ®
³ ¸
³ ĩ
³ ı
´ «
´ ·
´ ¿
´ Ģ
´ Ĳ
µ £
µ Ķ
µ ļ
µ Ń
¶ ±
¶ ³
¶ ´
¶ ¸
¶ ¿
¶ Ĩ
¶ Į
· Ħ
· Ĳ
· Ķ
· ĺ
¸ §
¸ ±
¸ ³
¸ Ĥ
¸ ħ
¸ ī
¸ ĸ
¸ Ŀ
¹ ±
¹ į
º «
º ±
º »
º ¼
º ı
º Ĵ
º ĸ
º ļ
º Ľ
» ´
» ħ
» ĩ
» Ī
» ĵ
¼ ª
¼ ¬
¼ ²
¼ µ
¼ ¿
¼ ĩ
½ ¢
½ «
½ Ķ
¾ ¥
¾ ®
¾ ±
¾ Į
¾ İ
¾ Ĺ
¿ £
¿ ¨
¿ ¬
¿ ¹
¿ ¿
¿ Ļ
Ģ §
ģ £
ģ «
ģ »
Ĥ İ
ĥ ģ
ĥ Į
ĥ Ŀ
ĥ Ń
Ħ ´
Ħ Ĥ
Ħ Ī
Ħ Ń
ħ ¿
ħ ħ
ħ İ
ħ ĺ
Ĩ ®
Ĩ ģ
Ĩ İ
Ĩ Ļ
ĩ ¶
ĩ ¾
Ī £
Ī §
Ī ³
Ī ·
Ī ľ
ī ²
ī µ
ī ¼
ī ģ
ī Ľ
ī Ł
Ĭ ¬
Ĭ ½
Ĭ ĳ
Ĭ Ľ
Ĭ ľ
Ĭ Ń
ĭ ¥
ĭ ª
ĭ »
ĭ ½
ĭ ĩ
ĭ Ń
Į ¶
Į º
Į »
Į ı
Į Ĺ
Į Ľ
į ¡
į ¦
į º
į Ĥ
į ĭ
İ ¤
İ µ
İ ĥ
İ ļ
ı ¦
ı Ļ
Ĳ §
Ĳ ©
Ĳ ¶
Ĳ ¿
Ĳ Ĭ
ĳ ¢
ĳ °
ĳ ¼
ĳ Ĩ
ĳ Į
Ĵ ¤
Ĵ ²
Ĵ ĸ
Ĵ ł
Ĵ Ń
ĵ ¬
ĵ °
ĵ ´
ĵ ¸
ĵ ¿
ĵ ĥ
ĵ ī
Ķ ¨
Ķ °
Ķ ³
Ķ ´
Ķ µ
Ķ Į
Ķ İ
Ķ ľ
ķ §
ķ ³
ķ ¹
ķ Ģ
ķ ı
ķ ŀ
ĸ £
ĸ ·
ĸ ¸
ĸ Į
ĸ Ĵ
ĸ Ļ
ĸ Ŀ
Ĺ Ļ
Ĺ ł
Ĺ Ń
ĺ §
ĺ ±
ĺ ¶
ĺ ·
ĺ Ĭ
Ļ ¢
Ļ ª
Ļ Ī
Ļ Ĵ
Ļ Ł
ļ £
ļ ¶
ļ ħ
ļ Ł
Ľ ¨
Ľ ¿
Ľ ī
Ľ Ľ
ľ ¯
ľ į
ľ ı
ľ Ŀ
Ŀ £
Ŀ ©
Ŀ ¹
Ŀ ı
ŀ °
ŀ ´
ŀ ĥ
ŀ į
ŀ ķ
ŀ Ŀ
Ł £
Ł ¦
Ł ¸
Ł Ĵ
Ł ľ
ł ¤
ł Ĩ
Ń ¬
Ń ®
Ń Ļ
Ń ŀ
Ġï¿ ¦
Ġï¿ ¨
Ġï¿ ª
Ġï¿ ®
Ġï¿ ī
Ġï¿ ļ
Ġï¿ ŀ
ĠâĢ ´
ĠâĻ ģ
ĠâĻ Ĥ
ĠâĻ ĭ
ĠáĦ °
ĠáĦ ¼
Ġà¤ Ħ
Ġâĸ ¨
Ġâĸ ±
Ġâĸ ²
Ġâĸ ¼
Ġâĸ ľ
Ġâĸ Ń
ĠáĦĨáħ ¢áĩĤ
ĠáĦĨáħ ¤áĩģ
ĠáĦĬáħ Ń
ĠáĦĬáħ °áĩģ
ĠáĦĬáħ ¦áĩĤ
ĠáĦĬáħ °áĩĤ
ĠáĦĬáħ ²áĩĤ
ĠáĦĬáħ ¢áĩģ
ĠáĦĬáħ ¬áĩģ
ĠáĦĬáħ ³áĩĢ
ĠáĦĬáħ ¨áĩģ
ĠáĦħáħ ²
ĠáĦħáħ °áĩģ
ĠáĦħáħ Ńáĩģ
ĠáĦħáħ °áĩĤ
ĠáĦħáħ ¢áĩĢ
ĠáĦģáħ §áĩĤ
ĠáĦģáħ ´áĩĢ
ĠáĦģáħ ¬áĩģ
ĠáĦģáħ £áĩĤ
ĠáĦģáħ ®áĩģ
ĠáĦĭáħ ±
ĠáĦĭáħ ²áĩĢ
ĠáĦĮáħ ¥
ĠáĦĮáħ ¦
ĠáĦĮáħ §
ĠáĦĮáħ ®
ĠáĦĮáħ ´
ĠáĦĮáħ ±áĩģ
ĠáĦĮáħ ¬áĩĢ
ĠáĦĮáħ ®áĩĤ
ĠáĦĮáħ µáĩĢ
ĠáĦĥáħ ®
ĠáĦĥáħ ²áĩĤ
ĠáĦĥáħ ¨áĩĢ
ĠáĦĢáħ «
ĠáĦĢáħ ŃáĩĢ
ĠáĦĢáħ ¤áĩĤ
ĠáĦĢáħ ´áĩĢ
ĠáĦĢáħ °áĩĤ
ĠáĦĢáħ ¢áĩģ
ĠáĦĢáħ ¢áĩĢ
ĠáĦĢáħ ±áĩģ
ĠáĦĢáħ °áĩĢ
ĠáĦĢáħ µáĩģ
ĠáĦįáħ ¦áĩĤ
ĠáĦįáħ ¯áĩĤ
ĠáĦįáħ ªáĩĢ
ĠáĦįáħ ¨áĩĤ
ĠáĦįáħ ¨áĩĢ
ĠáĦįáħ ªáĩģ
ĠáĦĳáħ ¤
ĠáĦĳáħ ³áĩĤ
ĠáĦĳáħ ¢áĩģ
ĠáĦĳáħ ¤áĩĢ
ĠáĦĳáħ ©áĩĢ
ĠáĦĳáħ ¥áĩĤ
ĠáĦĩáħ ª
ĠáĦĩáħ ³áĩģ
ĠáĦĩáħ ¦áĩĤ
ĠáĦĩáħ ¤áĩĤ
ĠáĦĩáħ ¦áĩģ
ĠáĦİáħ µ
ĠáĦİáħ §áĩĤ
ĠáĦİáħ ¯áĩĢ
ĠáĦİáħ ®áĩĢ
ĠáĦİáħ ŃáĩĤ
ĠáĦİáħ ²áĩģ
ĠáĦİáħ ¨áĩģ
ĠáĦĴáħ ¨
ĠáĦĴáħ ©
ĠáĦĴáħ ²
ĠáĦĴáħ °áĩģ
ĠáĦĴáħ ¢áĩĤ
ĠáĦĴáħ ©áĩĤ
ĠáĦĴáħ §áĩģ
ĠáĦĴáħ ¡áĩģ
ĠáĦĴáħ °áĩĢ
ĠáĦĴáħ ®áĩģ
ĠáĦīáħ ¡
ĠáĦīáħ ³áĩģ
ĠáĦĪáħ ´áĩĢ
ĠáĦĪáħ ²áĩģ
ĠáĦĪáħ £áĩĢ
ĠáĦıáħ §
ĠáĦıáħ ¯áĩĤ
ĠáĦıáħ ±áĩĤ
ĠáĦıáħ ´áĩģ
ĠáĦıáħ ®áĩģ
ĠáĦıáħ ¡áĩĤ
ĠáĦĦáħ ¦
ĠáĦĦáħ ¬
ĠáĦĦáħ ±áĩģ
ĠáĦĦáħ °áĩĢ
ĠáĦĲáħ ³
ĠáĦĲáħ ¢áĩĤ
ĠáĦĲáħ ¬áĩĤ
ĠáĦĲáħ ¨áĩĢ
ĠáĦĲáħ ¬áĩĢ
ĠáĦĤáħ §áĩĤ
ĠáĦĤáħ ´áĩĢ
ĠáĦĤáħ ¬áĩĤ
ĠáĦĤáħ ´áĩģ
ĠâĤ µ
ĠâĤ »
ĠâĤ Ĩ
ĠâĤ ı
ĠâĪ ª
ĠâĪ «
ĠâĪ İ
ĠâĪ ĺ
ĠâĪ ł
ĠâĪ Ń
ĠâĦ Ĩ
ĠâĦ Ļ
Ġéĵ ·
Ġéĵ ¿
Ġéĵ ĥ
Ġéĵ ī
Ġéĵ ķ
ĠâĴ ¡
ĠâĴ ¤
ĠâĴ Ģ
ĠâĴ ĭ
ĠâŁ ¤
ĠâŁ §
ĠâŁ ³
ĠâŁ Ĩ
ĠâŁ Ń
Ġâĺ «
Ġâĺ ķ
Ġâĺ Ľ
Ġâģ ¦
Ġâģ ¶
Ġâģ ģ
Ġãı ¦
Ġãı ¾
Ġãı Ģ
Ġãı ī
Ġãı ĳ
Ġçı ±
Ġçı ľ
ĠâĿ ±
ĠâĿ ½
ĠâĿ ĩ
ĠãŁ ¼
ĠãŁ Ī
ĠãŁ ĭ
ĠãŁ ĸ
ĠãŁ Ļ
Ġïİ ¢
Ġïİ ³
Ġïİ ĸ
Ġâľ §
Ġâľ «
Ġâľ ®
Ġâľ ¯
Ġâľ Į
Ġâľ ı
Ġâľ ł
ĠçŁ į
ĠçŁ ŀ
Ġïı ¤
Ġïı ĵ
Ġïı ķ
Ġâ¥ ª
Ġâ¥ ®
Ġâ¥ Ħ
Ġâ¥ ĭ
Ġâ¥ ı
Ġâ¥ Ĵ
ĠäĴ ¦
ĠäĴ ¶
ĠäĴ ģ
ĠäĴ ī
Ġæĺ §
Ġæĺ ³
Ġæĺ ¿
Ġæĺ Ĺ
ĠäĶ ©
ĠäĶ Ħ
ĠäĶ į
ĠäĶ Ĺ
ĠäĶ Ľ
Ġã§ ¢
Ġã§ ª
Ġã¢ «
Ġã¢ į
Ġã¢ Ŀ
ĠæĿ ¨
ĠæĿ ²
ĠæĿ Ĳ
ĠæĿ ļ
Ġäĵ «
Ġäĵ ®
Ġäĵ º
Ġäĵ ĳ
Ġæģ ¡
Ġæģ ¨
Ġæģ ª
Ġæģ ¬
Ġæģ ¿
Ġã· ¯
Ġã· ģ
Ġã· ĳ
Ġã· ķ
ĠâĨ ¤
ĠâĨ ¾
ĠâĨ ĭ
ĠâĨ į
Ġã² ©
Ġã² ª
Ġã² °
Ġã² ´
Ġã² ½
Ġã² Ħ
Ġîı Ĩ
Ġîı į
Ġâį ī
Ġãª ¢
Ġãª ª
Ġãª ½
Ġãª Ĩ
Ġãª ĸ
Ġãª ĺ
Ġéŀ µ
ĠîĴ ¢
ĠîĴ ¶
ĠîĴ ·
ĠîĴ Ŀ
ĠíŁ ¤
ĠíŁ ĥ
ĠíŁ Ī
ĠíŁ ī
ĠíŁ ĭ
ĠíŁ į
ĠíŁ ľ
Ġç· ¤
Ġç· Ģ
Ġç· Ķ
ĠäĿ ¬
ĠäĿ Ģ
ĠäĿ ī
Ġçİ ¥
Ġçİ ¬
Ġçİ Ĭ
Ġçİ ĺ
Ġäľ ³
Ġäľ µ
Ġäľ ģ
ĠæĴ ±
ĠæĴ ħ
ĠæĴ Ľ
Ġã¿ ¹
Ġã¿ º
Ġã¿ Ķ
Ġã¯ ¨
Ġã¯ ¸
ĠîŁ ¬
ĠîŁ Ī
ĠîŁ ĵ
Ġæį ¨
Ġæį ĵ
Ġæį Ŀ
ĠîĿ ²
ĠîĿ ´
ĠîĿ Ł
ĠîĿ ł
Ġæľ §
Ġæľ ŀ
Ġæľ Ń
Ġãŀ ·
Ġãŀ Į
Ġãŀ ķ
Ġãŀ ļ
Ġãº ¥
Ġãº ¬
Ġãº ´
Ġãº ¸
Ġãº Ĭ
Ġãº Į
Ġãº ľ
Ġéİ ¡
Ġéİ ¥
Ġéİ Ħ
Ġéİ ļ
Ġãģ ¾
Ġçº ©
Ġçº ¶
Ġçº Ĭ
Ġçº Ĵ
ĠéŁ ¢
ĠéŁ «
ĠéŁ ¶
ĠéŁ ½
ĠèĴ ¢
ĠèĴ ®
ĠèĴ ³
ĠèĴ ½
ĠèĴ ħ
ĠèĴ Ĩ
ĠèĴ ĩ
ĠèĴ Ĳ
ĠèĴ ł
Ġïŀ ¤
Ġïŀ ¥
Ġïŀ ĭ
Ġïŀ Ĵ
Ġïŀ ĺ
Ġäı ³
Ġäı ł
ĠâĬ ¤
ĠâĬ ª
ĠâĬ ·
Ġæĵ º
Ġæĵ ½
Ġæĵ ĵ
Ġæĵ Ń
ĠêĴ ±
ĠêĴ ´
ĠêĴ Ħ
ĠêĴ Į
ĠêĴ ł
ĠæĹ ¢
Ġäĳ ¥
Ġäĳ ¬
Ġäĳ ±
Ġäĳ ´
Ġäĳ ½
Ġäĳ Ī
Ġäĳ Ĭ
Ġäĳ ĸ
Ġâķ §
Ġâķ »
Ġâķ ĸ
Ġâķ ļ
Ġäį Ħ
Ġäį ŀ
ĠâĹ °
ĠâĹ ĩ
ĠâĹ Ĵ
Ġå¾ «
Ġå¾ ¶
Ġå¾ ¾
Ġå¾ ¿
Ġå¾ Ħ
Ġå¾ Ļ
Ġå¾ ļ
Ġá¢ ¤
Ġá¢ ¥
Ġá¢ °
Ġá¢ ·
Ġá¢ Ģ
Ġá¢ Į
Ġâĵ «
Ġâĵ »
Ġâĵ ¿
Ġâĵ Ń
ĠçĦ ¤
ĠçĦ ±
ĠçĦ »
ĠçĦ ħ
ĠçĦ į
ĠçĦ ĺ
ĠçĶ £
ĠçĶ ±
ĠçĶ ³
ĠçĶ º
ĠçĶ ½
ĠçĶ Ŀ
ĠçĶ Ł
Ġæĸ ®
Ġæĸ ´
Ġæĸ ¶
Ġæĸ ¹
Ġæĸ ¿
Ġæĸ ģ
Ġæĸ į
Ġæĸ İ
Ġæĸ ı
Ġá§ Į
Ġá§ ĳ
Ġá§ Ľ
Ġéº £
Ġéº ¬
Ġéº »
Ġéº ķ
Ġçŀ »
Ġçŀ Ľ
Ġé¾ ¬
Ġé¾ ī
Ġé¾ Ĵ
Ġé¾ ŀ
Ġãİ ª
Ġãİ Ģ
Ġãİ ĥ
Ġîĵ °
Ġîĵ »
Ġîĵ ¿
Ġîĵ ĸ
Ġîĵ Ń
Ġãĳ ¥
Ġãĳ ¦
Ġãĳ ª
Ġãĳ «
Ġãĳ ¬
Ġãĳ ³
Ġãĳ ¶
Ġãĳ ¿
Ġãĳ Ĳ
Ġãĳ ĸ
Ġãĳ Ľ
Ġãĵ «
Ġãĵ ¬
Ġãĵ ¯
Ġãĵ ¸
Ġãĵ Ķ
Ġãĵ Ŀ
Ġâ£ ¦
Ġâ£ ²
Ġâ£ ģ
Ġâ£ Ŀ
Ġâ£ Ń
Ġéı ¨
Ġéı °
Ġéı ĩ
Ġéı Į
Ġéı İ
Ġéı Ķ
ĠêĿ µ
ĠêĿ ¼
ĠêĿ Ħ
ĠêĿ Ī
Ġá¦ ª
Ġá¦ ¹
Ġá¦ ĳ
Ġá¦ ĸ
Ġç² ¦
Ġç² §
Ġç² ´
Ġç² İ
Ġç² ľ
Ġç¿ ª
Ġç¿ ĵ
Ġãĥ ĭ
Ġï¢ «
Ġï¢ ®
Ġï¢ ī
Ġï¢ Į
Ġî´ ¦
Ġî´ ¹
Ġî´ ¾
Ġî´ Ĵ
ĠîĻ ²
ĠîĻ µ
ĠîĻ Ģ
ĠîĻ Ĭ
ĠîĻ į
ĠîĻ ķ
ĠîĻ Ļ
ĠîĻ ļ
ĠîĻ Ŀ
Ġè£ ¤
Ġè£ °
Ġè£ ²
Ġè£ ½
Ġè£ ¾
Ġè£ Ħ
Ġè£ Ĩ
Ġè£ Ĭ
Ġè£ İ
Ġè£ ļ
Ġè£ ł
Ġâŀ °
Ġâŀ »
Ġâŀ ĥ
Ġâŀ Į
ĠîŃ «
ĠîŃ Ł
Ġéļ ¹
Ġéļ ĩ
Ġéļ Į
Ġéļ Ĺ
Ġéļ Ł
Ġâı ¶
Ġâı ·
Ġâı ¼
Ġâı ģ
Ġâı Ħ
Ġâı ĵ
Ġâı Ń
Ġäİ ¡
Ġäİ Ĵ
Ġäİ ĸ
Ġæķ ³
Ġæķ ½
Ġæķ ¾
Ġæķ Ĥ
Ġæķ Ħ
Ġç¾ µ
Ġç¾ ĺ
Ġäĥ ª
Ġäĥ ĭ
Ġäĥ ĳ
Ġäĥ Ļ
Ġîľ ¡
Ġîľ ¸
Ġîľ ¿
Ġîľ Ħ
Ġîľ Ĭ
Ġîľ Ł
ĠäĬ £
ĠäĬ ¥
ĠäĬ ¬
ĠäĬ ģ
ĠäĬ ħ
ĠäĬ ī
ĠäĬ Ľ
Ġå± º
Ġå± ¿
Ġå± ĸ
Ġä¸ §
Ġä¸ ´
Ġä¸ Ļ
Ġä¸ Ŀ
ĠäĤ ¬
ĠäĤ ´
ĠäĤ ¶
ĠäĤ ¹
ĠäĤ Ģ
ĠäĤ ĥ
ĠäĤ Ĳ
ĠäĤ ł
Ġäº ¤
Ġäº ¼
Ġäº ĸ
Ġî£ §
Ġî£ ´
Ġî£ ī
Ġî£ Į
Ġî£ Ŀ
Ġé´ ¢
Ġé´ ®
Ġé´ ²
Ġé´ ĥ
Ġé´ Ĺ
Ġç¯ °
Ġç¯ ²
Ġç¯ Ĥ
ĠêŃ ĳ
ĠêŃ ĺ
ĠêŃ Ļ
ĠäĮ Ĵ
Ġï» ¡
Ġï» ¼
Ġï» Ģ
Ġï» ĩ
Ġâī ª
Ġâī «
Ġâī ¬
Ġâī İ
Ġäģ ®
Ġäģ ´
Ġäģ ĥ
Ġäģ Ħ
Ġäģ ł
Ġîį ¤
Ġîį Ģ
Ġîį ĩ
Ġîį ĵ
Ġîį Ĺ
Ġîį Ļ
Ġîį Ł
Ġé» ¦
Ġé» ª
Ġé» «
Ġé» ¸
Ġé» ĥ
Ġé» ľ
Ġé» Ł
ĠãĦ ¼
ĠãĦ ½
ĠãĦ ĺ
Ġâ« ¯
Ġâ« ¼
Ġâ« ¿
Ġâ« Ĩ
Ġâ« Ĭ
Ġâ« ĸ
Ġïį «
Ġïį ĩ
Ġïį ı
Ġïį ĵ
Ġïį ķ
Ġïį ĸ
Ġî§ ¡
Ġî§ «
Ġî§ ¼
Ġî§ ħ
Ġî§ Ĩ
Ġî§ ķ
Ġî§ ĺ
Ġé· Ĭ
Ġé· İ
Ġèĺ µ
Ġèĺ ļ
Ġæº £
Ġæº °
Ġæº ³
Ġæº »
Ġæº ĩ
Ġæº ĭ
Ġæº Ĳ
Ġæº ĳ
ĠãĶ ¡
ĠãĶ ¥
ĠãĶ º
ĠãĶ ĩ
ĠãĶ Ń
Ġâħ ©
Ġâħ «
Ġâħ ģ
Ġâħ Į
Ġâħ į
Ġâħ ļ
Ġâħ Ľ
Ġâħ ľ
Ġï¯ ´
Ġï¯ ĥ
Ġï¯ İ
Ġï¯ ŀ
ĠèĿ Ģ
ĠèĿ Ĥ
ĠèĿ ĥ
ĠèĿ Ħ
ĠèĿ ĭ
ĠèĿ İ
ĠèĿ ĵ
ĠèĿ Ŀ
Ġç§ §
ĠèŁ Ĭ
ĠèŁ Ĳ
ĠèŁ Ķ
ĠèŁ Ļ
Ġè« °
Ġè« ¹
Ġè« ł
Ġé¸ ª
Ġé¸ ¹
Ġé¸ Ģ
Ġé¸ Ĥ
Ġé¸ ĩ
Ġé¸ Ĺ
Ġé¸ Ń
Ġâļ ¡
Ġâļ «
Ġâļ ·
Ġâļ ¹
Ġâļ Ĩ
Ġâļ İ
Ġâļ Ĳ
Ġâļ ĳ
Ġâļ Ĵ
Ġâļ Ĺ
Ġäķ ¤
Ġäķ «
Ġäķ ¸
Ġäķ ½
ĠçĮ ¦
ĠçĮ »
ĠçĮ ¾
ĠçĮ Į
ĠçĮ ĸ
Ġé® «
Ġé® ¶
Ġé® ģ
Ġé® ĭ
Ġé® Į
Ġé® ĸ
Ġé® Ŀ
Ġé¶ ¸
Ġé¶ ģ
Ġé¶ ķ
ĠïŁ £
ĠïŁ ¸
ĠïŁ ¿
ĠïŁ Ī
ĠïŁ ī
ĠïŁ İ
ĠïŁ Ĳ
ĠïŁ Ľ
Ġã® ¥
Ġã® ¹
Ġã® ģ
Ġã® ħ
Ġäŀ ¡
Ġäŀ µ
Ġäŀ ĭ
Ġäŀ ķ
ĠäĲ ĥ
Ġæħ ¥
Ġæħ ļ
Ġã» ĭ
Ġã» İ
Ġâ¶ ª
Ġâ¶ ®
Ġî¥ ¥
Ġî¥ ¹
Ġî¥ ½
Ġî¥ Ī
Ġî¥ ĭ
Ġî¥ ĸ
Ġêį ¤
Ġêį «
Ġêį ĭ
Ġêį ĳ
Ġêį Ĺ
ĠæĢ §
ĠæĢ ©
ĠéĻ ¢
ĠéĻ ¸
ĠéĻ ¾
Ġæ· ¡
Ġæ· ¬
Ġæ· ²
Ġæ· ·
Ġæ· º
Ġæ· ı
Ġæ· ĳ
Ġé¢ ª
Ġé¢ ®
Ġé¢ °
Ġé¢ ¶
Ġé¢ Ģ
Ġé¢ ľ
Ġã¸ °
Ġã¸ µ
Ġã¸ Ĭ
Ġã¸ ķ
Ġã¦ ĩ
Ġã¦ Ĭ
Ġå» ®
Ġå» ²
Ġå» Ī
Ġå» ĭ
Ġå» Į
Ġæĳ º
Ġæĳ ģ
Ġæĳ ĥ
Ġæĳ Ľ
ĠïĬ »
ĠïĬ Ī
ĠïĬ į
ĠïĬ Ķ
ĠïĬ Ĺ
ĠïĬ ļ
Ġï½ ı
Ġï½ ļ
Ġé§ ¦
Ġé§ ª
Ġé§ Ģ
Ġé§ ī
Ġé§ Ķ
ĠïĴ £
ĠïĴ ¨
ĠïĴ ¯
ĠïĴ ¹
ĠïĴ ĩ
Ġîŀ ¡
Ġîŀ §
Ġîŀ ¶
Ġîŀ ¸
Ġîŀ ¼
Ġîŀ ½
Ġîŀ ķ
Ġîŀ Ł
Ġã¶ ĥ
Ġã¶ Ĩ
Ġã¶ Į
Ġã¶ Ļ
Ġîķ ¨
Ġîķ ®
Ġîķ ¯
Ġîķ ´
Ġîķ Į
Ġîķ Ľ
Ġîķ Ł
Ġè¢ ¬
Ġè¢ °
Ġè¢ ¸
Ġè¢ Ĵ
Ġè¢ Ķ
Ġã¾ »
Ġã¾ ĥ
Ġã¾ ĵ
ĠæŁ ©
ĠæŁ º
ĠæŁ Ĵ
ĠæŁ Ŀ
Ġî¯ £
Ġî¯ ¨
Ġî¯ ²
Ġî¯ ´
Ġî¯ Ģ
Ġî¯ Ĭ
Ġî¯ ł
Ġâ» ¦
Ġâ» ¸
Ġâ» »
Ġâ» Ĩ
Ġâ» İ
Ġâ» ł
ĠïĤ ¡
ĠïĤ ³
ĠïĤ ¸
ĠïĤ ¹
ĠïĤ ¾
ĠïĤ Ĵ
ĠâĶ ģ
ĠâĶ ĳ
Ġéµ ±
Ġéµ ´
Ġéµ ¹
Ġéµ Ģ
Ġéµ Ī
Ġéµ ī
Ġéµ Ķ
ĠéĮ ·
ĠéĮ ĩ
ĠéĮ ĵ
ĠéĮ Ķ
ĠçĽ ©
ĠçĽ ¸
ĠçĽ İ
Ġåº ¨
Ġåº ´
Ġåº ¸
Ġåº ¹
Ġåº ¿
Ġåº Ĥ
Ġåº Į
Ġåº Ĳ
Ġæ¸ ĥ
Ġæ¸ ĸ
Ġâĭ ¨
ĠæĻ ı
ĠæĻ Ĺ
ĠïĨ ł
Ġæ´ ª
Ġæ´ ·
Ġæ´ ķ
ĠæĲ £
ĠæĲ ħ
ĠæĲ Ļ
Ġå¶ ¸
Ġå¶ »
Ġå¶ ĥ
Ġå¶ ħ
Ġå¶ ł
Ġêľ ª
Ġêľ °
Ġêľ Ķ
Ġæ¾ ²
Ġæ¾ į
Ġæ¾ ĺ
Ġî« ¢
Ġî« ¼
Ġî« ¾
Ġî« ī
Ġî« Ĭ
Ġî« ĳ
Ġåµ ´
Ġåµ »
Ġåµ ¿
Ġåµ Ħ
Ġåµ Ĩ
Ġåµ ī
Ġåµ ĳ
Ġåµ ĺ
Ġåµ Ŀ
Ġêĵ ²
Ġêĵ ¹
Ġêĵ ¼
Ġêĵ ķ
Ġâİ «
Ġâİ ¬
Ġâİ Ģ
Ġâİ Ħ
Ġâİ ĭ
Ġâİ Ł
Ġæļ ¡
Ġæļ ¥
Ġæļ ²
ĠäĻ ²
ĠäĻ ĩ
ĠäĻ Į
ĠäĻ Ĺ
Ġåķ ¢
Ġåķ »
Ġåķ ĥ
Ġåķ ĩ
Ġåķ Ĭ
Ġâ¹ ª
Ġâ¹ º
Ġâ¹ Ĩ
Ġâ¹ ĩ
Ġâ¹ Ŀ
Ġâ¹ Ń
Ġäĺ ¿
Ġäĺ Ĩ
Ġæŀ ĺ
Ġåħ ±
Ġåħ ¾
Ġåħ ģ
Ġåħ Ĩ
Ġåħ Ĳ
Ġåħ ĵ
Ġåħ Ĺ
Ġä¨ ª
Ġä¨ «
Ġä¨ º
Ġä¨ Ħ
Ġæµ ¤
Ġæµ ²
Ġæµ µ
Ġæµ ī
Ġæ¹ ¯
Ġæ¹ ĩ
Ġæ¹ ĳ
Ġæ¹ ŀ
Ġæ» «
Ġæ» ĵ
Ġæ» Ļ
Ġâº ²
Ġâº ³
Ġâº »
Ġâº ĥ
Ġâº Į
Ġâº ĸ
Ġâº ĺ
Ġîİ ¡
Ġîİ ©
Ġîİ º
Ġîİ Ħ
Ġîİ ĺ
Ġîİ ľ
Ġéĥ ¡
Ġéĥ ¸
Ġéĥ ģ
Ġéĥ ĺ
Ġéĥ Ń
Ġâ§ ¦
Ġâ§ º
Ġïģ ¦
Ġïģ ¿
Ġïģ ĭ
Ġïģ Ķ
Ġä¢ ·
Ġä¢ ¸
Ġä¢ Ħ
Ġä¢ ī
Ġä¢ Ļ
Ġèº ª
Ġèº ²
Ġèº ¶
Ġèº ¸
Ġèº ¿
Ġèº ĥ
Ġèº ł
ĠâĲ ¢
ĠâĲ ´
ĠâĲ ĵ
ĠâĲ Ŀ
ĠâĲ Ł
Ġè§ ¢
Ġè§ ¨
Ġè§ ¶
Ġè§ ĥ
Ġè§ Ħ
Ġè§ Ī
Ġè§ Ľ
Ġçĳ ®
Ġçĳ Ľ
Ġçĳ Ŀ
Ġçľ ¤
Ġçľ ª
Ġçľ ¸
Ġçľ ĥ
Ġçľ Ń
Ġè´ ¥
Ġè´ ¦
Ġè´ «
Ġè´ ¼
Ġè´ İ
Ġè´ ĵ
Ġêĸ £
Ġêĸ ±
Ġêĸ ĥ
Ġêĸ Ħ
Ġáª Ĭ
Ġî® ¢
Ġî® ¥
Ġî® ¹
Ġî® Ĳ
Ġî® Ĺ
Ġî® ĺ
Ġå§ ª
Ġå§ ±
Ġå§ Ģ
Ġå§ Ļ
Ġå§ Ľ
Ġêļ ´
Ġêļ ¾
Ġêļ Ĥ
Ġêļ Ĩ
Ġêļ Ĭ
Ġêļ İ
Ġêļ Ľ
ĠéĿ ¼
ĠéĿ ĳ
ĠéĿ Ļ
Ġâ¾ ®
Ġâ¾ ·
Ġæ£ ·
Ġæ£ ¿
Ġæ£ Ĵ
Ġæ£ ļ
Ġæ£ Ľ
Ġèı ©
Ġèı «
Ġèı Ĵ
Ġèı ŀ
Ġâµ ¡
Ġâµ ¶
Ġâµ Ī
Ġâµ ĺ
Ġî½ ¦
Ġî½ µ
Ġî½ ¹
Ġî½ ½
Ġî½ Ķ
Ġî½ ķ
Ġî½ Ŀ
Ġåı £
Ġåı ½
Ġåı ¿
Ġåı Ħ
Ġåı ķ
Ġä± ¢
Ġä± ª
Ġê® ¥
Ġê® ¨
Ġê® ¹
Ġê® ĭ
Ġâ´ ¨
Ġâ´ ¯
Ġâ´ °
Ġâ´ ²
Ġâ´ Ħ
Ġâ´ ĺ
Ġî¡ ħ
Ġî¡ ĩ
Ġî¡ Ĺ
Ġî¡ ļ
Ġêŀ ¹
Ġêŀ Ĩ
Ġêŀ Ĺ
Ġêķ ·
Ġêķ ¾
Ġêķ Ĥ
Ġêķ Ī
Ġêķ ĳ
Ġêķ Ĵ
Ġêķ ĵ
Ġêķ ķ
Ġè® ©
Ġè® ĭ
Ġè® ı
Ġè® Ĳ
ĠèĶ º
ĠèĶ Ĳ
Ġá² ¯
Ġá² ĩ
Ġá² Ī
ĠãĮ ©
ĠãĮ ±
ĠãĮ ³
Ġî¿ ª
Ġî¿ ¯
Ġî¿ ´
Ġî¿ Ĩ
Ġî¿ ĭ
Ġî¿ ķ
Ġî¿ Ŀ
Ġî¿ ł
Ġè¶ ½
Ġè¶ ¿
Ġè¶ Ĭ
Ġè¶ Į
Ġè¶ ı
Ġè¶ Ļ
Ġæı £
Ġæı ©
Ġæı ¾
Ġæı İ
Ġæı ı
Ġéģ ¨
Ġéģ µ
Ġéģ ¸
Ġéģ Ĺ
Ġç´ µ
Ġç´ Ī
Ġç´ Ĺ
Ġç´ ŀ
Ġæ³ §
Ġæ³ ³
Ġæ³ Ģ
Ġéª ³
Ġéª ¿
Ġéª ĥ
Ġéª İ
Ġéª ĸ
Ġéª Ł
Ġçĵ į
Ġçĵ ļ
Ġçļ §
Ġçļ ·
Ġçļ Ī
Ġçļ ĸ
Ġèį ¸
Ġèį ¾
Ġá¯ ĵ
Ġçħ «
Ġçħ °
Ġçħ ¿
Ġçħ Į
Ġå¯ £
Ġå¯ ¦
Ġå¯ ģ
Ġå¯ ī
Ġá± ģ
Ġæ± ²
Ġæ± ¹
Ġæ± ¼
Ġæ± ½
Ġæ± ģ
Ġæ± Ī
Ġæ± Ĭ
Ġæ± ĳ
Ġæ± ĸ
Ġæ± ľ
Ġç¢ ´
Ġç¢ º
Ġç¢ ¾
Ġæ¶ ¿
Ġæ¶ ķ
ĠîĬ ĥ
ĠêŁ ©
ĠêŁ ¯
ĠêŁ Ĥ
ĠêŁ ĩ
ĠêŁ ĭ
ĠêŁ Ĵ
ĠêŁ Ń
Ġïī ®
Ġïī ¼
Ġïī ĥ
Ġïī ĭ
Ġïī ļ
Ġïī Ľ
Ġïī Ł
Ġáı ²
Ġáı Ĩ
Ġäª ¦
Ġäª Ħ
Ġäª ĭ
Ġäª Ĺ
ĠèĤ ¡
ĠèĤ £
ĠèĤ ¾
ĠèĤ ł
Ġî¤ ´
Ġî¤ ·
Ġî¤ Ĭ
Ġèª ¾
Ġèª į
Ġèª ı
Ġèª Ĺ
Ġâ¤ ª
Ġâ¤ º
Ġâ¤ ĭ
Ġâ¤ Į
Ġä¤ ¨
Ġä¤ ĥ
Ġä¤ Į
Ġä¤ İ
Ġä¤ ĳ
Ġä¤ ĵ
Ġä¤ Ń
Ġîĳ ħ
Ġîĳ ĩ
Ġîĳ ī
Ġîĳ ķ
Ġîĳ ŀ
ĠîĶ ¸
ĠîĶ ½
Ġè¥ ¾
Ġè¥ Ĳ
Ġèł ¡
Ġèł ¦
Ġèł ¹
Ġèł Ĺ
Ġê§ ²
Ġê§ Ī
Ġê§ Ĭ
Ġê§ ĵ
Ġê§ Ĺ
Ġïĩ ¤
Ġïĩ ¬
Ġïĩ ·
Ġïĩ º
Ġïĩ ģ
Ġïĩ Ĵ
Ġïĩ Ļ
Ġïĩ ľ
Ġïĩ Ŀ
Ġä» ĥ
Ġä» ŀ
Ġç¹ ¨
Ġç¹ ¬
Ġç¹ ´
Ġç¹ ĵ
Ġå¿ ¢
Ġå¿ ¨
Ġå¿ ²
Ġå¿ ¿
Ġå¿ Ĩ
Ġå¿ Ī
Ġå¿ ķ
Ġå¿ Ŀ
Ġåį ¡
Ġåį ¸
Ġåį Ī
Ġåį ī
Ġåį ľ
ĠæĤ ¨
ĠæĤ ¹
ĠæĤ »
ĠæĤ Ģ
ĠæĤ ĭ
ĠæĤ ĳ
ĠîĦ ³
ĠîĦ ¶
ĠîĦ ½
ĠîĦ ĩ
ĠîĦ ī
ĠîĦ Ĳ
ĠîĦ Ł
Ġç¶ ¸
Ġç¶ ĭ
Ġç¶ Ĳ
Ġâĳ £
Ġâĳ ¥
Ġâĳ ¸
Ġâĳ Ī
Ġâĳ ł
Ġâ² §
Ġâ² ´
Ġâ² µ
Ġâ² ½
Ġâ² ĥ
Ġâ² Ŀ
ĠîĢ ®
ĠîĢ ³
ĠîĢ ¸
ĠîĢ ¹
ĠîĢ Ģ
ĠîĢ Ĵ
ĠîĤ ¨
ĠîĤ ª
ĠîĤ «
ĠîĤ ¹
ĠîĤ ī
ĠîĤ ı
ĠîĤ ĵ
ĠîĤ Ł
Ġå¥ ¥
Ġå¥ §
Ġå¥ °
Ġå¥ Ĩ
Ġå¥ Ĭ
Ġå¥ ķ
Ġå¥ Ĺ
Ġå¥ Ļ
Ġå¥ Ł
Ġå² £
Ġå² ¥
Ġå² ±
Ġå² ²
Ġå² ³
Ġå² ĩ
Ġå² ĵ
Ġå² Ļ
ĠäĦ ¤
ĠäĦ ³
ĠäĦ ¶
ĠäĦ ¾
ĠäĦ ĥ
ĠäĦ Į
ĠäĦ Ľ
Ġï® ¦
Ġï® ¬
Ġï® ±
Ġï® ³
Ġâ¡ «
Ġâ¡ į
Ġâ¡ Ļ
Ġäļ ¡
Ġäļ ´
Ġäļ ĥ
Ġäļ Ĭ
Ġäļ ľ
Ġä£ ¥
Ġä£ «
Ġä£ °
Ġä£ ĭ
Ġä£ İ
Ġä£ Ķ
Ġä£ ļ
Ġçĥ £
Ġçĥ Ĥ
Ġçĥ ķ
Ġâ± ¢
Ġâ± ħ
Ġä¥ ¡
Ġä¥ ¹
Ġä¥ Ĵ
Ġä¥ Ĺ
Ġæİ ¦
Ġæİ ¾
Ġæİ ¿
Ġîº ¥
Ġîº ¦
Ġîº ·
Ġîº ¸
Ġîº ¼
Ġîº ķ
Ġîº ŀ
Ġæ§ ²
Ġæ§ Ĩ
Ġæ§ ĩ
Ġîģ ¡
Ġîģ £
Ġîģ ¤
Ġîģ ¨
Ġîģ ½
Ġîģ Ģ
Ġîģ ĩ
Ġîģ ĵ
Ġîģ ĺ
Ġè© ¸
Ġè© Ķ
Ġè© ľ
Ġèľ ¦
ĠèĻ ¡
ĠèĻ ¤
ĠèĻ ¯
ĠèĻ °
ĠèĻ ¿
ĠèĻ ģ
ĠèĻ İ
ĠèĻ ı
Ġâª ®
Ġâª Ĵ
Ġâª Ń
Ġä¹ ¤
Ġä¹ ª
Ġä¹ ¿
Ġä¹ ı
Ġä¹ Ŀ
Ġé¯ ¡
Ġé¯ ¤
Ġé¯ ħ
Ġé¯ Ĩ
Ġé¯ İ
Ġé¯ Ķ
Ġâ¬ ´
Ġâ¬ µ
Ġâ¬ Ĭ
Ġâ¬ Ľ
Ġâ¬ ŀ
Ġà¸ ¥
Ġà¸ §
Ġà¸ ¨
Ġà¸ ©
Ġà¸ Ģ
Ġà¸ ĳ
Ġà¸ ľ
Ġè¯ Ģ
Ġè¯ Ĩ
Ġè¯ ı
Ġè¯ ķ
ĠâĽ ©
ĠâĽ ²
ĠâĽ Ĳ
ĠâĽ ĸ
ĠâĽ ĺ
Ġä¬ İ
Ġä¬ ı
Ġä¬ Ĺ
Ġé¦ ¹
Ġé¦ Ħ
Ġé¦ ŀ
Ġèħ ¢
Ġèħ ·
Ġèħ ¸
Ġèħ Ĩ
Ġå³ ©
Ġå³ ±
Ġïļ »
Ġïļ Ģ
Ġïļ ģ
Ġïļ ĩ
Ġïļ Ĳ
Ġïļ ĸ
Ġä§ Ĥ
Ġä§ Ħ
Ġä§ Ĳ
Ġä§ ĸ
Ġä§ Ŀ
ĠäĢ ¥
ĠäĢ ģ
ĠäĢ ı
ĠäĢ Ľ
Ġè¤ ³
Ġêĺ ²
Ġêĺ ³
Ġêĺ ¹
Ġêĺ Ģ
Ġêĺ ĳ
Ġêĺ Ń
Ġè± «
Ġéĳ £
Ġéĳ ¤
Ġéĳ «
Ġéĳ Ī
Ġéĳ ł
Ġä² £
Ġä² ¾
ĠåĶ ¬
ĠåĶ ī
ĠêĬ ¡
ĠêĬ ¸
ĠêĬ ļ
ĠêĬ ŀ
ĠãĽ Ī
ĠãĽ Ĭ
ĠèŃ ®
ĠèŃ Į
ĠèŃ Ĵ
ĠèŃ Ń
Ġçķ ±
Ġçķ ¼
Ġçķ ī
Ġçķ ľ
Ġçķ ł
Ġã¹ ¿
Ġã¹ ĥ
Ġã¹ ħ
Ġã¹ ĳ
Ġã¹ ļ
Ġà´ ·
Ġà´ Ķ
Ġà´ ķ
Ġà´ ŀ
Ġîĺ ¦
Ġîĺ °
Ġîĺ ²
Ġîĺ ĥ
Ġîĺ ļ
Ġèķ Ħ
Ġèķ İ
Ġéł ¸
Ġéł Ħ
Ġéł ĺ
Ġçµ ¬
Ġçµ ¿
Ġçµ ģ
Ġçµ ı
Ġçµ Ĵ
Ġçµ Ĺ
Ġâ° °
Ġâ° ¼
Ġâ° ĵ
Ġãµ ħ
Ġãµ Ĭ
Ġãµ Ĳ
Ġãµ ĳ
Ġãµ ĵ
Ġàª ¸
Ġàª º
Ġàª ĩ
Ġàª Ī
ĠäĽ ¢
ĠäĽ ±
ĠäĽ ¶
ĠäĽ Ĵ
ĠäĽ Ļ
Ġé½ º
Ġé½ ¼
Ġé½ Ĥ
Ġé½ Ļ
Ġè¾ ¯
Ġè¾ ±
Ġè¾ ¿
Ġè¾ Ĳ
Ġè¾ Ķ
Ġä· ¡
Ġä· ¦
Ġä· §
Ġä· ©
Ġä· ¸
Ġä· į
Ġä· İ
Ġä· Ķ
Ġä· ļ
Ġä· Ń
Ġéĸ ¤
Ġéĸ ´
Ġéĸ Ī
Ġéĸ ĭ
Ġéĸ ĳ
Ġéĸ Ł
Ġè· ¦
Ġè· §
Ġè· ģ
Ġè· ħ
Ġè· Ī
Ġè· Į
Ġè· ĸ
Ġè· ĺ
Ġè· Ŀ
Ġä° °
Ġä° ´
Ġä° ¸
Ġä° ¿
Ġä° Ľ
ĠãĿ £
ĠãĿ Ĳ
ĠãĿ ł
ĠæĬ ŀ
Ġêİ ¤
Ġêİ ¥
Ġêİ ©
Ġêİ ¬
Ġêİ °
Ġêİ ģ
Ġêİ į
Ġé¤ ³
Ġé¤ º
Ġé¤ Ģ
Ġçª ¤
Ġçª §
Ġçª µ
Ġçª ¶
Ġçª ľ
Ġå½ ±
Ġå½ ĵ
Ġïµ ¯
Ġïµ ´
Ġïµ ¸
Ġïµ ¹
Ġïµ ¼
Ġïµ ¾
Ġïµ İ
Ġïµ Ł
Ġïµ Ń
Ġêĳ «
Ġêĳ º
Ġêĳ Ĭ
Ġêĳ Ļ
Ġä´ «
Ġä´ ²
Ġä´ ·
Ġä´ ¸
Ġä´ Ĩ
Ġä´ Ĭ
Ġä´ ľ
Ġè¨ Ħ
Ġèİ °
Ġèİ º
Ġèİ ĭ
Ġèİ į
Ġæ¥ ±
Ġæ¥ Ĩ
Ġî± ¦
Ġî± ²
Ġé¹ §
Ġé¹ µ
Ġé¹ ģ
Ġé¹ Ĭ
Ġé¹ ĸ
Ġé¹ Ł
Ġâ½ ¹
Ġâ½ ½
Ġâ½ Ī
Ġâ½ ĸ
Ġæ¤ ³
Ġæ¤ ¸
Ġæ¤ ¹
Ġæ¤ ī
Ġæ¤ ĸ
Ġæ¤ Ŀ
Ġèģ §
Ġèģ ²
Ġèģ Ĳ
Ġã± µ
Ġã± ·
Ġîł «
Ġîł ¬
Ġîł Ĵ
Ġèĵ ¤
Ġèĵ ¨
Ġèĵ ª
Ġèĵ µ
Ġèĵ º
Ġåĩ ¤
Ġåĩ »
Ġåĩ ¼
Ġåĩ Ń
Ġâ¼ £
Ġâ¼ ´
Ġâ¼ »
Ġâ¼ ¼
Ġâ¼ į
Ġâ¼ Ľ
Ġâ¿ ī
Ġâ¿ ķ
Ġâ¿ ļ
Ġâ¿ ľ
Ġâ¿ Ł
Ġá¶ £
Ġá¶ Ĩ
Ġá¶ Ĺ
Ġá¶ ł
ĠãĤ ĥ
Ġèŀ ®
Ġèŀ µ
Ġèŀ ¶
Ġèŀ Į
Ġèŀ ļ
Ġèŀ Ł
Ġå¤ ¢
Ġå¤ ª
Ġå¤ ¬
Ġå¤ ¶
Ġå¤ ĩ
Ġå¤ ĵ
Ġå¤ ĸ
ĠåĹ ½
ĠåĹ Ĩ
ĠåĹ ĩ
Ġî¢ ¤
Ġî¢ İ
Ġî¢ ŀ
Ġçģ £
Ġçģ ģ
Ġçģ ĩ
Ġçģ Į
Ġæĭ £
Ġæĭ ¦
Ġæĭ ´
Ġæĭ ľ
Ġæĭ ł
ĠéŃ ¨
ĠéŃ ³
ĠéŃ ¹
ĠéŃ Ĵ
ĠéŃ Ŀ
ĠéŃ Ł
ĠêĹ ½
ĠáĽ ´
ĠáĽ Ĥ
ĠáĽ ĳ
Ġã´ ¸
Ġã´ »
Ġã´ Ĥ
Ġã´ ķ
Ġæ¦ ²
Ġæ¦ ¶
Ġæ¦ ¹
Ġæ¦ º
Ġæ¦ ī
Ġæ¦ Ĺ
Ġæ¦ Ľ
ĠæĽ ¥
ĠæĽ ©
ĠæĽ »
ĠæĽ ¾
ĠæĽ ĳ
ĠæĽ Ń
Ġãħ ¤
Ġãħ ¥
Ġãħ «
Ġãħ ³
Ġãħ ¿
Ġãį «
Ġãį ®
Ġãį ı
Ġãį Ł
Ġæ² Ģ
Ġæ² ĳ
Ġæ² ĺ
Ġæ² ļ
Ġæ¡ §
Ġæ¡ µ
Ġæ¡ ¶
Ġæ¡ ¹
Ġæ¡ ľ
Ġæ¡ Ŀ
Ġîħ §
Ġîħ ®
Ġîħ ·
Ġîħ ¸
ĠèĬ ¡
ĠèĬ ¤
ĠèĬ §
ĠèĬ Ĥ
ĠèĬ Ī
ĠèĬ ī
ĠèĬ Ĭ
ĠèĬ ı
ĠèĬ ĵ
ĠåĿ ³
ĠåĿ ·
ĠåĿ ¼
Ġïķ ©
Ġïķ ²
Ġïķ ¾
Ġïķ Ĥ
Ġïķ į
Ġïķ ı
Ġïķ Ļ
Ġê¬ ¹
Ġê¬ ½
Ġê¬ Ĭ
Ġê¬ İ
Ġáµ ¥
Ġè¡ £
Ġè¡ ¯
Ġè¡ ħ
Ġêı ¦
Ġêı ¸
Ġêı ı
Ġïĸ ¦
Ġïĸ Ģ
Ġïĸ ĭ
Ġïĸ į
Ġïĸ ĳ
Ġïĸ ĸ
Ġïĸ Ľ
Ġé± £
Ġé± ¤
Ġé± °
Ġé± ²
Ġé± ³
Ġé± ĳ
ĠèĦ ©
ĠèĦ ģ
ĠèĦ Ĩ
ĠèĦ Ī
ĠèĦ Į
Ġæ¨ ¶
Ġæ¨ ¾
Ġæ¨ ĭ
Ġæ¨ Ŀ
Ġé° ¶
Ġé° ½
Ġé° ĸ
Ġé° Ŀ
Ġè¿ µ
Ġè¿ ı
Ġè¿ ĵ
Ġè¿ ĺ
Ġåª ¨
Ġåª ±
Ġåª º
Ġåª »
Ġåª Ģ
Ġåª ĭ
Ġåª ı
Ġåª Ĵ
Ġåª ŀ
Ġï¾ ª
Ġï¾ «
Ġï¾ ¿
Ġï¾ Ĺ
Ġã© ¡
Ġã© ª
Ġåĳ ³
Ġåĳ Ł
Ġä¾ ±
Ġä¾ Ĩ
Ġä¾ Ĭ
ĠåĬ ĸ
ĠêĮ ¦
ĠêĮ ©
ĠêĮ °
ĠêĮ Ĥ
ĠêĮ ı
Ġå¸ ¬
Ġå¸ ²
Ġå¸ ¸
Ġå¸ º
Ġå¸ ¼
Ġå¸ ½
Ġå¸ Ĳ
Ġå¸ ĵ
Ġêħ ¨
Ġêħ Ħ
Ġêħ Ķ
Ġêħ Ń
ĠïĿ £
ĠïĿ ª
ĠïĿ ¶
ĠïĿ »
ĠïĿ ĺ
Ġäħ ª
Ġäħ ¼
Ġçį Ĭ
Ġçį ĳ
ĠèĲ ¤
ĠèĲ ¥
ĠèĲ °
ĠèĲ ·
ĠèĲ ł
Ġêĥ §
Ġêĥ ©
Ġêĥ µ
Ġêĥ ¶
Ġêĥ ķ
ĠâĮ §
ĠâĮ ¶
ĠâĮ Ļ
ĠâĮ ł
ĠâĮ Ń
Ġæ« ¤
Ġæ« ³
Ġé¿ ¶
Ġé¿ º
Ġé¿ Ħ
Ġé¿ ĩ
Ġéį ¨
Ġéį ²
Ġéį ·
Ġéį į
ĠèĢ ¤
ĠèĢ °
ĠèĢ ²
ĠèĢ ·
ĠèĢ º
ĠèĢ Ħ
ĠèĢ ļ
Ġå© ¥
Ġå© §
Ġå© ·
Ġå© ¾
Ġå© Ĥ
Ġå© ĩ
Ġå© į
Ġå© ĳ
Ġå© ľ
Ġå® ¨
Ġå® ª
Ġå® ¶
Ġå® İ
Ġå® Ķ
ĠæĨ Ń
Ġéľ ®
Ġéľ Ħ
Ġéľ ĵ
Ġèļ §
Ġèļ ®
Ġèļ ¸
Ġèļ »
Ġê¡ ¥
Ġê¡ ¯
Ġê¡ ĳ
Ġê¡ Ń
Ġâ¯ ½
Ġâ¯ ¾
Ġâ¯ ĭ
Ġâ¯ ĳ
Ġâ¯ Ĺ
Ġâ¯ ŀ
ĠãĨ °
ĠãĨ ´
ĠãĨ ł
Ġîļ ¢
Ġîļ µ
Ġîļ ·
Ġîļ ¿
Ġîļ ķ
Ġà¨ ĩ
Ġà¨ ī
Ġà¨ Ļ
Ġä« ¹
Ġä« Ĩ
Ġä« ĩ
Ġä« į
Ġé¬ ¦
Ġé¬ «
Ġé¬ ±
Ġé¬ ¶
Ġé¬ ¹
Ġé¬ ĭ
Ġè¬ ¤
Ġè¬ µ
Ġè¬ ¾
Ġè¬ ĩ
Ġè¬ Ĺ
Ġè¬ Ļ
Ġè¬ Ł
Ġâ¦ Ħ
Ġâ¦ Ī
Ġâ¦ Ĭ
Ġâ¦ į
Ġâ¦ ĺ
Ġâ¦ Ŀ
Ġîĩ ©
Ġîĩ ¸
Ġîĩ ĥ
Ġîĩ ĺ
Ġîĩ Ł
Ġà¹ ĺ
Ġî¬ ¥
Ġî¬ ¯
Ġî¬ ±
Ġî¬ ´
Ġî¬ Ĩ
Ġî¬ ı
Ġî¬ ĺ
Ġéĩ ¡
Ġéĩ ¨
Ġéĩ Į
Ġéĩ Ĳ
Ġéĩ Ĵ
Ġî© º
Ġî© ¾
Ġî© Ģ
Ġî© Ķ
Ġî© Ŀ
Ġï· ½
Ġïĥ ¶
Ġïĥ º
Ġïĥ ķ
Ġïĥ Ĺ
Ġïĥ ŀ
Ġî¦ ¨
Ġî¦ ķ
Ġåľ ¯
Ġåľ ĳ
Ġåľ Ĵ
Ġåľ ĸ
Ġê¤ Ģ
Ġê¤ Ĥ
Ġï¼ ¢
Ġï¼ ½
Ġï¼ ģ
Ġï¼ ļ
ĠæŃ º
ĠæŃ »
ĠæŃ Ĳ
ĠæŃ Ľ
ĠæŃ ľ
Ġîī ·
Ġîī Į
Ġîī ı
Ġîī ķ
ĠåĻ §
ĠåĻ ³
ĠåĻ ½
ĠåĻ ¿
ĠåĻ ĩ
ĠåĻ ī
ĠåĻ Ĺ
ĠåĻ ł
Ġá¡ Ĳ
Ġáķ ±
Ġáķ ²
Ġáķ º
Ġáķ ĥ
Ġáķ Ī
Ġáķ ĭ
Ġáķ İ
Ġî¼ º
Ġî¼ ī
Ġá´ ¥
Ġá´ ·
Ġá´ Ķ
Ġå¹ £
Ġå¹ ©
Ġå¹ ®
Ġå¹ µ
Ġå¹ Į
Ġå¹ Ļ
Ġå¹ Ŀ
ĠéĴ ĩ
ĠéĴ ł
Ġâ¸ £
Ġâ¸ ¶
ĠáĶ £
ĠáĶ ¨
ĠáĶ ¯
ĠáĶ Ĥ
ĠáĶ Ĵ
Ġî» §
Ġî» ´
Ġî» »
Ġî» ¾
Ġî» Ĥ
Ġî» ĭ
Ġî» ĺ
Ġæ½ ¤
Ġæ½ ĸ
ĠêĶ ¡
ĠêĶ ¢
ĠêĶ ·
ĠêĶ ¼
ĠêĶ Ĭ
ĠêĶ ļ
ĠêĶ Ń
Ġä¶ ¸
Ġä¶ ¼
Ġä¶ ħ
Ġä¶ ĳ
Ġä¶ ĺ
Ġãļ ¦
Ġãļ ®
Ġãļ ¯
Ġãļ ´
Ġãļ ½
Ġãļ Į
Ġãļ Ł
Ġãļ Ń
Ġè¦ ¯
Ġè¦ ĺ
Ġè¦ ł
Ġèī ¨
Ġèī ©
Ġèī «
Ġèī ¬
Ġèī ¯
Ġèī ı
Ġèī ķ
Ġä³ ¼
Ġä³ Ļ
Ġä³ ľ
Ġäµ Ľ
Ġäµ Ŀ
ĠèĹ ±
ĠèĹ ·
ĠèĹ İ
ĠèĹ Ĵ
ĠäŃ ¨
ĠäŃ ĺ
ĠäŃ Ł
ĠæĮ ¬
ĠæĮ ¹
ĠæĮ Ķ
ĠæĮ ķ
ĠæĮ Ľ
Ġå´ ½
Ġå´ Ī
Ġå¼ µ
Ġå¼ ¼
Ġå¼ Ģ
Ġå¼ ķ
Ġå¼ Ĺ
Ġå¼ ĺ
ĠéĹ »
ĠéĹ ¾
ĠéĹ Ĥ
ĠéĹ Ĩ
ĠéĹ į
ĠéĽ «
ĠéĽ »
ĠêĦ ·
ĠêĦ Ĺ
ĠêĦ Ł
Ġà¶ ¿
Ġà¶ Ģ
Ġà¶ ĭ
Ġãľ ©
Ġãľ Ĩ
Ġãľ Ĵ
Ġãľ Ľ
Ġå¢ ¤
Ġå¢ ¦
Ġå¢ ³
Ġå¢ ĥ
Ġå¢ ĭ
Ġäī ĥ
Ġäī Ĺ
Ġäł °
Ġäł ·
Ġäł ļ
Ġæ¼ ª
Ġæ¼ ³
Ġæ¼ ļ
Ġæ¼ Ľ
Ġæ¼ ŀ
Ġå· ª
Ġå· ī
Ġå· ĳ
Ġïĳ ³
Ġïĳ Ģ
Ġïĳ ħ
Ġïĳ Ł
Ġæĩ ¡
Ġæĩ ¤
Ġæĩ ´
Ġæĩ ¹
Ġæĩ ¾
Ġæĩ Ī
Ġæĩ į
ĠèĮ °
ĠèĮ Ĥ
ĠèĮ Ĭ
ĠåŁ ¹
ĠåŁ ¾
ĠåŁ ĩ
Ġîª Ŀ
Ġèµ »
Ġèµ ¼
Ġèµ Ĥ
Ġåĺ ±
Ġåĺ »
Ġåĺ ĩ
Ġåĺ Į
Ġåĺ ı
Ġêª ¦
Ġêª ī
Ġêª Ł
ĠâŃ ¡
ĠâŃ µ
ĠâŃ ¾
ĠâŃ Ĺ
ĠâŃ ŀ
Ġè½ £
Ġè½ ¦
Ġè½ ħ
Ġè½ ī
Ġè½ ı
Ġè½ ĳ
Ġè½ Ķ
Ġèĩ ¡
Ġèĩ «
Ġèĩ ¬
Ġèĩ ¼
Ġèĩ ĩ
Ġèĩ ĵ
Ġèĩ Ĺ
Ġâ© ±
Ġâ© ²
Ġâ© ĩ
Ġâ© Ł
Ġæī º
Ġæī ģ
Ġæī Ĥ
Ġæī Ħ
Ġæī ł
ĠîĮ °
ĠîĮ µ
ĠîĮ ģ
ĠîĮ Ĳ
Ġåĭ ©
Ġåĭ ¹
Ġåĭ Ĥ
Ġåĭ ĵ
Ġåĭ ķ
Ġãķ ĥ
Ġãķ ĸ
Ġãķ Ľ
Ġè° ĥ
Ġè° Ĩ
Ġè° ī
Ġè° İ
Ġè° ĳ
Ġè° ĸ
ĠäĪ °
ĠäĪ ¸
ĠäĪ Ĥ
ĠäĪ Ļ
Ġå¦ ¨
Ġå¦ ±
Ġå¦ º
Ġå¦ ħ
Ġî³ ±
Ġî³ ´
Ġî³ º
Ġî³ į
Ġîĥ ª
Ġîĥ ļ
Ġîĥ Ŀ
ĠîĲ ®
ĠîĲ ¯
ĠîĲ ¸
ĠîĲ Ĳ
ĠîĲ ĸ
ĠîĲ Ĺ
ĠîĲ Ľ
ĠåĽ ¨
ĠåĽ ·
ĠåĽ ¿
ĠåĽ İ
ĠåĽ Ĳ
ĠåĽ Ķ
ĠåĽ Ł
ĠêĽ §
ĠêĽ ¬
ĠêĽ ĩ
ĠêĽ ĸ
ĠïĹ §
ĠïĹ ©
ĠïĹ «
ĠïĹ ½
ĠïĹ ĩ
ĠïĹ Ĵ
ĠïĹ ľ
ĠïĹ Ŀ
Ġáİ ¡
Ġáİ ¥
Ġáİ ©
Ġáİ ®
Ġáİ ±
Ġáİ ´
Ġáİ ľ
Ġä¡ ±
Ġä¡ ¶
Ġä¡ ĥ
Ġä¡ ĩ
Ġä¡ ĵ
Ġä© ¤
Ġä© ģ
Ġä© Ĳ
Ġä© ĳ
Ġä© ķ
Ġä© Ļ
Ġæª ¨
Ġæª ¼
Ġæª ¿
Ġæª ĭ
Ġæĥ ª
Ġæĥ ¶
Ġæĥ ¾
Ġæĥ Ļ
Ġç± ¤
Ġç± ´
Ġç± ģ
Ġç± ī
ĠïĮ «
ĠïĮ ·
Ġç® ¾
Ġç® ĵ
Ġç® ĸ
Ġà¡ Ķ
Ġæ® ¸
Ġéħ ī
Ġç° ¬
Ġç° ®
Ġç° ·
Ġç° ĸ
Ġç° Ł
Ġç° Ń
ĠçĴ ±
ĠçĴ ½
ĠçĴ ĭ
ĠçĴ į
ĠçĴ İ
ĠçĴ ĵ
ĠçĴ ļ
ĠçĴ Ŀ
Ġåī ¥
Ġåī ª
Ġåī İ
Ġá® ĭ
Ġï£ ½
Ġï£ ¿
Ġï£ Į
Ġï£ Ļ
Ġï² ²
Ġï² ¾
Ġï² ¿
Ġï² ŀ
Ġâ¨ ¸
Ġâ¨ ¿
Ġâ¨ ħ
Ġâ¨ İ
Ġâ¨ Ĺ
Ġàº Ħ
ĠêĤ ¶
Ġä¼ ¡
Ġä¼ Ĭ
Ġä¼ ĭ
Ġä¼ ľ
Ġèĸ ¦
Ġèĸ ¬
Ġèĸ ´
Ġèĸ »
Ġèĸ ¼
Ġèĸ Ĩ
Ġèĸ į
Ġã¼ ¡
Ġã¼ ¦
Ġã¼ ħ
Ġî¨ ©
Ġî¨ ĥ
Ġî¨ İ
Ġî¨ Ł
Ġî· ¶
Ġî· Ĥ
Ġî· Ī
Ġî· ĵ
Ġç¡ ª
Ġç¡ ¸
Ġç¡ ĵ
Ġç¡ Ĺ
Ġê« ¨
Ġê« ©
Ġê« ·
Ġê« ¸
Ġê« ½
Ġê« Ĥ
Ġê« Į
Ġê« ĸ
Ġé£ ¡
Ġé£ ¢
Ġé£ ¶
Ġé£ ·
Ġé£ Ĩ
Ġéĭ ©
Ġéĭ µ
Ġéĭ Ŀ
Ġç» ·
Ġç» ī
Ġç» ĵ
Ġç» Ķ
Ġç» Ŀ
Ġèĥ ®
Ġèĥ ¹
Ġèĥ Ķ
Ġèĳ ¡
Ġèĳ ģ
Ġèĳ Ĳ
Ġèĳ Ń
ĠåĢ ¤
ĠåĢ ·
ĠåĢ ¸
ĠåĢ ¹
ĠåĢ ¿
ĠåĢ Ħ
Ġà¦ ħ
Ġà¦ ĭ
Ġà¦ ķ
Ġà¦ Ł
Ġä¯ ¤
Ġä¯ ®
Ġä¯ ´
Ġä¯ µ
Ġä¯ ·
Ġä¯ ¹
Ġä¯ ĳ
Ġä¯ Ķ
ĠïĪ ¦
ĠïĪ §
ĠïĪ ´
ĠïĪ Ķ
ĠïĪ ĺ
ĠïĪ Ł
ĠåĪ Ģ
ĠåĪ Ĳ
Ġïł µ
Ġïł Ħ
Ġïł ĩ
Ġà² £
Ġà² ©
Ġà² ®
Ġà² ĵ
Ġà² Ł
Ġà² ł
ĠäĨ £
ĠäĨ ©
ĠäĨ ¬
ĠäĨ Ģ
ĠäĨ Ĩ
ĠäĨ Ĳ
ĠéĢ ·
ĠéĢ ĩ
ĠéĢ Ł
Ġè¸ ¦
Ġè¸ ¬
Ġè¸ ķ
Ġè¸ Ļ
Ġè» »
Ġè» Ĳ
Ġè» Ĺ
Ġè» Ľ
Ġä½ ¡
Ġä½ ¨
Ġä½ Ł
Ġä½ Ń
ĠãĲ «
ĠãĲ ·
ĠãĲ ĳ
ĠãĲ Ĵ
ĠãĲ Ľ
ĠãĲ ŀ
ĠçĿ ¡
ĠçĿ ¥
ĠçĿ ²
ĠçĿ ĥ
ĠçĿ Ĳ
Ġèĭ ¢
Ġèĭ ·
Ġèĭ ¿
Ġèĭ ī
Ġèĭ İ
Ġèĭ Ĳ
Ġï° §
Ġï° ¸
Ġï° ĥ
Ġï° ľ
Ġã½ ¿
ĠçĹ §
ĠçĹ ²
ĠçĹ ³
ĠçĹ Ĥ
ĠçĹ ķ
ĠêĲ ¯
ĠêĲ ħ
Ġä¿ ĩ
Ġä¿ Ŀ
Ġåĵ ¬
Ġåĵ ¯
Ġåĵ ½
Ġåĵ ¿
Ġåĵ ķ
Ġåĵ ł
Ġïħ ¤
Ġïħ ®
Ġïħ į
Ġïħ Ĺ
Ġîµ ¦
Ġîµ ±
Ġîµ »
Ġîµ Į
Ġîµ Ĵ
Ġîµ Ł
Ġçī ¶
Ġçī ¼
Ġçī ģ
Ġçī ĵ
Ġï¶ £
Ġï¶ ·
Ġï¶ Ľ
Ġï¶ ľ
Ġé¥ ¹
Ġé¥ Ļ
Ġâ¢ £
Ġâ¢ «
Ġâ¢ ĭ
Ġâ¢ ĳ
Ġâ¢ ķ
Ġâ¢ ļ
Ġâ® ĩ
Ġæ¿ ¦
Ġæ¿ §
Ġæ¿ ±
Ġæ¿ ·
Ġæ¿ ľ
Ġî¹ §
Ġî¹ ³
Ġî¹ µ
Ġî¹ ¾
Ġî¹ ĩ
Ġî¹ ĸ
ĠéĨ §
ĠéĨ ĭ
ĠéĨ Ŀ
ĠçĬ £
ĠçĬ «
ĠçĬ İ
Ġà» §
Ġà» ĸ
Ġæ© ¡
Ġæ© ¥
Ġæ© ©
Ġæ© º
Ġæ© ½
Ġæ© ¿
Ġæ© İ
Ġæ© Ĺ
Ġæ© Ľ
Ġæ© Ł
Ġç¸ Ĭ
Ġç¸ İ
Ġç¸ ı
Ġç¸ ł
Ġïº ¼
Ġïº ¾
Ġïº ĥ
Ġïº ļ
Ġïº Ľ
Ġáĳ ©
Ġáĳ ²
Ġáĳ ¹
Ġáĳ Ķ
Ġç¼ »
Ġêī »
Ġêī Ģ
Ġêī Ķ
Ġêī ķ
Ġáĺ ¢
Ġáĺ ¸
Ġáĺ ½
Ġáĺ Ħ
Ġáĺ ı
Ġáĺ ľ
ĠîĽ ´
ĠîĽ ¹
ĠîĽ ĵ
ĠîĽ Ľ
Ġé¨ »
Ġé¨ ĥ
Ġé¨ Ĳ
Ġé¨ Ł
Ġé¨ Ń
Ġé© º
Ġé© Ģ
Ġé© ĥ
Ġé© Ĵ
Ġé© Ń
Ġé² §
Ġé² ¶
Ġé² ¹
Ġé² ¾
Ġé² ĥ
Ġé² Ļ
Ġé² Ŀ
Ġç¦ »
Ġç¦ Ģ
Ġç¦ ĩ
Ġç¦ Ń
ĠçĲ ³
ĠçĲ ¾
ĠçĲ Ĭ
ĠçĲ ĳ
Ġï± µ
Ġï± ¹
Ġï± Ī
Ġï± ķ
Ġï± Ŀ
Ġï¹ º
Ġï¹ »
Ġï¹ ¾
Ġï¹ ĵ
Ġî¶ µ
Ġî¶ ŀ
ĠçĢ ¢
ĠçĢ ¹
ĠçĢ İ
ĠçĢ Ĵ
ĠçĢ Ľ
Ġãĭ ¢
Ġãĭ ¨
Ġãĭ Ĭ
Ġãĭ ı
Ġãĭ ŀ
ĠãĴ ³
ĠãĴ ķ
Ġî¾ ®
Ġî¾ Ĭ
Ġïĵ ©
Ġïĵ µ
Ġïĵ ¸
Ġïĵ »
Ġïĵ ¿
Ġïĵ ļ
Ġã³ °
Ġã³ Ĥ
Ġã³ ĸ
Ġã³ Ŀ
ĠîĹ Ģ
ĠîĹ Ł
ĠçĪ ĥ
ĠçĪ Ĭ
ĠçĪ ı
ĠçĪ ĳ
Ġê¥ ©
Ġê¥ ²
Ġê¥ Ĥ
Ġê¥ Ĩ
Ġê¥ Ļ
Ġê¥ ľ
Ġã° ©
Ġã° ³
Ġã° ¶
Ġã° ¿
Ġã° ĵ
Ġã° Ŀ
Ġà« ª
Ġà« İ
Ġà« Ķ
Ġé« §
Ġé« İ
ĠãĬ ¬
ĠãĬ ¯
ĠãĬ Ĵ
Ġå¡ §
Ġå¡ °
Ġå¡ µ
Ġå¡ Ł
ĠéĬ §
ĠéĬ ´
ĠéĬ »
ĠéĬ Ĩ
ĠéĬ Į
ĠéĬ ĵ
Ġê© ¡
Ġê© ©
Ġê© µ
Ġê© º
Ġê© ĺ
Ġå° ¹
Ġå° »
Ġå° ¾
Ġåİ ¢
Ġåİ ²
Ġåİ ŀ
Ġäĭ ¬
Ġäĭ ³
Ġäĭ ¼
Ġäĭ Ĺ
Ġã¡ ¦
Ġã¡ ·
Ġã¡ Į
Ġã¡ Ľ
Ġã¡ Ł
Ġçĭ ¦
Ġçĭ ¯
Ġçĭ Ĩ
Ġçĭ Ļ
ĠåŃ į
ĠåŃ ı
ĠåŃ ł
Ġá« ³
Ġá« ¿
Ġá« ģ
Ġá« Ħ
Ġá« ĩ
ĠáĲ §
ĠáĲ ¬
ĠáĲ ²
ĠáĲ ı
Ġç½ ®
Ġç½ º
Ġç½ ģ
Ġç½ Ľ
Ġæ¬ ©
Ġæ¬ ¶
Ġæ¬ »
Ġæ¬ Ĭ
ĠæĶ ¢
ĠæĶ ¿
ĠæĶ ķ
ĠçĨ »
ĠçĨ ¼
ĠçĨ Ī
Ġå£ µ
Ġå£ ¸
Ġå£ ģ
Ġå£ Ī
Ġçĩ ª
Ġçĩ ³
Ġçĩ ĸ
Ġçĩ ĺ
Ġçĩ Ľ
Ġï³ £
Ġï³ ¤
Ġï³ ³
Ġï³ ¸
Ġï³ ¿
Ġï³ ĵ
Ġï³ Ń
Ġà¬ ³
Ġà¬ ĳ
Ġà¬ ĸ
ĠêĨ §
ĠêĨ ¬
ĠêĨ Ĭ
ĠêĨ ķ
ĠêĨ Ļ
ĠáĬ ³
ĠáĬ Ģ
ĠáĬ ĥ
ĠáĬ Ī
ĠáĬ İ
Ġéĺ ī
ĠèĽ ¦
ĠèĽ ¨
ĠèĽ ¬
ĠèĽ Ģ
ĠèĽ ĭ
ĠèĽ į
ĠèĽ ĵ
ĠïĲ ¶
ĠïĲ ¼
ĠïĲ Ĳ
ĠïĲ Ĵ
Ġáĸ ¡
Ġáĸ £
Ġáĸ ®
Ġáĸ ²
Ġáĸ ¹
Ġáĸ ¼
Ġáĸ Ĩ
Ġáĭ ³
Ġáĭ Ģ
Ġáĭ ī
Ġáĭ Ł
Ġáĵ ¦
Ġáĵ ľ
Ġà¢ ´
Ġà¢ Ĭ
Ġà¢ Į
Ġà¢ į
Ġãĸ ¢
Ġãĸ ©
Ġãĸ ½
Ġãĸ ģ
Ġãĸ ĩ
ĠîĪ ¤
ĠîĪ ±
ĠîĪ Ĩ
ĠîĪ Ĳ
ĠîĪ ŀ
Ġäĸ ½
Ġäĸ ī
Ġäĸ ļ
ĠêĪ ¹
ĠêĪ ½
ĠäĹ ¤
ĠäĹ ¨
ĠäĹ ³
ĠäĹ ½
ĠäĹ Ĥ
ĠäĹ Ĩ
ĠäĹ ŀ
ĠäĹ Ł
Ġã¤ ħ
Ġã¤ ī
Ġè³ ª
Ġè³ ĸ
Ġè³ Ł
Ġî¸ ©
Ġî¸ ½
Ġî¸ ¾
Ġî¸ Į
Ġî¸ ĵ
Ġî¸ ĺ
Ġç¥ İ
ĠïĦ ³
ĠïĦ ¶
ĠïĦ º
Ġä¦ ¢
Ġä¦ µ
Ġä¦ ĭ
Ġä¦ Į
Ġä¦ Ĳ
Ġä¦ ĳ
Ġäĩ ¾
Ġäĩ ĥ
Ġæ° Ģ
Ġæ° Ľ
Ġæł ©
Ġæł Ĵ
Ġæł ŀ
Ġî° ¥
Ġî° ª
Ġî° µ
Ġî° ¹
Ġî° į
Ġî° Ĳ
Ġêģ ¤
Ġêģ ·
Ġêģ ¹
Ġêģ ¼
Ġêģ Ĩ
Ġêģ ĳ
Ġêģ Ŀ
Ġáĩ µ
Ġáĩ ¿
Ġáĩ Ń
Ġà® Į
Ġà® Ļ
Ġà® Ľ
Ġà® Ł
Ġà® ł
ĠãŃ µ
ĠãŃ º
ĠãŃ ģ
ĠãŃ ī
ĠåĤ §
ĠåĤ ¸
ĠåĤ Ģ
ĠåĤ Ĵ
ĠåĤ ķ
ĠåĤ Ľ
Ġé¡ ²
Ġé¡ Ļ
ĠïĢ ¸
ĠïĢ º
ĠïĢ ½
ĠïĢ Ĺ
ĠåĲ ¤
ĠåĲ º
ĠåĲ Ĥ
ĠåĲ ħ
ĠåĲ Ŀ
Ġï´ ĥ
Ġï´ ĸ
Ġï´ Ľ
Ġï´ Ŀ
Ġïĺ Ľ
Ġå¬ ¦
Ġå¬ Ĥ
Ġå¬ Ĭ
Ġå¬ Ł
Ġáį ½
Ġáį Ħ
Ġã¬ ·
Ġã¬ ĳ
Ġã¬ Ŀ
Ġåĥ ³
Ġåĥ Ģ
Ġåĥ Ĵ
Ġé³ ¤
Ġé³ ¶
Ġé³ ¸
Ġãī ±
Ġãī į
Ġç¨ ª
Ġç¨ µ
Ġç¨ Ľ
ĠåĴ £
ĠåĴ Ĭ
ĠåĴ ĵ
ĠåĴ ł
Ġá£ »
Ġá£ ĭ
Ġá£ į
Ġá£ ĸ
ĠéĲ £
ĠéĲ °
ĠéĲ ²
ĠåĨ ©
ĠåĨ ĩ
ĠåĨ Ł
Ġã¨ ¢
Ġã¨ ½
Ġã¨ Ģ
Ġãĩ Ĩ
Ġãĩ ĭ
Ġãĩ Į
Ġãĩ ĳ
Ġãĩ Ĺ
Ġãĩ ĺ
ĠæĪ į
ĠæĪ ł
ĠæĪ Ń
ĠãĢ ¾
ĠãĢ Ĳ
ĠãĢ ĵ
ĠãĢ Ļ
Ġîĭ «
Ġîĭ ¸
Ġîĭ Ŀ
ĠåĮ ¬
ĠåĮ ´
ĠåĮ Ķ
ĠåĮ ŀ
Ġåĸ Ń
Ġêĭ ¦
Ġêĭ ¿
Ġêĭ Ī
Ġç³ ·
Ġç³ ½
Ġç³ ĥ
Ġç³ Ĳ
Ġç³ ľ
Ġç³ Ł
ĠáĮ ¤
ĠáĮ ²
ĠáĮ ĳ
ĠáĮ Ĵ
Ġè¹ ļ
ĠãĹ ĩ
ĠãĹ Ľ
ĠãĹ Ŀ
ĠãĹ ŀ
Ġîĸ ©
Ġîĸ «
Ġîĸ ī
Ġîĸ ļ
Ġïľ ¨
Ġïľ ½
Ġïľ ¿
Ġïľ ħ
Ġïľ ĳ
Ġïľ ļ
Ġïľ Ł
ĠéĪ ¬
ĠéĪ ¹
ĠéĪ Ĩ
ĠéĪ Ł
Ġç£ µ
Ġç£ ¼
Ġç£ Ĥ
Ġç£ Ħ
Ġå« ļ
ĠïĶ ĥ
ĠïĶ Ľ
ĠïĶ Ł
Ġã£ ²
Ġã£ »
Ġî² Ģ
Ġî² Ļ
Ġêł ¡
Ġêł Ħ
Ġêł Ń
Ġàµ ¦
Ġàµ İ
Ġàµ ŀ
ĠèĨ ©
ĠèĨ ¸
ĠèĨ ½
ĠèĨ ĭ
ĠèĨ ĵ
Ġä® ¥
Ġä® °
Ġä® ¸
Ġéī ´
Ġéī ģ
Ġè² º
Ġè² ĭ
Ġæ¢ µ
Ġæ¢ Ł
Ġè¼ «
Ġè¼ ¬
Ġè¼ ¿
Ġè¼ Ģ
ĠãĻ ¤
ĠãĻ ·
ĠãĻ ī
ĠãĻ ĭ
ĠãĻ ķ
Ġêĩ ĵ
Ġï¡ ¯
Ġï¡ ´
Ġï¡ ¼
Ġï¡ Ī
Ġï¡ ĭ
Ġï¡ ĸ
ĠãĪ ¦
ĠãĪ ²
Ġåģ Ł
Ġãĺ İ
Ġãĺ Ĳ
Ġãĺ ĸ
Ġé¼ ĥ
Ġåŀ ķ
ĠáĻ ¦
ĠáĻ ¯
Ġà¿ Ħ
Ġà¿ į
Ġà¿ ı
Ġã« ²
Ġã« Ń
ĠéĤ ±
ĠéĤ Ĵ
ĠéĦ ±
Ġê¯ ¿
Ġê¯ į
Ġê¯ Ĵ
Ġáļ ®
Ġå¨ §
Ġå¨ ¿
Ġå¨ Ħ
Ġå¨ į
Ġáī ¡
Ġã¥ Ĳ
Ġã¥ ŀ
ĠîĨ į
ĠîĨ Ĵ
ĠîĨ ĵ
Ġá¥ ´
Ġá¥ ¶
Ġá¥ Ĺ
Ġç« ¯
Ġâł §
ĠåĦ ¤
ĠåĦ º
Ġá¨ ¢
Ġá¨ ¯
Ġá¨ ·
Ġá¨ º
Ġá¨ ĵ
Ġá¨ ķ
ĠçĤ ¹
ĠçĤ Ĥ
ĠçĤ ĵ
ĠçĻ £
ĠçĻ µ
ĠçĻ ·
ĠçĻ ¸
ĠçĻ ģ
ĠáĹ Ĥ
ĠáĹ ī
ĠéĶ °
ĠéĶ ¸
ĠéĶ ¼
ĠéĶ ģ
ĠéĶ Ĵ
Ġáł ¡
Ġáł ´
Ġáł ¶
Ġáł ģ
Ġæ¯ ·
Ġæ¯ Ĺ
Ġæ¯ Ŀ
Ġæ¯ Ń
Ġç¬ ¯
Ġç¬ Ŀ
Ġç¬ ł
ĠáĿ µ
ĠáĿ į
ĠáĿ Ĺ
Ġçł ½
Ġïĭ ¹
Ġïĭ Ļ
Ġáħ ¬
Ġáħ ±
Ġáħ º
Ġáħ İ
Ġáħ ı
ĠáĨ İ
ĠáĨ ĸ
ĠáĨ ľ
Ġáľ ©
Ġáľ ģ
Ġáľ Ĥ
Ġáľ Ħ
Ġáľ į
Ġáľ İ
ĠêĢ ĳ
ĠêĢ ł
ĠêĻ ¿
ĠêĻ Ĩ
ĠêĻ ĩ
ĠêĻ Ĭ
ĠêĻ ľ
ĠêĻ Ł
Ġç¤ ¨
Ġç¤ ±
Ġç¤ ĺ
ĠèĪ ¨
ĠèĪ Ħ
ĠèĪ ħ
ĠèĪ İ
Ġà¼ ¶
Ġà¼ Ī
Ġà¼ ı
Ġà¼ Ķ
Ġà¼ Ĺ
ĠïŃ ©
Ġãł ¤
Ġãł ¥
Ġãł ı
Ġãł ķ
Ġãł Ł
ĠïĽ µ
ĠïĽ Ĵ
Ġà³ ¡
Ġà³ µ
Ġà³ ħ
Ġà³ ī
Ġà³ Ń
Ġéķ ¾
Ġéķ ħ
Ġçĸ ĩ
ĠïĻ ·
Ġçĺ Ŀ
Ġçĺ ŀ
Ġåł ¸
Ġåļ ı
Ġåļ ļ
Ġáĥ ª
Ġáĥ Ĥ
Ġà§ °
Ġà§ ³
Ġà§ ¹
Ġà§ ½
Ġà§ Ĳ
Ġà§ ĸ
Ġà§ Ń
Ġáŀ ¤
Ġáŀ ±
Ġáŀ Ĥ
Ġáŀ İ
Ġà° ²
Ġà° ¼
Ġà° Ĳ
Ġà° Ĵ
Ġê¦ ¡
Ġê¦ Ħ
Ġê¢ Į
Ġê¢ į
Ġê¢ Ĺ
Ġê¢ Ľ
Ġê¢ ŀ
ĠáĪ ¸
ĠáĪ ī
ĠàŃ ©
ĠàŃ ¶
ĠàŃ ·
ĠàŃ ¸
ĠàŃ º
ĠàŃ ĳ
ĠàŃ Ĵ
Ġà© £
Ġà© ³
Ġà© ĥ
Ġà¯ §
Ġà¯ ĵ
Ġà¯ Ķ
Ġà¯ ł
ĠáĴ ¤
ĠáĴ »
ĠáĴ Ļ
ĠáŃ ĸ
ĠáŃ ļ
Ġà· ¹
Ġà· Ĩ
Ġà· ł
Ġê£ ·
Ġê£ ĭ
Ġê£ ĵ
Ġê£ ĸ
Ġê¨ ¡
Ġê¨ ¨
ĠçŃ ¿
Ġï¬ £
Ġï¬ ½
Ġï¬ Ħ
Ġï¬ į
ĠáĦĨáħ¨áĨ º
ĠáĦĨáħ¨áĨ »
Ġà± ³
Ġà± µ
Ġà± ¶
ĠáĤ ¡
ĠáĤ ©
ĠáĤ °
ĠáĤ İ
ĠáĤ ĺ
Ġá¤ ĸ
Ġá¤ ĺ
ĠáĦĨáħ³áĨ »
Ġá¬ ©
Ġá¬ Ĳ
Ġá¬ Ŀ
Ġï« ª
Ġï« ·
Ġï« ¿
Ġá° Ĩ
Ġá° ĳ
ĠáĢ £
ĠáĢ ħ
ĠáĢ į
Ġàł ¨
Ġàł Ĩ
Ġàł į
Ġàł ĵ
Ġàł ķ
Ġáģ į
Ġáģ İ
Ġáģ ĳ
ĠáĦĥáħ¨áĨ ´
Ġíŀ ®
Ġá³ Ģ
Ġá³ Ī
Ġâ· ģ
Ġâ· Ĩ
Ġâ· į
Ġâ· ľ
ĠáŁ ¢
ĠáŁ «
ĠáŁ ±
ĠáŁ ¼
ĠáĦĢáħ«áĨ ³
ĠáĦģáħ£áĨ «
ĠáĦĭáħ´áĨ ¨
ĠáĦĭáħ´áĨ ³
ĠáĦĭáħ´áĨ ¾
ĠáĦĴáħµáĨ ¿
ĠáĦĨáħ²áĨ º
ĠáĦĳáħ¦áĨ º
ĠáĦĭáħ³áĨ ¶
ĠáĦĭáħ³áĨ ¼
ĠáĦĭáħ³áĨ Ń
ĠáĦģáħŃáĨ «
ĠáĦģáħŃáĨ ¼
ĠáĦģáħŃáĨ Ń
ĠáĦĢáħ®áĨ ¼
ĠáĦĢáħ®áĨ Ń
ĠáĦĮáħŃáĨ ¸
ĠáĦĮáħŃáĨ º
ĠáĦĳáħ¨áĨ ¯
ĠáĦĳáħ¨áĨ ²
ĠáĦĳáħ¨áĨ »
ĠáĦĳáħ¨áĨ Ń
ĠáĦĳáħ§áĨ ¼
ĠáĦĥáħ©áĨ «
ĠáĦĥáħ©áĨ ³
ĠáĦĥáħ©áĨ ¹
ĠáĦĥáħ¦áĨ ¬
ĠáĦĥáħ¦áĨ °
ĠáĦĴáħ´áĨ ¬
ĠáĦĴáħ´áĨ ¶
ĠáĦĬáħ¨áĨ ·
ĠáĦĬáħ¨áĨ ¸
ĠáĦįáħŃáĨ ³
ĠáĦįáħŃáĨ ´
ĠáĦĬáħ¥áĨ °
ĠáĦĬáħ¥áĨ ´
ĠáĦĭáħ«áĨ ¨
ĠáĦĭáħ«áĨ ½
ĠáĦĭáħ«áĨ ¿
ĠáĦĮáħ®áĨ »
ĠáĦĬáħ§áĨ ¯
ĠáĦĬáħ§áĨ ¿
Ġï¸ ¸
Ġï¸ Ł
ĠáĦģáħ¤áĨ ±
ĠáĦħáħµáĨ ¶
ĠáĦħáħµáĨ ¼
ĠáĦģáħ¦áĨ «
ĠáĦģáħ¦áĨ µ
ĠáĦĩáħ«áĨ ®
ĠáĦĩáħ«áĨ ¯
ĠáĦĩáħ«áĨ Ń
ĠáĦĮáħµáĨ ª
ĠáĦĮáħµáĨ ®
ĠáĦĮáħµáĨ ´
ĠáĦĮáħµáĨ ¸
ĠáĦĮáħµáĨ »
ĠáĦįáħ¯áĨ ²
ĠáĦįáħ¯áĨ ¹
ĠáĦįáħ¯áĨ º
ĠáĦįáħ¯áĨ ½
ĠáĦĨáħ±áĨ ¹
ĠáĦĥáħªáĨ °
ĠáĦĴáħ³áĨ ³
ĠáĦĴáħ³áĨ ½
ĠáĦĮáħ¬áĨ ®
ĠáĦĮáħ¬áĨ °
ĠáĦĮáħ¬áĨ µ
ĠáĦĢáħ¥áĨ «
ĠáĦĢáħ¥áĨ ®
ĠáĦįáħ®áĨ ©
ĠáĦįáħ®áĨ ª
ĠáĦįáħ®áĨ ¶
ĠáĦįáħ®áĨ ½
ĠáĦĮáħ¢áĨ ³
ĠáĦĮáħ¢áĨ ´
ĠáĦĮáħ¢áĨ ¹
ĠáĦĮáħ¢áĨ »
ĠáĦĮáħ¢áĨ ½
ĠáĦĬáħ¤áĨ ®
ĠáĦĬáħ¤áĨ ¾
ĠáĦĭáħµáĨ ¨
ĠáĦĭáħµáĨ ª
ĠáĦĭáħµáĨ °
ĠáĦĭáħµáĨ ¾
ĠáĦĨáħ§áĨ ¾
ĠáĦĮáħ²áĨ ¨
ĠáĦĮáħ²áĨ ¯
ĠáĦĮáħ²áĨ °
ĠáĦĮáħ²áĨ µ
ĠáĦĮáħ²áĨ ·
ĠáĦĮáħ²áĨ º
ĠáĦĢáħ¯áĨ ²
ĠáĦĢáħ¯áĨ ½
ĠáĦħáħ£áĨ ¨
ĠáĦħáħ£áĨ »
ĠáĦįáħ±áĨ ¸
ĠáĦīáħ²áĨ ¼
ĠáĦīáħ²áĨ ¿
ĠáĦĬáħ³áĨ ·
ĠáĦĩáħ²áĨ «
ĠáĦĩáħ²áĨ ¾
ĠáĦĩáħ²áĨ ¿
ĠáĦĦáħ°áĨ ¶
ĠáĦĳáħŃáĨ ®
ĠáĦĨáħ´áĨ °
ĠáĦĨáħ´áĨ ²
ĠáĦĨáħ´áĨ ¼
ĠáĦĩáħ±áĨ ²
ĠáĦģáħªáĨ «
ĠáĦĭáħ®áĨ µ
ĠáĦħáħ¬áĨ ¯
ĠáĦħáħ¬áĨ ¿
ĠáĦİáħ©áĨ »
ĠáĦģáħ¥áĨ ·
ĠáĦģáħ¥áĨ º
ĠáĦİáħªáĨ ³
ĠáĦİáħªáĨ ¶
ĠáĦĨáħ«áĨ °
ĠáĦĭáħ¢áĨ º
ĠáĦĪáħµáĨ ¬
ĠáĦĬáħ«áĨ ²
ĠáĦĬáħ«áĨ ¶
ĠáĦıáħ¬áĨ ¨
ĠáĦıáħ¬áĨ °
ĠáĦĨáħµáĨ ¯
ĠáĦĨáħµáĨ ²
ĠáĦĬáħ®áĨ ¯
ĠáĦĬáħ®áĨ ³
ĠáĦĬáħ®áĨ ½
ĠáĦĩáħ°áĨ ª
ĠáĦĩáħ°áĨ ¶
ĠáĦĢáħ²áĨ ª
ĠáĦĢáħ²áĨ ±
ĠáĦĢáħ²áĨ ¼
ĠáĦİáħ¬áĨ ¨
ĠáĦĴáħ¬áĨ ´
ĠáĦĴáħ¬áĨ ¶
ĠáĦģáħ¢áĨ ¯
ĠáĦģáħ¢áĨ Ń
ĠáĦĨáħŃáĨ ª
ĠáĦĨáħŃáĨ ²
ĠáĦĥáħ¥áĨ ¨
ĠáĦĥáħ¥áĨ ¬
ĠáĦĳáħ¥áĨ ¹
ĠáĦĩáħ´áĨ ¹
ĠáĦĩáħ´áĨ ¿
ĠáĦĦáħ®áĨ °
ĠáĦĦáħ®áĨ ½
ĠáĦĬáħ¦áĨ ª
ĠáĦĬáħ¦áĨ µ
ĠáĦĬáħ¦áĨ »
ĠáĦĬáħ¦áĨ ¿
ĠáĦĮáħ¡áĨ ¶
ĠáĦıáħ£áĨ ¨
ĠáĦıáħ£áĨ ©
ĠáĦıáħ£áĨ «
ĠáĦİáħ±áĨ º
ĠáĦĨáħ¤áĨ ¬
ĠáĦĨáħ¤áĨ ®
ĠáĦĨáħ¤áĨ º
ĠáĦĨáħ°áĨ ¸
ĠáĦĨáħ°áĨ º
ĠáĦģáħ¯áĨ ¿
ĠáĦĬáħ°áĨ ¶
ĠáĦĪáħ¬áĨ º
ĠáĦģáħ§áĨ ²
ĠáĦĭáħ¦áĨ ©
ĠáĦĭáħ¦áĨ ±
ĠáĦĭáħ¦áĨ ¹
ĠáĦĭáħ¦áĨ ½
ĠáĦĳáħ¤áĨ «
ĠáĦĳáħ¤áĨ º
ĠáĦĳáħ¤áĨ ¾
ĠáĦĬáħ©áĨ ®
ĠáĦĬáħ©áĨ ³
ĠáĦīáħ´áĨ ¶
ĠáĦīáħ´áĨ Ń
ĠáĦĪáħŃáĨ ¬
ĠáĦĪáħŃáĨ ´
ĠáĦĭáħ²áĨ ´
ĠáĦĭáħ²áĨ µ
ĠáĦĭáħ²áĨ »
ĠáĦĭáħ£áĨ ¨
ĠáĦĭáħ£áĨ µ
ĠáĦĭáħ£áĨ ¹
ĠáĦĥáħ³áĨ µ
ĠáĦĪáħªáĨ ¬
ĠáĦĪáħªáĨ ·
ĠáĦĪáħªáĨ Ń
ĠáĦĥáħ£áĨ ¨
ĠáĦĥáħ£áĨ ·
ĠáĦĥáħ£áĨ ¸
ĠáĦĩáħ©áĨ ®
ĠáĦĩáħ©áĨ ²
ĠáĦıáħ©áĨ °
ĠáĦıáħ©áĨ ·
ĠáĦıáħ©áĨ »
ĠáĦģáħ³áĨ µ
ĠáĦĩáħ¯áĨ ±
ĠáĦĩáħ¯áĨ »
ĠáĦĩáħ¯áĨ ½
ĠáĦĲáħ¢áĨ ª
ĠáĦĲáħ¢áĨ ¶
ĠáĦĮáħ¥áĨ «
ĠáĦĮáħ¥áĨ ¬
ĠáĦĮáħ¥áĨ ²
ĠáĦĮáħ¥áĨ ¼
ĠáĦĮáħ¥áĨ ¾
ĠáĦĩáħ¢áĨ ¯
ĠáĦĩáħ¢áĨ ¶
ĠáĦīáħ£áĨ ª
ĠáĦīáħ£áĨ »
ĠáĦģáħ¡áĨ «
ĠáĦģáħ¡áĨ ¶
ĠáĦĭáħ°áĨ µ
ĠáĦĭáħ°áĨ ¸
ĠáĦĭáħ°áĨ »
ĠáĦĴáħ±áĨ µ
ĠáĦįáħ¬áĨ ®
ĠáĦįáħ¬áĨ ½
ĠáĦįáħ¬áĨ ¿
ĠáĦĳáħ¡áĨ ±
ĠáĦĳáħ¡áĨ ¸
ĠáĦĢáħ©áĨ «
ĠáĦĢáħ©áĨ °
ĠáĦİáħµáĨ «
ĠáĦİáħµáĨ º
ĠáĦİáħµáĨ Ń
Ġâĥ ²
Ġâĥ º
ĠáĦģáħ®áĨ ²
ĠáĦĮáħ£áĨ º
ĠáĦĮáħ£áĨ Ń
ĠáĦħáħ¥áĨ ¨
ĠáĦħáħ¥áĨ °
ĠáĦħáħ¥áĨ »
ĠáĦĭáħŃáĨ ³
ĠáĦĭáħŃáĨ º
ĠáĦĭáħ±áĨ ©
ĠáĦĭáħ±áĨ ¿
ĠáĦĩáħªáĨ ±
ĠáĦĩáħªáĨ ¶
ĠáĦĩáħªáĨ Ń
ĠáĦĥáħ²áĨ ²
ĠáĦĥáħ²áĨ ³
ĠáĦĥáħ²áĨ ¶
ĠáĦĥáħ²áĨ º
ĠáĦĳáħ±áĨ ¬
ĠáĦĳáħ±áĨ ½
ĠáĦĮáħ§áĨ ¿
ĠáĦĮáħ§áĨ Ń
ĠáĦįáħ°áĨ ¶
ĠáĦıáħ¡áĨ ©
ĠáĦıáħ¡áĨ ª
ĠáĦıáħ¡áĨ ¼
ĠáĦģáħ©áĨ ©
ĠáĦģáħ©áĨ ¯
ĠáĦģáħ©áĨ »
ĠáĦģáħ©áĨ ¿
ĠáĦĦáħ¯áĨ ®
ĠáĦĦáħ±áĨ ¯
ĠáĦĦáħ±áĨ ±
ĠáĦĳáħ©áĨ ²
ĠáĦĳáħ©áĨ ´
ĠáĦĪáħ¢áĨ ª
ĠáĦĪáħ¢áĨ ¬
ĠáĦĪáħ¢áĨ ®
ĠáĦĪáħ¢áĨ ¸
ĠáĦĪáħ¢áĨ º
ĠáĦĪáħ¢áĨ ¿
ĠáĦĤáħ¢áĨ °
ĠáĦĤáħ¢áĨ ¸
ĠáĦģáħ°áĨ ª
ĠáĦģáħ°áĨ ½
ĠáĦĳáħ³áĨ °
ĠáĦĳáħ³áĨ ³
ĠáĦĳáħ³áĨ ½
ĠáĦĳáħ³áĨ ¾
Ġá© ī
ĠáĦĮáħ¯áĨ ®
ĠáĦĮáħ¯áĨ ¶
ĠáĦĮáħ¯áĨ ¹
ĠáĦĳáħ£áĨ ©
ĠáĦĳáħ£áĨ º
ĠáĦīáħ±áĨ ¼
ĠáĦĬáħŃáĨ Ń
ĠáĦĥáħŃáĨ °
ĠáĦĥáħŃáĨ ¶
ĠáĦİáħ§áĨ ±
ĠáĦİáħ§áĨ »
ĠáĦİáħ§áĨ ¼
ĠáĦİáħ¯áĨ ¨
ĠáĦİáħ¯áĨ ®
ĠáĦİáħ¯áĨ ¶
ĠáĦİáħ¯áĨ Ń
ĠáĦĨáħ¯áĨ ´
ĠáĦĨáħ¯áĨ ¾
ĠáĦĨáħ¥áĨ ¨
ĠáĦĨáħ¥áĨ »
ĠáĦĮáħ´áĨ ¨
ĠáĦĮáħ´áĨ ª
ĠáĦĮáħ´áĨ º
ĠáĦĢáħŃáĨ ©
ĠáĦĢáħŃáĨ ¬
ĠáĦĢáħŃáĨ ®
ĠáĦĢáħŃáĨ ²
ĠáĦĢáħŃáĨ ·
ĠáĦİáħŃáĨ «
ĠáĦİáħŃáĨ ¿
ĠáĦıáħ¨áĨ »
ĠáĦıáħ¨áĨ ¾
ĠáĦĬáħ¬áĨ ¯
ĠáĦĬáħ¬áĨ ³
ĠáĦĬáħ¬áĨ º
ĠáĦįáħ§áĨ ¯
ĠáĦĨáħ¢áĨ °
ĠáĦĨáħ¢áĨ ²
ĠáĦħáħ³áĨ ©
ĠáĦħáħ³áĨ µ
ĠáĦĮáħ©áĨ ²
ĠáĦĳáħ¬áĨ ·
ĠáĦĳáħ¬áĨ Ń
ĠáĦĪáħ£áĨ ¯
ĠáĦĪáħ£áĨ µ
ĠáĦĪáħ£áĨ ¸
ĠáĦĪáħ£áĨ º
ĠáĦĪáħ£áĨ Ń
ĠáĦĢáħ¬áĨ ¶
ĠáĦĢáħ±áĨ ²
ĠáĦĲáħ¬áĨ °
ĠáĦĩáħ¤áĨ ¬
ĠáĦĩáħ¤áĨ ²
ĠáĦİáħ¨áĨ ®
ĠáĦİáħ¨áĨ ¯
ĠáĦİáħ¨áĨ ¹
ĠáĦİáħ¨áĨ ½
ĠáĦīáħ°áĨ ¸
ĠáĦīáħ°áĨ ¼
ĠáĦĮáħ¨áĨ µ
ĠáĦĩáħ£áĨ °
ĠáĦĩáħ£áĨ ¼
ĠáĦĩáħ£áĨ ¿
ĠáĦĨáħ¦áĨ ¸
ĠáĦĨáħ¦áĨ ½
ĠáĦĢáħ³áĨ ©
ĠáĦĢáħ³áĨ º
ĠáĦįáħ¦áĨ ¯
ĠáĦĴáħ¢áĨ ·
ĠáĦħáħ°áĨ ª
ĠáĦĢáħªáĨ µ
ĠáĦĮáħ±áĨ ¬
ĠáĦĮáħ±áĨ ´
ĠáĦĮáħ±áĨ º
ĠáĦĥáħ¡áĨ ³
ĠáĦĥáħ¡áĨ ¹
ĠáĦĳáħ²áĨ ³
ĠáĦĳáħ²áĨ ¶
ĠáĦĳáħ²áĨ ·
ĠáĦĳáħ²áĨ º
ĠáĦĴáħŃáĨ ª
ĠáĦĪáħ²áĨ µ
ĠáĦĪáħ²áĨ º
ĠáĦĪáħ²áĨ »
ĠáĦĪáħ¯áĨ «
ĠáĦıáħ²áĨ ¼
ĠáĦĨáħ®áĨ ·
ĠáĦĨáħ®áĨ »
ĠáĦĨáħ®áĨ Ń
ĠáĦĴáħ°áĨ ¬
ĠáĦĲáħ±áĨ «
ĠáĦĲáħ±áĨ ¬
ĠáĦĬáħ¡áĨ ³
ĠáĦĭáħ¡áĨ ª
ĠáĦīáħ©áĨ ¬
ĠáĦīáħ©áĨ Ń
ĠáĦıáħŃáĨ ¨
ĠáĦıáħŃáĨ ³
ĠáĦıáħŃáĨ µ
ĠáĦĭáħ¯áĨ ²
ĠáĦĭáħ¯áĨ ¼
ĠáĦįáħ¨áĨ «
ĠáĦĬáħ¢áĨ ¹
ĠáĦĬáħ¢áĨ ¿
ĠáĦĦáħ¨áĨ ®
ĠáĦĦáħ¨áĨ ±
ĠáĦİáħ¢áĨ ©
ĠáĦĪáħ¡áĨ º
ĠáĦĪáħ¡áĨ ¾
ĠáĦĲáħ¡áĨ ´
ĠáĦĲáħªáĨ ª
ĠáĦĬáħ´áĨ «
ĠáĦįáħ¤áĨ ¯
ĠáĦįáħ¤áĨ ´
ĠáĦĪáħ¨áĨ «
ĠáĦĪáħ¨áĨ ¹
ĠáĦıáħ«áĨ ª
ĠáĦıáħ«áĨ ¾
ĠáĦıáħ«áĨ ¿
ĠáĦįáħ´áĨ ¯
ĠáĦįáħ´áĨ ¸
ĠáĦĩáħŃáĨ »
ĠáĦħáħ¯áĨ ²
ĠáĦģáħ¨áĨ ª
ĠáĦģáħ¨áĨ »
ĠáĦģáħ¨áĨ ¿
ĠáĦĭáħ§áĨ ±
ĠáĦĭáħ§áĨ ³
ĠáĦĭáħ§áĨ ¶
ĠáĦĭáħ¤áĨ ¨
ĠáĦĳáħ¯áĨ ³
ĠáĦĳáħ¯áĨ º
ĠáĦĳáħ«áĨ ¶
ĠáĦĳáħ«áĨ ¸
ĠáĦİáħ«áĨ ¨
ĠáĦİáħ«áĨ »
ĠáĦİáħ«áĨ ¾
ĠáĦĴáħ¥áĨ «
ĠáĦĴáħ¥áĨ ®
ĠáĦĮáħªáĨ ¹
ĠáĦĮáħ¦áĨ ±
ĠáĦĤáħ³áĨ ©
ĠáĦĥáħ«áĨ ½
ĠáĦĩáħ¡áĨ °
ĠáĦĴáħ¤áĨ ¬
ĠáĦĴáħ¤áĨ ®
ĠáĦĴáħ¤áĨ µ
ĠáĦīáħ³áĨ °
ĠáĦīáħ³áĨ µ
ĠáĦīáħ³áĨ ·
ĠáĦĴáħ¦áĨ ª
ĠáĦīáħ«áĨ ²
ĠáĦīáħ«áĨ ¹
ĠáĦħáħ§áĨ ¸
ĠáĦıáħ¢áĨ ¬
ĠáĦıáħ¢áĨ º
ĠáĦıáħªáĨ ²
ĠáĦıáħªáĨ ¸
ĠáĦıáħªáĨ º
ĠáĦĲáħ¨áĨ ²
ĠáĦĥáħ¤áĨ ³
ĠáĦįáħ©áĨ ¬
ĠáĦĤáħ¤áĨ ¨
ĠáĦĤáħ¤áĨ ¶
ĠáĦĢáħ¢áĨ ¹
ĠáĦĢáħ¤áĨ ¨
ĠáĦĢáħ¤áĨ ³
ĠáĦĦáħ³áĨ «
ĠáĦĦáħ³áĨ ¬
ĠáĦĬáħ£áĨ ¿
ĠáĦĩáħ®áĨ ¯
ĠáĦĴáħªáĨ ©
ĠáĦħáħ®áĨ ¾
ĠáĦĭáħªáĨ «
ĠáĦĭáħªáĨ ¼
ĠáĦĭáħªáĨ ½
ĠáĦįáħ£áĨ ·
ĠáĦīáħ¯áĨ µ
ĠáĦīáħ¯áĨ Ń
ĠáĦĪáħ«áĨ ¬
ĠáĦĪáħ«áĨ ²
ĠáĦĦáħ²áĨ ¶
ĠáĦĦáħ²áĨ ¾
ĠáĦħáħ±áĨ ·
ĠáĦĢáħ¡áĨ ¯
ĠáĦĢáħ¡áĨ ±
ĠáĦįáħ¥áĨ ¿
ĠáĦĦáħ«áĨ ®
ĠáĦĦáħ«áĨ ¾
ĠáĦĦáħ«áĨ ¿
ĠáĦĦáħµáĨ ¸
ĠáĦĢáħ¨áĨ ±
ĠáĦĢáħ¨áĨ ²
ĠáĦĳáħ¢áĨ µ
ĠáĦĩáħ¦áĨ ¨
ĠáĦĩáħ¦áĨ ·
ĠáĦįáħ¢áĨ ¿
ĠáĦĦáħ´áĨ °
ĠáĦĦáħ´áĨ ¶
ĠáĦĤáħ£áĨ ª
ĠáĦĤáħ£áĨ ·
ĠáĦĤáħ£áĨ ¿
ĠáĦĪáħ©áĨ ¨
ĠáĦĲáħ§áĨ º
ĠáĦİáħ³áĨ ¶
ĠáĦĪáħ®áĨ ¨
ĠáĦĪáħ®áĨ ©
ĠáĦĪáħ®áĨ µ
ĠáĦħáħ©áĨ «
ĠáĦħáħ©áĨ µ
ĠáĦħáħ©áĨ ¶
ĠáĦħáħ©áĨ »
ĠáĦĴáħ«áĨ ±
ĠáĦįáħªáĨ µ
ĠáĦįáħªáĨ »
ĠáĦĩáħ¬áĨ ¨
ĠáĦĩáħ¬áĨ ½
ĠáĦĩáħ¬áĨ Ń
ĠáĦĦáħ§áĨ ®
ĠáĦĦáħ§áĨ µ
ĠáĦĦáħ§áĨ »
ĠáĦĦáħ§áĨ ½
ĠáĦĤáħ¨áĨ ¬
ĠáĦĨáħ¬áĨ ³
ĠáĦĴáħ¡áĨ ²
ĠáĦĴáħ¡áĨ ´
ĠáĦĮáħ«áĨ ±
ĠáĦĮáħ«áĨ ²
ĠáĦĮáħ«áĨ ¹
ĠáĦİáħ¥áĨ ¿
ĠáĦĭáħ¥áĨ ¨
ĠáĦĭáħ¥áĨ ¾
ĠáĦĮáħ¤áĨ ¾
ĠáĦĴáħ²áĨ ³
ĠáĦīáħµáĨ ±
ĠáĦĲáħµáĨ ½
ĠáĦĴáħ£áĨ »
ĠáĦĦáħ©áĨ °
ĠáĦĦáħ©áĨ »
ĠáĦĦáħ¢áĨ ¶
ĠáĦĦáħ¢áĨ º
ĠáĦĦáħ¢áĨ Ń
ĠáĦĦáħ¥áĨ ·
ĠáĦĢáħ¦áĨ ¸
ĠáĦĢáħ¦áĨ º
ĠáĦİáħ¦áĨ ©
ĠáĦİáħ¦áĨ ¼
ĠáĦĦáħ£áĨ «
ĠáĦĦáħ£áĨ ´
ĠáĦĦáħ£áĨ º
ĠáĦĬáħªáĨ ¬
ĠáĦĬáħªáĨ ½
ĠáĦĳáħªáĨ ¯
ĠáĦĳáħªáĨ ³
ĠáĦĳáħªáĨ ¸
ĠáĦĪáħ±áĨ ¯
ĠáĦĪáħ±áĨ ¹
ĠáĦıáħ¥áĨ ¨
ĠáĦıáħ¥áĨ «
ĠáĦıáħ¥áĨ ±
ĠáĦıáħ¥áĨ ¶
ĠáĦıáħ¥áĨ ¼
ĠáĦĪáħ§áĨ ®
ĠáĦĦáħ¦áĨ ¶
ĠáĦĦáħ¦áĨ Ń
ĠáĦĲáħ®áĨ ©
ĠáĦĲáħ®áĨ ¹
ĠáĦĩáħ¨áĨ ´
ĠáĦĩáħ¨áĨ ¸
ĠáĦĩáħ¨áĨ ½
ĠáĦĩáħ¨áĨ ¿
ĠáĦıáħµáĨ ¼
ĠáĦĦáħªáĨ ¾
ĠáĦģáħµáĨ º
ĠáĦİáħ¤áĨ ª
ĠáĦİáħ²áĨ ±
ĠáĦĤáħ«áĨ ¼
ĠáĦĤáħ«áĨ Ń
ĠáĦĥáħ¬áĨ ®
ĠáĦĴáħ¯áĨ °
ĠáĦıáħ³áĨ ·
ĠáĦĲáħ´áĨ ª
ĠáĦĲáħ´áĨ ³
ĠáĦĲáħ¦áĨ ¨
ĠáĦİáħ°áĨ ¨
ĠáĦİáħ°áĨ ±
ĠáĦİáħ°áĨ ¿
ĠáĦĥáħ°áĨ «
ĠáĦĥáħ°áĨ °
ĠáĦĥáħ°áĨ ±
ĠáĦĥáħ°áĨ º
ĠáĦīáħŃáĨ ®
ĠáĦīáħŃáĨ µ
ĠáĦīáħŃáĨ º
ĠáĦīáħŃáĨ »
ĠáĦıáħ®áĨ ³
ĠáĦĲáħ¤áĨ ª
ĠáĦĲáħ¤áĨ ²
ĠáĦĤáħ±áĨ ¶
ĠáĦĤáħ±áĨ Ń
ĠáĦĥáħ¯áĨ ·
ĠáĦĴáħ©áĨ ©
ĠáĦĴáħ©áĨ ³
ĠáĦĴáħ©áĨ ·
ĠáĦĴáħ©áĨ ½
ĠáĦĴáħ®áĨ ¶
ĠáĦıáħ´áĨ ¬
ĠáĦıáħ´áĨ ¯
ĠáĦħáħ²áĨ ¨
ĠáĦĤáħ°áĨ ±
ĠáĦħáħ¨áĨ ¬
ĠáĦĳáħµáĨ ¾
ĠáĦĲáħ©áĨ ¨
ĠáĦĤáħŃáĨ ¼
ĠáĦıáħ±áĨ ¾
ĠáĦĲáħ³áĨ ®
ĠáĦĲáħ³áĨ ¼
ĠáĦĲáħ³áĨ ¿
ĠáĦĥáħ´áĨ µ
ĠáĦĥáħ´áĨ ¼
ĠáĦĦáħ¬áĨ ©
ĠáĦĩáħ¥áĨ ¿
ĠáĦģáħ±áĨ ¼
ĠáĦĩáħ§áĨ º
ĠáĦĲáħ«áĨ ®
ĠáĦĲáħ¯áĨ ´
ĠáĦĲáħ¯áĨ ¸
ĠáĦıáħ¤áĨ ª
ĠáĦİáħ®áĨ ¨
ĠáĦİáħ®áĨ º
ĠáĦĴáħ¨áĨ °
ĠáĦĤáħ®áĨ ¨
ĠáĦģáħ²áĨ ¿
ĠáĦıáħ¯áĨ Ń
ĠáĦĩáħµáĨ »
ĠáĦĤáħ¬áĨ ¯
ĠáĦĤáħ¬áĨ µ
ĠáĦĤáħ¬áĨ ¾
Ġó´ ¥Ļ
Ġò½ ĴĪ
ĠáĦĪáħ°áĨ µ
ĠóĻ ¹³
Ġð¸ ĶĴ
Ġá¿ ķ
Ġá½ ŀ
Ġï¨ ¡
Ġï¨ §
Ġà¾ Į
¡ §
¡ ¶
¡ ¹
¡ ½
¡ Ĥ
¢ §
¢ ¯
¢ ±
¢ ĳ
£ £
£ ³
£ ¼
£ ĥ
£ ĭ
£ Ľ
£ Ŀ
¤ ¨
¤ Ħ
¤ ļ
¥ ¡
¥ Ħ
¥ Ĭ
¥ ĵ
¥ Ń
¦ ĺ
§ ¡
§ ¦
§ ©
§ ²
§ ³
§ »
§ ¾
§ ħ
§ Ŀ
§ ŀ
§ Ł
¨ £
¨ °
¨ Ł
¨ Ń
© ¸
© Ĺ
© Ļ
© ļ
ª £
ª ¬
ª ·
ª ¼
ª ĺ
« ¡
« ¹
« ½
« İ
« Ĺ
« Ļ
« ŀ
¬ ¦
¬ §
¬ ı
® £
® ª
® ®
® ²
® ¼
® Ķ
® Ĺ
® Ń
¯ ¦
¯ ª
¯ «
¯ º
¯ Ĥ
¯ ĥ
¯ ĩ
¯ ĭ
¯ ĺ
° ¸
° ¹
° Į
° ı
± ¸
± »
± ĳ
± Ĺ
² ½
³ §
³ «
³ ³
³ º
³ ī
³ ĺ
´ ¼
´ ģ
´ Ĭ
´ İ
´ ŀ
µ §
µ ª
µ «
µ ¯
µ į
µ ĳ
µ Ĵ
¶ »
¶ ģ
¶ ĭ
¶ ı
¶ ĵ
¶ ķ
¶ ĸ
¶ Ŀ
¶ ŀ
· ¤
· ®
· ¯
· °
· µ
· ¶
· ¹
· ¾
· ļ
· ł
¸ ¥
¸ ¦
¸ ¯
¸ ¸
¸ »
¸ Ģ
¸ Ĭ
¸ Ĳ
¸ ķ
¸ ľ
¹ ´
¹ ¶
¹ ¾
¹ Ĳ
¹ ł
º ĩ
º Ń
» ģ
» ł
¼ Ĥ
¼ ı
¼ ķ
¼ ĸ
¼ ĺ
½ ¡
½ ¦
½ ·
½ º
½ ĥ
½ ĵ
½ ļ
¾ ĭ
¾ Ľ
¾ ł
¾ Ń
¿ ©
¿ µ
¿ Ĳ
¿ Ł
Ģ ¤
Ģ ´
Ģ º
Ģ ĥ
Ģ ĩ
Ģ ĭ
ģ ¸
ģ Ĥ
ģ ı
ģ ķ
Ĥ ¤
Ĥ ²
Ĥ µ
Ĥ ½
Ĥ ĺ
Ĥ ľ
Ĥ Ŀ
ĥ «
ĥ ¯
ĥ ³
ĥ ·
Ħ ¡
Ħ ¦
Ħ ¬
Ħ ®
Ħ ·
Ħ ķ
ħ ¯
ħ ¸
ħ Ļ
Ĩ ¦
Ĩ §
Ĩ ´
Ĩ ¾
ĩ ¼
Ī ª
Ī °
Ī ±
Ī ¼
Ī ģ
Ī Į
Ī į
Ī Ļ
ī ¢
ī º
Ĭ ®
Ĭ º
Ĭ ħ
Ĭ į
ĭ ¨
ĭ ¯
ĭ °
ĭ ³
ĭ ¼
ĭ ĥ
ĭ ī
ĭ ĸ
Į ®
Į ²
Į ·
Į ¸
Į ģ
Į ĵ
į µ
į ¶
į ¸
į Ĭ
İ ¡
İ ¥
İ ¨
İ ł
ı §
ı ¯
ı ·
ı ½
ı Ĩ
ı ī
ı Ĵ
Ĳ «
Ĳ °
Ĳ ³
Ĳ ¹
Ĳ ¾
ĳ ³
ĳ ĭ
ĳ ľ
ĳ ł
Ĵ ª
Ĵ «
Ĵ ĳ
Ĵ Ķ
ĵ £
ĵ §
ĵ ±
ĵ »
ĵ Ľ
Ķ ¥
Ķ §
Ķ »
Ķ ĸ
Ķ ł
ķ ©
ķ ·
ķ ¸
ķ ½
ķ ķ
ĸ ¤
ĸ ©
ĸ «
ĸ Ĥ
ĸ Ķ
ĸ ĸ
ĸ Ł
Ĺ ¼
Ĺ ĵ
Ĺ ŀ
ĺ ī
ĺ ķ
ĺ ĺ
ĺ Ń
Ļ ¿
Ļ ģ
Ļ ĩ
Ļ ī
Ļ ĳ
ļ ¤
ļ §
ļ ©
ļ ±
ļ µ
ļ Ħ
ļ Ī
ļ Į
Ľ ³
Ľ ¸
Ľ ½
Ľ Ĥ
Ľ ĺ
ľ ´
ľ ľ
Ŀ ¦
Ŀ ´
Ŀ »
Ŀ ½
Ŀ Ĥ
Ŀ Ķ
Ŀ Ļ
ŀ ¡
ŀ ¢
ŀ ¤
ŀ ¨
ŀ ¼
ŀ ½
ŀ ĳ
ŀ ļ
Ł ª
Ł ²
Ł Ģ
Ł ģ
Ł ĸ
Ł Ľ
ł ¨
ł «
ł ĥ
ł Ķ
Ń ¢
Ń ¨
Ń ´
Ń ¶
Ń º
Ń ĩ
Ń Ĵ
Ġï ©®
Ġï¿ ±
Ġï¿ ¹
ĠâĢ ¾
ĠâĢ ¿
ĠâĻ ¡
ĠâĻ ²
ĠâĻ ¼
ĠâĻ Ķ
ĠáĦ Ń
Ġà¤ ½
Ġà¤ İ
Ġâĸ ¯
Ġâĸ ¶
Ġâĸ ļ
Ġâĸ Ł
ĠáĦĨáħ ¡
ĠáĦĨáħ «
ĠáĦĨáħ ¬
ĠáĦĨáħ ¡áĩĢ
ĠáĦĨáħ ªáĩĢ
ĠáĦĬáħ ³áĩĤ
ĠáĦĬáħ ¬áĩĢ
ĠáĦĬáħ µáĩĢ
ĠáĦħáħ °
ĠáĦħáħ ¥áĩĤ
ĠáĦģáħ «
ĠáĦģáħ ³
ĠáĦģáħ ¤áĩĢ
ĠáĦģáħ ©áĩģ
ĠáĦģáħ ¡áĩĤ
ĠáĦĭáħ ¢
ĠáĦĭáħ °
ĠáĦĭáħ µ
ĠáĦĭáħ ³áĩģ
ĠáĦĭáħ ³áĩĤ
ĠáĦĭáħ ŃáĩĢ
ĠáĦĭáħ ŃáĩĤ
ĠáĦĭáħ ²áĩģ
ĠáĦĭáħ ¤áĩĢ
ĠáĦĮáħ ¢
ĠáĦĮáħ µ
ĠáĦĮáħ ¡áĩĢ
ĠáĦĮáħ ®áĩĢ
ĠáĦĮáħ ¢áĩģ
ĠáĦĮáħ ¥áĩĢ
ĠáĦĮáħ ©áĩģ
ĠáĦĥáħ ¢
ĠáĦĥáħ ¯
ĠáĦĥáħ °áĩģ
ĠáĦĥáħ ¨áĩĤ
ĠáĦĥáħ ¥áĩĢ
ĠáĦĥáħ ¤áĩĢ
ĠáĦĥáħ ¥áĩĤ
ĠáĦĢáħ ²
ĠáĦĢáħ ³
ĠáĦĢáħ °áĩģ
ĠáĦĢáħ ³áĩĤ
ĠáĦĢáħ §áĩĢ
ĠáĦĢáħ ¨áĩĢ
ĠáĦįáħ ©
ĠáĦįáħ ²
ĠáĦįáħ ³
ĠáĦįáħ §áĩĤ
ĠáĦįáħ ¡áĩĢ
ĠáĦįáħ ¬áĩĤ
ĠáĦįáħ ´áĩģ
ĠáĦĳáħ µáĩĤ
ĠáĦĳáħ §áĩĢ
ĠáĦĳáħ ²áĩĤ
ĠáĦĳáħ ¢áĩĢ
ĠáĦĩáħ °áĩģ
ĠáĦĩáħ ŃáĩĢ
ĠáĦĩáħ µáĩĤ
ĠáĦĩáħ ¬áĩĤ
ĠáĦĩáħ ´áĩģ
ĠáĦİáħ ³
ĠáĦİáħ ŃáĩĢ
ĠáĦİáħ Ńáĩģ
ĠáĦİáħ ªáĩģ
ĠáĦĴáħ ŃáĩĢ
ĠáĦĴáħ ¨áĩĤ
ĠáĦīáħ ¦
ĠáĦīáħ ¤áĩģ
ĠáĦīáħ ¬áĩģ
ĠáĦīáħ §áĩģ
ĠáĦīáħ °áĩĢ
ĠáĦīáħ ¨áĩĢ
ĠáĦīáħ ¦áĩģ
ĠáĦĪáħ ¢
ĠáĦĪáħ ¨
ĠáĦĪáħ µ
ĠáĦĪáħ °áĩĢ
ĠáĦĪáħ «áĩģ
ĠáĦĪáħ ¬áĩĢ
ĠáĦĪáħ ¥áĩģ
ĠáĦĪáħ ®áĩģ
ĠáĦıáħ ¡
ĠáĦıáħ ¨
ĠáĦıáħ ©
ĠáĦıáħ ´
ĠáĦıáħ ±áĩĢ
ĠáĦıáħ ¤áĩĤ
ĠáĦıáħ ªáĩĢ
ĠáĦĦáħ ±
ĠáĦĦáħ ³
ĠáĦĦáħ ³áĩĤ
ĠáĦĦáħ ŃáĩĤ
ĠáĦĦáħ ¢áĩģ
ĠáĦĦáħ ¤áĩģ
ĠáĦĦáħ ´áĩĤ
ĠáĦĦáħ ¦áĩģ
ĠáĦĲáħ ¥
ĠáĦĲáħ ŃáĩĢ
ĠáĦĲáħ «áĩĢ
ĠáĦĤáħ Ńáĩģ
ĠáĦĤáħ ¯áĩĤ
ĠáĦĤáħ °áĩĤ
ĠáĦĤáħ ¥áĩģ
ĠáĦĤáħ ®áĩĤ
ĠâĤ ®
ĠâĤ ¶
ĠâĤ Ĭ
Ġá¾ µ
ĠâĪ Ģ
ĠâĪ ģ
ĠâĪ Ĩ
ĠâĪ Ĭ
ĠâĪ ĵ
ĠâĦ §
ĠâĦ Ħ
ĠâĦ Į
ĠâĦ İ
Ġéĵ «
Ġéĵ ®
Ġéĵ Ĥ
Ġéĵ Ī
Ġéĵ Ĺ
ĠâĴ ³
ĠâĴ ·
ĠâĴ ½
ĠâĴ Ħ
ĠâĴ ĵ
ĠâĴ Ł
ĠâŁ Ľ
Ġâģ §
Ġâģ ®
Ġâģ ³
Ġâģ ¹
Ġâģ ½
Ġâģ ĩ
Ġãı ĥ
Ġãı Ĳ
Ġçı «
Ġçı ģ
Ġçı Ħ
Ġçı ī
Ġçı ķ
Ġçı Ľ
ĠâĿ ¡
ĠâĿ Ĩ
ĠâĿ Ī
ĠâĿ ĭ
ĠâĿ Ľ
ĠãŁ ª
ĠãŁ µ
ĠãŁ Ģ
ĠãŁ ģ
ĠãŁ Ĳ
ĠãŁ ķ
Ġïİ ¨
Ġïİ ī
Ġïİ ĭ
Ġïİ İ
Ġïİ Ĳ
Ġïİ ĳ
Ġïİ ĺ
Ġâľ İ
Ġâľ ŀ
Ġâľ Ń
ĠçŁ ©
ĠçŁ ł
Ġïı ¡
Ġïı ·
Ġïı ¼
Ġïı į
Ġïı Ļ
Ġâ¥ ¢
Ġâ¥ «
Ġâ¥ Į
Ġâ¥ ĵ
Ġâ¥ Ķ
ĠäĴ ¨
ĠäĴ ª
ĠäĴ ½
ĠäĴ ¾
ĠäĴ Ĥ
ĠäĴ ħ
ĠäĴ į
ĠäĴ İ
ĠäĴ Ĳ
ĠäĴ ŀ
ĠäĶ ħ
Ġã§ ©
Ġã§ ¼
Ġã§ ī
Ġã§ İ
Ġã§ ľ
Ġã¢ ¯
Ġã¢ º
Ġã¢ ¼
Ġã¢ ½
Ġã¢ ¾
ĠæĿ ĥ
ĠæĿ į
ĠæĿ Ľ
Ġäĵ ³
Ġäĵ ¶
Ġäĵ ħ
Ġäĵ ī
Ġäĵ Ļ
Ġæģ «
Ġæģ Ī
Ġã· ¡
Ġã· ¥
Ġã· ½
Ġã· ħ
Ġã· Ń
ĠâĨ ±
ĠâĨ ²
ĠâĨ º
ĠâĨ Ģ
ĠâĨ ĥ
Ġã² ¹
Ġã² ¼
Ġã² ĩ
Ġã² Ī
Ġã² Į
Ġã² ľ
Ġîı µ
Ġîı Ħ
Ġîı Ľ
Ġîı ŀ
Ġâį ®
Ġâį ³
Ġâį Ĳ
Ġâį ŀ
Ġãª ¬
Ġãª ²
Ġéŀ «
Ġéŀ ĭ
Ġéŀ İ
Ġéŀ ĳ
ĠîĴ ¤
ĠîĴ ¥
ĠîĴ ¨
ĠîĴ ª
ĠîĴ «
ĠîĴ Ĥ
ĠîĴ ĥ
ĠîĴ Ľ
ĠíŁ ±
ĠíŁ Ĩ
ĠíŁ Į
ĠíŁ ŀ
Ġç· ¨
Ġç· ī
Ġç· İ
Ġç· ĳ
Ġç· Ļ
Ġç· ŀ
Ġç· ł
ĠäĿ ©
ĠäĿ «
ĠäĿ ±
ĠäĿ µ
ĠäĿ Ħ
ĠäĿ Ĩ
ĠäĿ į
ĠäĿ ĳ
ĠäĿ Ķ
Ġçİ ¤
Ġçİ ®
Ġçİ ļ
Ġäľ ¢
Ġäľ ®
Ġäľ ¯
Ġäľ ±
Ġäľ ½
Ġäľ ¾
Ġäľ ¿
Ġäľ ı
ĠæĴ ¤
ĠæĴ ī
ĠæĴ Ĵ
Ġã¿ ¬
Ġã¿ ¿
Ġã¿ ģ
Ġã¿ ĭ
Ġã¿ Ĳ
Ġã¯ ³
Ġã¯ ¶
Ġã¯ ģ
Ġã¯ Ŀ
ĠîŁ µ
ĠîŁ ¾
ĠîŁ ĭ
ĠîŁ Ķ
ĠäŁ ¢
ĠäŁ «
ĠäŁ ²
ĠäŁ ī
ĠäŁ ĳ
Ġæį ¢
Ġæį ¤
Ġæį §
Ġæį ¯
Ġæį Į
Ġæį ı
ĠîĿ «
ĠîĿ ¬
ĠîĿ Ķ
Ġæľ µ
Ġæľ Ĵ
Ġãŀ ¡
Ġãŀ ¥
Ġãŀ «
Ġãŀ ı
Ġãº ª
Ġãº »
Ġãº ½
Ġãº Ļ
Ġéİ ¨
Ġéİ ¬
Ġéİ µ
Ġéİ »
Ġéİ Ī
Ġéİ į
Ġãģ Ĥ
Ġãģ ħ
Ġçº ¾
Ġçº ĩ
ĠéŁ ¸
ĠéŁ ī
ĠèĴ £
ĠèĴ ¨
ĠèĴ µ
ĠèĴ º
ĠèĴ Ĥ
ĠèĴ Ħ
ĠèĴ ļ
Ġïŀ ª
Ġïŀ µ
Ġïŀ ī
Ġïŀ ı
Ġäı ¤
Ġäı Ĭ
Ġäı ĭ
ĠâĬ §
ĠâĬ ¸
Ġæĵ ģ
Ġæĵ ĩ
Ġæĵ Ĺ
Ġæĵ ŀ
ĠêĴ Ģ
ĠêĴ Ī
ĠêĴ ı
ĠêĴ ľ
ĠæĹ ´
ĠæĹ İ
ĠæĹ Ŀ
Ġäĳ ¼
Ġäĳ ī
Ġäĳ Ĺ
Ġäĳ ļ
Ġâķ ¬
Ġâķ ł
Ġäį ĭ
Ġäį į
Ġäį Ľ
Ġäį Ł
ĠâĹ ¢
ĠâĹ «
ĠâĹ ²
ĠâĹ »
ĠâĹ ħ
Ġå¾ Ģ
Ġå¾ Ĭ
Ġå¾ Į
Ġå¾ Ĳ
Ġá¢ ¢
Ġá¢ ¯
Ġá¢ ģ
Ġá¢ İ
Ġâĵ ¥
Ġâĵ °
Ġâĵ º
Ġâĵ ģ
Ġâĵ ĵ
Ġâĵ ŀ
ĠçĦ ¥
ĠçĦ ¦
ĠçĦ º
ĠçĦ ¿
ĠçĦ ĩ
ĠçĦ ķ
ĠçĦ Ł
ĠçĶ ¯
ĠçĶ ¸
ĠçĶ ħ
ĠçĶ Ń
Ġæĸ ¼
Ġæĸ Ħ
Ġæĸ ĭ
Ġæĸ Ń
Ġá§ °
Ġá§ ĥ
Ġá§ Ī
Ġá§ į
Ġá§ ĸ
Ġéº ¡
Ġéº ¢
Ġéº ´
Ġéº ¾
Ġçŀ Ĥ
Ġçŀ Ĩ
Ġé¾ ¦
Ġé¾ ļ
Ġãİ ¥
Ġãİ ¦
Ġãİ ²
Ġãİ »
Ġãİ Ħ
Ġîĵ ¡
Ġîĵ ¢
Ġîĵ ¨
Ġîĵ ·
Ġîĵ º
Ġîĵ ĥ
Ġîĵ Ĳ
Ġîĵ ĺ
Ġãĳ §
Ġãĳ °
Ġãĳ Ģ
Ġãĳ Ħ
Ġãĵ ¡
Ġãĵ £
Ġãĵ ©
Ġãĵ ±
Ġãĵ ¹
Ġâ£ ¥
Ġâ£ ®
Ġâ£ ¹
Ġâ£ Į
Ġâ£ į
Ġâ£ ı
Ġâ£ ĵ
Ġâ£ ĸ
Ġéı ©
Ġéı ¹
Ġéı į
Ġéı ĳ
Ġéı ĵ
Ġéı Ŀ
ĠêĿ ¤
ĠêĿ ©
ĠêĿ ¹
ĠêĿ Ĵ
ĠêĿ Ķ
Ġá¦ ¨
Ġá¦ ı
Ġá¦ ĺ
Ġá¦ Ľ
Ġç² £
Ġç² ¥
Ġç² ©
Ġç² °
Ġç² ²
Ġç² ¾
Ġç² ħ
Ġç² Ĩ
Ġç² Ī
Ġç¿ ®
Ġãĥ µ
Ġãĥ Ł
Ġãĥ ł
Ġï¢ ¡
Ġï¢ ı
Ġï¢ ķ
Ġï¢ ļ
Ġî´ ¤
Ġî´ ®
Ġî´ ²
Ġî´ ĩ
Ġî´ Ĭ
Ġî´ ĭ
Ġî´ Ķ
Ġî´ Ĺ
Ġî´ ļ
ĠîĻ °
ĠîĻ ¼
ĠîĻ Ħ
ĠîĻ ī
ĠîĻ Ĺ
ĠîĻ ľ
Ġè£ ¨
Ġè£ Ģ
Ġè£ ľ
Ġâŀ ¢
Ġâŀ §
Ġâŀ ¬
Ġâŀ ®
Ġâŀ ¯
Ġâŀ ¸
Ġâŀ ½
Ġâŀ İ
ĠîŃ º
ĠîŃ »
ĠîŃ ¿
Ġéļ ¡
Ġéļ ĥ
Ġéļ Ĵ
Ġâı §
Ġâı ²
Ġâı ³
Ġâı µ
Ġâı ķ
Ġäİ ¹
Ġäİ Ģ
Ġäİ Ĭ
Ġäİ ķ
Ġäİ Ľ
Ġæķ ¹
Ġæķ »
Ġæķ ĥ
Ġæķ Ĺ
Ġæķ Ļ
Ġç¾ ª
Ġç¾ «
Ġç¾ ®
Ġç¾ ¶
Ġç¾ ī
Ġç¾ Ĳ
Ġäĥ ¨
Ġäĥ Ī
Ġîľ £
Ġîľ ¥
Ġîľ ¯
Ġîľ ¹
Ġîľ ķ
ĠäĬ ¢
ĠäĬ ¾
ĠäĬ ĩ
ĠäĬ ķ
ĠäĬ Ń
Ġå± §
Ġå± ¹
Ġå± į
Ġå± Ĳ
Ġä¸ ®
Ġä¸ µ
Ġä¸ º
Ġä¸ ½
ĠäĤ ¥
ĠäĤ ¦
ĠäĤ ª
ĠäĤ Ħ
ĠäĤ į
ĠäĤ ľ
Ġäº ¦
Ġäº ĭ
Ġäº Į
Ġî£ «
Ġî£ °
Ġî£ ¹
Ġî£ ģ
Ġî£ ĵ
Ġî£ Ĺ
Ġî£ ĺ
Ġî£ ļ
Ġé´ «
Ġé´ ±
Ġé´ Ń
Ġç¯ ³
Ġç¯ ĳ
ĠêŃ ¢
ĠêŃ ¯
ĠêŃ Ĥ
ĠêŃ ĥ
ĠêŃ Ĵ
ĠäĮ ¬
ĠäĮ µ
ĠäĮ Ģ
Ġï» ®
Ġï» ±
Ġï» ´
Ġï» ¸
Ġï» Ħ
Ġï» ł
Ġâī Ĭ
Ġâī ĺ
Ġäģ ¤
Ġäģ ¶
Ġäģ ·
Ġäģ ī
Ġäģ Ŀ
Ġîį §
Ġîį º
Ġîį Ķ
Ġé» ¶
Ġé» Ģ
Ġé» Į
Ġé» ĸ
ĠãĦ ¬
ĠãĦ ĭ
Ġâ« ´
Ġâ« ¾
Ġâ« Ħ
Ġâ« į
Ġïį Ĥ
Ġïį Ĩ
Ġî§ ¢
Ġî§ £
Ġé· £
Ġé· ¥
Ġé· ¬
Ġé· ¯
Ġé· ĥ
Ġé· Ĳ
Ġé· ķ
Ġé· ł
Ġèĺ ´
Ġèĺ Ĳ
Ġæº ¹
Ġæº ½
Ġæº ¾
Ġæº ĺ
ĠãĶ ´
ĠãĶ ·
ĠãĶ Ľ
ĠãĶ Ŀ
ĠãĶ ŀ
Ġâħ ĥ
Ġâħ ĭ
Ġâħ ı
Ġâħ Ł
Ġï¯ ±
Ġï¯ Ĩ
Ġï¯ Ŀ
ĠèĿ ©
ĠèĿ ĸ
ĠèĿ Ľ
Ġç§ «
Ġç§ ¸
Ġç§ ¾
Ġç§ ħ
Ġç§ Ŀ
ĠèŁ ¡
ĠèŁ ¢
ĠèŁ ©
ĠèŁ ª
ĠèŁ ¸
ĠèŁ ¹
ĠèŁ ļ
ĠèŁ Ľ
ĠèŁ ľ
ĠèŁ Ł
Ġè« ¤
Ġè« «
Ġè« »
Ġè« ŀ
Ġé¸ ±
Ġé¸ ĸ
Ġâļ ¢
Ġâļ £
Ġâļ ĺ
Ġäķ ¢
Ġäķ ¦
Ġäķ ´
Ġäķ ĭ
Ġäķ Ĵ
ĠçĮ ¢
ĠçĮ ·
ĠçĮ Ĺ
ĠçĮ Ń
Ġé® ¢
Ġé® ´
Ġé® ħ
Ġé® Ĳ
Ġé¶ »
Ġé¶ Ĥ
ĠïŁ ¡
ĠïŁ ³
ĠïŁ Ĩ
ĠïŁ ĳ
Ġã® ¦
Ġã® ±
Ġã® »
Ġã® ½
Ġã® ĵ
Ġã® ĺ
Ġäŀ Ģ
Ġäŀ ĸ
ĠäĲ İ
ĠäĲ ĳ
ĠäĲ Ĺ
ĠäĲ Ŀ
Ġæħ ±
Ġæħ µ
Ġæħ ı
Ġæħ Ĺ
Ġã» §
Ġã» ĥ
Ġã» Ī
Ġã» Ĳ
Ġã» Ĵ
Ġã» Ļ
Ġã» ļ
Ġã» Ľ
Ġã» Ŀ
Ġâ¶ ¤
Ġâ¶ ¬
Ġâ¶ ¸
Ġâ¶ ī
Ġâ¶ Ŀ
Ġâĩ µ
Ġâĩ ħ
Ġâĩ Į
Ġâĩ ĸ
Ġâĩ Ļ
Ġâĩ Ł
Ġî¥ «
Ġî¥ Ĭ
Ġî¥ Ĳ
Ġî¥ Ľ
Ġêį ²
Ġêį µ
Ġêį ¹
Ġêį İ
Ġêį ķ
Ġêį ĸ
ĠæĢ º
ĠæĢ ĭ
ĠæĢ ĵ
ĠæĢ Ĺ
ĠæĢ Ń
ĠéĻ £
ĠéĻ ©
ĠéĻ ®
ĠéĻ ·
ĠéĻ Ģ
ĠéĻ Ļ
Ġæ· Ħ
Ġæ· Ń
Ġé¢ ¤
Ġé¢ §
Ġé¢ ¬
Ġé¢ ĩ
Ġé¢ ĳ
Ġã¸ ¦
Ġã¸ §
Ġã¸ ¾
Ġã¸ ħ
Ġã¸ ĳ
Ġã¸ Ĵ
Ġã¸ Ļ
Ġã¸ ļ
Ġã¦ ²
Ġã¦ Ģ
Ġå» ±
Ġå» ¼
Ġå» İ
Ġå» ĺ
Ġæĳ ¢
Ġæĳ ´
Ġæĳ ¹
Ġæĳ ħ
Ġæĳ Ĺ
ĠïĬ ¨
ĠïĬ ·
ĠïĬ ¾
ĠïĬ ħ
Ġï½ ®
Ġï½ ±
Ġï½ ¾
Ġï½ Ħ
Ġé§ ¡
Ġé§ ²
Ġé§ ·
Ġé§ º
Ġé§ ½
Ġé§ Į
ĠïĴ ī
ĠïĴ ĸ
ĠïĴ Ń
Ġîŀ ¢
Ġîŀ ¬
Ġîŀ °
Ġîŀ ¹
Ġîŀ Ģ
Ġîŀ ħ
Ġîŀ Į
Ġîŀ Ļ
Ġîŀ Ń
Ġã¶ £
Ġã¶ ¨
Ġã¶ «
Ġã¶ ®
Ġã¶ Ĥ
Ġã¶ ĭ
Ġã¶ İ
Ġîķ ¤
Ġîķ §
Ġîķ ¹
Ġè¢ ¡
Ġè¢ £
Ġè¢ ±
Ġè¢ ³
Ġè¢ ¶
Ġè¢ Ĩ
Ġè¢ Ĳ
Ġè¢ ĸ
Ġã¾ ı
ĠæŁ µ
ĠæŁ Ħ
ĠæŁ ŀ
Ġî¯ Ĩ
Ġî¯ Ī
Ġî¯ Ķ
Ġî¯ Ľ
Ġî¯ Ń
Ġâ» ¥
Ġâ» «
Ġâ» Ĥ
Ġâ» ħ
Ġâ» Ĵ
ĠïĤ ©
ĠïĤ ĳ
ĠâĶ ī
Ġéµ ¼
Ġéµ Ĩ
Ġéµ ļ
Ġéµ ŀ
ĠéĮ §
ĠéĮ ¬
ĠéĮ ¿
ĠéĮ Ļ
ĠéĮ ļ
ĠéĮ Ľ
ĠéĮ Ŀ
ĠéĮ ł
ĠçĽ µ
ĠçĽ ·
ĠçĽ ĸ
Ġåº ²
Ġåº ĩ
Ġåº Ķ
Ġæ¸ £
Ġæ¸ °
Ġæ¸ ¸
Ġæ¸ Ħ
Ġæ¸ ī
Ġæ¸ Ĭ
Ġæ¸ Į
Ġæ¸ Ľ
Ġâĭ ¯
Ġâĭ ¾
Ġâĭ ķ
Ġâĭ ĺ
Ġâĭ Ľ
ĠæĻ ¿
ĠæĻ ĥ
ĠæĻ Ī
ĠïĨ ©
ĠïĨ º
ĠïĨ ĩ
ĠïĨ ĳ
Ġæ´ °
Ġæ´ ³
Ġæ´ Ń
ĠæĲ ®
ĠæĲ ±
ĠæĲ ´
ĠæĲ »
ĠæĲ ¾
ĠæĲ ĥ
ĠæĲ ĵ
Ġå¶ ¡
Ġå¶ ¶
Ġå¶ Į
Ġå¶ Ń
Ġêľ ¢
Ġêľ Ģ
Ġêľ ĥ
Ġêľ Ĩ
Ġêľ Ĺ
Ġæ¾ ¬
Ġæ¾ Ķ
Ġæ¾ ķ
Ġæ¾ ŀ
Ġî« £
Ġî« ¦
Ġî« ¨
Ġî« ·
Ġî« Ľ
Ġåµ ½
Ġêĵ ¤
Ġêĵ ¦
Ġêĵ ¨
Ġêĵ ®
Ġêĵ ĳ
Ġâİ ¨
Ġâİ ª
Ġæļ ¨
Ġæļ ©
Ġæļ ®
Ġæļ ¼
Ġæļ ĭ
Ġæļ ĸ
ĠäĻ ¹
ĠäĻ Ħ
ĠäĻ İ
Ġåķ ª
Ġåķ Į
Ġåķ į
Ġåķ Ĳ
Ġåķ Ń
Ġâ¹ ¡
Ġâ¹ ¢
Ġâ¹ ´
Ġâ¹ ¾
Ġâ¹ ĭ
Ġâ¹ į
Ġâ¹ İ
Ġâ¹ ķ
Ġâ¹ Ĺ
Ġâ¹ Ľ
Ġäĺ ®
Ġäĺ ³
Ġäĺ ¹
Ġäĺ Ģ
Ġäĺ ĥ
Ġäĺ ĵ
Ġåħ «
Ġåħ ´
Ġåħ ¹
Ġåħ »
Ġåħ Ī
Ġåħ ī
Ġåħ ĭ
Ġåħ ĳ
Ġä¨ ´
Ġæµ ĥ
Ġæµ Ĳ
Ġæµ Ĵ
Ġæµ Ľ
Ġæµ ľ
Ġæµ Ŀ
Ġæµ ł
Ġæ¹ ¥
Ġæ¹ °
Ġæ¹ ·
Ġæ¹ ¾
Ġæ¹ ī
Ġæ¹ Ķ
Ġæ» £
Ġæ» ¯
Ġæ» ¹
Ġæ» ħ
Ġæ» ķ
Ġâº ´
Ġâº ¸
Ġâº ¹
Ġâº ¾
Ġâº Ļ
Ġâº Ń
Ġîİ £
Ġîİ Ĥ
Ġîİ ĭ
Ġîİ į
Ġîİ ĵ
Ġîİ Ľ
Ġéĥ £
Ġéĥ Ģ
Ġéĥ ĥ
Ġéĥ ħ
Ġâ§ ¢
Ġâ§ ¨
Ġâ§ ¹
Ġâ§ Į
Ġïģ £
Ġïģ ª
Ġïģ º
Ġïģ ¾
Ġïģ Ī
Ġä¢ ´
Ġä¢ ģ
Ġä¢ ļ
Ġèº ¡
Ġèº ¢
Ġèº ¹
Ġèº Ħ
Ġèº ĭ
Ġèº Ĳ
Ġèº ķ
Ġèº Ĺ
Ġèº Ŀ
Ġèº Ń
ĠâĲ »
Ġè§ ħ
Ġè§ ĩ
Ġè§ Į
Ġçĳ «
Ġçĳ ¬
Ġçĳ Ĭ
Ġçľ ¢
Ġçľ ´
Ġçľ ¿
Ġçľ Ħ
Ġçľ Ŀ
Ġè´ ®
Ġè´ Ħ
Ġêĸ «
Ġêĸ ´
Ġêĸ Ľ
Ġáª ¤
Ġáª §
Ġáª «
Ġáª ¯
Ġáª ı
Ġáª ļ
Ġáª ł
Ġî® °
Ġî® ¸
Ġî® ī
Ġî® İ
Ġî® Ļ
Ġå§ °
Ġå§ ·
Ġå§ Ħ
Ġå§ ı
Ġå§ Ĵ
Ġå§ ł
Ġêļ ©
Ġêļ ²
Ġêļ ¸
ĠéĿ ¬
ĠéĿ Ģ
ĠéĿ Ħ
Ġâ¾ ¡
Ġâ¾ ¹
Ġâ¾ ¿
Ġâ¾ Ĳ
Ġâ¾ Ĵ
Ġâ¾ ĵ
Ġæ£ ¦
Ġæ£ ¸
Ġæ£ ¼
Ġæ£ ħ
Ġæ£ ķ
Ġæ£ ĸ
Ġæ£ ł
Ġèı ¶
Ġèı Į
Ġèı į
Ġèı İ
Ġèı ĺ
Ġèı Ń
Ġâµ ¥
Ġâµ ¨
Ġâµ °
Ġâµ »
Ġâµ Ľ
Ġî½ ¢
Ġî½ ¤
Ġî½ ¨
Ġî½ ¼
Ġî½ ı
Ġåı ¡
Ġåı «
Ġåı µ
Ġåı ¶
Ġåı ľ
Ġåı Ł
Ġä± ¿
Ġä± Ĥ
Ġä± ī
Ġä± Ĭ
Ġê® ©
Ġê® ´
Ġê® ĸ
Ġâ´ ¬
Ġâ´ µ
Ġâ´ »
Ġâ´ ¾
Ġâ´ Į
Ġâ´ į
Ġâ´ ł
Ġî¡ »
Ġî¡ Ĥ
Ġî¡ Į
Ġî¡ ŀ
Ġî¡ Ń
Ġêŀ ®
Ġêŀ ¶
Ġêŀ į
Ġêķ ¤
Ġêķ »
Ġêķ Ģ
Ġêķ ı
Ġêķ Ĳ
Ġêķ Ĺ
Ġêķ ļ
Ġêķ ŀ
Ġè® ¶
Ġè® »
ĠèĶ ¢
ĠèĶ ¹
ĠèĶ Ģ
ĠèĶ ļ
Ġá² µ
Ġá² ¸
Ġá² ¿
Ġá² ĥ
Ġá² ĵ
Ġá² Ļ
ĠãĮ §
ĠãĮ º
ĠãĮ ĸ
ĠãĮ ĺ
ĠãĮ Ŀ
Ġî¿ ¦
Ġî¿ Ģ
Ġî¿ Ń
Ġè¶ «
Ġè¶ °
Ġè¶ ¹
Ġè¶ ĥ
Ġè¶ İ
Ġè¶ Ĳ
Ġè¶ ĵ
Ġæı ¢
Ġæı «
Ġæı °
Ġæı ´
Ġæı µ
Ġæı ¼
Ġæı ¿
Ġæı Ī
Ġæı Ĳ
Ġæı ĳ
Ġæı Ķ
Ġæı ķ
Ġæı Ĺ
Ġæı Ļ
Ġéģ ¡
Ġéģ ¹
Ġéģ Ģ
Ġéģ ģ
Ġéģ ļ
Ġç´ ¶
Ġç´ ¹
Ġç´ Ĩ
Ġç´ ĭ
Ġç´ ĳ
Ġç´ Ĵ
Ġæ³ ½
Ġæ³ ı
Ġéª ²
Ġéª ¶
Ġéª ¹
Ġéª ł
Ġçĵ ±
Ġçĵ ²
Ġçĵ ģ
Ġçĵ Ĥ
Ġçĵ ĥ
Ġçĵ Ĩ
Ġçĵ Ķ
Ġçĵ ķ
Ġçļ £
Ġçļ ©
Ġçļ ¹
Ġçļ ļ
Ġèį ¢
Ġèį ¤
Ġèį ¿
Ġèį ı
Ġèį Ĺ
Ġèį Ń
Ġá¯ ¡
Ġá¯ £
Ġá¯ ¸
Ġá¯ Ķ
Ġá¯ ĸ
Ġá¯ ľ
Ġçħ Ĥ
Ġçħ Ī
Ġå¯ ¨
Ġå¯ ±
Ġå¯ »
Ġå¯ Ŀ
Ġå¯ ł
Ġá± ²
Ġá± ´
Ġá± ĥ
Ġæ± ¤
Ġæ± Ģ
Ġæ± İ
Ġæ± ĵ
Ġæ± Ķ
Ġæ± ŀ
Ġç¢ £
Ġç¢ ¤
Ġç¢ µ
Ġç¢ ·
Ġç¢ ½
Ġç¢ ĵ
Ġç¢ Ń
Ġæ¶ ¨
Ġæ¶ ª
Ġæ¶ ¯
Ġæ¶ ĩ
Ġæ¶ ī
Ġæ¶ Ķ
Ġæ¶ Ł
ĠêŁ «
ĠêŁ Ĭ
Ġïī ¾
Ġïī Ĵ
Ġïī ĺ
Ġáı ¯
Ġáı µ
Ġáı ı
Ġáı Ŀ
Ġäª ¢
Ġäª £
Ġäª µ
Ġäª ·
Ġäª º
Ġäª ¾
Ġäª ĥ
Ġäª Ĭ
Ġäª Ķ
ĠèĤ Į
Ġî¤ ¡
Ġî¤ ¤
Ġî¤ ®
Ġî¤ °
Ġî¤ »
Ġî¤ ½
Ġèª ¤
Ġèª ¨
Ġèª ©
Ġèª ¯
Ġèª ²
Ġèª ¼
Ġèª Ĭ
Ġèª ĸ
Ġèª Ľ
Ġèª ľ
Ġâ¤ ¨
Ġâ¤ ©
Ġâ¤ ±
Ġâ¤ ´
Ġâ¤ »
Ġâ¤ ĳ
Ġâ¤ ĸ
Ġâ¤ Ń
Ġä¤ Ĭ
Ġä¤ Ŀ
Ġä¤ ŀ
Ġîĳ ©
Ġîĳ °
Ġîĳ ²
Ġîĳ ¼
Ġîĳ ½
ĠîĶ £
ĠîĶ ®
ĠîĶ »
ĠîĶ į
ĠîĶ Ł
Ġè¥ ª
Ġè¥ ®
Ġè¥ ¸
Ġè¥ Ĩ
Ġè¥ Ķ
Ġè¥ Ľ
Ġèł º
Ġèł ¼
Ġèł ¾
Ġèł Ģ
Ġèł Ĩ
Ġèł Ĭ
Ġèł Į
Ġèł ĳ
Ġê§ ¤
Ġê§ ¼
Ġê§ į
Ġïĩ İ
Ġïĩ ĸ
Ġïĩ ł
Ġä» ³
Ġä» »
Ġä» ¾
Ġä» ¿
Ġä» Ĥ
Ġä» Ĭ
Ġä» ĭ
Ġä» Ł
Ġç¹ ¼
Ġç¹ ĩ
Ġç¹ ĺ
Ġå¿ £
Ġå¿ ¥
Ġå¿ §
Ġå¿ ´
Ġå¿ ¸
Ġå¿ ¹
Ġå¿ ħ
Ġå¿ Ĭ
Ġå¿ Ĳ
Ġå¿ ĸ
Ġå¿ ł
Ġåį ¥
Ġåį §
Ġåį º
Ġåį Ħ
Ġåį İ
Ġåį ĵ
ĠæĤ ¼
ĠæĤ Ĥ
ĠæĤ ĥ
ĠîĦ ©
ĠîĦ ģ
ĠîĦ ĥ
ĠîĦ ħ
ĠîĦ Ĩ
ĠîĦ ı
ĠîĦ Ĺ
ĠîĦ Ŀ
Ġç¶ ³
Ġâĳ ¯
Ġâĳ ı
Ġâ² ¢
Ġâ² ¾
Ġâ² ¿
Ġâ² ı
Ġâ² ķ
Ġâ² Ļ
ĠîĢ ¢
ĠîĢ ¯
ĠîĢ ¿
ĠîĢ Ĥ
ĠîĢ Į
ĠîĢ ĺ
ĠîĢ ľ
ĠîĢ ŀ
ĠîĤ §
ĠîĤ ®
ĠîĤ °
ĠîĤ ´
ĠîĤ ·
ĠîĤ Ī
ĠîĤ ĭ
Ġå¥ ®
Ġå¥ µ
Ġå¥ ¹
Ġå¥ »
Ġå¥ Ħ
Ġå¥ Ĵ
Ġå¥ Ľ
Ġå² ·
Ġå² Ķ
Ġå² ĺ
ĠäĦ Ĩ
ĠäĦ ĵ
Ġï® ª
Ġï® Ĩ
Ġï® ķ
Ġï® ł
Ġâ¡ ¢
Ġâ¡ ¨
Ġâ¡ ¬
Ġâ¡ °
Ġâ¡ ±
Ġâ¡ ³
Ġâ¡ ¾
Ġâ¡ ĥ
Ġâ¡ Ħ
Ġâ¡ İ
Ġäļ ª
Ġäļ ®
Ġäļ ı
Ġäļ Ľ
Ġä£ ¬
Ġä£ ®
Ġä£ µ
Ġä£ ŀ
Ġä£ ł
Ġçĥ ¸
Ġçĥ ¼
Ġçĥ Ĵ
Ġâ± §
Ġâ± ¨
Ġâ± ¶
Ġâ± »
Ġâ± ½
Ġä¥ ®
Ġä¥ ¶
Ġä¥ ī
Ġæİ ©
Ġæİ ¼
Ġæİ ½
Ġæİ ī
Ġîº ¿
Ġîº ĥ
Ġæ§ ħ
Ġæ§ ı
Ġæ§ Ŀ
Ġîģ ¸
Ġîģ ¹
Ġîģ ¼
Ġîģ Ħ
Ġîģ ĭ
Ġîģ ı
Ġîģ Ķ
Ġîģ Ļ
Ġîģ Ľ
Ġè© ¤
Ġè© ©
Ġè© ·
Ġè© ĩ
Ġè© ķ
Ġè© Ĺ
Ġè© Ń
Ġèľ ¯
Ġèľ ±
Ġèľ º
Ġèľ ĳ
ĠèĻ ¢
ĠèĻ ¦
ĠèĻ ³
ĠèĻ ¶
ĠèĻ ķ
ĠèĻ Ł
ĠèĻ ł
Ġâª ¯
Ġâª ³
Ġâª Ģ
Ġâª ĥ
Ġâª ľ
Ġä¹ ¬
Ġä¹ °
Ġä¹ ³
Ġä¹ º
Ġä¹ Ī
Ġä¹ Ĵ
Ġä¹ ĸ
Ġé¯ £
Ġé¯ Ĥ
Ġé¯ Ħ
Ġâ¬ ¨
Ġâ¬ ¬
Ġâ¬ ±
Ġâ¬ ¼
Ġâ¬ ½
Ġâ¬ į
Ġâ¬ ı
Ġâ¬ ĵ
Ġâ¬ Ļ
Ġà¸ ¦
Ġà¸ «
Ġà¸ »
Ġà¸ ½
Ġà¸ ģ
Ġà¸ ħ
Ġà¸ Ĩ
Ġà¸ ĭ
Ġà¸ Ļ
Ġà¸ Ń
Ġè¯ §
Ġè¯ ¨
Ġè¯ ¶
Ġè¯ ĭ
Ġè¯ ļ
Ġè¯ ł
ĠâĽ ¬
ĠâĽ ¯
ĠâĽ ±
ĠâĽ ¶
ĠâĽ ĵ
ĠâĽ Ļ
Ġä¬ ª
Ġä¬ ¯
Ġä¬ ¸
Ġä¬ ¾
Ġä¬ Ĳ
Ġä¬ Ŀ
Ġä¬ ŀ
Ġé¦ ¸
Ġé¦ ĭ
Ġé¦ Ļ
Ġèħ £
Ġèħ ¦
Ġèħ ©
Ġèħ ®
Ġèħ °
Ġèħ ¶
Ġèħ ½
Ġèħ ģ
Ġèħ ı
Ġèħ Ľ
Ġèħ ł
Ġå³ §
Ġå³ ¿
Ġå³ ģ
Ġå³ Ĥ
Ġå³ Ĩ
Ġå³ ī
Ġå³ ı
Ġå³ ĸ
Ġå³ Ŀ
Ġïļ ²
Ġïļ ·
Ġïļ ¼
Ġïļ ½
Ġïļ į
Ġïļ ĵ
Ġïļ ļ
Ġïļ Ŀ
Ġä§ ¦
Ġä§ ¹
Ġä§ Ľ
ĠäĢ º
ĠäĢ Ħ
ĠäĢ Į
Ġè¤ ±
Ġè¤ ²
Ġè¤ º
Ġè¤ Ĥ
Ġè¤ ħ
Ġêĺ ´
Ġêĺ ½
Ġêĺ ı
Ġêĺ Ķ
Ġè± ¦
Ġè± ©
Ġè± ´
Ġè± µ
Ġè± »
Ġè± ĩ
Ġè± İ
Ġè± ĵ
Ġéĳ ³
Ġéĳ ħ
Ġä² ¨
Ġä² ²
Ġä² ¶
Ġä² ·
Ġä² ģ
Ġä² Ĺ
Ġä² ļ
Ġä² Ń
ĠåĶ ¢
ĠåĶ £
ĠåĶ ²
ĠåĶ Ħ
ĠåĶ ħ
ĠåĶ Ĳ
ĠåĶ ĵ
ĠåĶ ķ
ĠåĶ ł
ĠêĬ ¦
ĠêĬ ½
ĠãĽ £
ĠãĽ ±
ĠãĽ Į
ĠãĽ Ĳ
ĠãĽ ķ
ĠãĽ ĸ
ĠèŃ »
ĠèŃ ĳ
Ġçķ ®
Ġçķ ģ
Ġçķ ĭ
Ġçķ ŀ
Ġã¹ §
Ġã¹ ©
Ġã¹ ¯
Ġã¹ ¶
Ġã¹ ¹
Ġã¹ Ħ
Ġã¹ ı
Ġã¹ ķ
Ġã¹ ŀ
Ġã¹ Ń
Ġà´ ¥
Ġà´ Ģ
Ġà´ Ħ
Ġà´ Ĺ
Ġà´ Ł
Ġà´ Ń
Ġîĺ µ
Ġîĺ ¼
Ġîĺ ħ
Ġîĺ ĺ
Ġîĺ ŀ
Ġèķ ¦
Ġèķ º
Ġèķ Ĥ
Ġèķ ħ
Ġèķ ĭ
Ġéł ¤
Ġéł ²
Ġéł µ
Ġéł º
Ġéł ħ
Ġéł Ĵ
Ġéł Ķ
Ġçµ ¡
Ġçµ ©
Ġçµ ²
Ġçµ µ
Ġçµ ¾
Ġçµ Ħ
Ġçµ ħ
Ġçµ Į
Ġâ° ĩ
Ġâ° ĭ
Ġâ° į
Ġãµ ®
Ġãµ »
Ġãµ ¿
Ġàª ¢
Ġàª ²
Ġàª Į
Ġàª Ĵ
Ġàª Ŀ
ĠäĽ ¡
ĠäĽ ©
ĠäĽ ¯
ĠäĽ ·
ĠäĽ ¸
ĠäĽ Ĥ
ĠäĽ ĥ
Ġé½ §
Ġé½ ¬
Ġè¾ ¡
Ġè¾ ©
Ġè¾ º
Ġè¾ ¼
Ġè¾ ½
Ġè¾ Ħ
Ġè¾ į
Ġä· ¤
Ġä· ½
Ġä· ģ
Ġä· ħ
Ġä· Į
Ġä· ķ
Ġä· Ŀ
Ġéĸ ģ
Ġéĸ ħ
Ġéĸ Ļ
Ġè· ¡
Ġè· Ģ
Ġè· ī
Ġè· İ
Ġè· ł
Ġä° ¥
Ġä° §
Ġä° ²
Ġä° µ
Ġä° Ŀ
ĠãĿ ®
ĠãĿ ·
ĠãĿ ½
ĠãĿ į
ĠãĿ ļ
ĠæĬ ¥
ĠæĬ ¯
ĠæĬ µ
ĠæĬ ·
ĠæĬ İ
Ġêİ ¡
Ġêİ £
Ġêİ »
Ġêİ ĥ
Ġêİ Ī
Ġêİ Ļ
Ġé¤ ¿
Ġé¤ İ
Ġé¤ ı
Ġé¤ Ĳ
Ġé¤ Ļ
Ġçª ½
Ġçª Ī
Ġçª İ
Ġçª Ĳ
Ġçª Ķ
Ġçª ķ
Ġçª Ĺ
Ġçª Ľ
Ġå½ ´
Ġå½ º
Ġå½ Ĺ
Ġå½ ĺ
Ġïµ ¥
Ġïµ ¬
Ġïµ ±
Ġïµ µ
Ġïµ ¶
Ġïµ Ħ
Ġïµ ĭ
Ġïµ į
Ġïµ Ĵ
Ġïµ Ŀ
Ġêĳ ¬
Ġêĳ »
Ġêĳ ĩ
Ġêĳ ĺ
Ġêĳ ļ
Ġä´ ¨
Ġä´ ³
Ġä´ į
Ġä´ ĺ
Ġä´ ļ
Ġä´ Ľ
Ġä´ ł
Ġè¨ ¨
Ġè¨ ¹
Ġè¨ »
Ġè¨ ¼
Ġè¨ ĺ
Ġè¨ Ŀ
Ġèİ ´
Ġèİ ¸
Ġèİ »
Ġèİ Ģ
Ġèİ Ĥ
Ġèİ Ĭ
Ġæ¥ ¡
Ġæ¥ ¥
Ġæ¥ ¯
Ġæ¥ ·
Ġæ¥ ¾
Ġæ¥ Ĳ
Ġæ¥ Ľ
Ġî± ¡
Ġî± ¬
Ġî± ³
Ġî± º
Ġî± ¾
Ġî± Ĥ
Ġî± Ħ
Ġî± Ĳ
Ġî± ĵ
Ġî± Ĺ
Ġî± Ń
Ġé¹ ¡
Ġé¹ ı
Ġâ½ ¥
Ġâ½ ¦
Ġâ½ ¨
Ġâ½ »
Ġæ¤ ¯
Ġæ¤ ²
Ġæ¤ µ
Ġæ¤ İ
Ġèģ ¤
Ġèģ ł
Ġã± ¯
Ġã± °
Ġã± ²
Ġã± ¾
Ġã± į
Ġã± ĵ
Ġã± ķ
Ġã± ł
Ġîł Ĭ
Ġèĵ ¥
Ġèĵ ĩ
Ġèĵ Ĭ
Ġèĵ İ
Ġåĩ º
Ġåĩ ¾
Ġåĩ ¿
Ġâ¼ ¥
Ġâ¼ §
Ġâ¼ ¨
Ġâ¼ ®
Ġâ¼ µ
Ġâ¼ Ĳ
Ġâ¿ ¢
Ġâ¿ ²
Ġâ¿ »
Ġâ¿ ¼
Ġâ¿ į
Ġâ¿ Ķ
Ġá¶ ©
Ġá¶ ¹
Ġá¶ ¾
Ġá¶ ĭ
Ġá¶ Ĳ
ĠãĤ ¥
ĠãĤ ĭ
ĠãĤ Ł
Ġèŀ ¡
Ġèŀ Ĩ
Ġèŀ Ľ
Ġèŀ ŀ
Ġå¤ £
Ġå¤ ¤
Ġå¤ Ŀ
Ġå¤ Ł
Ġå¤ ł
ĠåĹ ¦
ĠåĹ ª
ĠåĹ «
ĠåĹ ¬
ĠåĹ ¯
ĠåĹ ³
ĠåĹ ¹
ĠåĹ º
ĠåĹ ĥ
ĠåĹ į
ĠåĹ ı
ĠåĹ ĺ
ĠåĹ Ł
ĠåĹ Ń
Ġî¢ ª
Ġî¢ ½
Ġî¢ Ģ
Ġçģ ĥ
Ġçģ į
Ġçģ Ļ
Ġçģ ł
Ġçģ Ń
Ġæĭ ¥
Ġæĭ ¬
Ġæĭ ¯
Ġæĭ ¼
Ġæĭ Ĥ
Ġæĭ Ĩ
Ġæĭ ĩ
Ġæĭ ĵ
Ġæĭ Ľ
ĠéŃ ¥
ĠéŃ °
ĠéŃ ·
ĠéŃ Ī
ĠéŃ ı
ĠéŃ ŀ
ĠêĹ ¢
ĠêĹ ¦
ĠêĹ ¹
ĠêĹ Ĳ
ĠêĹ Ķ
ĠêĹ Ŀ
ĠáĽ ¨
ĠáĽ ·
ĠáĽ º
ĠáĽ Ģ
ĠáĽ Ī
ĠáĽ ĺ
Ġã´ ³
Ġã´ ·
Ġã´ ½
Ġã´ ģ
Ġã´ ĥ
Ġã´ Į
Ġã´ İ
Ġã´ Ĳ
Ġã´ ĸ
Ġã´ ŀ
Ġæ¦ ĥ
Ġæ¦ ı
Ġæ¦ ĳ
Ġæ¦ ĵ
Ġæ¦ ł
ĠæĽ ¤
ĠæĽ ®
ĠæĽ µ
ĠæĽ ¼
ĠæĽ ĥ
ĠæĽ Ħ
Ġãħ ²
Ġãħ ¸
Ġãį ¡
Ġãį ·
Ġãį Ĭ
Ġãį ĺ
Ġãį Ļ
Ġæ² ħ
Ġæ² Ļ
Ġæ¡ ©
Ġæ¡ Ļ
Ġîħ ¥
Ġîħ ±
Ġîħ µ
Ġîħ ¹
Ġîħ ĥ
Ġîħ Ĳ
Ġîħ ľ
Ġîħ Ł
ĠèĬ ¬
ĠèĬ µ
ĠèĬ ¹
ĠèĬ ¼
ĠèĬ Ģ
ĠåĿ £
ĠåĿ ¤
ĠåĿ «
ĠåĿ ½
ĠåĿ ĥ
ĠåĿ Į
ĠåĿ İ
Ġïķ ¸
Ġïķ Į
Ġê¬ µ
Ġê¬ ¿
Ġê¬ Ģ
Ġê¬ ĥ
Ġê¬ Ĳ
Ġê¬ ł
Ġáµ ª
Ġáµ ½
Ġáµ Ī
Ġáµ Į
Ġáµ ļ
Ġè¡ ²
Ġè¡ Ĳ
Ġè¡ Ń
Ġêı ¥
Ġêı ¯
Ġêı °
Ġêı ĺ
Ġêı Ļ
Ġêı ł
Ġêı Ń
Ġïĸ ¸
Ġé± ¬
Ġé± ¿
Ġé± į
ĠèĦ ĥ
ĠèĦ ħ
ĠèĦ İ
ĠèĦ ĵ
Ġâ³ ·
Ġâ³ ¿
Ġæ¨ µ
Ġæ¨ Ģ
Ġé° ª
Ġé° ±
Ġé° ³
Ġé° Ī
Ġåª ¾
Ġåª ħ
Ġåª Į
Ġåª Ķ
Ġï¾ £
Ġï¾ ¦
Ġï¾ ¯
Ġï¾ ±
Ġï¾ »
Ġï¾ ģ
Ġï¾ ĭ
Ġï¾ Ľ
Ġã© ²
Ġã© ¿
Ġã© Ľ
Ġã© ŀ
Ġåĳ ±
Ġåĳ º
Ġåĳ ¾
Ġåĳ ĩ
Ġåĳ ı
Ġåĳ Ĳ
Ġåĳ Ĵ
Ġä¾ £
Ġä¾ ´
Ġä¾ ¶
Ġä¾ ĵ
Ġä¾ Ĺ
Ġä¾ Ŀ
Ġä¾ Ł
Ġä¾ ł
ĠåĬ ¢
ĠåĬ Ģ
ĠåĬ ģ
ĠåĬ Ĩ
ĠåĬ ĺ
ĠêĮ ¹
ĠêĮ ķ
ĠêĮ ĸ
ĠêĮ Ŀ
Ġå¸ ª
Ġå¸ Į
Ġå¸ ĸ
Ġå¸ ŀ
Ġêħ ¿
Ġêħ ģ
Ġêħ ī
Ġêħ į
Ġêħ Ĵ
Ġêħ ĺ
Ġêħ Ļ
ĠïĿ °
ĠïĿ µ
ĠïĿ ĭ
ĠïĿ Ĳ
ĠïĿ ĳ
Ġäħ ¹
Ġäħ º
Ġäħ Ĥ
Ġäħ ĸ
Ġäħ Ļ
Ġçį ¤
Ġçį ¸
Ġçį »
Ġçį Ĵ
Ġçį Ļ
Ġçį Ń
ĠèĲ ¡
ĠèĲ §
ĠèĲ ħ
Ġêĥ ª
Ġêĥ Į
Ġêĥ Ĵ
Ġêĥ ĵ
ĠâĮ Ģ
Ġæ« £
Ġæ« ¥
Ġæ« °
Ġæ« ¿
Ġæ« į
Ġæ« ŀ
Ġé¿ ¡
Ġé¿ ¦
Ġé¿ §
Ġé¿ ¨
Ġé¿ »
Ġé¿ Ĥ
Ġé¿ Ī
Ġé¿ ī
Ġé¿ į
Ġé¿ ĸ
Ġé¿ ľ
Ġéį ©
Ġéį ĩ
Ġéį Ĵ
Ġéį Ķ
ĠèĢ ¼
ĠèĢ ĥ
ĠèĢ į
ĠèĢ ķ
ĠèĢ ĸ
Ġå© ©
Ġå© °
Ġå© ²
Ġå© ¶
Ġå© »
Ġå© Ĩ
Ġå© ĺ
Ġå® ®
Ġå® Ĥ
Ġå® Ĵ
ĠæĨ µ
ĠæĨ »
ĠæĨ ¼
ĠæĨ Ĭ
ĠæĨ ĸ
Ġéľ Ī
Ġéľ ľ
Ġèļ ¯
Ġèļ ´
Ġèļ ĩ
Ġê¡ °
Ġê¡ ´
Ġê¡ ¶
Ġê¡ ¿
Ġê¡ ļ
Ġâ¯ ·
ĠãĨ ¯
ĠãĨ ¸
ĠãĨ Ĩ
ĠãĨ Ī
ĠãĨ ī
Ġîļ ±
Ġîļ ²
Ġîļ Ĭ
Ġîļ Į
Ġîļ ĳ
Ġîļ ĸ
Ġà¨ ®
Ġà¨ Ģ
Ġà¨ ļ
Ġä« ¥
Ġä« Ģ
Ġä« Ŀ
Ġé¬ ¨
Ġé¬ ª
Ġé¬ ·
Ġé¬ İ
Ġè¬ ¥
Ġè¬ ®
Ġè¬ Ĳ
Ġè¬ Ń
Ġâ¦ ¥
Ġâ¦ ĥ
Ġâ¦ Ĩ
Ġâ¦ Ł
Ġâ¦ ł
Ġîĩ £
Ġîĩ ±
Ġîĩ ·
Ġîĩ į
Ġà¹ ´
Ġà¹ ĵ
Ġà¹ Ĺ
Ġà¹ Ļ
Ġî¬ »
Ġî¬ Ħ
Ġî¬ ħ
Ġî¬ į
Ġî¬ ķ
Ġî¬ ļ
Ġéĩ Ĩ
Ġéĩ Ĭ
Ġéĩ Ĺ
Ġéĩ ļ
Ġî© §
Ġî© ¨
Ġî© ²
Ġî© ½
Ġî© ¿
Ġî© ħ
Ġî© ĸ
Ġï· §
Ġï· ±
Ġï· µ
Ġï· ĳ
Ġï· ĸ
Ġï· ŀ
Ġïĥ Ĥ
Ġî¦ ª
Ġî¦ Ĩ
Ġî¦ į
Ġî¦ ĸ
Ġî¦ Ľ
Ġî¦ ŀ
Ġî¦ Ń
Ġåľ ³
Ġåľ º
Ġåľ ĭ
Ġåľ ŀ
Ġê¤ º
Ġê¤ Ļ
Ġï¼ ¦
Ġï¼ ¹
Ġï¼ Ĩ
Ġï¼ Ī
Ġï¼ Ĵ
Ġï¼ Ŀ
ĠæŃ ¢
ĠæŃ ¼
ĠæŃ Ĥ
ĠæŃ ĥ
ĠæŃ Ĩ
ĠæŃ Ĵ
ĠæŃ ĵ
ĠæŃ ļ
Ġîī ¢
Ġîī £
Ġîī ¦
Ġîī °
Ġîī »
Ġîī ½
Ġîī ĳ
Ġîī ĵ
Ġîī ł
ĠåĻ ¢
ĠåĻ ±
ĠåĻ ·
ĠåĻ Ĭ
Ġá¡ ¡
Ġá¡ §
Ġá¡ ¯
Ġá¡ »
Ġá¡ ģ
Ġá¡ Ł
Ġáķ ¦
Ġáķ Ģ
Ġáķ Į
Ġáķ ĳ
Ġáķ ĵ
Ġáķ ĸ
Ġáķ ļ
Ġî¼ ³
Ġî¼ ¶
Ġî¼ Ħ
Ġî¼ Ĳ
Ġî¼ ĸ
Ġá´ ¸
Ġá´ º
Ġá´ ¼
Ġá´ ½
Ġá´ ¾
Ġå¹ »
Ġå¹ ĭ
Ġå¹ Ľ
Ġå¹ ł
ĠéĴ £
ĠéĴ ²
ĠéĴ ĵ
Ġâ¸ ³
Ġâ¸ ħ
Ġâ¸ İ
Ġâ¸ Ĳ
Ġâ¸ ĺ
Ġâ¸ Ŀ
Ġâ¸ Ń
ĠáĶ ¥
ĠáĶ «
ĠáĶ ģ
ĠáĶ ł
Ġî» Ŀ
Ġæ½ §
Ġæ½ ²
Ġæ½ ³
Ġæ½ º
Ġæ½ »
Ġæ½ Ī
Ġæ½ ŀ
ĠêĶ ³
ĠêĶ µ
ĠêĶ ľ
Ġä¶ ©
Ġä¶ ¹
Ġä¶ º
Ġä¶ »
Ġä¶ ĥ
Ġä¶ ĭ
Ġä¶ ı
Ġä¶ Ń
Ġãļ ¥
Ġãļ Ĥ
Ġãļ Ĺ
Ġãļ ľ
Ġãļ Ŀ
Ġè¦ «
Ġè¦ ±
Ġè¦ ´
Ġè¦ Ĭ
Ġè¦ Ĺ
Ġèī ´
Ġèī ·
Ġèī Ĥ
Ġèī Į
Ġèī Ń
Ġä³ ¨
Ġä³ °
Ġä³ ĥ
Ġä³ ħ
Ġä³ Ń
Ġäµ £
Ġäµ ´
ĠèĹ ¨
ĠèĹ Ĭ
ĠèĹ Ļ
ĠèĹ Ł
ĠäŃ ©
ĠäŃ Ĥ
ĠäŃ Ĳ
ĠæĮ ¡
ĠæĮ ¢
ĠæĮ Ļ
Ġå´ ¬
Ġå´ °
Ġå´ Ĩ
Ġå´ Ŀ
Ġå¼ ¯
Ġå¼ ²
Ġå¼ ¹
Ġå¼ Ń
ĠéĹ §
ĠéĹ ģ
ĠéĹ ĥ
ĠéĹ ľ
ĠéĽ ¥
ĠéĽ §
ĠéĽ µ
ĠéĽ ½
ĠéĽ Ĩ
ĠéĽ ī
ĠêĦ ¨
ĠêĦ ©
ĠêĦ «
ĠêĦ Ŀ
Ġà¶ ¥
Ġà¶ µ
Ġà¶ ĵ
Ġà¶ Ł
Ġãľ ´
Ġãľ ½
Ġãľ Ĥ
Ġãľ į
Ġãľ ķ
Ġãľ ĸ
Ġå¢ ¢
Ġå¢ ½
Ġå¢ ħ
Ġå¢ Ī
Ġå¢ Ĺ
Ġå¢ ľ
Ġäī ģ
Ġäī ī
Ġäī ĵ
Ġäī ļ
Ġäł £
Ġäł ¤
Ġäł µ
Ġäł ¹
Ġäł ¼
Ġäł ĥ
Ġäł Ĺ
Ġæ¼ Ĥ
Ġæ¼ Ĵ
Ġå· ¼
Ġå· Ģ
Ġå· Ħ
Ġïĳ ¿
Ġïĳ ĩ
Ġïĳ İ
Ġæĩ §
Ġæĩ µ
Ġæĩ »
ĠèĮ ¬
ĠèĮ ²
ĠèĮ µ
ĠèĮ ¿
ĠèĮ ĩ
ĠèĮ į
ĠèĮ ĵ
ĠåŁ £
ĠåŁ ¥
ĠåŁ ĥ
ĠåŁ Ĳ
ĠåŁ Ķ
ĠåŁ ķ
Ġîª §
Ġîª «
Ġîª °
Ġîª ħ
Ġîª į
Ġîª Ł
Ġèµ ĥ
Ġèµ Ħ
Ġåĺ Ĥ
Ġåĺ Ĭ
Ġåĺ į
Ġåĺ ĺ
Ġêª ¨
Ġêª µ
Ġêª ¹
Ġêª ĥ
Ġêª İ
ĠâŃ ª
ĠâŃ °
ĠâŃ ²
ĠâŃ ī
ĠâŃ Ĳ
ĠâŃ ĸ
ĠâŃ Ŀ
Ġè½ ¡
Ġè½ ¯
Ġè½ °
Ġè½ ³
Ġè½ ¾
Ġè½ ĩ
Ġè½ į
Ġèĩ ¶
Ġèĩ ¿
Ġèĩ Ĵ
Ġâ© ª
Ġâ© ³
Ġâ© ¶
Ġâ© ¼
Ġâ© ĥ
Ġâ© ı
Ġâ© Ĳ
Ġâ© Ļ
Ġâ© ľ
Ġæī °
Ġæī µ
Ġæī ķ
Ġæī ŀ
Ġæī Ł
ĠîĮ ¨
ĠîĮ «
ĠîĮ ´
ĠîĮ »
ĠîĮ ŀ
ĠæĦ ©
ĠæĦ ³
ĠæĦ ī
ĠæĦ ĭ
Ġç© ¤
Ġç© ²
Ġç© ³
Ġç© ´
Ġç© ¸
Ġç© ı
Ġç© ĳ
Ġç© ĺ
Ġåĭ ¨
Ġåĭ ¯
Ġåĭ ģ
Ġåĭ Į
Ġåĭ ĳ
Ġãķ £
Ġãķ §
Ġãķ Ģ
Ġãķ ĳ
Ġãķ ĺ
Ġãķ ŀ
Ġè° ¤
Ġè° ¥
Ġè° ª
Ġè° ³
Ġè° ł
ĠäĪ ¼
ĠäĪ ½
ĠäĪ Ī
ĠäĪ Ķ
Ġå¦ ¦
Ġå¦ §
Ġå¦ ½
Ġå¦ ĥ
Ġå¦ ĭ
Ġå¦ İ
Ġå¦ ı
Ġå¦ Ĵ
Ġå¦ ĺ
Ġå¦ ļ
Ġå¦ Ľ
Ġî³ ¦
Ġî³ ®
Ġî³ ²
Ġî³ µ
Ġî³ »
Ġî³ Ĭ
Ġîĥ ©
Ġîĥ Ĩ
Ġîĥ Ĭ
Ġîĥ į
Ġîĥ ķ
ĠîĲ §
ĠîĲ ±
ĠîĲ į
ĠîĲ ŀ
ĠåĽ ©
ĠåĽ ª
ĠåĽ ľ
ĠêĽ ²
ĠêĽ ·
ĠêĽ ī
ĠêĽ ı
ĠïĹ ³
ĠïĹ Ĥ
ĠïĹ ī
ĠïĹ ĭ
ĠïĹ į
Ġáİ ª
Ġáİ ¯
Ġáİ Ĵ
Ġáİ ĺ
Ġä¡ ®
Ġä¡ ¸
Ġä¡ ¹
Ġä¡ ¿
Ġä¡ ı
Ġä© ª
Ġä© ¹
Ġä© ĵ
Ġä© Ł
Ġæª ª
Ġæª ¶
Ġæª Ħ
Ġæª ļ
Ġæª Ŀ
Ġæĥ ¤
Ġæĥ §
Ġæĥ µ
Ġæĥ Ĭ
Ġç± §
Ġç± ·
Ġç± ŀ
ĠïĮ ¦
ĠïĮ ®
ĠïĮ ħ
ĠïĮ ľ
ĠïĮ Ŀ
ĠïĮ ł
Ġç® ¨
Ġç® ¯
Ġç® Ĩ
Ġà¡ ¨
Ġà¡ ¾
Ġà¡ Ģ
Ġà¡ ĩ
Ġà¡ ī
Ġà¡ Ĳ
Ġà¡ Ĺ
Ġà¡ ŀ
Ġæ® ¢
Ġæ® ²
Ġæ® ³
Ġæ® ĥ
Ġæ® Ĵ
Ġæ® ł
Ġéħ §
Ġéħ ´
Ġéħ ·
Ġéħ Ŀ
Ġç° «
Ġç° ¶
Ġç° Ģ
Ġç° Ħ
Ġç° Į
Ġç° ı
Ġç° ŀ
ĠçĴ ¶
ĠçĴ ĳ
ĠçĴ Ķ
ĠçĴ Ĺ
Ġåī ¢
Ġåī Ī
Ġåī ĵ
Ġá® µ
Ġá® »
Ġá® ¾
Ġá® İ
Ġá® ļ
Ġá® Ľ
Ġï£ µ
Ġï£ ¼
Ġï£ Ĩ
Ġï£ Ĵ
Ġï£ ĸ
Ġï² £
Ġï² ¤
Ġï² ¦
Ġï² ©
Ġï² ¬
Ġï² µ
Ġï² ·
Ġï² ¼
Ġï² Ħ
Ġï² ķ
Ġï² ĸ
Ġï² Ń
Ġâ¨ ¶
Ġâ¨ ĳ
Ġâ¨ ĵ
Ġâ¨ Ŀ
Ġàº ¬
Ġàº º
Ġàº Ĭ
Ġàº ķ
Ġàº Ĺ
Ġàº ļ
ĠêĤ ©
ĠêĤ ¬
ĠêĤ Ĵ
Ġä¼ ī
Ġä¼ Ķ
Ġä¼ ŀ
Ġèĸ £
Ġèĸ ®
Ġèĸ ĩ
Ġèĸ ĳ
Ġèĸ Ĵ
Ġã¼ ´
Ġã¼ Ĩ
Ġã¼ ı
Ġã¼ Ĵ
Ġî¨ ½
Ġî¨ ¿
Ġî¨ Ĥ
Ġî¨ Ī
Ġî¨ Ĺ
Ġî· ¥
Ġî· ©
Ġî· «
Ġî· ·
Ġî· ¹
Ġî· ĩ
Ġç¡ §
Ġç¡ ²
Ġç¡ »
Ġê« ¥
Ġê« °
Ġê« ¾
Ġê« ı
Ġê« Ľ
Ġé£ ®
Ġé£ ĵ
Ġé£ ļ
Ġé£ Ŀ
Ġé£ ŀ
Ġéĭ ¼
Ġéĭ ½
Ġéĭ ĥ
Ġéĭ Ĩ
Ġéĭ Ĳ
Ġéĭ Ł
Ġéĭ Ń
Ġç» ¶
Ġç» ĳ
Ġç» Ľ
Ġèĥ ²
Ġèĥ º
Ġèĥ ĭ
Ġèĳ ¤
Ġèĳ ¥
Ġèĳ ©
ĠåĢ ª
ĠåĢ °
ĠåĢ Ī
ĠåĢ į
ĠåĢ Ĳ
Ġà¦ ±
Ġä¯ ¥
Ġä¯ ª
Ġä¯ °
Ġä¯ Ħ
ĠïĪ ¤
ĠïĪ ¨
ĠïĪ Ŀ
ĠåĪ ¬
ĠåĪ ¾
ĠåĪ İ
ĠåĪ Ļ
ĠåĪ ľ
Ġïł ¤
Ġïł ±
Ġïł ģ
Ġïł Ĭ
Ġïł İ
Ġïł ļ
Ġïł Ń
Ġà² ¤
Ġà² §
Ġà² ¯
Ġà² Ĳ
Ġà² Ĺ
Ġà² Ŀ
ĠäĨ Ĵ
ĠäĨ Ĺ
ĠéĢ ©
ĠéĢ ĥ
ĠéĢ Ŀ
Ġè¸ ±
Ġè¸ Ĩ
Ġè¸ Į
Ġè¸ Ĳ
Ġè» ¥
Ġè» ¬
Ġè» ¸
Ġè» º
Ġè» ĩ
Ġè» į
Ġè» ķ
Ġä½ ķ
ĠãĲ ¥
ĠãĲ ¹
ĠãĲ ¼
ĠãĲ Ĭ
ĠãĲ ı
ĠãĲ Ĳ
ĠçĿ ¤
ĠçĿ ĵ
ĠçĿ ĺ
Ġèĭ ¾
Ġèĭ Ĵ
Ġèĭ ķ
Ġï° ±
Ġï° ³
Ġï° ¹
Ġï° Ĥ
Ġï° ĵ
Ġã½ ª
Ġã½ Ī
Ġã½ Ĭ
ĠçĹ ®
ĠçĹ Į
ĠçĹ ĵ
ĠçĹ ļ
ĠêĲ ¤
ĠêĲ ª
ĠêĲ «
ĠêĲ ģ
ĠêĲ Ķ
ĠêĲ Ĺ
ĠêĲ Ļ
Ġä¿ ¸
Ġä¿ ¹
Ġä¿ ģ
Ġä¿ ı
Ġä¿ ŀ
Ġåĵ §
Ġåĵ Į
Ġåĵ Ķ
Ġåĵ ĺ
Ġïħ ´
Ġïħ ķ
Ġïħ ĸ
Ġïħ Ŀ
Ġïħ ŀ
Ġïħ Ł
Ġîµ Ģ
Ġîµ ĥ
Ġîµ Ĳ
Ġîµ Ŀ
Ġçī £
Ġçī §
Ġçī Ĥ
Ġçī ħ
Ġçī Į
Ġçī ĳ
Ġçī ķ
Ġï¶ ¹
Ġï¶ ħ
Ġï¶ ĳ
Ġï¶ ĺ
Ġé¥ ĳ
Ġâ¢ ¶
Ġâ¢ ¸
Ġâ¢ ģ
Ġâ¢ Ĩ
Ġâ¢ Ĵ
Ġâ® ¤
Ġâ® ¶
Ġâ® ·
Ġâ® º
Ġâ® Ĵ
Ġâ® Ľ
Ġâ® ŀ
Ġæ¿ Ī
Ġæ¿ ĳ
Ġæ¿ Ļ
Ġæ¿ Ľ
Ġæ¿ ŀ
Ġî¹ ½
Ġî¹ ĭ
ĠéĨ £
ĠéĨ ¦
ĠéĨ į
ĠéĨ ŀ
ĠçĬ ¢
ĠçĬ ½
ĠçĬ ĳ
ĠçĬ Ļ
Ġà» ¢
Ġà» ¬
Ġà» ±
Ġæ© ¨
Ġæ© ĸ
Ġæ© ľ
Ġç¸ ¯
Ġç¸ ĵ
Ġç¸ Ĺ
Ġïº §
Ġïº ½
Ġáĳ µ
Ġáĳ ¼
Ġáĳ Ģ
Ġáĳ İ
Ġç¼ §
Ġç¼ ¨
Ġç¼ ±
Ġç¼ İ
Ġç¼ ı
Ġêī ©
Ġêī «
Ġêī ²
Ġêī ¶
Ġêī ¿
Ġêī ŀ
Ġáĺ ª
Ġáĺ ±
Ġáĺ Ĩ
Ġáĺ Į
Ġáĺ ĸ
Ġáĺ Ĺ
ĠîĽ ¤
ĠîĽ Ī
ĠîĽ Ĺ
Ġé¨ ¹
Ġé¨ Ħ
Ġé© ģ
Ġé© ĵ
Ġé© ĸ
Ġé² ¡
Ġé² ĺ
Ġç¦ ¥
Ġç¦ ´
Ġç¦ ·
Ġç¦ Ħ
Ġç¦ Ĺ
Ġç¦ Ļ
Ġç¦ Ŀ
ĠçĲ º
ĠçĲ ģ
ĠçĲ Ŀ
Ġï± ³
Ġï± Ĭ
Ġï± į
Ġï± Ľ
Ġï¹ Į
Ġî¶ º
Ġî¶ Ŀ
ĠçĢ °
ĠçĢ ¶
ĠçĢ Ģ
ĠçĢ ĳ
ĠçĢ ĸ
Ġãĭ ¶
Ġãĭ Ĳ
Ġãĭ Ĵ
ĠãĴ ¨
ĠãĴ Ĥ
ĠãĴ į
ĠãĴ ŀ
Ġî¾ ¿
Ġî¾ ĺ
Ġî¾ ł
Ġïĵ ¤
Ġïĵ ®
Ġïĵ Ĥ
Ġïĵ Ĳ
Ġã³ ¨
Ġã³ ³
Ġã³ ģ
Ġã³ ķ
ĠîĹ ¡
ĠîĹ ¤
ĠîĹ ®
ĠîĹ ¯
ĠîĹ °
ĠîĹ »
ĠîĹ Ĺ
ĠîĹ Ľ
ĠçĪ ³
ĠçĪ ¼
ĠçĪ ¾
ĠçĪ Ģ
ĠçĪ ĭ
Ġê¥ ¡
Ġê¥ ¹
Ġê¥ ¿
Ġê¥ ķ
Ġê¥ Ĺ
Ġã° ¢
Ġã° £
Ġã° ¤
Ġã° ¥
Ġã° ī
Ġã° į
Ġã° ľ
Ġã° ł
Ġà« ¦
Ġà« «
Ġà« Ľ
Ġé« ©
Ġé« »
Ġé« ĩ
Ġé« Ĺ
Ġé« ĺ
Ġé« Ľ
ĠãĬ £
ĠãĬ ¥
ĠãĬ ª
ĠãĬ Ĩ
Ġå¡ ī
Ġå¡ Į
ĠéĬ ©
ĠéĬ ½
ĠéĬ ĭ
ĠéĬ ĳ
Ġê© ¥
Ġê© ī
Ġê© Ľ
Ġå° ¦
Ġå° ¨
Ġå° «
Ġå° ¼
Ġå° Ĥ
Ġå° Į
Ġå° Ĺ
Ġå° ľ
Ġåİ ®
Ġåİ ±
Ġåİ ³
Ġåİ Ĳ
Ġåİ ĺ
Ġäĭ ¢
Ġäĭ »
Ġäĭ ĩ
Ġäĭ ļ
Ġäĭ Ł
Ġã¡ §
Ġã¡ ģ
Ġã¡ Ĥ
Ġã¡ ļ
Ġçĭ «
Ġçĭ ²
Ġçĭ ¸
Ġçĭ ī
Ġçĭ ı
ĠåŃ ©
ĠåŃ «
ĠåŃ Ħ
ĠåŃ ĳ
ĠåŃ ĵ
ĠåŃ ĸ
Ġá« ¡
Ġá« ¨
Ġá« ª
Ġá« °
Ġá« µ
Ġá« ¶
Ġá« ¸
Ġá« ¾
Ġá« Į
Ġá« ĵ
Ġá« Ĺ
Ġá« ľ
ĠáĲ ¨
ĠáĲ ´
ĠáĲ ¸
ĠáĲ ĩ
Ġç½ ¤
Ġç½ ½
Ġç½ ħ
Ġç½ ĺ
Ġæ¬ Į
Ġæ¬ İ
Ġæ¬ ĵ
ĠæĶ ¤
ĠçĨ ¦
ĠçĨ ģ
ĠçĨ Ĥ
ĠçĨ Ĩ
ĠçĨ Ĵ
Ġå£ ¢
Ġå£ ī
Ġå£ ı
Ġå£ Ļ
Ġçĩ «
Ġçĩ ¬
Ġçĩ Ĭ
Ġï³ §
Ġï³ ¨
Ġï³ ¬
Ġï³ Ĩ
Ġï³ Ī
Ġï³ ı
Ġà¬ ©
Ġà¬ Ĩ
Ġà¬ ĩ
Ġà¬ ľ
ĠêĨ ®
ĠêĨ İ
ĠêĨ ļ
ĠáĬ ¦
ĠáĬ ĩ
ĠáĬ į
ĠáĬ Ń
Ġéĺ ®
Ġéĺ ¼
Ġéĺ ĩ
Ġéĺ ķ
Ġéĺ ł
ĠèĽ £
ĠèĽ ®
ĠèĽ Ĵ
ĠïĲ ¡
ĠïĲ İ
Ġáĸ ´
Ġáĸ ¶
Ġáĸ ½
Ġáĸ ħ
Ġáĭ ¨
Ġáĭ º
Ġáĭ Ľ
Ġáĵ §
Ġáĵ Ļ
Ġà¢ ¨
Ġà¢ «
Ġà¢ ½
Ġà¢ ĩ
Ġà¢ Ķ
Ġà¢ ļ
Ġà¢ ľ
Ġà¢ Ŀ
Ġãĸ ·
Ġãĸ ¹
Ġãĸ Ħ
Ġãĸ ħ
Ġãĸ İ
Ġãĸ Ľ
ĠîĪ ¦
ĠîĪ Ģ
ĠîĪ ģ
ĠîĪ Ĥ
ĠîĪ ı
ĠîĪ ĺ
ĠîĪ ł
Ġäĸ º
Ġäĸ ĥ
Ġäĸ Ĭ
ĠêĪ §
ĠêĪ Ħ
ĠêĪ ł
ĠäĹ §
ĠäĹ ±
ĠäĹ ¹
ĠäĹ į
ĠäĹ ı
Ġã¤ ¡
Ġã¤ ¦
Ġã¤ ¨
Ġã¤ «
Ġã¤ °
Ġã¤ »
Ġã¤ ģ
Ġã¤ Į
Ġè³ ¥
Ġè³ ±
Ġè³ ²
Ġè³ Ŀ
Ġè³ Ń
Ġî¸ ¤
Ġî¸ į
Ġî¸ Ĳ
Ġî¸ ķ
Ġî¸ Ŀ
Ġî¸ ŀ
Ġç¥ ¥
Ġç¥ ®
Ġç¥ º
Ġç¥ ħ
ĠïĦ İ
Ġä¦ ¡
Ġä¦ ©
Ġä¦ ²
Ġä¦ ĵ
Ġä¦ ļ
Ġäĩ ¯
Ġäĩ ĳ
Ġäĩ ĵ
Ġäĩ Ļ
Ġäĩ Ł
Ġæ° ¢
Ġæ° µ
Ġæ° į
Ġæ° ļ
Ġæ° Ŀ
Ġæł ¯
Ġæł º
Ġæł Ĥ
Ġî° »
Ġî° ¾
Ġî° ¿
Ġêģ «
Ġêģ º
Ġêģ ĵ
Ġêģ ĸ
Ġáĩ ¡
Ġáĩ Ĳ
Ġáĩ ķ
Ġáĩ ĺ
Ġà® ±
Ġà® ´
Ġà® ĩ
Ġà® Ĭ
ĠãŃ ¯
ĠãŃ ³
ĠãŃ Ĵ
ĠãŃ ļ
ĠåĤ ©
ĠåĤ ¶
ĠåĤ ı
ĠåĤ Ŀ
Ġé¡ §
Ġé¡ ĥ
Ġé¡ Ĭ
ĠïĢ ©
ĠïĢ Ħ
ĠïĢ ĩ
ĠïĢ Ĳ
ĠïĢ ĵ
ĠåĲ ¦
ĠåĲ ª
ĠåĲ ³
ĠåĲ ī
ĠåĲ Į
ĠåĲ ķ
ĠåĲ Ł
Ġï´ ²
Ġï´ ¹
Ġï´ ģ
Ġï´ į
Ġïĺ ¤
Ġïĺ Ĵ
Ġïĺ ĺ
Ġå¬ «
Ġå¬ ±
Ġå¬ ł
Ġáį Ģ
Ġáį ĭ
Ġáį ı
Ġáį Ķ
Ġáį ķ
Ġáį ĸ
Ġáį Ļ
Ġã¬ £
Ġã¬ ©
Ġã¬ ¬
Ġã¬ ĥ
Ġã¬ ı
Ġåĥ İ
Ġé³ °
Ġé³ ±
Ġé³ ¹
Ġé³ į
Ġé³ Ļ
Ġãī ª
Ġãī ¼
Ġãī Ĭ
Ġãī ĺ
Ġç¨ Ī
Ġç¨ Ĳ
ĠåĴ ´
ĠåĴ µ
ĠåĴ º
ĠåĴ ħ
ĠåĴ ļ
Ġá£ ·
Ġá£ ¾
Ġá£ ĥ
Ġá£ Į
Ġá£ ļ
Ġá£ Ŀ
Ġá£ ŀ
ĠéĲ ¢
ĠéĲ ©
ĠéĲ Ĵ
ĠåĨ ¦
ĠåĨ Ĩ
ĠåĨ Ĳ
ĠåĨ ĳ
ĠåĨ ĵ
ĠåĨ ĺ
Ġã¨ ¤
Ġã¨ º
Ġã¨ Ĳ
Ġã¨ ŀ
Ġã¨ Ń
Ġãĩ ħ
Ġãĩ Ī
Ġãĩ ī
Ġãĩ Ĭ
Ġãĩ ĵ
ĠæĪ ¥
ĠæĪ ·
ĠæĪ ¸
ĠæĪ Ĥ
ĠæĪ ĩ
ĠæĪ Ī
ĠãĢ ¢
ĠãĢ §
ĠãĢ ³
ĠãĢ µ
ĠãĢ ¹
ĠãĢ Į
ĠãĢ ĸ
ĠãĢ ļ
Ġîĭ §
Ġîĭ µ
Ġîĭ Ĩ
Ġîĭ Ī
Ġîĭ į
Ġîĭ ľ
ĠåĮ §
ĠåĮ Ĵ
Ġåĸ °
Ġåĸ ¼
Ġåĸ ½
Ġåĸ ı
Ġêĭ ¬
Ġêĭ ¸
Ġêĭ ¼
Ġêĭ ½
Ġç³ «
Ġç³ ī
Ġç³ ĭ
ĠáĮ ¨
ĠáĮ ı
ĠãĹ ¦
ĠãĹ ª
ĠãĹ µ
ĠãĹ »
ĠãĹ Ĩ
ĠãĹ ı
ĠãĹ ľ
ĠãĹ Ł
Ġîĸ ¶
Ġîĸ »
Ġïľ «
Ġïľ ¯
Ġïľ ¶
Ġïľ ¼
Ġïľ Ĩ
ĠéĪ £
ĠéĪ ī
ĠéĪ ļ
Ġç£ ı
Ġç£ ł
Ġå« ¨
Ġå« ¸
Ġå« ī
Ġå« ĵ
ĠïĶ ¸
ĠïĶ ī
ĠïĶ Ĳ
ĠïĶ ķ
ĠïĶ Ŀ
Ġã£ ¤
Ġã£ ±
Ġã£ Ģ
Ġã£ ł
Ġî² §
Ġî² ±
Ġêł µ
Ġêł º
Ġêł Ī
Ġàµ ´
Ġàµ ¶
ĠèĨ ª
ĠèĨ ¯
ĠèĨ Ĥ
ĠèĨ Ĵ
ĠèĨ ĺ
Ġä® Ĭ
Ġä® ĳ
Ġä® Ĺ
Ġä® ĺ
Ġä® Ļ
Ġä® Ľ
Ġéī «
Ġéī ¬
Ġéī ĥ
Ġéī ħ
Ġéī Į
Ġéī Ŀ
Ġéī ł
Ġè² ·
Ġè² ı
Ġè² Ļ
Ġè² ļ
Ġæ¢ ©
Ġæ¢ Ĳ
Ġæ¢ ĳ
Ġæ¢ ļ
Ġè¼ ¥
Ġè¼ ²
Ġè¼ ´
Ġè¼ ¶
Ġè¼ ¹
Ġè¼ Ĥ
Ġè¼ ĥ
Ġè¼ ĺ
ĠãĻ ¿
ĠãĻ Ĭ
ĠãĻ Į
ĠãĻ ĳ
ĠãĻ ľ
Ġêĩ ¬
Ġêĩ ĩ
Ġêĩ Ĭ
Ġêĩ Ł
Ġï¡ ĥ
Ġï¡ İ
ĠãĪ ±
ĠãĪ ĸ
ĠãĪ Ł
Ġåģ ©
Ġåģ ¯
Ġãĺ ©
Ġãĺ °
Ġãĺ ĵ
Ġé¼ ¥
Ġé¼ ¸
Ġé¼ ħ
Ġé¼ ĳ
Ġé¼ ŀ
Ġåŀ ¥
Ġåŀ Ĭ
ĠáĻ ¼
ĠáĻ ¿
ĠáĻ ģ
ĠáĻ ī
Ġà¿ ª
Ġà¿ ĥ
Ġà¿ Ĵ
Ġã« ¶
Ġã« ħ
Ġã« ī
ĠéĤ ³
ĠéĤ ¿
ĠéĦ §
ĠéĦ ·
ĠéĦ ¿
ĠéĦ Ĩ
ĠéĦ ĭ
ĠéĦ ĵ
Ġê¯ «
Ġê¯ ¹
Ġê¯ º
Ġê¯ ½
Ġê¯ ı
Ġê¯ Ĳ
Ġê¯ ĵ
Ġáļ ·
Ġáļ ģ
Ġáļ Ĭ
Ġáļ ĭ
Ġáļ İ
Ġáļ Ĵ
Ġáļ ĺ
Ġáļ ł
Ġå¨ ¡
Ġáī ³
Ġáī ¼
Ġáī į
Ġáī ĸ
Ġáī Ŀ
Ġã¥ ¾
Ġã¥ ĭ
Ġã¥ ĳ
Ġã¥ Ķ
ĠîĨ ¬
ĠîĨ °
ĠîĨ ±
ĠîĨ ħ
ĠîĨ Ĩ
ĠîĨ ĭ
ĠîĨ ĺ
Ġá¥ ¹
Ġá¥ Ĭ
Ġá¥ į
Ġç« Ł
Ġâł «
Ġâł ¹
Ġâł ¼
Ġâł Ī
Ġâł ĺ
Ġâł Ŀ
Ġâł ł
ĠåĦ ±
ĠåĦ ¶
ĠåĦ Ĳ
Ġá¨ ±
Ġá¨ Ĥ
Ġá¨ ĥ
Ġá¨ ħ
Ġá¨ İ
ĠçĤ ¬
ĠçĤ ¸
ĠçĤ Ĩ
ĠçĤ į
ĠçĤ Ł
ĠçĻ «
ĠçĻ Ĩ
ĠçĻ ĭ
ĠçĻ į
ĠçĻ ĵ
ĠáĹ ¥
ĠáĹ ¨
ĠáĹ »
ĠáĹ ħ
ĠáĹ ĳ
ĠáĹ ľ
ĠéĶ §
ĠéĶ µ
Ġáł °
Ġáł ħ
Ġáł ŀ
Ġæ¯ Į
Ġæ¯ Ĵ
Ġæ¯ ļ
Ġæ¯ ľ
Ġæ¯ ŀ
Ġç¬ ¸
Ġç¬ Ľ
ĠáĿ ½
ĠáĿ ¿
ĠáĿ Ķ
Ġçł £
Ġçł ¨
Ġçł ¾
Ġçł ĩ
Ġçł ī
Ġïĭ ¦
Ġïĭ ³
Ġïĭ ¾
Ġïĭ Į
Ġáħ ¥
Ġáħ ½
Ġáħ Ĩ
Ġáħ ĭ
Ġáħ ĸ
ĠáĨ Ĩ
ĠáĨ ĳ
ĠáĨ ĺ
Ġáľ µ
Ġáľ Ģ
Ġáľ ķ
ĠêĢ ·
ĠêĢ Ģ
ĠêĢ Ĺ
ĠêĢ Ŀ
ĠêĻ ¡
ĠêĻ Ŀ
Ġç¤ »
Ġç¤ ½
Ġç¤ Ĩ
Ġç¤ Ĺ
ĠèĪ ¥
ĠèĪ Ģ
ĠèĪ ł
Ġà¼ Ħ
Ġà¼ ķ
Ġà¼ Ł
ĠïŃ ®
ĠïŃ ¼
Ġãł £
Ġãł ©
Ġãł ª
Ġãł ®
Ġãł ¸
Ġãł Ħ
Ġãł ħ
ĠïĽ ĥ
ĠïĽ ĺ
Ġà³ ¤
Ġà³ §
Ġà³ ¼
Ġà³ ½
Ġà³ ¿
Ġà³ ŀ
Ġéķ ¤
Ġéķ §
Ġéķ ¯
Ġéķ ½
Ġéķ ī
Ġéķ į
Ġéķ ľ
Ġçĸ ¿
ĠïĻ °
ĠïĻ ±
ĠïĻ ³
ĠïĻ ¼
ĠïĻ ¿
ĠïĻ ĺ
ĠïĻ ŀ
Ġçĺ ¥
Ġçĺ ¦
Ġçĺ ¬
Ġçĺ Ħ
Ġåł ©
Ġåł ´
Ġåł Ĳ
Ġåł ľ
Ġåł Ŀ
Ġåļ ¨
Ġåļ ©
Ġåļ Ģ
Ġåļ Ŀ
Ġáĥ µ
Ġáĥ ĩ
Ġáĥ Į
Ġáĥ Ĳ
Ġáĥ ķ
Ġáĥ Ļ
Ġáĥ Ŀ
Ġáĥ Ń
Ġà§ ¦
Ġà§ ±
Ġà§ º
Ġà§ ħ
Ġà§ ı
Ġáŀ Ľ
Ġà° £
Ġà° ±
Ġà° ½
Ġà° ŀ
Ġê¦ §
Ġê¦ ¨
Ġê¦ «
Ġê¦ °
Ġê¦ ħ
Ġê¦ Ĭ
Ġê¦ ŀ
Ġê¢ ¥
Ġê¢ ³
Ġê¢ Ĥ
Ġê¢ ħ
Ġê¢ ķ
Ġê¢ Ń
ĠáĪ ¯
ĠáĪ ı
ĠáĪ ĸ
ĠàŃ ¦
ĠàŃ ª
ĠàŃ ¾
ĠàŃ Ľ
Ġà© ª
Ġà© ¯
Ġà© Ń
Ġà¯ »
Ġà¯ ī
ĠáĴ Ĩ
ĠáĴ ĩ
ĠáĴ Ī
ĠáĴ ī
ĠáĴ ĭ
ĠáĴ į
ĠáŃ £
ĠáŃ ©
ĠáŃ ¾
ĠáŃ ĩ
ĠáŃ ī
Ġà· ¡
Ġê£ Ľ
Ġê£ ŀ
Ġê£ Ł
Ġê¨ ¦
Ġê¨ ¿
Ġê¨ ķ
Ġê¨ ļ
ĠçŃ ¼
ĠçŃ Ł
Ġï¬ ¥
Ġï¬ Ģ
Ġï¬ ķ
ĠáĦĨáħ¨áĨ ²
Ġà¥ ©
Ġà¥ ²
Ġà¥ ³
Ġà± ¨
Ġà± ·
ĠáĤ ²
ĠáĤ ¸
ĠáĤ ¾
ĠáĤ ł
Ġá¤ Ī
ĠáĦĨáħ³áĨ ¼
Ġá¬ ¤
Ġá¬ §
Ġá¬ ı
ĠáĦĨáħ¡áĨ ª
ĠáĦĨáħ¡áĨ «
Ġà½ Ħ
Ġà½ Ĭ
Ġà½ İ
Ġï« §
Ġï« ©
Ġï« ¯
Ġï« ±
Ġï« ¸
ĠáĦĬáħ¯áĨ ¨
ĠáĦĬáħ¯áĨ µ
ĠáĢ ĩ
ĠáĢ ĸ
ĠáĢ Ĺ
ĠáĢ ľ
Ġàł ¶
Ġàł Ħ
Ġàł Į
Ġáģ ®
Ġáģ º
Ġáģ ¼
Ġáģ ģ
ĠáĦĥáħ¨áĨ Ń
Ġíŀ ·
Ġíŀ ½
Ġá³ ©
Ġá³ ĥ
Ġâ· Į
Ġâ· Ĳ
ĠáĦĢáħ«áĨ ª
ĠáĦĢáħ«áĨ µ
ĠáĦĢáħ«áĨ ·
ĠáĦĢáħ«áĨ º
ĠáĦĢáħ«áĨ »
ĠáĦĢáħ«áĨ ½
ĠáĦħáħ«áĨ ¶
ĠáĦħáħ«áĨ ¹
ĠáĦħáħ«áĨ »
ĠáĦģáħ£áĨ ¨
ĠáĦģáħ£áĨ °
ĠáĦģáħ£áĨ ³
ĠáĦĭáħ´áĨ Ń
ĠáĦĴáħµáĨ ¯
ĠáĦĴáħµáĨ ¹
ĠáĦĨáħ²áĨ ¨
ĠáĦħáħ¤áĨ ©
ĠáĦħáħ¤áĨ ª
ĠáĦħáħ¤áĨ ¸
ĠáĦħáħ¤áĨ ¹
ĠáĦħáħ¤áĨ »
ĠáĦħáħ¤áĨ ½
ĠáĦħáħ¤áĨ Ń
ĠáĦĭáħ³áĨ ¾
ĠáĦģáħŃáĨ ©
ĠáĦĮáħŃáĨ µ
ĠáĦĳáħ¨áĨ µ
ĠáĦĳáħ§áĨ ¸
ĠáĦĥáħ¦áĨ ¨
ĠáĦĥáħ¦áĨ ©
ĠáĦĴáħ´áĨ ²
ĠáĦĴáħ´áĨ µ
ĠáĦĴáħ´áĨ Ń
ĠáĦĬáħ¨áĨ ©
ĠáĦįáħŃáĨ ®
ĠáĦįáħŃáĨ °
ĠáĦįáħŃáĨ ¹
ĠáĦįáħŃáĨ »
ĠðĿķ ¦
ĠðĿķ ª
ĠáĦĬáħ¥áĨ ¸
ĠáĦĬáħ¥áĨ ½
ĠáĦĭáħ«áĨ ¯
ĠáĦĮáħ®áĨ ¯
ĠáĦĮáħ®áĨ ¾
ĠáĦĬáħ§áĨ ¬
Ġï¸ ĺ
ĠáĦģáħ¤áĨ ³
ĠáĦģáħ¤áĨ µ
ĠáĦģáħ¤áĨ ¾
ĠáĦħáħµáĨ ·
ĠáĦħáħµáĨ Ń
ĠáĦĢáħ°áĨ µ
ĠáĦĢáħ°áĨ »
ĠáĦĢáħ°áĨ Ń
ĠáĦģáħ¦áĨ Ń
ĠáĦĩáħ«áĨ ¨
ĠáĦħáħ¡áĨ ©
ĠáĦħáħ¡áĨ »
ĠáĦħáħ¡áĨ ¼
ĠáĦģáħ«áĨ ©
ĠáĦģáħ«áĨ ¯
ĠáĦĮáħµáĨ ¨
ĠáĦĮáħµáĨ ³
ĠáĦĨáħ±áĨ °
ĠáĦĥáħªáĨ ª
ĠáĦĥáħªáĨ «
ĠáĦĴáħ³áĨ ¹
ĠáĦĴáħ³áĨ »
ĠáĦĮáħ¬áĨ ©
ĠáĦĮáħ¬áĨ ±
ĠáĦĮáħ¬áĨ ·
ĠáĦĢáħ¥áĨ µ
ĠáĦĢáħ¥áĨ ¸
ĠáĦĢáħ¥áĨ ¹
ĠáĦįáħ®áĨ ¨
ĠáĦįáħ®áĨ °
ĠáĦİáħ£áĨ ¸
ĠáĦİáħ£áĨ ¼
ĠáĦİáħ£áĨ ¾
ĠáĦĮáħ¢áĨ ¬
ĠáĦĮáħ¢áĨ ¯
ĠáĦĮáħ¢áĨ ·
ĠáĦĬáħ¤áĨ ©
ĠáĦĬáħ¤áĨ ±
ĠáĦĬáħ¤áĨ Ń
ĠáĦħáħ´áĨ µ
ĠáĦħáħ´áĨ ½
ĠáĦĭáħµáĨ ¶
ĠáĦĭáħµáĨ ¸
ĠáĦĭáħµáĨ ½
ĠáĦĨáħ§áĨ ©
ĠáĦĨáħ§áĨ ®
ĠáĦĭáħ¨áĨ ±
ĠáĦĭáħ¨áĨ ¾
ĠáĦĭáħ¨áĨ ¿
ĠáĦĮáħ²áĨ «
ĠáĦĮáħ²áĨ ¬
ĠáĦĮáħ²áĨ ½
ĠáĦĢáħ¯áĨ ®
ĠáĦĢáħ¯áĨ Ń
ĠáĦħáħ£áĨ ¼
ĠáĦįáħ±áĨ ª
ĠáĦįáħ±áĨ ¯
ĠáĦįáħ±áĨ ¹
ĠáĦįáħ±áĨ ¾
ĠáĦīáħ²áĨ «
ĠáĦīáħ²áĨ ¯
ĠáĦĬáħ³áĨ ¨
ĠáĦĬáħ³áĨ °
ĠáĦĬáħ³áĨ ¶
ĠáĦĬáħ³áĨ º
ĠáĦĬáħ³áĨ ½
ĠáĦĥáħ¢áĨ ²
ĠáĦĩáħ²áĨ ©
ĠáĦĳáħŃáĨ «
ĠáĦĳáħŃáĨ ¾
ĠáĦħáħ¢áĨ ±
ĠáĦħáħ¢áĨ ´
ĠáĦħáħ¢áĨ ·
ĠáĦħáħ¢áĨ ¸
ĠáĦĨáħ´áĨ ¿
ĠáĦĩáħ±áĨ ¨
ĠáĦģáħªáĨ ª
ĠáĦĭáħ®áĨ ¶
ĠáĦĭáħ®áĨ ¼
ĠáĦħáħ¬áĨ ¹
ĠáĦİáħ©áĨ ´
ĠáĦİáħ©áĨ ¹
ĠáĦģáħ¥áĨ ¨
ĠáĦİáħªáĨ ®
ĠáĦİáħªáĨ º
ĠáĦĨáħ«áĨ ¸
ĠáĦĨáħ«áĨ »
ĠáĦĭáħ¢áĨ ¬
ĠáĦĭáħ¢áĨ ¶
ĠáĦīáħ¤áĨ Ń
ĠáĦĪáħµáĨ ¨
ĠáĦĪáħµáĨ »
ĠáĦĬáħ«áĨ ¾
ĠáĦıáħ¬áĨ «
ĠáĦıáħ¬áĨ ²
ĠáĦıáħ¬áĨ º
ĠáĦıáħ¬áĨ ½
ĠáĦĨáħµáĨ «
ĠáĦĬáħ®áĨ ¨
ĠáĦĬáħ®áĨ ²
ĠáĦĬáħ®áĨ ¾
ĠáĦĩáħ°áĨ µ
ĠáĦĩáħ°áĨ ·
ĠáĦĢáħ²áĨ ¬
ĠáĦĢáħ²áĨ ³
ĠáĦĢáħ²áĨ º
ĠáĦİáħ¬áĨ ¿
ĠáĦĴáħ¬áĨ ¯
ĠáĦĴáħ¬áĨ ±
ĠáĦģáħ¢áĨ ¬
ĠáĦģáħ¢áĨ ¹
ĠáĦĨáħŃáĨ ½
ĠáĦĥáħ¥áĨ ²
ĠáĦĥáħ¥áĨ »
ĠáĦĥáħ¥áĨ ¼
ĠáĦĳáħ¥áĨ µ
ĠáĦĳáħ¥áĨ ½
ĠáĦĳáħ¥áĨ ¾
ĠáĦĩáħ´áĨ ª
ĠáĦĦáħ®áĨ ©
ĠáĦĦáħ®áĨ ¯
ĠáĦĦáħ®áĨ ¸
ĠáĦĬáħ¦áĨ ¯
ĠáĦĬáħ¦áĨ ±
ĠáĦĬáħ¦áĨ ³
ĠáĦĬáħ¦áĨ ¹
ĠáĦĮáħ¡áĨ ¯
ĠáĦĮáħ¡áĨ °
ĠáĦĮáħ¡áĨ µ
ĠáĦĮáħ¡áĨ ¸
ĠáĦĮáħ¡áĨ º
ĠáĦĮáħ¡áĨ ½
ĠáĦıáħ£áĨ ¾
ĠáĦįáħ«áĨ ·
ĠáĦįáħ«áĨ »
ĠáĦįáħ«áĨ ¼
ĠáĦįáħ«áĨ Ń
ĠáĦİáħ±áĨ ª
ĠáĦİáħ±áĨ ·
ĠáĦĨáħ¤áĨ ©
ĠáĦĨáħ¤áĨ «
ĠáĦĨáħ¤áĨ ¼
ĠáĦĨáħ¤áĨ Ń
ĠáĦģáħ¯áĨ ´
ĠáĦĬáħ°áĨ ¨
ĠáĦĬáħ°áĨ ½
ĠáĦĪáħ¬áĨ °
ĠáĦģáħ§áĨ ª
ĠáĦģáħ§áĨ ¬
ĠáĦģáħ§áĨ ¯
ĠáĦģáħ§áĨ ½
ĠáĦĭáħ¦áĨ Ń
ĠáĦĳáħ¤áĨ »
ĠáĦĳáħ¤áĨ ½
ĠáĦĬáħ©áĨ ¶
ĠáĦīáħ´áĨ ¨
ĠáĦīáħ´áĨ °
ĠáĦīáħ´áĨ µ
ĠáĦĪáħŃáĨ °
ĠáĦĪáħŃáĨ ¶
ĠáĦĭáħ²áĨ ¶
ĠáĦĭáħ²áĨ ¼
ĠáĦĭáħ²áĨ ¿
ĠáĦĭáħ£áĨ ®
ĠáĦĭáħ£áĨ ±
ĠáĦĭáħ£áĨ ¼
ĠáĦĪáħªáĨ ½
ĠáĦĪáħªáĨ ¿
ĠáĦĮáħ³áĨ «
ĠáĦĮáħ³áĨ ¸
ĠáĦĮáħ³áĨ ¾
ĠáĦĥáħ£áĨ ®
ĠáĦĩáħ©áĨ °
ĠáĦĩáħ©áĨ ¸
ĠáĦıáħ©áĨ º
ĠáĦĲáħ¢áĨ °
ĠáĦĲáħ¢áĨ ·
ĠáĦĲáħ¢áĨ ¼
ĠáĦĮáħ¥áĨ ¨
ĠáĦģáħ¬áĨ ®
ĠáĦģáħ¬áĨ ¶
ĠáĦģáħ¬áĨ ¹
ĠáĦģáħ¬áĨ »
ĠáĦīáħ£áĨ ¬
ĠáĦīáħ£áĨ ¯
ĠáĦīáħ£áĨ ¿
ĠáĦīáħ£áĨ Ń
ĠáĦģáħ¡áĨ ¾
ĠáĦĭáħ°áĨ °
ĠáĦĴáħ±áĨ ³
ĠáĦĴáħ±áĨ ¶
ĠáĦĴáħ±áĨ º
ĠáĦĴáħ±áĨ ¿
ĠáĦįáħ¬áĨ ¾
ĠáĦĳáħ¡áĨ ©
ĠáĦĳáħ¡áĨ ¬
ĠáĦĳáħ¡áĨ ¶
ĠáĦİáħµáĨ ±
ĠáĦģáħ®áĨ ´
ĠáĦģáħ®áĨ µ
ĠáĦģáħ®áĨ ¹
ĠáĦģáħ®áĨ º
ĠáĦĮáħ£áĨ ´
ĠáĦĮáħ£áĨ ¶
ĠáĦħáħ¥áĨ ®
ĠáĦħáħ¥áĨ ²
ĠáĦħáħ¥áĨ µ
ĠáĦħáħ¥áĨ Ń
ĠáĦĭáħŃáĨ µ
ĠáĦĭáħ±áĨ ¹
ĠáĦĩáħªáĨ ·
ĠáĦİáħ¡áĨ º
ĠáĦĳáħ±áĨ ¹
ĠáĦĳáħ±áĨ Ń
Ġð¥ īī
ĠáĦĮáħ§áĨ º
ĠáĦįáħ°áĨ ª
ĠáĦįáħ°áĨ ½
ĠáĦįáħ°áĨ Ń
ĠáĦıáħ¡áĨ ³
ĠáĦıáħ¡áĨ ´
ĠáĦıáħ¡áĨ ¸
ĠáĦıáħ¡áĨ ½
ĠáĦģáħ©áĨ µ
ĠáĦĪáħ´áĨ °
ĠáĦĪáħ´áĨ ·
ĠáĦĦáħ¯áĨ ª
ĠáĦĦáħ¯áĨ µ
ĠáĦĦáħ¯áĨ ¸
ĠáĦĦáħ±áĨ ¶
ĠáĦĦáħ±áĨ ·
ĠáĦĦáħ±áĨ ¼
ĠáĦĦáħ±áĨ ¾
ĠáĦĳáħ©áĨ ¯
ĠáĦĪáħ¢áĨ °
ĠáĦĪáħ¢áĨ ·
ĠáĦĬáħ±áĨ ¯
ĠáĦĬáħ±áĨ ±
ĠáĦįáħ³áĨ µ
ĠáĦĤáħ¢áĨ µ
ĠáĦģáħ°áĨ ³
ĠáĦģáħ°áĨ ´
ĠáĦĳáħ³áĨ ¹
ĠáĦĳáħ³áĨ º
ĠáĦĦáħŃáĨ ´
ĠáĦĦáħŃáĨ ¿
ĠáĦĮáħ¯áĨ ª
ĠáĦĮáħ¯áĨ º
ĠáĦĮáħ¯áĨ »
ĠáĦĳáħ£áĨ ²
ĠáĦīáħ±áĨ ¨
ĠáĦīáħ±áĨ µ
ĠáĦīáħ±áĨ ¶
ĠáĦīáħ±áĨ »
ĠáĦĥáħŃáĨ ®
ĠáĦĥáħŃáĨ ¹
ĠáĦīáħ¢áĨ ª
ĠáĦīáħ¢áĨ ¬
ĠáĦīáħ¢áĨ ¶
ĠáĦīáħ¢áĨ Ń
ĠáĦĮáħ´áĨ °
ĠáĦĢáħŃáĨ ±
ĠáĦİáħŃáĨ ±
ĠáĦİáħŃáĨ ·
ĠáĦİáħŃáĨ Ń
ĠáĦīáħ§áĨ ¹
ĠáĦıáħ¨áĨ Ń
ĠáĦįáħ§áĨ ª
ĠáĦįáħ§áĨ ¼
ĠáĦįáħ§áĨ ¿
ĠáĦĨáħ¢áĨ ¼
ĠáĦĨáħ¢áĨ Ń
ĠáĦĮáħ©áĨ ¯
ĠáĦĮáħ©áĨ ³
ĠáĦĮáħ©áĨ Ń
ĠáĦĳáħ¬áĨ ¶
ĠáĦĪáħ£áĨ ª
ĠáĦĪáħ£áĨ ¾
ĠáĦĢáħ¬áĨ °
ĠáĦĢáħ¬áĨ ¹
ĠáĦĢáħ¬áĨ º
ĠáĦĢáħ±áĨ ¿
ĠáĦĩáħ¤áĨ µ
ĠáĦĩáħ¤áĨ ¸
ĠáĦĩáħ¤áĨ ½
ĠáĦĩáħ¤áĨ Ń
ĠáĦīáħ°áĨ ¯
ĠáĦĲáħ£áĨ ·
ĠáĦĲáħ£áĨ ¸
ĠáĦĲáħ£áĨ ¹
ĠáĦĲáħ£áĨ ¾
ĠáĦĮáħ¨áĨ º
ĠáĦĩáħ£áĨ ¬
ĠáĦĩáħ£áĨ ¸
ĠáĦĨáħ¦áĨ ¬
ĠáĦĨáħ¦áĨ ¹
ĠáĦĢáħ³áĨ ±
ĠáĦĢáħ³áĨ »
ĠáĦįáħ¦áĨ ´
ĠáĦįáħ¦áĨ ¾
ĠáĦĴáħ¢áĨ ®
ĠáĦħáħ°áĨ µ
Ġà£ ¢
Ġà£ Ħ
Ġà£ ħ
Ġà£ Ī
Ġà£ ĭ
ĠáĦĮáħ±áĨ ±
ĠáĦĥáħ¡áĨ µ
ĠáĦĢáħ´áĨ «
ĠáĦĢáħ´áĨ ¿
ĠáĦĳáħ²áĨ ¹
ĠáĦĪáħ¯áĨ ª
ĠáĦĪáħ¯áĨ ¹
ĠáĦĪáħ¯áĨ »
ĠáĦıáħ²áĨ ¶
ĠáĦĨáħ®áĨ ¬
ĠáĦĨáħ®áĨ ´
ĠáĦĨáħ®áĨ ¾
ĠáĦĴáħ°áĨ ®
ĠáĦĴáħ°áĨ ½
ĠáĦĬáħ¡áĨ Ń
ĠáĦĭáħ¡áĨ º
ĠáĦĭáħ¡áĨ »
ĠáĦĭáħ¡áĨ ¿
ĠáĦīáħªáĨ ¸
ĠáĦīáħªáĨ ¹
ĠáĦīáħ¥áĨ °
ĠáĦīáħ¥áĨ ¶
ĠáĦīáħ¥áĨ ¹
ĠáĦīáħ¥áĨ »
ĠáĦĪáħ¥áĨ ´
ĠáĦĪáħ¥áĨ ¿
ĠáĦıáħŃáĨ ©
ĠáĦıáħŃáĨ °
ĠáĦıáħŃáĨ ²
ĠáĦıáħŃáĨ ¸
ĠáĦıáħŃáĨ ¼
ĠáĦıáħŃáĨ ½
ĠáĦıáħŃáĨ ¾
ĠáĦĭáħ©áĨ ±
ĠáĦĭáħ©áĨ ·
ĠáĦĭáħ¯áĨ ±
ĠáĦįáħ¨áĨ ¬
ĠáĦįáħ¨áĨ ³
ĠáĦīáħ¬áĨ ª
ĠáĦīáħ¬áĨ ¶
ĠáĦĬáħ¢áĨ ©
ĠáĦĬáħ¢áĨ ¼
ĠáĦĦáħ¨áĨ º
ĠáĦįáħ¡áĨ °
ĠáĦİáħ¢áĨ ¯
ĠáĦİáħ¢áĨ ±
ĠáĦİáħ¢áĨ º
ĠáĦİáħ¢áĨ »
ĠáĦĪáħ¡áĨ ®
ĠáĦĪáħ¡áĨ µ
ĠáĦĲáħ¡áĨ ª
ĠáĦĲáħ¡áĨ º
ĠáĦĲáħªáĨ µ
ĠáĦĲáħªáĨ ¿
ĠáĦįáħ¤áĨ ®
ĠáĦįáħ¤áĨ ¼
ĠáĦĪáħ¨áĨ ¨
ĠáĦıáħ«áĨ µ
ĠáĦįáħ´áĨ «
ĠáĦįáħ´áĨ ®
ĠáĦįáħ´áĨ °
ĠáĦĩáħŃáĨ º
ĠáĦĨáħ£áĨ ¹
ĠáĦĨáħ£áĨ º
ĠáĦħáħ¯áĨ ©
ĠáĦħáħ¯áĨ ±
ĠáĦħáħ¯áĨ ³
ĠáĦģáħ¨áĨ «
ĠáĦģáħ¨áĨ ±
ĠáĦģáħ¨áĨ ³
ĠáĦĭáħ§áĨ °
ĠáĦĭáħ¤áĨ °
ĠáĦĳáħ¯áĨ ¸
ĠáĦĤáħ´áĨ ´
ĠáĦĤáħ´áĨ ¶
ĠáĦĤáħ´áĨ º
ĠáĦĳáħ«áĨ ®
ĠáĦĳáħ«áĨ °
ĠáĦİáħ«áĨ ª
ĠáĦİáħ«áĨ ²
ĠáĦİáħ«áĨ µ
ĠáĦİáħ«áĨ ½
ĠáĦħáħ¦áĨ ª
ĠáĦħáħ¦áĨ ®
ĠáĦħáħ¦áĨ »
ĠáĦĮáħªáĨ ¬
ĠáĦĮáħªáĨ ¿
ĠáĦĮáħ¦áĨ ª
ĠáĦĤáħ³áĨ °
ĠáĦĤáħ³áĨ ²
ĠáĦĥáħ«áĨ ¼
ĠáĦĢáħ§áĨ ©
ĠáĦĢáħ§áĨ ¬
ĠáĦĢáħ§áĨ ¾
ĠáĦĩáħ¡áĨ «
ĠáĦĩáħ¡áĨ º
ĠáĦĩáħ¡áĨ Ń
ĠáĦĴáħ¤áĨ ³
ĠáĦĴáħ¤áĨ ´
ĠáĦĴáħ¦áĨ ¹
ĠáĦīáħ«áĨ ±
ĠáĦīáħ«áĨ ¾
ĠáĦħáħ§áĨ ©
ĠáĦħáħ§áĨ ª
ĠáĦħáħ§áĨ µ
ĠáĦħáħ§áĨ ¿
ĠáĦıáħ¢áĨ ª
ĠáĦıáħ¢áĨ ²
ĠáĦĲáħ¨áĨ ´
ĠáĦĲáħ¨áĨ ¿
ĠáĦĥáħ¤áĨ ¬
ĠáĦĥáħ¤áĨ ´
ĠáĦĥáħ¤áĨ »
ĠáĦįáħ©áĨ ¾
ĠáĦıáħ°áĨ ¬
ĠáĦıáħ°áĨ ±
ĠáĦıáħ°áĨ Ń
ĠáĦĤáħ¤áĨ °
ĠáĦĢáħ¢áĨ «
ĠáĦĢáħ¢áĨ ¯
ĠáĦĢáħ¢áĨ ±
ĠáĦĢáħ¢áĨ ·
ĠáĦĢáħ¢áĨ ¸
ĠáĦĢáħ¤áĨ ®
ĠáĦĢáħ¤áĨ °
ĠáĦĢáħ¤áĨ º
ĠáĦĢáħ¤áĨ ¼
ĠáĦĨáħªáĨ ³
ĠáĦĬáħ£áĨ µ
ĠáĦĬáħ£áĨ ¹
ĠáĦĬáħ£áĨ ¾
ĠáĦĩáħ³áĨ «
ĠáĦĩáħ³áĨ ¬
ĠáĦĩáħ³áĨ ½
ĠáĦĩáħ®áĨ ©
ĠáĦĩáħ®áĨ ¹
ĠáĦĩáħ®áĨ »
ĠáĦĩáħ®áĨ ½
ĠáĦĴáħªáĨ ³
ĠáĦīáħ¦áĨ °
ĠáĦīáħ¦áĨ ²
ĠáĦħáħ®áĨ ª
ĠáĦħáħ®áĨ ¬
ĠáĦħáħ®áĨ µ
ĠáĦĭáħªáĨ ¿
ĠáĦįáħ£áĨ ©
ĠáĦįáħ£áĨ «
ĠáĦįáħ£áĨ ³
ĠáĦīáħ¨áĨ ®
ĠáĦīáħ¯áĨ ·
ĠáĦīáħ¯áĨ ½
ĠáĦīáħ¯áĨ ¿
ĠáĦĪáħ«áĨ ¨
ĠáĦĦáħ²áĨ ª
ĠáĦĦáħ²áĨ °
ĠáĦħáħ±áĨ ¾
ĠáĦĢáħ¡áĨ Ń
ĠáĦįáħ¥áĨ ©
ĠáĦįáħ¥áĨ »
ĠáĦįáħ¥áĨ ¾
ĠáĦĦáħ«áĨ ª
ĠáĦĦáħ«áĨ µ
ĠáĦĦáħ«áĨ ·
ĠáĦĦáħµáĨ ª
ĠáĦĢáħ¨áĨ ¨
ĠáĦĢáħ¨áĨ ¼
ĠáĦĳáħ¢áĨ ¨
ĠáĦĳáħ¢áĨ °
ĠáĦĳáħ¢áĨ ´
ĠáĦĳáħ¢áĨ »
ĠáĦĥáħ®áĨ ¨
ĠáĦįáħ¢áĨ ¶
ĠáĦįáħ¢áĨ ¼
ĠáĦīáħ¡áĨ ³
ĠáĦĦáħ´áĨ «
ĠáĦĦáħ´áĨ ®
ĠáĦĦáħ´áĨ º
ĠáĦĦáħ´áĨ ¿
ĠáĦĤáħ²áĨ ²
ĠáĦĤáħ²áĨ ´
ĠáĦĤáħ²áĨ ¹
ĠáĦĤáħ²áĨ ¼
ĠáĦĤáħ£áĨ ¾
ĠáĦĮáħ°áĨ ®
ĠáĦĮáħ°áĨ ¾
ĠáĦįáħµáĨ ·
ĠáĦĳáħ°áĨ ¨
ĠáĦĳáħ°áĨ °
ĠáĦĳáħ°áĨ ´
ĠáĦĪáħ©áĨ ª
ĠáĦĪáħ©áĨ ¶
ĠáĦĪáħ©áĨ ¼
ĠáĦĪáħ©áĨ ¿
ĠáĦĲáħ§áĨ ª
ĠáĦĲáħ§áĨ «
ĠáĦĲáħ§áĨ µ
ĠáĦİáħ³áĨ ´
ĠáĦĴáħ«áĨ ®
ĠáĦĴáħ«áĨ º
ĠáĦıáħ¦áĨ ©
ĠáĦĢáħ£áĨ ®
ĠáĦĢáħ£áĨ °
ĠáĦĢáħ£áĨ ¾
ĠáĦįáħªáĨ Ń
ĠáĦĩáħ¬áĨ ±
ĠáĦĦáħ§áĨ ¸
ĠáĦĦáħ§áĨ ¼
ĠáĦĨáħ¬áĨ ¬
ĠáĦĨáħ¬áĨ ®
ĠáĦĨáħ¬áĨ ¼
ĠáĦĮáħ«áĨ «
ĠáĦĮáħ«áĨ ½
ĠáĦİáħ¥áĨ ª
ĠáĦĭáħ¥áĨ ¯
ĠáĦĭáħ¥áĨ °
ĠáĦĭáħ¥áĨ ¼
ĠáĦĮáħ¤áĨ ¶
ĠáĦĮáħ¤áĨ ·
ĠáĦĴáħ²áĨ ´
ĠáĦĴáħ²áĨ ½
ĠáĦīáħµáĨ ¿
ĠáĦĲáħµáĨ ©
ĠáĦĲáħµáĨ ª
ĠáĦĲáħµáĨ ¯
ĠáĦĲáħµáĨ º
ĠáĦĤáħ¡áĨ ¼
ĠáĦĦáħ©áĨ º
ĠáĦĦáħ¥áĨ ®
ĠáĦĦáħ¥áĨ ¿
ĠáĦĢáħ¦áĨ ¯
ĠáĦĢáħ¦áĨ Ń
ĠáĦİáħ¦áĨ ¬
ĠáĦİáħ¦áĨ ®
ĠáĦİáħ¦áĨ ¸
ĠáĦİáħ¦áĨ º
ĠáĦĦáħ£áĨ °
ĠáĦĦáħ£áĨ ±
ĠáĦĦáħ£áĨ ¸
ĠáĦĬáħªáĨ ª
ĠáĦĬáħªáĨ °
ĠáĦĬáħªáĨ ¸
ĠáĦĬáħªáĨ ¹
ĠáĦĳáħªáĨ «
ĠáĦĪáħ±áĨ ¶
ĠáĦıáħ¥áĨ ³
ĠáĦİáħ´áĨ ¼
ĠáĦĪáħ§áĨ «
ĠáĦĦáħ¦áĨ »
ĠáĦĲáħ®áĨ ¬
ĠáĦĲáħ®áĨ ®
ĠáĦĲáħ®áĨ ¾
ĠáĦıáħµáĨ Ń
ĠáĦĦáħªáĨ ¨
ĠáĦģáħµáĨ «
ĠáĦİáħ¤áĨ ¨
ĠáĦİáħ¤áĨ º
[...]
